#version: 0.2
Ġ Ð
Ð ¾
Ð °
Ð µ
Ñ Ĥ
Ð ¸
Ñ ģ
Ð »
Ð ½
Ñ Ģ
Ð¾ Ð
Ñ ĥ
Ð° Ð
Ñ ı
Ñ Į
Ðµ Ð
ĠÐ ¿
Ñ ĭ
ĠÐ ½
Ġ Ñģ
ĠÐ ²
Ð º
Ñ ĩ
Ð ²
Ð ´
ÑĤ Ð¾
ĠÐ ¾
Ð ¼
ĠÐ ¸
Ñ Ī
Ð° Ð»
ĠÐ º
Ñ ħ
Ñģ ÑĤ
Ðµ Ð½
ĠÐ ¼
Ġ ÑĤ
ĠÐ ´
Ð¾Ð ²
Ðµ ÑĢ
³ Ð¾
ÑĤ ÑĮ
ĠÐ ±
Ð½ Ð¾
Ðµ Ð»
Ñ İ
Ð¾Ð ¼
ĠÐ¿ ÑĢ
Ð¸ Ð»
Ðµ ÑĤ
Ð°Ð º
Ġ Ñĩ
ĠÐ ·
ĠÐ½ Ðµ
Ñģ Ñı
Ġ Ñĥ
Ð ¿
ĠÐ¿ Ð¾
Ġ -
Ð ±
ĠÐ½ Ð°
Ġ ÑĢ
Ð ·
Ð¾ Ð»
Ð¾Ð ´
Ð½ Ð¸
Ñģ ÑĮ
Ð ¶
Ð¾Ð ¹
ĠÐ µ
Ð½ Ð°
ÐµÐ ¼
Ð½ Ñĥ
Ð°Ð ·
Ð ³
Ð°Ð ¼
Ġ Ñ
Ð°Ð ²
Ð ¹
Ñ ī
. .
ÑĢ Ð°
Ð» Ð¸
Ð¾ ÑĤ
ĠÑĩ ÑĤÐ¾
Ð½ Ñĭ
Ð¾ ÑĢ
Ñ Ĩ
Ð¸ Ð²
ÐµÐ ´
ĠÐ¾ ÑĤ
Ð¾Ð ³
ĠÐ »
ĠÐ± Ñĭ
Ð» Ð°
Ġ Ñı
Ð¾ Ñģ
Ð° ÑĢ
Ð¸ ÑĤ
Ð° ÑĤÑĮ
ĠÑ į
Ð¾Ð ±
ĠÐ ³
ÐµÐ ¹
Ñ ĳ
Ð¾Ð ¶
Ð¾Ð º
Ð°Ð ´
Ðº Ð¸
Ð´ Ð°
Ð½ Ðµ
ĠÐ Ŀ
Ð° Ñģ
Ð¾Ð ³Ð¾
ĠÐ² Ñģ
Ð°Ð» Ð°
Ðº Ð°
ĠÐ ¶
ÐµÐ ±
ÑĢ Ñĥ
ÐµÐ ²
Ð¸ Ð¼
Ð ³Ð¾
Ð° Ð½
Ð¸ Ð½
Ð° Ñı
Ð» Ð¾
Ðº Ð¾
Ð» Ñı
ĠÐ² Ñĭ
ĠÐº Ð°Ðº
Ð² Ð¾
ĠÐ· Ð°
Ġ Ñħ
ÐµÐ½ Ð¸
ĠÐ ¡
Ġ ÑĤÐ¾
ĠÐ Ķ
ĠÐ¾ Ð½
ĠÐ¿ Ð¾Ð´
Ðº Ñĥ
ĠÐ¿ÑĢ Ð¸
ÐµÐ ³Ð¾
ĠÐ¾ Ð±
Ð¸ ÑĤÑĮ
ĠÐ °
ĠÑģ ÑĤ
ĠÐ ¢
ĠÐ Ł
ĠÐ ļ
ĠÐ ŀ
ĠÑĤ Ð°Ðº
ĠÐ Ĵ
.. .
Ð°Ð ¶
Ð° ÑĤ
Ð¸Ð» Ð°
Ð¾Ð ·
Ð¾Ð» ÑĮ
ĠÐµ Ð³Ð¾
ÑĢ Ð¸
ÐµÐ º
ÑĢ Ñĭ
Ðµ Ñģ
ÐµÐ ·
Ð¾ Ð½
ĠÐ ľ
Ðµ ÑĪ
ĠÑį ÑĤÐ¾
ĠÑģ Ð»
ĠÐ ³Ð¾
ĠÐ½ Ð¾
ĠÑĢ Ð°Ð·
ÑĪ Ð¸
Ð¸ Ð´
ĠÐ¸ Ð·
ÑģÑĤ Ð²
Ñĥ Ð´
ĠÐ Ĳ
ÑĢ Ð¾
ÑĤ Ð¸
ĠÑģ Ð¿
ĠÐ ¯
Ð°Ð» Ð¸
ÐµÐ½ Ñı
Ð½ Ñı
Ð½Ñĥ Ð»
ÐµÐ ¿
ĠÐº Ð¾
Ð° ÐµÑĤ
Ð» ÑĮ
ĠÐ½ Ð¸
Ð¾Ð ¿
Ð°Ð ¹
ÐµÐ» ÑĮ
Ð°Ð ¿
ĠÑģ Ðº
Ðµ ÑģÑĤ
Ð¾ Ñĩ
ĠÐ ĺ
Ñĥ Ð¼
ĠÑĤ Ñĭ
ĠÐ¼ ÐµÐ½Ñı
Ð° Ñİ
Ð°Ð ±
ĠÐ²Ñģ Ðµ
Ð°Ð» ÑĮ
Ð°Ð¼ Ð¸
Ðµ Ñĩ
ĠÐ¿ ÐµÑĢ
Ñĥ ÑĪ
Ñ Ħ
Ð¾Ð³ Ð´Ð°
ÐµÐ½ ÑĮ
ĠÐ¿ÑĢ Ð¾
ĠÑģ Ð²Ð¾
ÑģÑĤ ÑĮ
ÐµÐ± Ñı
ĠÐ» Ð¸
Ñĥ ÑĤ
ĠÐ¶ Ðµ
ĠÑģ Ð¼
ĠÐ¿Ð¾ Ñģ
Ġ ÑĪ
ÐµÐ ³
Ð½ Ð¾Ð¹
ĠÑį ÑĤ
ĠÑĢ Ñĥ
Ð¶ Ðµ
ĠÐ³ Ð»
ÐµÐ ¶
Ñĭ Ð²
Ð½Ñĭ Ð¹
ĠÐ¾ Ð½Ð°
ĠÑģ ÑĤÐ¾
Ñĥ Ñĩ
Ñģ Ðº
Ñī Ðµ
Ð» Ñĭ
Ð¼ Ð¸
ÐµÐ½ Ð½Ð¾
ĠÐ² Ð·
Ð½ Ð¾Ð³Ð¾
ĠÐ¾ Ð´
ÑĢÑĥ Ð³
Ð°Ð» Ð¾
ÐµÐ» Ð°
Ð¸ Ñħ
ĠÐ±Ñĭ Ð»Ð¾
Ð°Ð ³
ĠÐ¼ Ð½Ðµ
Ð¾Ð¼ Ñĥ
Ð¸Ð» Ð¸
Ñĥ Ð¶
Ñ į
Ð°Ð» ÑģÑı
ÑĢ Ð¾Ñģ
ÑĪ Ðµ
ĠÐºÐ¾ ÑĤÐ¾
ĠÐ³Ð¾ Ð»
Ð² ÐµÑĢ
ĠÐ Ľ
Ñħ Ð¾Ð´
ÑĢ Ð¾Ð²
ĠÐ Ń
ÐµÑĪ ÑĮ
ĠÐ¿Ð¾ Ð»
Ñĩ Ð¸
ÑģÑĤ Ð¸
ÑĢ Ð°Ð²
Ð½Ð¸ Ð¼
Ð½Ñĥ Ð»Ð°
ĠÐ ĳ
Ñĥ Ñİ
ĠÐ± ÑĥÐ´
ÐµÐ± Ðµ
ÑģÑĤ Ð°Ð²
Ð¸Ð» ÑģÑı
Ð´ Ðµ
ÑĢ Ñı
ĠÐ ĵ
Ð¸ Ð·
ĠÑģ Ð°Ð¼
Ð² ÐµÑĤ
Ð½Ñĭ Ðµ
ĠÐ ł
Ð¼ Ñĥ
ĠÑĥ Ð¶Ðµ
Ð»ÑĮ ÐºÐ¾
ĠÐ §
ĠÐ³Ð» Ð°Ð·
ĠÑĢ Ð°Ñģ
Ð¾Ð² Ð¾ÑĢ
Ð¸ Ñģ
Ð° Ð½Ð¸
ĠÐ¼ Ð¾
ĠÐ´ Ð¾
ĠÐ ¥
Ð½ Ð¾Ð²
ĠÐ¼ Ñĭ
ÐµÐ¼ Ñĥ
ĠÐ¿Ð¾ ÑĤ
Ñĭ Ð¹
ĠÐ¿ Ð°ÑĢ
ĠÐ» Ñİ
ĠÐ¿ Ð¾Ðº
Ñģ Ð»Ð¸
Ð³ Ð»Ñı
ÑĪ ÑĮ
ĠÐ´ ÐµÐ²
ĠÐ¿ÑĢ Ð¾Ñģ
Ð¾ ÑĪ
Ñģ Ð¿
Ð» Ñİ
Ðº Ðµ
Ñĥ Ð±
Ñı ÑĤ
Ð½Ñĭ Ð¼
Ð° Ñħ
Ñĩ Ð½Ð¾
Ð¾Ð± Ñĭ
ÐµÐ½Ð¸ Ðµ
ĠÑĤÐ¾ Ð»ÑĮÐºÐ¾
ĠÐ± Ð¾Ð»ÑĮ
Ð¾ÑĤ ÑĢ
ÑĢ ÐµÐ¼
ÐµÐ» Ð¸
Ð°ÑĤÑĮ ÑģÑı
ĠÑģÐº Ð°Ð·
Ñī Ð¸
ĠÐŀ Ð½
ĠÐ±Ñĭ Ð»
ĠÐ Ĺ
Ð Ŀ
Ġ "
ÐµÐ½Ð¸ Ñı
Ð» Ðµ
ÑĤ Ð°
ĠÐ· Ð½Ð°
ĠÐº Ð¾Ð³Ð´Ð°
ĠÐ £
Ð¸Ð» Ð¾
ĠÐ¼ Ð¾Ð³
ĠÐĿ Ð¾
ĠÑĤ ÐµÐ±Ñı
Ñĥ Ð¿
ÑĨ Ð¸
ÐµÐ» Ð¾
ĠÑ Ħ
ĠÐ´ ÑĢÑĥÐ³
Ð ŀ
Ð°Ð¶ Ðµ
ĠÐµ Ðµ
Ð»Ñĭ Ð±
Ð´ Ñĥ
Ðº Ð¾Ð¹
Ð½Ð° Ñı
ĠÑĩ ÑĤ
ĠÐ¼ Ð¾Ð¶
ÐµÑĤ ÑģÑı
ĠÐ ķ
Ð½ÑĥÐ» ÑģÑı
Ð½Ð¾ Ðµ
ĠÐ² Ð¾Ð·
ĠÑĥ Ð»ÑĭÐ±
Ð³Ð»Ñı Ð´
ĠÐ³Ð¾Ð» Ð¾Ð²
ĠÑģ Ð¾
Ð°Ð»Ð° ÑģÑĮ
ĠÑĥ Ð´
ĠÐ½ Ð°Ð¿
ĠÐ½ Ð°Ð´
ĠÑĩÑĤ Ð¾Ð±Ñĭ
ĠÐ¿ Ð¾Ð¼
Ð¸Ð»Ð° ÑģÑĮ
ĠÐ² Ð¸Ð´
ĠÐ¾ Ñĩ
ĠÑĩ Ñĥ
ĠÐ»Ñİ Ð±
ĠÑħ Ð¾ÑĤ
Ð Ł
ĠÐµ Ð¼Ñĥ
Ð Ĵ
Ðº Ð¾Ð¼
ĠÐ· Ð°Ðº
ĠÐ¢ Ñĭ
ĠÐ´ÐµÐ² ÑĥÑĪ
ĠÑģ ÐµÐ±Ñı
ĠÐµ ÑīÐµ
Ðµ Ñħ
ĠÐ½Ð° Ñģ
Ð¸ ÑĢ
Ð¸ÑĤ ÐµÐ»ÑĮ
ĠÐ· Ð°Ð¼
ĠÑģ Ð¾Ð±
ĠÐ¾ Ð¿
ĠÐ¿ÑĢÐ¾Ñģ ÑĤÐ¾
ĠÑģ Ð²
ĠÐ¾ ÑģÑĤ
ĠÐĶ Ð¶
Ñĭ ÑĤ
Ð¸Ð» ÑĮ
ĠÐ¿ÑĢ ÐµÐ´
ĠÐ¿ Ð¾Ð²
ĠÐĿ Ðµ
Ñĩ Ð°Ñģ
Ð½Ñĭ Ñħ
ĠÐ´ Ð°Ð¶Ðµ
ĠÐºÐ¾ÑĤÐ¾ ÑĢÑĭ
Ð ¡
ÑĤÐ¾ ÑĢ
ĠÐ¿Ð¾ Ñĩ
ĠÐº Ð¾Ð¼
ĠÐ¾ Ð½Ð¸
ÑĤÑĮ ÑģÑı
ĠÐ¸ Ð¼
Ð½Ñĥ Ñİ
ĠÐ² ÑĢÐµÐ¼
ÐµÑĢ ÑĮ
Ð´ Ð¸
ÑĢÐ° Ñģ
ĠÑģ Ð´
ĠÐº Ñĥ
ĠÐ³Ð»Ð°Ð· Ð°
ÐµÐ¹ ÑĩÐ°Ñģ
Ð¾Ð» Ð¶
ĠÐ¾ Ñģ
ĠÐ½Ð¸ Ðº
ĠÑģÐ» Ð¾Ð²
ÑĪÐ¸ ÑģÑĮ
ĠÐ²Ñģ Ñĳ
ĠÐ½ ÐµÐ³Ð¾
ÑĨ Ð°
ÑĢ Ð°Ð·
ĠÑ Ĩ
ĠÐµ Ñĳ
ĠÐ´ Ð²
ĠÐ¸ Ñħ
Ð¾ Ðµ
ÑĢÐ° ÑĤ
ĠÐ½Ð° Ñĩ
ÑĢ Ð¾Ð¼
ĠÐ¿ Ð»
Ðµ ÑĤÑĮ
ĠÐ¿ Ð¾Ð¿
Ð°Ð»Ð¾ ÑģÑĮ
ĠÐ¾ Ðº
Ð² ÑģÑĤÐ²
Ð½Ñĥ ÑĤ
Ñĭ Ñħ
Ð Ķ
Ð¸ Ðµ
ĠÐ± ÐµÐ·
ĠÐĶ Ð°
Ð¾Ð»ÑĮ ÐºÐ¾
Ð¸ÑĤÑĮ ÑģÑı
Ð°ÐµÑĤ ÑģÑı
ÑĢÐ° Ð½
Ð ļ
ĠÐ² Ð¾
Ñĭ Ðµ
Ñĩ ÐµÐ³Ð¾
Ð½Ñĥ Ð²
ÑĢÑĭ Ð²
Ð» ÐµÐ´
ĠÑĤ ÐµÐ±Ðµ
ĠÐ±Ñĭ Ð»Ð°
ÐµÐ» Ð¾Ð²
ĠÐ´ Ð»Ñı
ÐµÑĢ Ð¶
ĠÐ³ Ð¾Ð²Ð¾ÑĢ
Ñĥ Ñģ
Ñĥ ÑģÑĤ
Ð¾Ð¶ Ðµ
Ñĭ Ð¼
ĠÐ¾ÑĤ Ð²ÐµÑĤ
ÑĨ Ðµ
Ð ¯
Ð°Ñı ÑģÑĮ
ĠÐ² Ð¾Ð»
Ð ¢
Ð¸ Ðº
Ðµ Ðµ
ÑĤ Ðµ
ÑģÑĤ ÑĢ
Ð¾ Ñħ
ĠÐŃ ÑĤÐ¾
ĠÐ² ÐµÑĢ
ĠÑĩ ÐµÑĢ
ÑĤ ÐµÑĢ
ĠÑģ ÐµÐ¹ÑĩÐ°Ñģ
Ñı Ð»
ĠÐµ ÑģÐ»Ð¸
Ð¸ÑĤ ÑģÑı
ÑĤ Ñĥ
Ð½Ð¸ Ðº
Ð½ Ð¾Ð¼
ĠÑĥ Ñģ
ĠÐ´ ÐµÐ»
Ð² Ð°ÑĤ
ĠÐ¿ Ð¾Ð·
ÐµÐ½ ÑĤ
ĠÑĩ ÐµÐ¼
Ð ľ
ĠÐ· Ð°Ð¿
Ð¸ Ð³
Ð°Ð»Ð¸ ÑģÑĮ
ĠÐ´ Ð¾Ð¼
ĠÐ²Ð· Ð³Ð»ÑıÐ´
Ð° ÑģÑĤ
Ð Ĳ
ĠÐļ Ð°Ðº
ĠÑģ ÐµÐ±Ðµ
Ð¸Ð¼ Ð¸
ĠÐ§ ÑĤÐ¾
Ñī Ñĳ
ĠÑģ Ð¾Ð²
ĠÐ· Ð°Ð±
Ñĭ ÑĪ
ÐµÐ´ ÑĮ
Ð° ÑĪ
ĠÐ±ÑĥÐ´ ÐµÑĤ
Ð¼ Ð¾ÑĤÑĢ
Ð½ÑĥÐ»Ð° ÑģÑĮ
ĠÐ¾ÑĤ Ðº
ĠÐ¾Ñĩ ÐµÐ½ÑĮ
Ð» ÐµÐ½
ĠÑħ Ð¾Ñĩ
ĠÐº Ð¾Ð½
ĠÑĤ ÑĥÑĤ
ĠÑįÑĤ Ð¾Ð³Ð¾
ĠÐ´ ÑĥÐ¼
Ñı ÑĤÑĮ
Ñĥ ÑĢ
ĠÑĥ Ð²
ĠÐ· Ð½
ĠÑĥ Ð±
Ñģ Ðµ
Ð¸ Ð½Ð°
ĠÐ· Ð°Ð´
ĠÑĤ ÐµÐ¿
Ñĩ Ð¸ÑĤ
ÑĤ Ð¾Ð²
ĠÐ´ Ð²ÐµÑĢ
ĠÑĢ ÐµÑĪ
ĠÑĤ ÐµÐ¼
ĠÐº Ð¾ÑĢ
ĠÐ²ÑĢÐµÐ¼ Ñı
Ð¸Ð»Ð¾ ÑģÑĮ
ĠÐŀ Ð½Ð°
ĠÐ½ ÑĥÐ¶
Ð½Ðµ Ðµ
ĠÐ½ ÐµÐ¼
ÑģÑĤ ÑĢÐ¾
ĠÐ±Ð¾Ð»ÑĮ ÑĪÐµ
Ð ĺ
ĠÑģÐ´ ÐµÐ»
ÑĮ Ñİ
Ð» Ð°Ð´
Ð°Ðº Ð¾
ĠÐ½ ÐµÑĤ
ÑĢ ÐµÐ´
ĠÐ¿ÑĢ Ð°Ð²
ĠÐ³Ð¾Ð» Ð¾Ñģ
Ð¾ÑĢ Ð¾ÑĪ
ĠÐĿ Ñĥ
ĠÐº ÑĢÐ¾Ð²
ĠÐ½Ð¸ ÑĩÐµÐ³Ð¾
Ð¸Ð»Ð¸ ÑģÑĮ
ĠÐº Ð°Ð¶
Ð¸ Ñı
ĠÐµ ÑīÑĳ
Ð¼ Ð°
Ð°ÑĤ ÐµÐ»ÑĮ
Ñı Ð²
ĠÐ¿Ð¾ Ð½Ñı
ĠÐ¸ Ð½
ÐºÐ¸ Ð¹
ĠÐº ÑĤÐ¾
ĠÐ¸ Ð»Ð¸
Ñı Ð´
ĠÑģÐ¿ ÑĢÐ¾Ñģ
Ñĥ Ð½
Ð¾Ð¶ Ð½Ð¾
ĠÐ² Ð¿
Ð¸ ÑĢÐ°
Ñĩ Ð¸Ð²
ĠÑĤ Ð¾Ð³Ð¾
ĠÑĩÑĥ Ð²ÑģÑĤÐ²
Ð°Ñİ ÑĤ
ĠÑĤ ÑĢ
ĠÑģÐ¼ Ð¾ÑĤÑĢ
ĠÐ± Ð¾Ð»
Ð°Ð½ Ð¾Ð²
ÑĨ Ñĥ
ĠÐ³ ÑĥÐ±
ĠÐµ Ð¹
Ñ Ĭ
ĠÐ±Ñĭ Ð»Ð¸
ĠÐ ¤
ĠÐ¼Ð¾Ð¶ ÐµÑĤ
ĠÐºÐ¾Ð¼ Ð½Ð°
ÑĢ Ð¾Ð´
ĠÑģÐºÐ°Ð· Ð°Ð»
Ð½Ð¾Ð² Ð°
ĠÐ· Ð°Ð²
Ð· Ð°
ĠÐ½ ÐµÐ´
ÑĢÑĥ Ð¶
ĠÑģÑĤÐ¾ ÑĢÐ¾
ÑĢ Ð°Ð¶
ĠÐ² Ð¾ÑĤ
ĠÑĢÑĥ ÐºÐ¸
ĠÐ½ ÐµÐ¿
ĠÐ¢ Ð°Ðº
Ð¸ÑĤÐµÐ»ÑĮ Ð½Ð¾
ĠÑįÑĤÐ¾ ÑĤ
ĠÐĿ Ð°
Ñĥ Ñħ
ĠÐ¿ÐµÑĢ ÐµÐ´
ĠÐ³ ÑĢÑĥ
ĠÐ¿ÑĢ Ð¾ÑĤ
ĠÐ¼ Ð¸
ĠÐ¶ Ð¸Ð·
ĠÐº ÑĢ
ĠÐ»Ð¸ ÑĪÑĮ
Ð°Ð½Ð¸ Ðµ
ĠÐ³ Ð´Ðµ
ÑĤ Ñĭ
Ð½ ÐµÐ¹
ĠÐ¼ Ð¾Ð»
ĠÐ¿Ð¾ Ð½Ð¸Ð¼
ĠÐ¿ÑĢ Ð¾Ð´
Ð»Ð¸ Ð²
ĠÐ½ Ð¸Ð¼
Ðº Ð°Ð¼Ð¸
Ð½Ð¸ Ðµ
Ð°Ð² Ð½Ð¾
ĠÐ¿ÑĢÐ¾ ÑĪ
ĠÑĤ Ð¾Ð¶Ðµ
ĠÐ¿Ð¾Ñģ Ð¼Ð¾ÑĤÑĢ
ĠÑĥ ÑģÐ¿
Ñģ Ð¸
ĠÐ¿ÑĢÐ¾ Ð¸Ð·
Ð´ Ð¾Ñħ
ĠÑįÑĤ Ð¾Ð¼
Ñı ÑģÑĮ
ĠÐ´ÐµÐ²ÑĥÑĪ ÐºÐ°
ĠÐ¿Ð¾Ðº Ð°
Ð½Ð¾ ÑģÑĤÑĮ
Ð¸ Ð±
Ñģ Ð°
Ðº Ð¾Ð²
ĠÑĤ Ð²Ð¾
ĠÐ¿ÑĢ Ð¸Ð²
ĠÐ² ÐµÐ´ÑĮ
Ðµ Ñī
Ð½Ñĭ Ð¼Ð¸
ÑĨ Ñĭ
Ñĥ Ñī
Ñĩ ÐµÑģ
ĠÐ½ Ð¾Ð³
ĠÑģ Ð½Ð¾Ð²Ð°
ĠÐ±Ñĭ ÑĤÑĮ
Ð½Ñĥ ÑĤÑĮ
ĠÑĥ Ð¶
ĠÐ ¨
ĠÐ´ Ð°
ĠÐ½ ÐµÐ¹
ĠÐ´ Ð¾Ð»Ð¶
Ñĳ Ð½
ĠÐ¿ ÑĭÑĤ
ĠÐ½ Ð°Ð·
ĠÐ½Ð° ÑĪ
ÑĪÐ¸ Ð¹
ĠÑĩ ÐµÐ»Ð¾Ð²
ĠÐµ ÑģÑĤÑĮ
ĠÐ¿Ð¾Ñģ Ð»Ðµ
Ð¼ Ð¾
Ñĳ Ð¼
ĠÐ¿Ð» ÐµÑĩ
ĠÐ¼ ÑĥÐ¶
ÐµÑĢ Ð°
ĠÐ¿ÑĢ Ð¾Ð²
ĠÑĤÐ¾ ÑĤ
ĠÑģ Ð¸Ð»ÑĮ
ĠÑĤÐµÐ¿ ÐµÑĢÑĮ
ĠÑĥÐ² Ð¸Ð´
Ð¾ÑĢÐ¾ÑĪ Ð¾
ĠÐºÐ¾ÑĤÐ¾ÑĢÑĭ Ð¹
Ð½ Ñİ
ĠÑĢÑĥ ÐºÑĥ
ĠÐ½ ÐµÐ²
Ð´Ðµ ÑģÑĮ
ĠÑĤ Ð°Ð¼
Ñĳ ÑĤ
ÑĮ Ñı
Ð¸ ÑĪÑĮ
Ð¸ Ð¹
ĠÐ¿Ð¾ÑĤ Ð¾Ð¼
Ð°ÑĤ Ð¸
ÑĢÐ° ÑĪ
ĠÑģ ÐµÑĢ
ĠÐ² Ð¾Ñģ
ÑĤÐ¾ Ñı
Ñĥ Ðº
ĠÐ¡ ÑĤ
ĠÑģ Ð¸Ð´
ĠÐ± ÐµÑģ
Ð» ÐµÐ½Ð½Ð¾
ĠÐº ÑĢÐ°Ñģ
Ð°Ð»ÑĮ Ð½Ð¾
ÑīÐ¸ Ð¹
ĠÐ¸ ÑģÐ¿
ĠÐ» ÑĥÑĩ
ÐµÑģÑĤ Ðµ
ÐµÐ³ Ð´Ð°
Ñĥ Ð³
Ð½Ðµ Ñģ
ĠÐ¿ Ð»Ð°
Ñį ÑĤ
Ñİ ÑĤ
ĠÐ¿ Ð¾Ð³
ĠÐ¿Ð¾Ñģ Ð»ÐµÐ´
ĠÑĩ ÐµÐ³Ð¾
ĠÐº Ð¾Ð»
Ð¸ Ð¶
Ð°Ð± Ð¾ÑĤ
Ð¾Ð´ Ð½Ñı
Ð¸ Ð´Ð°
ĠÑĥ Ð¿
ĠÐ½ Ð°Ð²
ÑıÐ´ Ð¾Ð¼
ĠÐ¾ ÑģÑĤÐ°Ð²
ÑģÑĤÐ² ÐµÐ½
Ñı Ð»Ð°
ĠÐ½ Ð°Ð¼
Ñĩ Ð°
ÐµÑĢ Ð²
ĠÑĥ Ð¼
Ð¾Ð² Ð¾Ð»ÑĮ
ĠÐ»Ð¸ ÑĨ
ĠÐ¾Ð´ Ð¸Ð½
ĠÑģÐ» ÑĥÑĩ
ĠÐ¾ÑĤ Ð¿
ĠÐ³Ð¾Ð»Ð¾Ð² Ñĥ
Ð¾Ðº Ð¾
ÑģÑĤ Ð°
Ðµ ÑģÑı
ĠÑĢ Ð°Ð´
ÑģÐº Ð¾Ð»ÑĮÐºÐ¾
Ð½Ðµ ÑĨ
Ð»Ð° Ñģ
ĠÑĩÐµÐ»Ð¾Ð² ÐµÐº
Ñı Ð·
ĠÑĥÐ´ Ð¸Ð²
Ð½ ÑĮ
ĠÑĤ Ð¾Ð¼
ÑĤÐµÑĢ ÐµÑģ
ĠÑģÐ²Ð¾ Ñİ
ĠÑĢÐ°Ñģ Ñģ
Ð´ Ð¸Ð½
Ð° ÐµÑĪÑĮ
ÑģÑĤ ÑĥÐ¿
Ð» ÐµÑĤ
Ð°Ðº Ð¸
Ð°Ð½Ð¸ Ñı
ĠÐ¿ÑĢ Ð¸Ð½
ĠÐ½ÐµÐ¼ Ð½Ð¾Ð³Ð¾
Ð¾Ðº Ð¾Ð¹
" .
ÐµÐ½ Ð°
ĠÐ¿ÑĢ Ð¾Ð±
ÑĥÐ´ ÑĮ
ĠÐ· Ð´ÐµÑģÑĮ
ÑĢ Ð¸Ð²
ĠÐ¿ÐµÑĢ Ð²
ĠÑĢ ÑıÐ´Ð¾Ð¼
ĠÐ¿Ð°ÑĢ ÐµÐ½ÑĮ
ĠÐ·Ð°Ð¼ ÐµÑĤ
Ð»Ð¾ Ð½
? !
ĠÐ¿ Ð°Ð»ÑĮ
Ð¾ Ð½Ð°
ĠÐ¼Ð¾Ð¶ Ð½Ð¾
Ñĳ Ð»
ÑĪ ÐµÐ»
ĠÑģÑĤ Ð°ÑĢ
Ð° ÑĢÐ°
Ð°Ñİ Ñī
Ð¸Ð¼ Ð¾
Ð½Ðµ ÑĩÐ½Ð¾
Ð°ÑĢ ÑĢÐ¸
ĠÐ¾ÑĤ Ð²
ĠÐĿ ÐµÑĤ
Ñħ Ð²Ð°ÑĤ
ĠÑĤ ÐµÐ»
ĠÑģÐ» ÐµÐ´
ĠÑģÐ²Ð¾ ÐµÐ¹
ĠÐ½ Ð¾Ð²
ÑĩÐ¸ Ð½Ð°
Ð¸ÑĤ Ðµ
ĠÑģ Ð²ÐµÑĤ
Ñĩ ÐµÐ¼
Ð°Ðº Ð¾Ð¼
Ñı Ð³
ĠÐ² ÑģÑĤÑĢ
ĠÐ¿Ð¾ ÑĢ
ÐºÐ° Ñħ
Ð¼ Ñĭ
ĠÐ¿ÑĢÐ¾Ð´ Ð¾Ð»Ð¶
ĠÑĩ Ð°Ñģ
ĠÐ² Ð¾Ð¿
Ñģ ÐµÐ¼
ĠÐ²Ñĭ Ð¿
Ð»Ñĭ ÑĪ
ĠÐ¶ Ð¸Ð²
ÐµÑĢ ÐµÐ´
ĠÐ²Ñģ ÐµÐ³Ð´Ð°
Ð°Ð· ÑĭÐ²
ĠÐ¼ Ð°Ð»
ĠÐ·Ð½Ð° Ñİ
Ð¿ Ð¾Ð¼
ĠÐ½Ð¸ Ñħ
ĠÐ¸ Ñģ
ĠÐ½Ð°Ð´ Ð¾
ÐºÐ° Ñı
Ð ł
Ñĥ Ð¹
ĠÐ²Ð¾Ð» Ð¾Ñģ
Ð² Ð°
ĠÐ¿ Ð¾Ð±
ĠÑģ ÐµÐº
Ð½ ÐµÑĤ
ĠÑ ī
ĠÐºÐ°Ð¶ Ð´
ĠÑį ÑĤÐ¸
ĠÐ² Ð¼
Ð»Ð¸ ÑģÑĮ
Ð¾ ÑĢÐ°
ÑĢÐ° Ñī
ĠÐ± Ð»Ð¸
ÐµÐ¹ ÑģÑĤÐ²
ĠÐŀ ÑĤ
ĠÑĥ ÑĤ
Ð» ÐµÐº
ĠÐºÐ¾ÑĤÐ¾ ÑĢ
ĠÑģ Ð¸Ð»
ĠÐ¿ÑĢÐ¸ Ðº
ĠÑĤ Ð¸Ñħ
Ñĩ Ðµ
Ð´ Ñı
ÐºÐ¸ Ðµ
ÑĪ Ð»Ð°
ĠÐ¿ Ð¾Ð¶
ĠÐ½ÑĥÐ¶ Ð½Ð¾
ĠÐ´ ÐµÐ½ÑĮ
ÑĢÐ°Ð· Ñĥ
ÐµÑĢ ÑĤ
Ð¸Ð² Ð°Ñı
ÑĢÐ° Ñı
ĠÐ¿Ð¾Ð» ÑĥÑĩ
ĠÐ¿Ð¾Ð´ Ð½Ñı
Ð ķ
Ñĳ ÑĢ
Ðµ ÑĨ
ĠÐľ Ñĭ
ĠÐĴ Ñĭ
Ð»Ð¸ ÑĪ
ĠÐ´ Ð¾Ð»
Ð· Ñĭ
Ð¾Ð² Ð°Ð»
ĠÐ» Ð°Ð´
ĠÑĤÐ°Ðº Ð¾Ð¹
ĠÐ½Ðµ ÑģÐºÐ¾Ð»ÑĮÐºÐ¾
Ð½Ð¸ Ñı
ĠÐ´ Ð¾Ð±
Ð §
ĠÐ² Ð´
ĠÐ²Ñģ ÐµÐ³Ð¾
ĠÐ· Ð°Ñģ
Ð Ľ
Ð ĳ
ÐµÐ½Ð¸ ÐµÐ¼
ĠÑĢ ÐµÐ·
ĠÐ¼Ð¸ Ð½ÑĥÑĤ
ÐµÐ³ Ð¾Ð´Ð½Ñı
ĠÐ¿Ð¾Ñĩ ÐµÐ¼Ñĥ
ÑĢ Ðµ
Ð¾ÑĢ Ð¾
ĠÐ±Ñĭ ÑģÑĤÑĢÐ¾
ĠÐ² Ðµ
Ð»Ð¸ÑĪ ÐºÐ¾Ð¼
Ð¾Ð± ÑīÐµ
Ðº Ð½ÑĥÐ»
ĠÐ¼ Ð¾Ð¼
Ñı Ð¶
ĠÑģ Ð¾Ñģ
Ð ĵ
ĠÐ¼ ÐµÐ´
Ð¼ Ðµ
ĠÑĥ Ð·
ĠÐ½Ð¸Ðº Ð¾Ð³Ð´Ð°
ĠÐ¿ Ñĥ
ĠÑĢ Ð¾Ð´
ĠÑĩÑĥ ÑĤÑĮ
ĠÐ´Ð²ÐµÑĢ ÑĮ
ĠÑĢÐ°Ð· Ð´
Ð¾Ð» Ð¾Ð´
ÑģÑĤ Ð²Ð¾
ĠÐ¿Ð¾Ñĩ ÑĤÐ¸
ĠÐĵ Ð°ÑĢÑĢÐ¸
ĠÐ²Ð¾Ð¿ ÑĢÐ¾Ñģ
Ð½Ð¾ ÑģÑĤÐ¸
ÐµÑģ ÑĤÐ¾
ĠÐ» ÐµÐ³
Ð² Ð¸
ĠÑĢÐ°Ñģ Ð¿
ĠÐľ Ð½Ðµ
ĠÐŁ Ð¾
ĠÑĩÐµÑĢ ÐµÐ·
ĠÑģÐ¾Ð² ÑģÐµÐ¼
ĠÐ¿Ð¾Ð² ÐµÑĢ
ĠÐ¿Ð¾ÑĤ Ð¾Ð¼Ñĥ
ĠÑģÐ»Ð¾Ð² Ð½Ð¾
Ð¾Ð¶ ÐµÑĤ
ĠÐ¿Ð¾ ÑĨ
ĠÐ´ ÑĢ
ĠÑĢ Ð°Ð±Ð¾ÑĤ
ĠÑģÑĤÐ¾ÑĢÐ¾ Ð½Ñĥ
ĠÐ³Ð¾ ÑĢ
ĠÐ¾ Ð³
Ð°ÑĢ Ñĥ
Ð½Ð¸ Ð¹
ĠÐ²ÑģÐµ Ñħ
Ñĩ Ð°Ð»
Ðµ Ñİ
ĠÐ¼ Ð½Ð¾Ð¹
Ð £
ĠÐ· Ð²
ĠÐ¼Ð¾Ð³ Ñĥ
ĠÐ±ÑĥÐ´ ÑĤÐ¾
ĠÐº Ð°ÑĢ
ÑįÑĤ Ð¾Ð¼Ñĥ
ĠÐ¿Ð¾ Ñħ
ĠÐº ÑĢÐ¸
ĠÑģÐ¿ÑĢÐ¾Ñģ Ð¸Ð»
ĠÐ¿ÑĢ Ñı
Ð° Ð½Ð°
ÐµÑĢ Ð¸
Ð°Ð· Ð°Ð»Ð¾ÑģÑĮ
Ð» Ð¾Ð²
ĠÑģ ÑĢÐ°Ð·Ñĥ
Ñı Ñģ
ĠÐ¶ ÐµÐ½
ĠÐ¿ÑĢÐ¸ Ð´
Ð¾ ÑĤÑĮ
ÑĨÐ¸ Ð¸
ĠÐ¿ Ð¾Ð¹
ĠÐº Ð¸Ð²
ĠÐ¼ Ð¾Ð¹
ĠÐ¿ÑĢÐ¸ Ñģ
ÑĭÐ² Ð°Ñı
ĠÐ·Ð° ÑĤ
ĠÐ»Ð¸ÑĨ Ð¾
ĠÐĴ ÑģÐµ
ĠÑħÐ¾ÑĤ ÐµÐ»
Ð¼ Ð¾Ð¶Ð½Ð¾
ĠÐ± Ð»
ĠÐ´ ÐµÐ¹ÑģÑĤÐ²
Ð»Ð¸ Ð½
ĠÑģÐºÐ°Ð· Ð°Ð»Ð°
ĠÐ¸ Ð³
ĠÐ¾Ð± ÑĬ
Ð¾Ð² Ð°ÑĤÑĮ
ÐµÐ» Ñı
ÑĢÑı Ð´
ĠÑģÐ²Ð¾ Ð¸
ĠÐķ ÑģÐ»Ð¸
ĠÐ³Ð¾ ÑĤÐ¾Ð²
ĠÑģ Ð»Ð¸ÑĪÐºÐ¾Ð¼
Ð° ÑĪÐ¸
ÑĢÐ° ÑĤÑĮ
ÑĪ ÐµÐ³Ð¾
" ,
ĠÑĥ Ñĩ
ĠÐ» ÐµÑĤ
ĠÐ² ÐµÑĩ
Ñģ Ñĥ
ÑĢ ÐµÐ½
ĠÐ½ ÐµÐ±
ĠÑħÐ¾Ñĩ Ñĥ
ĠÑĤ ÑĢÑĥ
Ð¾Ðº Ð°
ĠÐ¾ÑĤÐº ÑĢÑĭ
Ð»Ñİ Ñĩ
Ñı Ñī
ĠÑħ Ð¾ÑĢÐ¾ÑĪÐ¾
ĠÐ²Ð¾ Ð¾Ð±ÑīÐµ
Ð°ÑĢ Ð¸
ĠÐ¼ Ð°Ð³
ĠÐ½ Ð°Ð±
ĠÐ² Ð½Ð¸Ð¼
ĠÑĢÐ°Ñģ ÑģÐº
ĠÑģÐ¼ Ð¾Ð³
ĠÑĤ Ñĥ
ĠÐ¼ Ð½Ð¾Ð³Ð¾
ĠÑĢÐ°Ð· Ð³
ĠÑģÐ²Ð¾ ÐµÐ³Ð¾
Ð¾ÑĢ Ð¼
ĠÐ²Ñĭ Ð±
ĠÐ² Ð¾Ð´
ĠÑģÐ» ÑĭÑĪ
Ð² Ð¾Ð»
Ð Ĺ
Ð½Ð¸ Ð±
Ð¸ Ð½Ñĥ
Ð°ÑĤÐµÐ»ÑĮ Ð½Ð¾
ĠÐĴ Ð¾ÑĤ
Ð½Ð¸ ÐºÐ°
Ð Ń
Ð¸ ÑģÑĤ
ÑģÑĤÐ°Ð² Ð»Ñı
ĠÐ´ ÐµÑĤ
ĠÑģÐºÐ°Ð· Ð°ÑĤÑĮ
Ð´ Ñĭ
ĠÐºÐ¾ÑĤÐ¾ÑĢÑĭ Ðµ
ĠÐ² Ð°Ð¼
ĠÐ± Ð¾
Ðŀ Ð½
ĠÐ¼Ð¾Ð¼ ÐµÐ½ÑĤ
Ð½Ð¸Ð± ÑĥÐ´ÑĮ
ÑħÐ¾Ð´ Ð¸ÑĤ
ĠÐ½Ð°Ñĩ Ð°Ð»
Ð» ÑĥÑĪ
ĠÐºÑĥ Ð´Ð°
Ð½ Ð½Ð¾
ĠÐ¿Ð¾ ÑıÐ²
Ñĩ Ð°Ð»Ð°
Ð¸Ð² Ð°ÐµÑĤ
ĠÐ² Ð°Ñģ
ÐºÐ¸ Ñħ
ĠÐĽ Ñİ
Ð¾Ð¶ Ð´
ÐµÐ»Ð¾ ÑģÑĮ
ÐµÐ¶ Ð´Ñĥ
ÑģÑĤÐ² Ð°
ÐµÐ½Ð¸ Ð¸
ĠÐ´ Ð¾ÑĢ
ĠÐ¡ Ð¿
, -
ĠÐ½Ð°Ð¿ ÑĢÐ°Ð²
ĠÑģÐµÑĢ Ð´
ĠÑģÑĤ Ð°Ð»
ĠÐ¼ ÐµÑģÑĤ
ĠÐ½Ðµ Ðµ
ĠÑĤ Ð¾Ð³Ð´Ð°
ĠÐ´ Ð°Ð²
ĠÐ±Ð¾Ð» ÐµÐµ
Ñĥ Ð²ÑģÑĤÐ²
ĠÐºÐ°Ðº Ð¾Ð¹
ĠÐ¿Ð°ÑĢ Ð½Ñı
ÑıÐ» ÑģÑı
Ð¸Ð½ Ð¾Ð¹
ĠÐ²Ñģ ÐµÐ¼
ĠÑĥ Ðº
ĠÑģÐ² Ð¾Ð¹
ĠÑģÐ¾Ð± Ð¾Ð¹
ĠÐ´ ÐµÑĢ
ĠÑĥ Ð³
ĠÐ¡ Ðº
ĠÑģÑĤ ÐµÐ½
Ð°Ð»ÑĮ ÑĩÐ¸
ĠÑģ ÐµÐ³Ð¾Ð´Ð½Ñı
ĠÐŀ Ð½Ð¸
ĠÑģÑĤ ÑĢÐ°Ð½
ĠÐ¶ Ð´
ĠÐĹ Ð°
ÐµÑĢ ÑĪ
Ð½ÑĥÐ² ÑĪÐ¸ÑģÑĮ
ĠÐ²Ð· Ð´Ð¾Ñħ
ĠÐ½ Ð°Ðº
Ð°ÐºÐ¾ Ð½ÐµÑĨ
Ð¸Ð² Ð°ÑĤÑĮ
ĠÐ²Ñĭ Ñģ
Ð¾ ÑĤÐ¾
Ð¸ Ð¸
ĠÑħ Ð¾Ð»Ð¾Ð´
ĠÐ¾ÑĤ Ð´
! !
ĠÐ²Ñĭ Ð´
ĠÐ´ ÑĥÑĪ
Ð½Ð¾ Ñģ
ĠÐ¿ÑĢ ÐµÐº
ĠÑįÑĤ Ð¾Ð¹
ĠÑģÐ¿ Ð¾ÐºÐ¾Ð¹
Ð¾Ð± Ð¾Ð¹
ĠÐ¸ ÑģÐº
ĠÑģ Ð¶
ĠÑĥ Ð²ÐµÑĢ
ĠÐ¸ Ð´
Ð°Ð½ ÑĮ
ĠÑĥÐ»ÑĭÐ± Ð½ÑĥÐ»ÑģÑı
Ð» Ð¾Ð¶
ĠÐ±Ð¾Ð»ÑĮ ÑĪ
ÑģÑĤÑĮ Ñİ
ĠÑħ Ð¾ÑĤÑĮ
ĠÑĥ ÑģÑĤ
ĠÐ¿Ð¾Ð´ ÑĥÐ¼
Ð² Ð°ÑĢ
ĠÐ²Ð¼ ÐµÑģÑĤÐµ
ĠÐŁ Ð¾ÑĤ
ĠÑĥ Ñħ
ĠÐ½Ð¾ Ñĩ
ÑĪ Ð»Ð¾
. -
ĠÐ² ÑģÑĤ
ĠÐ»ÑĥÑĩ ÑĪÐµ
ÐµÐ½ Ð½ÑĭÐ¹
ĠÐ¿Ð¾Ð´ Ð¾ÑĪ
ÐºÐ¸ Ð¼
ĠÐ¿ÑĢÐ¾ÑĤ Ð¸Ð²
Ð½Ð¸ ÑĤÑĮ
ÑĥÑĪ ÐºÐ°
Ð»Ð¾ Ñħ
ĠÑģÑĤ ÑĢÐ°
ĠÐ¾ÑĤÐ²ÐµÑĤ Ð¸Ð»
ĠÑı Ð²
Ð± Ð¾
ĠÑģÑĤÐ¾ Ð»
ĠÐ¾ÑģÑĤ Ð°Ð½Ð¾Ð²
Ñĥ ÐµÑĤ
ĠÐ½ Ð¾Ñģ
Ð ¥
ĠÑĤÐ¸Ñħ Ð¾
ĠÑĢÐ°Ð· Ð²
ĠÐ¼Ñĭ Ñģ
Ðº Ð¾Ð»
ĠÐ³Ð¾Ð»Ð¾Ð² Ð¾Ð¹
Ð½ Ð¾Ð¼Ñĥ
Ð½ Ð¸Ð»
ĠÐ³ÑĥÐ± Ñĭ
.. ..
ĠÑħÐ¾ÑĤ Ñı
ĠÑģÐ»Ð¾Ð² Ð°
Ñĭ Ð»
ĠÑĪ Ð°Ð³
Ð¸ ÑĢÐ¾Ð²
ĠÑģÐµÐº ÑĥÐ½
ĠÑĤ Ð¾Ð±Ð¾Ð¹
ĠÐ¶Ð¸Ð· Ð½Ð¸
ĠÐ¾ Ñī
ĠÐ¾Ðº Ð°Ð·
ĠÑģ ÐµÐ¼
Ð»Ð° ÑģÑĮ
ĠÑĤ ÐµÑĢ
ĠÐ± ÑĢÐ¾Ñģ
ÑĢÑĥ Ð·
ĠÐ¼Ð°Ð» ÐµÐ½ÑĮ
Ð½ ÐµÐ²
ĠÐ¿ÑĢ Ð¾Ð³
Ð¸Ð² ÑĪÐ¸ÑģÑĮ
ĠÐ¾ Ð¶
Ð¾Ñĩ ÐµÐ¼Ñĥ
ĠÐ± ÑĢ
ĠÐ¾Ð± ÑĢÐ°ÑĤ
ÐµÑģÑĤ Ð¸
Ðµ ÑĦ
ĠÑħ Ð²Ð°ÑĤ
ĠÑĤ ÑıÐ¶
ĠÐ ĸ
Ð¾ÑĤ ÑĢÑı
ĠÐ´Ð¾Ð¼ Ð°
Ð´ Ð¶
ÑĢ Ð¾Ðº
ĠÐ·Ð½ Ð°Ð»
ÑĪÐ¸ Ñħ
ĠÐ¸Ð¼ ÐµÐ½Ð½Ð¾
ĠÐ½Ð°Ð· Ð°Ð´
ĠÐ¸Ð½ ÑĤÐµÑĢÐµÑģ
Ð½Ð¾ ÑĪ
ĠÐ¿ÑĢÐ¸ Ð·
Ð¾Ð»ÑĮ Ð·
Ð¾ ÑģÑĤ
ĠÐ´ ÐµÑĢÐ¶
ĠÐ· Ð°Ð³
Ð°Ð¼ Ð°
ĠÐŁ ÑĢÐ¾
ĠÐ¿Ð¾ ÑįÑĤÐ¾Ð¼Ñĥ
ĠÑĤÐ¾ ÑĩÐ½Ð¾
ĠÐ¼ Ð¸ÑĢ
ĠÑģ Ð¾Ð³
ÑĪ Ð»Ð¸
Ð² Ð¾ÑĢ
Ð¾ Ð½Ð¸
ĠÐ½Ð¸Ðº Ð°Ðº
Ð°Ð»ÑĮ ÑĪÐµ
ĠÐĲ Ð½
Ñĭ Ð¼Ð¸
ĠÐ½ ÐµÐº
ÐµÐ½Ð¸ Ð¹
Ñĥ Ð»
Ð° ÐµÐ¼
ĠÐ¼ Ð°Ð»ÑĮÑĩÐ¸
ÑĢÐ¾ Ðµ
ĠÑĥÑģ Ð»ÑĭÑĪ
ĠÑĤÐ¾ Ð»
ĠÐ²Ð·Ð³Ð»ÑıÐ´ Ð¾Ð¼
ĠÐ¿Ð¾ ÑģÑĤ
ÑĤ ÑĢ
ÑīÐ¸ Ðµ
ĠÐ²Ñĭ ÑħÐ¾Ð´
ĠÐ´ÐµÐ» Ð°ÑĤÑĮ
Ð¾Ñĩ ÑĮ
ĠÐ¶Ð¸Ð· Ð½ÑĮ
ĠÐ´ÑĢÑĥÐ³ Ð°
ĠÐºÐ¾ÑĤÐ¾ ÑĢÐ°Ñı
Ð¼ ÐµÐ½
ĠÑĢ Ñĭ
Ñı ÑĤÐ¸
ĠÐ±ÑĥÐ´ Ñĥ
ĠÐ²Ñģ Ð¿Ð¾Ð¼
ĠÐºÐ¾ Ð½ÐµÑĩÐ½Ð¾
ĠÐ¼Ð¾ ÐµÐ¹
ĠÐ¿Ð°Ð»ÑĮ ÑĨ
ĠÐ² Ð½ÑĥÑĤ
Ð½Ñĥ ÑĤÑĮÑģÑı
ĠÐ½ ÐµÐ¼Ñĥ
ĠÐº Ð°Ð¿
ÑĪ ÐµÐ¹
Ð¾Ð²Ð¾Ð»ÑĮ Ð½Ð¾
Ð¸ Ð½Ðµ
ĠÐºÐ¾Ð¼Ð½Ð° ÑĤÑĥ
ĠÐ¿Ð¾Ð¿ ÑĭÑĤ
ĠÐķ Ð³Ð¾
ĠÐ½ ÑĢÐ°Ð²
ĠÑģÐ²Ð¾ Ð¸Ñħ
Ð°Ñİ ÑģÑĮ
ĠÐ½Ð° ÑħÐ¾Ð´
ĠÐ²Ð´ ÑĢÑĥÐ³
ĠÑĥÐ´ Ð°ÑĢ
ĠÐ²Ð¾Ð»Ð¾Ñģ Ñĭ
ĠÐŁ ÑĢÐ¸
ĠÐ²Ðµ ÑģÑĮ
ÐºÑĥ Ñģ
ÐµÑĤ Ðµ
ÑĪÐ¸ Ðµ
ĠÐ¿Ð¾ÑģÐ¼Ð¾ÑĤÑĢ ÐµÐ»
ĠÑĢÐ°Ð· Ð±
ĠÑģÐ´ÐµÐ» Ð°ÑĤÑĮ
ÑĢÑĥ Ñİ
Ġ (
ĠÑĥÑģ Ð¼
ĠÑģÐ²Ð¾ Ð¸Ð¼
ĠÐ¿ÑĢÐ¸ Ð¶
Ġ ÑĪÐ¸
ĠÑĢÑĥ ÐºÐ¾Ð¹
ĠÐ» ÐµÐ¶
Ð¸ Ñĩ
Ð» ÐµÐ¼
ĠÐ¾Ñģ Ð¾Ð±
ĠÐ´Ð¾ÑĢ Ð¾Ð³
ĠÑģ Ð¾Ð·
ĠÐ²ÑģÑĤÑĢ ÐµÑĩ
ĠÑģ Ñĥ
ĠÐ· Ð°Ð»
ĠÐ¿Ð°ÑĢ Ñĥ
Ð»Ð¸ Ð²Ð¾
ĠÐ½Ð°Ð² ÐµÑĢ
ĠÐ³Ð¾Ð»Ð¾Ð² Ðµ
ĠÐ ®
Ð½Ð¾Ð² ÑĮ
ĠÑĤÐ°Ðº Ð¾Ðµ
ĠÐ¼ÐµÐ´ Ð»ÐµÐ½Ð½Ð¾
ĠÐ¿Ð¾Ð» Ð¾Ð¶
Ðµ Ñı
ĠÐ½ Ð°Ð¹
ĠÐ¿ÑĢÐ¾Ð¸Ð· Ð½ÐµÑģ
ĠÐŁ Ð¾Ñģ
ĠÐ¶ ÐµÐ»
ĠÐ¿Ð¾Ð½Ñı Ð»
Ð¾Ð² Ð°Ð»Ð°
ĠÐ¾Ð± Ñĭ
Ð³ Ð¸
Ð¾Ð» Ð½
ĠÐ½Ð°Ñĩ Ð°Ð»Ð°
ÑıÑĤ Ð½Ð¾
Ñħ Ð¾ÑĤ
Ð½Ð¸ Ð·
ĠÑģÐ¾Ð² ÐµÑĢÑĪ
ĠÐ¼Ð¾Ð³ Ð»Ð°
ĠÐĿ Ð¸Ðº
ĠÑĢÐµÐ· ÐºÐ¾
ĠÑģ Ð±
ĠÐ½Ðµ Ñģ
ĠÐ¿ÑĢÑı Ð¼Ð¾
Ñİ ÑģÑĮ
ĠÐ½ ÐµÐ½
Ðº Ð½ÑĥÐ»Ð°
Ð¸Ð± Ð¾
Ð½Ð¸ ÑĤ
ĠÐ¼ Ð¾ÑĢ
ĠÐ¿Ð¾Ð¶ Ð°Ð»
ĠÐµ Ð´
ĠÑģ Ñĭ
ĠÐļ Ð¾Ð³Ð´Ð°
ĠÐºÐ°Ð¶ ÐµÑĤÑģÑı
ĠÐ»Ñİ Ð´
ĠÐ½ ÐµÐ¶
ĠÐ½ Ð°ÐºÐ¾Ð½ÐµÑĨ
ĠÐ¿ÑĢÐ¸ Ð±
Ñİ Ð´Ð°
Ð³ Ð°
ÑĤÐ¾ Ñĩ
ĠÐ³Ð»Ð°Ð· Ð°Ð¼Ð¸
ĠÐ³ ÑĢÐ¾Ð¼
ĠÑĩ Ð°
ĠÑĤ ÐµÐ»Ð¾
ĠÐ² Ð½Ð¾Ð²ÑĮ
ĠÐ³ Ð¾Ð´
ĠÐ½Ðµ Ñĳ
ĠÐ´Ð² Ð°
ÑģÑĤÐ² ÐµÐ½Ð½Ð¾
ÑĢ Ð¾ÑĤ
ĠÑįÑĤ Ñĥ
ĠÑįÑĤ Ð¸Ð¼
ĠÐ´Ð¾Ð» Ð³Ð¾
ĠÐ·Ð°Ðº Ð¾Ð½
ÐĿ Ð¾
Ð» ÑģÑı
ÐµÐ¹ Ð½
ÐµÐ½Ð¸ Ñİ
ĠÐ½Ð¸Ðº ÑĤÐ¾
Ġ Ñİ
ÑĢ Ð°Ð»
ĠÐ¿ÑĢÐ¾ ÑģÑĤ
ÑĤÐ¾ ÑĢÐ¸
ĠÐ¼Ð¾ Ð¸
ĠÐŁ Ð¾ÑĩÐµÐ¼Ñĥ
ÑĪ Ð°Ñı
Ðº Ð¾Ð³Ð¾
ĠÑĢ Ð°Ð²Ð½Ð¾
Ð°Ð´ Ð¸
Ð»ÑĮ ÑĦ
ĠÐ´Ð¾Ð»Ð¶ ÐµÐ½
ĠÑĨ ÐµÐ»
Ð°Ð¹ Ð»
Ð°Ñģ Ð¸Ð±Ð¾
ĠÐ¢ Ð¾Ð»ÑĮÐºÐ¾
ĠÑħÐ¾ÑĤ ÐµÐ»Ð¾ÑģÑĮ
ĠÑĨ Ð²ÐµÑĤ
ĠÐ½Ð¾Ð³ Ð¸
Ñĩ Ð°ÑģÑĤ
ĠÐ± ÐµÐ»
Ð½Ð¾ÑģÑĤÑĮ Ñİ
ĠÐ· ÐµÐ¼
Ð´ ÑĢ
ĠÑĥÐ¶ Ð°Ñģ
ÐºÑĥ Ñİ
Ñı Ð½
ĠÐĺ Ð·
ĠÐ¿ÑĢ Ð¾Ð¿
ĠÑģÐ¿ÑĢÐ¾Ñģ Ð¸Ð»Ð°
Ð» Ð¾Ðº
ĠÑĤ Ð°
ĠÐº Ð¾Ð³Ð¾
ĠÐ¾Ð± Ñī
ÐºÐ¾ Ðµ
ĠÐ²Ð· Ð³Ð»Ñı
ÑĭÐ² Ð°ÐµÑĤ
Ñĭ Ñģ
ĠÐ¾ÑĤÐ¿ ÑĢÐ°Ð²
ĠÐĿ Ð¸
ĠÐ¼ ÐµÑģÑĤÐ¾
Ñı Ð¼Ð¸
ĠÑģÐ¸Ð»ÑĮ Ð½Ð¾
ĠÐ½ ÐµÐ·
Ð½ ÐµÐ¼
Ð² Ð°Ð»
ĠÐ¿ÑĢÐµÐº ÑĢÐ°Ñģ
ĠÐºÑĢÐ¾Ð² Ð°ÑĤÐ¸
ĠÐ´ Ð°Ð²Ð½Ð¾
Ñĥ ÑĢÐ°
ÑĭÐ² Ð°ÑĤÑĮ
ĠÐ¼Ñĭ ÑģÐ»Ð¸
ĠÐ²ÑĢÐµÐ¼ ÐµÐ½Ð¸
Ð»Ð¸ Ð·
ĠÐ¼ Ð°ÑĪÐ¸
ÐµÐ¿ ÑĤ
ĠÐ¿Ð¾ÑĤ ÐµÑĢ
ĠÐ´ÐµÐ²ÑĥÑĪ ÐºÐ¸
ĠÐ° Ðº
Ñı Ð½ÑĥÐ»
ĠÐ¿Ð¾ÑĨ ÐµÐ»
ĠÐľ Ð°ÑĢ
ÑĤ Ð°ÐºÐ¸
ĠÐ± Ð»Ð¾Ð½
ÑĩÐµÑģ ÐºÐ¸
ĠÐ¼ ÐµÐ¶Ð´Ñĥ
ĠÐ¥ Ð¾ÑĤ
ÑĢÐ¾Ñģ ÑĤÐ¾
ÐµÐ² ÑĥÑĪÐºÐ°
ÑĢ Ð°Ð´
ĠÐĴ Ñģ
Ð´ Ð¾ÑĢ
Ð°Ð´ ÑĨ
Ð» Ð°Ð¶
ĠÐ¿ÑĢÐ¾ Ð¸Ñģ
ĠÐ´ ÐµÐ»Ð¾
ĠÐ³ Ð»Ñı
ĠÐ² ÐµÑģ
ĠÐ¿Ð¾Ð· Ð²Ð¾Ð»
ĠÑī ÐµÐº
ĠÐ·Ð½ Ð°ÐºÐ¾Ð¼
ĠÑĤ ÑĢÐ¸
ĠÑĥÑģÐ¼ ÐµÑħ
ĠÐ¼Ð¾ Ñı
ĠÑĢ Ð°
Ð¾Ñĩ ÐºÐ°
ĠÑģ ÑĥÐ¼
ĠÑĤ Ð¸
ĠÑģ ÐµÑģÑĤ
ĠÑĥÐ»ÑĭÐ± Ð½ÑĥÐ»Ð°ÑģÑĮ
ĠÐ² ÑģÑı
Ð°ÑİÑĤ ÑģÑı
ĠÐ¿Ð¾Ñĩ ÑĥÐ²ÑģÑĤÐ²
ĠÐļ Ð¾
Ð½ Ð°Ð»
Ð´Ñĥ Ñħ
ĠÑĢ Ðµ
ĠÐ¿Ð¾Ð¼ Ð¾Ð³
ĠÐ½ Ñĥ
ĠÐ³Ð¾ ÑĢÐ¾Ð´
ĠÐ¿ÐµÑĢ ÐµÐ²
ĠÐŀ Ð±
ĠÐ¼ ÐµÑĩ
ĠÑĢÐµÑĪ Ð¸Ð»
ĠÐº Ð°Ð¼
ĠÐ²ÐµÑĩ ÐµÑĢ
ĠÑģÑĤÐ¾ Ð¸ÑĤ
ĠÐ³Ð» ÑĥÐ±
ĠÐ»ÑİÐ± Ð¸Ð¼
ĠÐľ Ð¾Ð¶ÐµÑĤ
Ð´ Ð¾
ĠÐ²Ñģ Ñİ
ĠÐ²Ð¾Ð· Ð¼Ð¾Ð¶Ð½Ð¾
ÐĿ Ðµ
Ð¾Ð» Ð¾Ñģ
ĠÐ±ÐµÑģ Ð¿
Ð°Ð½ ÑĤ
ÐºÑĥ Ð´Ð°
ÑīÐµ Ðµ
Ð´ Ð½Ð¾
ĠÐ´ ÑĢÑĥÐ·
ĠÐ·Ð°Ð´ ÑĥÐ¼
ĠÐ·Ð°Ðº ÑĢÑĭ
ĠÐ³Ð» Ð°Ð²
Ð¾Ð¶ Ð¸Ð´Ð°
Ð¾ÑĢ Ð¾ÑĤ
Ð°Ð ³Ð¾
ĠÑģÐ°Ð¼ Ð°
Ð° Ñĩ
ĠÐ´ÐµÑĢ ÐµÐ²
ÐµÐ½ Ð¾
ĠÐ· Ð°Ð½
ÑĢ Ð¾Ð±
Ð½Ð¸ Ñĩ
ĠÐĽ Ñĥ
ÑĦ Ð¸
ĠÐ¿Ð¾Ð´ Ð¾Ð±
Ñĭ ÑĢ
ĠÐ½Ð°Ð± Ð»Ñİ
Ð°Ð´ Ð½Ð¾
Ð¼ Ð°ÑĤ
ĠÑģÑĤ Ð°Ð»Ð¾
Ñĩ ÑĤÐ¾
ĠÐ²Ð¾Ð· Ð´ÑĥÑħ
ĠÐºÐ¾ÑĤÐ¾ÑĢ Ð¾Ð¹
ĠÑģÐµÑĢÐ´ ÑĨÐµ
Ñģ Ð¾Ð½
Ð°Ð· Ð°Ð»
ĠÐ´ÐµÐ¹ÑģÑĤÐ² Ð¸ÑĤÐµÐ»ÑĮÐ½Ð¾
ĠÐ¼ ÐµÑĤ
Ð¾Ð¶ Ñĥ
Ð½Ð¸ Ð¸
ÑĨÐ¸ Ñı
ĠÐĲ ÑĢ
ĠÑĪ ÐºÐ¾Ð»
Ð¸Ð² Ð°Ð»
Ð°Ð² ÑĪÐ¸ÑģÑĮ
Ñĥ Ñı
ĠÑĥ Ð»Ð¸
Ð¾Ðº ÑĢÑĥÐ³
ÑĨÐ¸ Ñİ
ĠÐ·Ð½Ð° ÐµÑĪÑĮ
ĠÐ¼ Ð½
Ñĩ ÐµÑĤ
Ð¾Ñģ Ð¾Ð±
ĠÐºÑĢ ÐµÐ¿
ĠÐ´Ð²ÐµÑĢ Ð¸
? -
ĠÐ¿ÑĢÐ¸Ð² Ñĭ
ĠÐ¾Ñī ÑĥÑī
ĠÑħÐ¾ÑĤ ÐµÐ»Ð°
ÑıÐ»Ð° ÑģÑĮ
ĠÑĢ Ð°ÑģÑĤ
ĠÑģÐ» ÐµÐ·
ĠÑĢÑĥ ÐºÐ°Ð¼Ð¸
Ð°Ð» ÐµÐº
Ð² Ð¾Ð¹
ĠÐ¶ÐµÐ½ ÑīÐ¸
ĠÑģÑĤÐ¾ÑĢÐ¾ Ð½Ñĭ
ÐµÑģ Ñģ
ĠÐ³Ð»Ð°Ð· Ð°Ñħ
ĠÐ´Ð¾Ð¼ Ð¾Ð¹
ĠÐ¿ Ð»Ð¾Ñħ
ĠÑģÐ´ÐµÐ» Ð°Ð»
ĠÐº Ð°Ð±
ĠÐ¸Ð· Ð²
ÐµÐ¿ ÐµÑĢÑĮ
ĠÑģ ÑĩÐ¸ÑĤ
ĠÑįÑĤ Ð°
ÐµÐ» ÐµÐ½
Ð°Ð½ÑĮ ÑĪÐµ
ĠÐ¾Ð´ Ð½Ð¾Ð¹
ĠÐ»ÑİÐ´ ÐµÐ¹
Ð¾Ð² Ð°ÑĢ
ĠÑĤÐµÐ» ÐµÑĦ
ĠÑħ Ð¾Ð´
Ñİ Ñī
ĠÐ´Ð¾ ÑģÑĤ
ĠÐĶ ÑĢ
Ð¾Ð± Ð¾Ð´
ĠÐ·Ð°ÐºÐ¾Ð½ Ñĩ
Ð°ÑĢÑĥ ÑĤÐ¾
Ð¾ Ñī
ĠÐ¼ÑĥÐ¶ ÑĩÐ¸Ð½Ð°
ĠÐ¶ ÐµÐ»Ð°
ĠÐ³ÑĢÑĥ Ð´Ð¸
Ñį Ð½
ĠÐ´ Ð¾Ð³
ĠÐ·Ð° ÑģÑĤÐ°Ð²
ÐµÑĢ Ð¾
ĠÐ²Ð¸Ð´ ÐµÐ»
ĠÑĢÑĥ ÐºÐ°Ñħ
ĠÐ²Ñĭ Ð·
ĠÑĢ ÐµÐ±
ĠÐ± ÑĢÐ°ÑĤ
Ð» ÐµÐ½Ð¸Ðµ
ĠÑĤ ÐµÑħ
ĠÐ¿ÑĢÐ°Ð² Ð´Ð°
ĠÑģÐ¼Ð¾ÑĤÑĢ ÐµÐ»
Ð¸Ð¶ Ñĥ
ĠÐ¿ Ð¸
ĠÐ´ Ð°Ð»ÑĮÑĪÐµ
ÑĢÐ¸ Ñģ
ĠÐ´ÐµÐ²ÑĥÑĪ ÐºÑĥ
ÐĿ Ð°
ĠÑı Ð·Ñĭ
ÑĢÑĥ ÑĪ
ÐºÐ¾ Ð½
Ð¸ÑĤ Ñĥ
Ð¸Ð½ Ð¾Ð²
ĠÐ² ÑĤÐ¾ÑĢ
ÐµÐ³ ÐºÐ°
ĠÐºÑĥ Ñħ
ÑĢ ÐµÑĤ
ĠÐ´ÑĢÑĥÐ³ Ð¾Ð¹
Ð» Ð¾Ð¿
ÑĪ ÑĥÑİ
ĠÑģÐ¾Ð²ÐµÑĢÑĪ ÐµÐ½Ð½Ð¾
ĠÑģÐ¾Ð³ Ð»Ð°Ñģ
Ð½Ð¸ ÑĨÐ°
Ð°Ñģ ÐºÐµ
ĠÑħÐ¾Ñĩ ÐµÑĪÑĮ
Ð³ Ð½Ð¾Ð²
ĠÐ¼ ÑıÐ³
ĠÐ¿Ð¾Ð´ ÑĢÑĥÐ³
ĠÐ·Ð°ÑĤ ÐµÐ¼
ÑĤ Ð¾Ð¼
ĠÐ¼ Ð¸Ð»
ĠÑģÐº Ð°Ð¶
ĠÑĤ Ð¾Ð¼Ñĥ
ĠÑĤÐ°Ðº Ð¸Ð¼
ĠÐ²Ñĭ Ð³Ð»ÑıÐ´
ĠÐµÐ´ Ð²Ð°
ÐµÑģÑĤ Ð²Ð¾
Ð½ Ð°ÐºÐ¾
Ð¾ÑĢ Ðµ
Ð¾Ð² ÐµÑĢ
ĠÐĹ Ð½Ð°
ĠÐł Ð°Ð·
ĠÑĤÐ°Ðº Ð¾Ð³Ð¾
ĠÐ¾Ð¿ ÑĥÑģÑĤ
Ð² Ð¾Ð·
ĠÑģÑĤ Ð°Ð»Ð°
ĠÐ¼ Ñĥ
ĠÐº ÑĢÑĭ
ĠÐ¿Ð¾ ÑĢÑıÐ´
ĠÑģ ÑħÐ²Ð°ÑĤ
ĠÑģ ÐµÑĢÑĮ
ĠÐŁ Ð¾Ð´
Ð²Ð¾ Ð½
ÐµÐ½ Ñĭ
Ð¿ Ð¿
ĠÑģÐ¾Ð± ÑģÑĤÐ²ÐµÐ½
ĠÐŁ ÑĢ
ĠÑģ Ð²ÐµÑĢ
ĠÑĤÐ¾ ÑĢ
Ð¾ÑĢ Ð²
ĠÐ±Ð»Ð¸ Ð·
ĠÐ´ÑĥÐ¼ Ð°Ð»
ĠÐ»Ð°Ð´ Ð¾Ð½
ĠÐ»Ð¸ ÑĨÐ°
ĠÑģÐ» ÑĥÑĪ
ĠÑĢÐ°Ð· Ð¼
ĠÐ¾ÑĤÐ²ÐµÑĤ Ð¸Ð»Ð°
ĠÐ¼Ð¾ Ñİ
ÐµÑĢ Ðµ
ĠÐ´ ÐµÐ»Ð°
ĠÑģÐ» ÐµÐ³ÐºÐ°
ĠÐ·Ð½Ð° ÐµÑĤ
ÐµÑģÑĤ Ð½Ð¾
ÐµÐ» Ñİ
ĠÐ¿ÐµÑĢ ÐµÑģÑĤ
ĠÐ³Ð¾Ð²Ð¾ÑĢ Ð¸Ð»
ĠÐ¼ Ð³Ð½Ð¾Ð²
ĠÐ´ Ð¾Ðº
ĠÐºÐ¾ÑĤÐ¾ÑĢ Ð¾Ð³Ð¾
ÐµÐ½ Ð½ÑĭÐµ
ÑĤ ÑĢÐ°
Ð½Ð¸ ÐºÐ¸
ĠÐ¿ÑĭÑĤ Ð°ÑıÑģÑĮ
Ð½Ð° ÑĤÑĮ
ĠÐ² Ð¾ÐºÑĢÑĥÐ³
ĠÐŁ ÑĢÐ¾ÑģÑĤÐ¾
ÐµÑģÑĤ ÑĮ
ĠÐ´ Ð¾Ð²Ð¾Ð»ÑĮÐ½Ð¾
Ð½Ñĥ Ð»Ð¸
ĠÑģÐ¿Ð¾ÐºÐ¾Ð¹ Ð½Ð¾
ÑĭÐ² Ð°Ð»
ĠÐ² Ð½Ð¸Ð·
Ð°Ð½ Ð´
ĠÑģÐº Ð¾ÑĢÐ¾
Ð¾Ð¶ Ð°
ĠÐ·Ð½Ð° ÑĩÐ¸ÑĤ
Ð½Ñĥ Ð»Ð¸ÑģÑĮ
Ð»Ð¸ Ñĩ
ĠÑģÐ¿ Ð¾ÑģÐ¾Ð±
ĠÐ±ÑĢ Ñİ
Ð» ÐµÐ¹
Ð¿ Ð¾Ð´
ĠÐ³ ÑĢ
ĠÐºÐ¾Ð¼ Ð¿
Ð» ÐµÐ½Ð¸Ñı
ĠÐ³Ð¾Ð²Ð¾ÑĢ Ð¸ÑĤÑĮ
ĠÐ¶Ð¸Ð² Ð¾ÑĤ
Ñĭ Ð¿
ĠÐ·Ð°Ð¼ÐµÑĤ Ð¸Ð»
ĠÐ¾ÑĤ Ñģ
ÑĢÐ° Ñĩ
ĠÐ¼ ÐµÑģÑĤÐµ
ÑĤ Ð¸Ð²
Ð°Ð¹ ÑĤÐµ
Ð¼ ÐµÑĤ
ÑĢ Ð¾Ð½
ĠÐ¼ Ð°ÑĤ
ĠÐ¥Ð¾ÑĤ Ñı
ĠÐ¾ÑģÑĤ Ð°Ð»ÑĮ
Ð· Ñı
ĠÑģÑĤ ÑĢÐ°ÑĪ
ĠÐ³Ð» ÑĥÐ¿
ĠÑĩ ÐµÑĤ
ĠÐ²ÑģÑĤÑĢ ÐµÑĤ
ĠÐ¾Ð³ ÑĢÐ¾Ð¼
Ðŀ Ð½Ð°
ĠÐºÐ¸Ð² Ð½ÑĥÐ»
ÐĶ Ð°
ĠÐ´ Ð¸Ð²
ĠÑĢÑĥ Ðº
ÐµÑĢ Ñĥ
ĠÐ½ÐµÐ± Ð¾Ð»ÑĮ
ĠÑģÐ¾Ð± Ð¸ÑĢÐ°
Ð½ Ð°ÐºÐ¾Ð¼
ĠÐ»ÑİÐ± Ð¾Ð²
ĠÐľ Ð°Ðº
ĠÐº Ð½Ð¸
ĠÑıÐ² Ð½Ð¾
Ñį ÑĢ
ĠÐĿ Ð°ÑĢÑĥÑĤÐ¾
Ð°Ð³ Ð¾Ð´
ĠÑĤÐ¾ Ð½
ĠÐ¿Ð¾ÑģÐ¼Ð¾ÑĤÑĢ ÐµÐ»Ð°
ĠÑģÐ¼ ÐµÑĢ
ĠÑĢ Ð°Ð½ÑĮÑĪÐµ
Ð¼Ð°ÑĤ ÑĢÐ¸Ð²
ĠÑģÑĤ Ð°Ð½Ð¾Ð²
ĠÐº Ð°Ð·Ð°Ð»Ð¾ÑģÑĮ
ĠÑģÐ¾ Ð¾Ð±
ĠÑģÐº Ð¾ÑĢ
Ð½Ð¸Ðº Ð¾Ð²
ĠÑĢÐ°Ð·Ð³ Ð¾Ð²Ð¾ÑĢ
ÑĦ Ð¾ÑĢ
Ðļ Ð°Ðº
ĠÐĵ ÐµÑĢ
ĠÐŀ Ð´
ÑĤÐ¾ Ð»ÑĮÐºÐ¾
ĠÐ¿Ð¾ Ð½
ĠÐĿ Ð°Ð´
ĠÑģÐ²Ð¾ Ðµ
ĠÐ´ ÐµÐ¼
ÑĢÐ¸ Ð¿
ĠÐ·Ð°Ð¼ ÐµÑĩ
ĠÑģÑĤÐ¾ ÑıÐ»
ĠÑģ ÐºÑĥ
ĠÑģÐ°Ð¼ Ð¾Ð¼
Ð°Ð· Ð°ÑĤÑĮ
ĠÐ¾Ð±ÑĬ ÑıÑģ
ÑĢÐ¾ÑĤ Ð¸Ð²
ĠÐ¾Ð´ Ð½Ð°
ĠÐĵ ÑĢ
ĠÐ¾Ñĩ ÐµÑĢÐµÐ´
ĠÐºÐ¾Ð¼Ð½Ð° ÑĤÐµ
ĠÑģÐ¼ Ð¾ÑĤÑĢÑı
ĠÐ¿ÑĢÐ¸ ÑħÐ¾Ð´
ĠÐºÐ°Ð¶Ð´ ÑĭÐ¹
ĠÐ¿ÑĢ Ð¸Ð¼
ĠÐ¿ÑĢÐ¸ ÑĪÐ»Ð¾
ĠÑĩÐµÐ»Ð¾Ð²ÐµÐº Ð°
ĠÐ² Ð°Ð¶
ĠÐ»ÑİÐ± Ð»Ñİ
ĠÐµ Ð´Ð¸Ð½
ĠÐ° Ð²
Ð» Ð¾Ð¼
Ñı Ñħ
ĠÐ½Ð° ÑĩÐ¸Ð½Ð°
ÐµÑĤ Ð°
Ð¹ ÑĤÐ¸
ĠÐ¾Ð± Ð½Ñı
ÐµÑĩ ÑĮ
Ð» Ñĥ
ĠÐ²Ð¾Ð· Ð²
ĠÐ¼Ð¾Ð» Ð¾Ð´
Ð¾ ÑģÑĤÐ¸
Ñĥ ÑģÐº
ĠÐ¿Ð¾Ð´ Ð½Ð¸Ð¼
ĠÐ½ Ð¸Ð¼Ð¸
ÐµÐ» ÐµÐ¹
Ð¾Ð¶ Ð°Ð»
ĠÑĢ Ð¾ÑĤ
ĠÐºÑĢÐ°Ñģ Ð¸Ð²
Ð°Ð³Ð¾Ð´ Ð°ÑĢ
ÑĥÐ¶ Ð´
ĠÐ· Ð°ÑĢ
ĠÐ¿ÑĢÐ¾Ð± Ð»ÐµÐ¼
ĠÑģÑĤ ÑĢ
ĠÐ½Ðµ Ð¾Ð¶Ð¸Ð´Ð°
ĠÐº Ð¾Ñģ
Ð½Ð¸ Ð²
ĠÐ¿ÑĢ Ð¾Ðº
ĠÐ¿ ÑĥÑģÑĤ
Ð°Ð½ Ð½ÑĭÐ¹
ĠÑģÐ°Ð¼ Ð¾Ð³Ð¾
ĠÐ±Ð»Ð¾Ð½ Ð´Ð¸Ð½
ĠÐ´Ð² Ð¸Ð¶
Ð½ ÐµÐ³Ð¾
ĠÐ¾Ð¿ ÑıÑĤÑĮ
ĠÐ½ ÐµÑĢÐ²
ĠÐºÐ¾ÑĢ Ð¸Ð´
Ð¸Ð² Ð°Ñİ
Ð»Ñİ Ð±
ĠÐĶ Ð°Ð¶Ðµ
ĠÐ±Ñĭ Ð²
ĠÑģÐ´ ÐµÑĢÐ¶
ĠÐ¢ ÐµÐ¿ÐµÑĢÑĮ
ÐµÐ½ Ð½ÑĭÐ¼
ÑĪ Ð¸Ð¼
ĠÐ¿Ð¾Ð½Ñı ÑĤÑĮ
ĠÐºÐ¾ÑĤÐ¾ ÑĢÑĥÑİ
Ð» Ð°Ð·
ĠÑģ Ð¾Ð¿
Ð¾Ð¹ Ð´
ĠÐ¼ÐµÑģÑĤ Ð°
ÑĦ Ðµ
Ñį Ð¹
ĠÐºÐ°Ð± Ð¸Ð½
ĠÐ¡ Ð°ÑģÐºÐµ
ĠÑģÐ» Ð°Ð±
Ð½ ÐµÐ·
Ð¸ ÐºÐ°
ÑĢÐ¸ Ðº
ÑģÐº Ð¾Ð¹
Ð¢ Ñĭ
ĠÐ¿ÑĢÐ¾ÑĪ ÐµÐ¿ÑĤ
ĠÐ½ÐµÐ½ Ð°Ð²
Ñĩ Ñĥ
Ð¸Ð½ ÑĤÐµÑĢÐµÑģ
ĠÐ¸ Ð´Ðµ
Ð» ÑĥÐ±
ÑģÑĤÐ² Ðµ
Ð»Ñı ÑĤÑĮ
ĠÐ´ Ð½Ñı
ĠÐ¼Ð¾ ÐµÐ³Ð¾
ĠÑĤ Ðµ
ĠÐ³Ð¾ ÑĢÑı
ĠÐ² ÐµÑĤ
ĠÑĤÐ°Ðº Ð¸Ðµ
ĠÐ½Ð°Ð¿ ÑĢÑı
Ð½Ð¸ ÑĨÑĭ
ĠÑģ ÑĩÐ°ÑģÑĤ
ĠÑĥÐ²Ð¸Ð´ ÐµÐ»
Ð¸Ð½ Ñģ
ĠÐ·Ð° ÑģÑĤ
ĠÐ¾Ð¿ Ð°Ñģ
ĠÐ¾Ð´ Ð½Ð¾Ð³Ð¾
ĠÐ± ÑĢÐ°
ĠÐ¿ÑĢÐµÐ´ Ð¿
ĠÐ¿Ð¾Ð½Ð¸Ð¼ Ð°Ñİ
ĠÐ»Ð¸ ÑĨÐµ
ĠÐ² Ð¾Ð²
ĠÐ¢ Ð¾Ð¼
ĠÐ¿Ð¾ÑĨ ÐµÐ»Ð¾Ð²
ĠÐ¿ÑĢÐ¸ Ð³
ĠÐ± ÐµÐ´
ĠÑģÐ»ÐµÐ´ ÑĥÑİ
Ð§ ÑĤÐ¾
ĠÑģ ÑİÐ´Ð°
ĠÐ¿ÑĢ Ð¸ÑĤ
ÐµÐ»ÑĮ Ð·Ñı
ĠÐ± Ð¾Ðº
ĠÐºÑĥ ÑĢ
ĠÐº Ð¸
ĠÑįÑĤÐ¸ Ñħ
ÐµÐ½ Ð½Ð¾Ð¹
ĠÐºÐ¾Ð¼Ð½Ð° ÑĤÑĭ
ĠÐ¾Ð± ÑĢÐ°Ð·
ĠÐ¿Ð¾Ð´ Ð±
ĠÐ¿ÑĢÐµÐ´ Ð»Ð¾Ð¶
ÐĶ Ð¶
ĠÐ²Ð· ÑıÐ»
ĠÐ»Ñİ Ð´Ð¸
ÑĢ ÐµÐ·
Ð¾Ð¹ ÑĤÐ¸
ÑĢÐ¾Ð¼ Ðµ
Ð²Ð¾Ð· ÑĮ
Ð¾Ñĩ ÐºÐ¸
ĠÑį Ðº
ĠÐ½Ð° Ñħ
ĠÑģ Ð½Ð°
ĠÐ¾ÑĤÐº ÑĢÑĭÐ²
ĠÐ¾ Ð·
Ñħ Ð°
ĠÐ¢ Ð¾Ð³Ð´Ð°
Ġ ,
ĠÑģÐ»ÑĥÑĩ Ð¸Ð»Ð¾ÑģÑĮ
Ð¾Ð· Ð¼Ð¾Ð¶Ð½Ð¾
ĠÐ¿Ð¾Ð» Ñĥ
ÑĤ Ð°Ðº
Ð» ÐµÐ³
ÑĢÐ¾ ÑģÑĤ
ĠÐ³Ð¾Ð²Ð¾ÑĢ Ð¸ÑĤ
ĠÑģÐ¸Ð»ÑĮ Ð½ÐµÐµ
Ð°ÑĢ Ð´
ĠÐĺ Ð»Ð¸
ÑĦ ÑĦ
Ð» Ð°Ð²
ÑĪÐ¸ Ð±
ÑħÐ¾Ð´ Ñı
Ð¾Ð· Ð²
Ð½ Ð³
Ð¾Ð²Ð¾ÑĢ Ð¸ÑĤÑĮ
ĠÐ¿ÐµÑĢÐ² ÑĭÐ¹
ĠÐ¿ÑĢ Ð¾Ñĩ
ĠÐ± ÐµÑĢ
ÑĢ ÐµÐ¶
ĠÐ¡ ÐµÐ¹ÑĩÐ°Ñģ
ĠÐļ ÑĤÐ¾
ĠÐ¿ÑĢÐ¾Ð¸Ð· Ð¾ÑĪ
ÑĪ Ð°
ĠÐ¾ÑĤ Ð½Ð¾ÑĪ
Ð± Ð°
ĠÑĢÐ¾Ð´ Ð¸ÑĤ
Ð¸ Ð½Ñĭ
Ñı Ð»Ð¸
ÑĤÐ¾ ÑĩÐ½Ð¾
ĠÐ²Ð¿ ÐµÑĢÐµÐ´
ĠÐ·Ð° ÑģÑĤÐ°Ð²Ð»Ñı
ĠÐ¥ Ð¾ÑĢÐ¾ÑĪÐ¾
ĠÐ³Ð»Ñı Ð´Ñı
ĠÑı ÑĢ
ĠÐ¾ ÑĢ
ĠÑĤÑĥ Ð´Ð°
ĠÐŃ Ð¼
ĠÐº Ð²Ð°ÑĢ
ĠÑģÐ²Ð¾ Ð¸Ð¼Ð¸
ĠÐºÑĢ Ð°Ð¹
ĠÐļÐ¾ Ð½ÐµÑĩÐ½Ð¾
ĠÐ¿ ÑıÑĤ
Ð¾Ñĩ ÐºÑĥ
ĠÐ· ÑĥÐ±
ĠÐ¾Ð± Ð¾
ĠÐ¿ÐµÑĢ Ðµ
ĠÐ´ÑĥÐ¼ Ð°Ñİ
ĠÐ² Ð°ÑĪ
ÑĢÐ° ÑĤÑĮÑģÑı
Ñĩ Ð¸Ð½
ĠÑģÐ¿ Ð°Ñģ
! -
Ð± Ñĥ
ĠÑģÐ¿ ÑĢÐ°ÑĪ
Ð¾Ð² Ð°Ð»ÑģÑı
ĠÐ´ ÐµÑģÑı
ÑĪ ÑĳÐ»
ĠÑĤÐ°Ðº Ð°Ñı
ĠÑģÐ² ÑıÐ·
Ñĥ Ð»ÑĮ
ÑĥÑĤ ÑģÑĤÐ²
ĠÑħÐ¾Ñĩ ÐµÑĤ
ĠÐ¾ÑĤÐ² ÐµÑĩ
ĠÐ¸Ñģ Ñĩ
ÑĢÐ¾Ð´ Ðµ
ĠÑģÑĤ Ð°ÑĢÐ°
ĠÐŁ Ð°ÑĢ
ĠÐºÑĢÐ¾Ð² Ð°ÑĤÑĮ
ÑĩÐ¸Ð² Ð¾
ĠÐ¿Ð¾Ð´ Ð´
ĠÐ¾Ð´ Ð½Ñĥ
ĠÑģÐ¿ Ð¸Ð½Ð¾Ð¹
ĠÐ¼ ÐµÐ»
ÐĿ Ñĥ
ÐµÐ² Ð°ÑĤÑĮ
ĠÑĩ ÑĳÑĢ
ĠÐľ Ð°Ð»
ÑģÑĤ Ð°ÑĤÐ¸
ĠÐ±Ð¾Ð» Ð¸
ÑĢ Ð°Ð¼
ĠÐ½ Ð¾ÑĢÐ¼
ĠÐ´ ÑĭÑħ
Ð° Ð½Ð¾
Ð°Ð´ÑĨ Ð°ÑĤÑĮ
ÐµÑĢ ÐµÐ·
ĠÐ·Ð½ Ð°Ð»Ð°
Ð¾Ð· Ñı
ĠÐ¾Ð±ÑĢÐ°ÑĤ Ð½Ð¾
ĠÐ±Ð»Ð¸ Ð¶Ðµ
Ð½ÐµÐ· Ð°Ð¿
ÑģÑĤÐ° ÑĤÐ¾ÑĩÐ½Ð¾
ÐµÐ¶ Ð´Ðµ
ĠÐ¸Ð· Ð±
ĠÐ¿Ð°Ð»ÑĮ ÑĨÑĭ
Ð½Ñĥ Ð»Ð¾
Ð» Ð¾ÑĤ
ĠÐ½Ð°Ð¹ ÑĤÐ¸
Ð¸ Ñī
ĠÐ¾Ð± ÐµÑĢ
ÐŃ ÑĤÐ¾
Ð°Ðº ÑĤÐ¸
ĠÑĤÐµÐ»ÐµÑĦ Ð¾Ð½
ĠÑĥ ÑģÑĤÐ°Ð²
Ð» Ð°Ð±
ĠÑħ Ð¾ÑĢÐ¾ÑĪ
ĠÐ·Ð° ÑĩÐµÐ¼
ĠÐ·Ð° Ñħ
ĠÐ¾Ñģ ÑĤÐ¾ÑĢ
ĠÐ½ Ð°Ð³
ĠÐ¾Ð´ Ð½Ð¾
ĠÐ¶ Ð°Ð»
ĠÑģÐ¾Ñģ ÑĤÐ¾Ñı
ĠÐ¿ÑĢÐ¸ Ð¿
ĠÑģÐ¿ ÑĥÑģÑĤ
Ð¼Ñĥ ÑĢ
Ð³ Ñĥ
ĠÐ¼Ð¾Ð¶ ÐµÑĪÑĮ
ĠÐ´ÐµÐ» Ðµ
ĠÐ¸ÑģÑĩ ÐµÐ·
ÐµÐ½ Ð½Ð¾Ð³Ð¾
Ð°Ð½ Ñģ
ĠÐľ Ð¸
ĠÐ¿ Ð°Ð»
ĠÑįÑĤ Ð¾Ð¼Ñĥ
ĠÐ¿Ð»ÐµÑĩ Ð¾
ĠÐ²Ñĭ ÑĪÐµÐ»
ÐµÐ¶ Ð°Ð»
ÐµÑĢ Ðº
ĠÐĶÐ¶ ÐµÐ¹
ĠÐĽ Ð¸
ĠÐº Ð°
Ð¸ ÑģÐº
ĠÑĤÑıÐ¶ ÐµÐ»Ð¾
ÑĢ Ð°Ð³
ĠÐ¿ÑĢÐµÐ´ ÑģÑĤÐ°Ð²
ĠÐ½Ð°Ñģ ÑĤÐ¾Ð»ÑĮÐºÐ¾
Ð´ Ð¾Ð¼
ĠÐĶÐ¶ Ð¾Ð½
ĠÑģÑĩÐ°ÑģÑĤ Ð»Ð¸Ð²
ĠÐ¿Ð¾Ð½Ñı Ð»Ð°
Ð¾Ð» Ð½Ðµ
Ð½Ð¸ ÑĨÑĥ
ĠÐ¼ÑĥÐ¶ ÑĩÐ¸
Ð½Ð¸ Ñħ
ĠÑĥÑģÐ¿ ÐµÐ»
ĠÑģ Ð¾Ð½
ÑĳÑĤ ÑģÑı
ÑĪ ÐºÐ°
ÐµÐ¶ Ð°Ð»Ð°
Ðŀ ÑĤ
ĠÐ²Ð·Ð´Ð¾Ñħ Ð½ÑĥÐ»
Ð°Ðº Ð°
Ð¾Ð²Ð¾ÑĢ Ð¸Ð»
ĠÑĥÑħ Ð¼Ñĭ
ĠÐ± ÑĥÐº
ĠÐ¾Ð± ÑĢÐ°Ñī
ÑĥÐ¹ ÑģÑĤÐ°
Ð½Ð° Ñĩ
ÑĤ Ñı
ÑĤÐ¾ Ð»
Ñį Ð¼
ĠÐ¸Ð· Ð¼ÐµÐ½
ĠÐ±ÑĢÑİ Ð½ÐµÑĤ
ĠÐ²Ð¾Ð·Ð² ÑĢÐ°Ñī
ĠÑģÐ² Ð¾Ð±Ð¾Ð´
ĠÐĽ Ð°Ð´Ð½Ð¾
ĠÐĵÐµÑĢ Ð¼Ð¸
Ð¸ÑĤ Ð°
Ð½ Ð°Ð²
ĠÐ´ Ð»Ð¸Ð½
ĠÐĴÑģ Ñĳ
ĠÐºÐ²Ð°ÑĢ ÑĤÐ¸
Ð¸ÑĤÑĥ Ð°
Ð°Ð¹ ÑģÑı
ĠÐľ Ð°Ð¹
ĠÐ·Ð°Ð± Ñĭ
ĠÐ¼ ÐµÑģÑı
Ð½Ð¸ ÑĨÐµ
ĠÐ²Ñĭ Ð´Ð¾Ñħ
ĠÐ± ÑĢÐ¾Ð²
ĠÑĩ Ð¸ÑĤ
ĠÑģÐ¿ ÑĢÐ°Ð²
ÑĢ ÑĮ
ĠÐ½Ð°Ð¿ Ð¾Ð¼
ĠÐ² Ð¾ÑĪ
Ð¿ Ð¸
ĠÐ´ÑĢÑĥÐ· ÑĮÑı
ĠÐĶ ÐµÐ²ÑĥÑĪÐºÐ°
ĠÐ¿Ð»ÐµÑĩ Ð°Ð¼Ð¸
ÑĪ Ñĥ
Ð¸Ð» Ð»
Ð¾Ð» Ð¾Ð¶
Ð¸Ñģ Ñģ
ĠÐ¿Ð¾Ð¼ Ð¾Ñī
ĠÐº ÑĢÑĥ
ĠÐ´Ð¾Ð»Ð¶ Ð½Ð°
ĠÐ½Ð¾Ñĩ ÑĮ
ĠÐ¿ÑĢÐ¾Ð² Ð¾Ð´
ÑĨ ÐµÐ½
Ñĥ Ð´Ð°
Ðļ Ð¾Ð³Ð´Ð°
ĠÐ·Ð°Ð¿ Ð°Ñħ
Ð² Ðµ
ÑĨ ÐµÐ¿
ĠÑĢÐµÑĪ Ð¸Ð»Ð°
ĠÐŃ Ð¹
ĠÑģÐ¾Ð± Ð¸ÑĢ
ĠÐ¾ÑĤ ÐµÑĨ
ĠÑĪ ÐµÑİ
ĠÑģ Ð¾Ð¼
ĠÐ½ÐµÐº Ð¾ÑĤÐ¾
ĠÐ¿ÑĢ ÐµÐ²
ĠÐ¡Ð¿ Ð°ÑģÐ¸Ð±Ð¾
ĠÐ¿ Ð°Ð¿
ĠÐ¸Ð´ ÑĤÐ¸
Ð³Ð¾ ÑĤÐ¾Ð²
ĠÐ¶ ÐµÑģÑĤ
ĠÐĽÑİ ÑģÐ¸
Ñĥ ÐºÐ¸
ĠÐ²Ñģ Ðº
Ð¸ ÑĩÐµÑģ
ĠÐ¿ÑĢÐ¸ÑĪÐ»Ð¾ ÑģÑĮ
ÐµÑģ Ð¿
ĠÐ²Ð½ÑĥÑĤ ÑĢÐ¸
ÐµÐ» ÑģÑı
Ñģ ÐºÐ¸Ð¹
ĠÐ¼ Ð°Ñģ
Ñģ ÐºÐ¸
ĠÑĥÑģÐ¼ÐµÑħ Ð½ÑĥÐ»ÑģÑı
Ðº Ð°Ð¼
ĠÑģ Ð¸ÑĤÑĥÐ°
! "
ĠÐ±ÑĢÐ° ÑĤÐ°
ĠÐ¿Ð¾Ñģ Ð¿
ĠÐºÐ°Ðº Ð¸Ðµ
ĠÑģ ÑĢÐµÐ´
ĠÐ½Ð°Ñģ ÑĤÐ¾Ñı
Ð° ÑģÑĤÑĮ
ĠÑģÐµÐ¼ ÑĮ
ĠÐ¿ÐµÑĢ ÐµÐ±
ĠÐ±Ð¾Ð»ÑĮ Ð½Ð¾
Ð¾ ÑģÑĤÑĮ
ĠÐ¿ÑĭÑĤ Ð°Ð»ÑģÑı
ĠÐ½ÐµÐ¿ ÑĢÐ¸
ĠÑĥÐ»ÑĭÐ± ÐºÐ¾Ð¹
ÑĢÐ¸Ð² ÐµÑĤ
ĠÐ» ÐµÑģ
Ð´ ÑĮ
ÐºÐ¾ Ñĩ
ĠÑģÐ°Ð¼ Ð¾Ðµ
ĠÐ· Ð°Ð¶
ÑĤÐ¾ ÑĢÐ°
ĠÐĳ Ñĭ
ÐµÐ¶ Ð°ÑĤÑĮ
Ð¾Ðº Ð¸
ĠÑģÐ¶ Ð¸Ð¼
ĠÐ·Ð½Ð° ÑĤÑĮ
Ð° ÑģÑĤÐ¸
ĠÐºÐ¾ÑĤÐ¾ÑĢÑĭ Ñħ
ĠÐ²Ð¸Ð´ ÐµÑĤÑĮ
ĠÐ¿ ÐµÑģ
ĠÐ½ ÐµÐ»ÑĮÐ·Ñı
Ð¸Ð»ÑĮ Ð½Ð¾
Ġ 1
ĠÐĺ Ð½
ĠÐ¿Ð¾Ð» Ð½Ð¾ÑģÑĤÑĮÑİ
Ð»Ñĭ Ð¹
Ð²Ð¾ Ðµ
ÑīÐµ ÑģÑĤÐ²
Ñį Ð»ÑĮ
ĠÑĤ Ð²Ð¾Ð¹
ĠÐ»Ð¸ ÑĪ
ĠÐ¿ÑĢ Ð¾Ð¼
ĠÑģÐ¼ ÑĭÑģ
ĠÑĢÐ°Ñģ Ðº
ĠÑģÐ¼ ÐµÑĪ
ĠÐ±ÑĥÐ´ ÐµÑĪÑĮ
Ð´ Ð°Ð»
ĠÐ¢ Ð¾
ĠÐº Ð°Ñģ
ĠÐ· Ð»
Ð°Ð² ÐµÑĢ
ĠÐ¾ÑĤ Ñĩ
ĠÑģÐ¾Ð¾Ð± Ñī
ĠÐ¾ Ð½Ð¾
ĠÑģÐµÐºÑĥÐ½ Ð´Ñĥ
ĠÐ¿ÐµÑĢ ÐµÐ¶
ÐµÐ´ Ð¸
ĠÑĤÐ¾ Ñĩ
ĠÐ¸ÑģÐ¿ ÑĥÐ³
Ð»Ñı Ñı
ĠÐ² Ñĩ
ĠÑģÐ¼Ð¾ÑĤÑĢ ÐµÑĤÑĮ
ĠÑĥÑģÐ¿ Ð¾ÐºÐ¾
ĠÑģÐ¸Ð´ ÐµÐ»
ĠÐĲ Ð»ÐµÐº
ÑĢÐ¾Ñģ Ð¸Ð»
ĠÑģÐ» Ð¾Ð¶
ĠÑĪ ÐµÐ¿
ĠÑģÐ°Ð¼ ÑĭÐ¹
ĠÑĩ Ð»ÐµÐ½
ÑĥÐ¶ ÐµÐ»Ð¸
ĠÐ³Ð¾ ÑģÑĤ
Ð´Ð¾ÑĢ Ð¾Ð²
ĠÐ»ÐµÐ³ ÐºÐ¾
ĠÐº ÑĢÐ¾Ð¼Ðµ
ĠÐ²Ñģ Ð¿
ĠÑĥÐ²Ð¸Ð´ ÐµÐ»Ð°
ĠÑģÐº Ð¾Ð»ÑĮÐºÐ¾
ĠÐ¾ Ñħ
ĠÐºÐ¾ÑĢ Ð¾ÑĤ
ÑģÑĤ ÑĢÐ°
ĠÐ¼Ð¾ Ð¸Ñħ
ĠÐº ÐµÐ¼
ĠÐ¿Ð¾Ð¼ Ð¾ÑĩÑĮ
ÑĢ Ð°Ð»Ð°
ĠÑģÐ¼Ð¾ÑĤÑĢ Ð¸ÑĤ
ĠÑĤÐ¸ ÑĪÐ¸
Ð°Ð»ÐµÐº Ð¾
Ðº Ð»Ð¸
ĠÐ²Ðµ ÑīÐ¸
Ð°Ð½ Ð½ÑĭÐµ
Ð°Ð½Ð¸ Ð¸
ĠÐ¸ Ð´Ð¸
ĠÐ¿Ð»ÐµÑĩ Ð¸
ĠÐ½ÑĢÐ°Ð² Ð¸ÑĤÑģÑı
ÐµÐ½Ð½Ð¾ Ðµ
Ð°Ð· Ð°Ð»Ð°
ĠÑģ ÑĥÐ´
Ðľ Ñĭ
ĠÑģÐ¿ Ð°ÑĤÑĮ
ĠÐºÑĢ ÐµÑģ
Ñĳ Ð·
Ð¾ÑĢÐ° ÑĩÐ¸Ð²
Ð¾ÑĤ Ð°
ĠÑĢÑĥ Ð±
ĠÐ¿ Ð°Ð´
Ð½Ñı ÑĤÑĮ
ĠÑĩ ÑĥÐ´
Ð¸Ð² Ð°ÑıÑģÑĮ
Ð¾ÑĢ ÑĤ
ĠÑģÑĤ Ð°Ð»Ð¸
ĠÐ´ Ð¶
ĠÐļ Ð°Ð¶
ÑģÑĤ ÐµÑĢ
ĠÐ¿Ð¾ ÑģÑĤÐ°Ð²
ĠÑĤÐµÐ¼ Ð½Ð¾
ĠÐĴ ÐµÐ´ÑĮ
ĠÑĢ ÐµÐ±Ñı
ÑĢ Ð¾Ð¹
ÐŁ Ð¾Ñģ
ĠÐ¶ Ð¸ÑĤÑĮ
ĠÐ¿Ð¾Ð´ Ð°ÑĢ
Ñĳ Ñģ
ĠÐ¿Ð¾ ÑģÑĤÑĥÐ¿
ĠÐ· Ð²Ð¾Ð½
ĠÐ²ÑĤÐ¾ÑĢ Ð¾Ð¹
? "
ĠÑģÐº Ð²Ð¾Ð·ÑĮ
Ð² Ñĭ
Ñĥ Ð»Ñı
ĠÐ± Ð°ÑĢ
ĠÐº Ð»Ð°Ñģ
ĠÑģÐ»ÑĥÑĩ Ð°
Ð¾Ð» Ð¾
ĠÐ± ÐµÐ³
ĠÐ¸Ð¼ Ñı
Ðµ ÐµÑĤ
ĠÐ²Ð¾Ñģ Ð¿
ĠÐ² ÐµÐ»Ð¸
ĠÐ²Ð½Ð¸Ð¼ Ð°Ð½Ð¸Ðµ
ĠÐ¼ Ð°Ð»Ð¾
ĠÑĢÐ°Ð·Ð´ ÑĢÐ°Ð¶
ĠÐ¿Ð¾ÑĢÑıÐ´ ÐºÐµ
Ð¾Ð» ÐµÐ²
ĠÐ¾Ð± Ñģ
ĠÐ¢ ÐµÐ±Ðµ
ĠÐ¿Ð¾Ñģ ÑĤÐ¾Ñı
ĠÐ¾Ð¶ Ð¸Ð´
Ð½Ñı Ñı
ĠÑĥÐ²ÐµÑĢ ÐµÐ½
ĠÐ½Ð°Ð²ÐµÑĢ Ð½Ð¾Ðµ
ĠÐ² Ð°Ð½
ĠÐ° ÑĢ
ĠÐ´ ÑĭÑĪ
ÑĢÐ° ÑĦ
ĠÐ¿Ð°Ð»ÑĮÑĨ Ð°Ð¼Ð¸
ĠÐ ¦
ĠÑģÐµÑĢÑĮ ÐµÐ·
ÐºÑĥ ÑĢÐ°ÑĤ
Ð½ÐµÐ·Ð°Ð¿ Ð½Ð¾
Ð½Ð° ÑĩÐµ
ĠÐ·Ð° Ð½Ð¸Ð¼
ĠÑį Ð¼Ð¾
ĠÑģÐµÐºÑĥÐ½ Ð´
ĠÑĢÐµÐ± ÐµÐ½
Ð´Ð° Ñı
ĠÐĶ Ð°Ð²
ÑıÑĤ ÑģÑı
ÑĥÑģ ÐºÐ°
Ð ¨
ĠÑģÐ»ÑĥÑĩ Ð°Ð¹
ĠÑģ ÑĩÐ°
Ð» Ð°Ðº
ĠÐ¿ÑĢÐ¸ ÑıÑĤ
ĠÐ¾Ð± ÐµÑī
ĠÐĺ Ð¼
ĠÐ¼ ÐµÑĪ
ĠÐ¾Ð± Ð½Ð¸Ð¼
ĠÐ¼Ð¾ Ðµ
Ð¾ÑĢ Ð¸
Ð°Ñİ ÑīÐ¸Ð¹
ĠÐ¿ ÑıÑĤÑĮ
Ð± Ñĭ
ÑĨ Ð¾Ð²
Ð¿ Ð°
ĠÐ¿Ð»Ð¾Ñħ Ð¾
Ð½Ð° Ð½Ð¸Ðµ
ĠÐ´Ð¾ ÑģÑĤÐ°ÑĤÐ¾ÑĩÐ½Ð¾
Ð¾ Ñı
ĠÐ¶ÐµÐ½ÑīÐ¸ Ð½Ð°
Ð¾Ð²Ð¾Ð»ÑĮ ÑģÑĤÐ²
ÐµÑİ ÑģÑĮ
ĠÑģÐº ÑĢÑĭ
Ð½ Ð¸Ð»Ð°
ĠÐĴ Ð¾
ÑĢÑĭ Ðµ
Ð¾Ð· ÑĢ
Ð° Ñī
ĠÐ±ÑĥÐ´ ÑĥÑĤ
ĠÑĢÐ°Ð· Ð²ÐµÑĢ
ĠÐºÐ¾ÑĤÐ¾ ÑĢÐ¾Ðµ
ĠÑģÐ¼ ÐµÑħ
ĠÐĳ Ð»
ĠÐºÐ¾Ð½ ÑĨÐµ
ÑĢÐ° Ñħ
Ð¾ÑĢ Ð¾Ð´
ĠÐ² Ð¸Ð½Ð¾Ð²
Ð°Ð½ Ð½Ð¾
Ðº Ð»ÑİÑĩ
ĠÐ¿Ð»Ð° ÑĤÑĮ
ĠÐ² ÐµÐ´
ĠÑħ Ð¾Ð·Ñı
ĠÐº ÑĥÐ¿
ĠÐ¿ÑĢÐ¾Ð¸Ð·Ð¾ÑĪ Ð»Ð¾
ĠÐ¢ ÐµÐ¼
ÑĨ ÐµÐ²
Ð½Ð¸ ÑĨ
Ð¾Ð»ÑĮ Ð½Ð¾
Ð¸ Ð½Ð¾
ĠÐºÑĢÐ¾Ð² ÑĮ
ĠÑĢÐ°ÑģÑģÐº Ð°Ð·ÑĭÐ²
ÐºÐ¸ Ð¼Ð¸
ĠÐĶÑĢ Ð°ÐºÐ¾
ĠÐ¾Ñģ Ð¾Ð·
Ð°ÑĪ Ð°
Ð¸Ð¼ ÑģÑı
ĠÐºÑĢÐ¾Ð² Ð¸
ĠÑĤ Ð¾Ð¹
Ð± Ñģ
ĠÐ¾ÑģÑĤÐ¾ÑĢ Ð¾Ð¶Ð½Ð¾
ÑħÐ¾Ð´ Ð¸ÑĤÑĮ
ĠÐ´Ð¾Ð± Ð°Ð²
ĠÑĪ Ð¾Ðº
ÑĪÐµ Ðµ
ĠÐ¼ Ð»Ð°Ð´
ĠÐ´Ð² Ð¸Ð³
ĠÐ´Ð² Ðµ
ĠÑģ ÐµÐ»
ĠÑģÐºÐ¾ÑĢ ÐµÐµ
ĠÑģÑĤÑĢÐ°Ð½ Ð½Ð¾
ĠÐ·Ð°Ð¼ ÐµÑĢ
Ñħ Ñĥ
ĠÐļ Ð°ÑĢ
Ð¸Ð² Ð¾
Ð¼ Ð°Ð½
ĠÐ» Ð°Ñģ
ĠÐ¼ Ð°Ð¼
ĠÑĩ ÑĥÐ¶
ĠÑģÐ¿ Ð¸Ð½Ñĥ
ĠÐĽÑĥ Ð¸
ĠÐ¿Ð¾Ð´Ð½Ñı Ð»
ĠÐ¾Ð±Ñĭ ÑĩÐ½Ð¾
ĠÐ¿Ð¾Ñħ Ð¾Ð¶
ĠÐ¾ ÐºÐ¾Ð½
ĠÐ³Ð¾Ð»Ð¾Ñģ Ð¾Ð¼
ÐµÐ½ Ð½ÑĭÑħ
ÑĤÐ¾ Ð½
Ð± Ð¾Ð»
ĠÑĪ ÑĥÐ¼
ÐµÐ½ ÑĤÐ°
Ð² Ð¾Ð´
ĠÑģ Ð½
ĠÑĥ Ð´Ð°
ĠÐ½Ðµ Ð¾Ð±
ĠÐ¿Ð¾Ð´Ð¾ÑĪ ÐµÐ»
ĠÐŁÐ¾Ñģ Ð»Ðµ
Ð°ÑĢ Ð¾Ð²
ÐµÐ½ Ð½Ð°Ñı
ĠÐ¿Ð¾ ÑĪÐ»Ð°
Ð»Ñĭ Ðµ
ĠÐļ Ð¾ÑĢ
ĠÐ½ Ð¾Ð¼
ĠÐ·Ð°Ðº ÑĢÑĭÐ²
ÐµÑĪÑĮ ÑģÑı
ĠÐ¿ÑĢÐ¾ÑĤ ÑıÐ½ÑĥÐ»
ÐµÐ»ÑĮ Ð½Ð¾
ĠÐ²Ñĭ ÑĢÐ°Ð¶
ĠÐ´ ÑĢÑĥÐ¶
ĠÐ»Ð°Ð´ Ð½Ð¾
ĠÐ¸Ñģ ÑĤÐ¾ÑĢÐ¸
Ð°Ð² Ð»Ð¸Ð²
ĠÐ²Ñģ ÐµÐ¹
Ð¢ Ð°Ðº
ĠÐ¿Ð¾ÑģÐ»ÐµÐ´ Ð½Ð¸Ð¹
Ð»Ñı ÐµÑĤÑģÑı
ĠÐķ Ð¼Ñĥ
ĠÐ´ÑĥÐ¼ Ð°ÑĤÑĮ
ĠÐ¾ Ð¼
ÐµÑģ Ðº
ĠÑģÐ»ÑĥÑĩÐ° Ðµ
ĠÐ´ Ñĥ
ĠÐ¿ÐµÑĢ ÐµÐ¿
ĠÐ¡ Ð°Ðº
ÑĢ Ð¸Ð½
Ð¾Ð» ÐµÑĤ
ĠÐ·Ð°Ð² ÑĤÑĢÐ°
ĠÐ· Ð»Ð¾
ĠÐ¿ ÐµÑĩ
ĠÐ²ÑģÑĤ Ð°Ð»
ĠÐ± Ð¾Ð³
ĠÑģÐ°Ð¼ Ð¾Ð¹
ĠÐ¾Ñģ Ð²
ĠÐ¿ Ð°
ĠÐ¾Ð¶ Ð¸Ð´Ð°
ĠÐ² ÑĢÐ¾Ð´Ðµ
ĠÐ¾ ÑĪÐ¸Ð±
ĠÐ±Ð» Ð°Ð³Ð¾Ð´Ð°ÑĢ
ĠÐ²Ð¸Ð´ ÐµÐ»Ð°
ÐºÐ° Ð½
ĠÑĩÑĥ Ð²
ÐµÐ· Ð´
ĠÐ¿ÑĢÐ¾Ð¸Ñģ ÑħÐ¾Ð´Ð¸ÑĤ
Ñĩ Ð°ÑĤÑĮ
ĠÐ¾ÐºÐ°Ð· Ð°Ð»ÑģÑı
ĠÐ¿Ð¾Ð´ÑĥÐ¼ Ð°Ð»
Ð¸Ð½ Ñı
ĠÐ¼ Ð°Ð¼Ð°
ÑĢÐ°Ð² Ð´Ð°
ĠÐŁ Ð¾Ð»
ĠÐ¾Ð± ÑıÐ·
ÐµÑĢ Ð³
ĠÐ²Ð½Ð¸Ð¼ Ð°Ð½Ð¸Ñı
ĠÐ¿ÑĢ Ð°ÐºÑĤÐ¸
ĠÑĥÐ²Ð¸Ð´ ÐµÑĤÑĮ
ĠÐ¨ ÐµÑĢ
ĠÑĤÐµÑĢ Ð¿
ĠÑĥ Ð³Ð¾
ĠÐºÐ°Ðº Ð°Ñı
ĠÑģÑĤÐ¾ Ð»ÑĮÐºÐ¾
ĠÐ´ÑĭÑħ Ð°Ð½Ð¸Ðµ
ĠÐ¾Ð±Ñĭ Ñĩ
ÑİÑĤ ÑģÑı
ĠÐ²ÑĭÑģ Ð¾Ðº
ĠÐ½ÐµÐ±Ð¾Ð»ÑĮ ÑĪ
Ð¸Ñģ ÑĤÐ¾
ĠÐ¼ Ð°Ð½
ĠÐ¿ÑĢÐµÐ´ ÑģÑĤÐ°Ð²Ð»Ñı
ĠÑģ Ð°Ð´
ĠÐ¾ÑĤ ÑĨÐ°
Ð¸Ð² Ð°Ð»Ð°
ĠÐ³ÑĢÐ¾Ð¼ ÐºÐ¾
ĠÐµÐ´Ð¸Ð½ ÑģÑĤÐ²ÐµÐ½
Ð² Ð°ÑĤÑĮ
ĠÐ¿ÑĢÐµÐºÑĢÐ°Ñģ Ð½Ð¾
ĠÐ¾ÑģÑĤ Ð°Ð½
ĠÐ²Ð· Ð´ÑĢ
ĠÐĶ Ð¾
ĠÐ¼ Ð°ÑĤÑĮ
ĠÐ¾ Ð³Ð¾
ĠÐ´ Ð¾Ð¿
ĠÑģ Ð¾Ð»Ð½
ĠÑģÐ» Ð°Ð´
ĠÑħÐ¾Ñĩ ÐµÑĤÑģÑı
ÐµÑĢÐ² ÑĭÐµ
ĠÑĩ ÑĳÐ¼
ĠÑģÐ¼Ð¾ÑĤÑĢ ÐµÐ»Ð°
â Ģ
ĠÐ¿ÑĢÐ¾Ð¸Ð·Ð½ÐµÑģ Ð»Ð°
ĠÐ´ Ð¾Ñģ
Ð¿ ÐµÑĢ
ĠÐºÐ°Ðº Ð¸Ð¼
ĠÐ´Ð² ÑĥÑħ
ÑĢÐµÐ´ ÐµÐ»
Ð½Ñİ Ñİ
Ð¸ Ñİ
Ñĩ Ð¾Ð½
Ð° Ð½Ðµ
ĠÐ¸ ÑģÑĤ
ĠÐ¡ÑĤ Ð°Ð¹Ð»
Ð¾ÑĢ Ñĥ
ĠÐ² ÑħÐ¾Ð´
Ð°ÐµÑĤ Ðµ
ĠÐºÐ¾ ÑģÑĤ
Ð»Ð¸ ÑĩÐ½Ð¾
Ð¿Ð¾Ð¼ Ð¸Ð½Ð°
ĠÐ±Ñĭ ÑģÑĤÑĢ
ÑĪ ÐµÐ±
ĠÑģÐ¸Ð» Ñĭ
ĠÐ¾ Ð³Ð»ÑıÐ´
ĠÑĥÐ´ Ð¾Ð²Ð¾Ð»ÑĮÑģÑĤÐ²
ĠÑĢÐ°Ð´ Ð¸
Ð¾Ð² Ð°
ĠÑģÐº ÑĢÑĭÐ²
ĠÐ°Ðº ÐºÑĥÑĢÐ°ÑĤ
ĠÑĩÐ°Ñģ Ð¾Ð²
ĠÐ±ÑĥÐº Ð²
ĠÐĿÐ¸ ÑĩÐµÐ³Ð¾
ĠÑģÑĤÐ¾ ÑıÐ»Ð°
ÑĢ ÐµÐ¿
ĠÐºÐ¾ Ðµ
Ð´ ÑĢÐ°Ð²
ĠÐº Ð¾Ð¼Ñĥ
Ð¾Ð¿ ÑĭÑĤ
ĠÑĤ Ð°Ð½
ĠÐ¿Ð¾Ð¹ Ð´
ĠÐ¾Ð± Ð¸Ð´
Ð¸Ð¼ Ð°
ĠÑĩÑĥÐ²ÑģÑĤÐ² Ð¾Ð²Ð°Ð»
ĠÐ¾Ðº Ð¾Ð»Ð¾
Ð»Ð¾ ÑģÑĮ
ĠÐĵ Ð´Ðµ
ĠÐ´ÐµÐ¼ Ð¾Ð½
ĠÐ¸ÑģÐ¿ ÑĭÑĤ
ĠÐ· Ð¾Ð»
Ð°Ñı Ð²
ĠÐºÐ°Ðº Ð¾Ðµ
ĠÐľ ÐµÐ½Ñı
ĠÐ² Ð¸Ñģ
ĠÐ¿Ð¾Ð½ ÑĢÐ°Ð²
ĠÐ¿Ñĥ ÑģÑĤÑĮ
ĠÐ·Ð°Ð¼ÐµÑĤ Ð¸Ð»Ð°
ĠÑĥÐ»ÑĭÐ± ÐºÐ°
ĠÐ¼Ð¾Ð» ÑĩÐ°
ĠÐ´ÑĥÐ¼ Ð°Ð»Ð°
ĠÑĪ ÑĥÑĤ
ĠÐ½ Ð°Ð»
Ñı Ð¼
ĠÑģÐ¼ Ðµ
ĠÐ¡ Ð°Ð¼
Ñĥ Ð·
ĠÐ¸Ð½ Ð¾Ð³Ð´Ð°
ĠÐº Ð°Ð·
ĠÐ¼ÑĭÑģ Ð»ÑĮ
Ð¾Ð» Ð³Ð¾
ĠÐ¼Ð¾Ð³ Ð»Ð¸
ĠÐ»Ð¸ÑĨ Ð¾Ð¼
Ð°Ð³ Ð¸
ĠÐļ ÑĢÐ¸
ĠÐ¼Ð½ Ð¾Ð³
ĠÐĶ ÑĥÐ¼
ĠÐ½ÐµÐ´ Ð¾
ĠÐļ ÑĥÑĢ
ĠÐ¿ÑĢÐ¸Ð¶ Ð¸Ð¼
ĠÐĹÐ° ÑĩÐµÐ¼
ĠÑģ ÑĬ
Ð°Ð½Ð¸ ÐµÐ¼
Ñĩ Ð¸Ñħ
ĠÑĩÐ°Ñģ ÑĤÐ¾
ĠÐ´ÑĢÑĥÐ³ Ð¾Ð¼
ĠÐĶ Ð¸Ð½
ĠÐ¿Ð¾Ð½Ð¸Ð¼ Ð°Ð»
ÑģÐº Ð¾Ð³Ð¾
ĠÐºÑĢÐµÐ¿ ÐºÐ¾
ĠÐº ÑĢÑĥÐ³
Ð¾ÑĤ Ð¾Ð¼
Ð½ Ð°Ð¶
ĠÑĥ ÑģÑĤÑĢÐ¾
Ð ¤
Ð´ ÑĢÑĥÐ³
ÑĪÐ¸Ð¹ ÑģÑı
ĠÐ¾ÑĤ Ð²ÐµÑĢ
ĠÑĢÐ°Ð·Ð³ Ð¾Ð²Ð°ÑĢ
ĠÐŁÐ¾ÑĤ ÑĤÐµÑĢ
ĠÐ» Ð¾Ð²
ÑĤÐ° Ñī
ĠÑĩÑĥÐ²ÑģÑĤÐ² Ð°
ÑĥÑĪ ÐºÑĥ
ĠÐ± ÑĥÐ¼
ÑĳÐ½ Ð½Ð¾
Ð± Ð¸
Ð¾ÑĤ ÑĢÐ¸
ĠÐ¢ Ð°
ĠÐ±ÐµÐ· ÑĥÐ¼
ÑĢÑĭ Ð³
ĠÐ¿ÑĢÐ¾Ð² ÐµÑĢ
ĠÐĳ ÐµÐ»
ĠÐ²Ñĭ ÑĢ
ĠÑĢÑĥÐ± Ð°ÑĪ
Ð°Ð»ÑĮ Ð½ÑĭÐ¹
ÐµÐ½ ÐµÐ¼
ĠÐ²Ñĭ ÑĪÐ»Ð°
ĠÑģÐ¼ Ð¾Ð¶ÐµÑĤ
ĠÐ¿ÑĢÐ¸Ð½ ÑĨ
Ð¾Ð´ Ð°
ĠÐ´ ÑĥÑħ
ĠÐ¢ Ð¾ÑĤ
ĠÑĤ ÐµÐ»Ð°
ĠÑģÐ²Ð¾ ÐµÐ¼Ñĥ
!! !
ĠÐ¿ÐµÑĢ ÐµÐº
ĠÐ¿Ð¾ÑĨÐµÐ» ÑĥÐ¹
Ð¸Ð² Ð°Ð»Ð¸
ĠÐ²Ð°Ð¼ Ð¿
ĠÑģÑĤ ÐµÐº
ÑĢÐµÐ¼ ÐµÐ½Ð½Ð¾
ĠÐ¿Ð¾Ð´Ð¾ÑĪ Ð»Ð°
ÐµÐ´ Ñı
ĠÑģÐ´ÐµÐ» Ð°Ð»Ð°
ĠÐ¼Ñĥ Ð·Ñĭ
ĠÑģÑĥ ÑīÐµÑģÑĤÐ²
ĠÑģÐ»Ð¾Ð² Ð¾
ĠÐ²Ð¾Ð· Ð»Ðµ
ÑĤ Ð½Ð¾
ĠÐ· Ð¾Ð²
ĠÑĦ Ð°Ðº
ĠÐ¿Ð¾Ð¹ Ð¼
ĠÐ¿ ÑĥÐ³
Ð¸Ð· Ð²
ĠÑģÑĤÑĢÐ° Ñħ
ĠÑĩÑĥÐ² ÑģÑĤÐ²Ð¾
ÑĢÑĭ Ð¹
ĠÐ¼ ÐµÐ½
ÐµÑĩ Ð°ÑĤ
ĠÐ¿Ð¾Ð´ Ñģ
ĠÐ·Ð° Ñī
ĠÐ´Ð¾Ð»Ð¶ Ð½Ñĭ
.... ....
ÑģÑĤÐ² Ð¾Ð¼
ĠÐ´ Ð¸
ĠÐ¿Ð¾Ðº Ð°Ð·ÑĭÐ²
ĠÐ½Ð¸Ðº Ð¾Ð³Ð¾
ÑĢÑı Ñģ
ĠÐ¿Ð¾Ð´ Ð¾Ð·ÑĢ
ĠÐ¾ÐºÐ¾Ð½ Ñĩ
ĠÐ¿Ð¾Ñħ Ð¾Ð¶Ðµ
ĠÐ¿ÑĢ Ð¸Ð»
ĠÐ´Ð¾Ð» Ð³
ĠÐºÐ¾Ð¼ Ð°Ð½
ĠÐ´ Ð¾Ð²ÐµÑĢ
ĠÑĢÑĭ Ð¶
ĠÐľÐ°Ð» ÑĦ
ĠÑĩÐ° ÑģÑĤÑĮ
ĠÑĤÐ°Ðº Ð¶Ðµ
Ð¼ Ð¾ÑĤÑĢÑı
ĠÐ¿ÑĢ ÐµÐ¶Ð´Ðµ
ÑĩÐ¸ Ðº
ÑĢÐµÐ¼ Ñı
ĠÐ¢ Ð°Ð¼
Ð² Ð¸Ð´
ĠÐ² Ð¸Ð¶Ñĥ
ĠÑĢ Ð¾Ð·
ĠÑģ Ð¸Ñħ
ĠÐ±ÑĥÐ´ ÐµÐ¼
ĠÐ» ÐµÑģÑĤ
ĠÐ½ÐµÐ¾Ð¶Ð¸Ð´Ð° Ð½Ð½Ð¾
ĠÐ½ Ð°Ð¼Ð¸
ĠÐ² ÑģÑĤÐ°Ð²
ĠÐ¿ÑĢÐ¸Ðº Ð¾Ñģ
Ð°Ð· Ð´
ĠÐ¿Ð¾ÑĤ Ñı
ĠÐ² Ð»ÑİÐ±
ĠÐ¾ÑĤ ÐºÑĥÐ´Ð°
ĠÐ²Ð¸Ð´ Ð¸Ð¼Ð¾
ÑĤ Ð°Ð»
ĠÐºÐ¸Ð² Ð½ÑĥÐ»Ð°
Ñį Ðº
ĠÐ² ÐµÑī
ĠÐ¿Ð¾Ð´Ð´ ÐµÑĢÐ¶
ĠÐºÑĥ Ñģ
ĠÐ¾ÑĤ Ð±
ĠÑĥÐ¼ ÐµÑĢ
ĠÑħ Ð¼Ñĭ
ĠÐŁÑĢÐ¾ ÑģÑĤÐ¸
ĠÐ¼ ÐµÐ½ÑĮ
ĠÐºÐ¾Ð» ÐµÐ½Ð¸
ĠÐ¸Ð· Ð´
ÑİÑĤ Ð½Ð¾
Ñĳ Ð³
ĠÐ¿Ð¾ÑĨÐµÐ» Ñĥ
ĠÐ² ÐºÑĥÑģ
ĠÐ¿Ð¾ Ð¸Ð½ÑĤÐµÑĢÐµÑģ
ĠÐ¸ Ð½Ð°ÑĩÐµ
ÑĢÐ¾ ÑĪ
ĠÑĤÐ°Ðº Ð¸Ñħ
ĠÐ²ÑĭÐ´ ÐµÑĢÐ¶
ĠÐĿ Ð°Ð²ÐµÑĢ
ĠÐ³ÑĢÑĥ Ð´ÑĮ
ĠÑģ Ð³
ÑĢ Ð¸Ð¼
ĠÑĦ Ð¸Ð³
Ð±Ñģ Ð¾Ð»
ĠÑģÐ»ÐµÐ· Ñĭ
ĠÐ² Ð²ÐµÑĢ
ĠÐĵÐµÑĢÐ¼Ð¸ Ð¾Ð½Ð°
Ð¼Ðµ ÑıÐ»ÑģÑı
ĠÐ¼ Ð¾Ð·
ĠÐ½Ð° ÑģÑĤÑĢÐ¾
ĠÐ¾ÑĤÑĩ Ð°Ñı
ĠÑģÑĤÐ¾ ÑĢÐ¾Ð½
ÐĴ ÑģÐµ
ĠÐ± ÑĥÑĤ
ĠÐ¿ÑĢÐ¾ Ñī
ĠÐ³Ð¾Ð» ÑĥÐ±
ÐµÐ· Ð¶
ĠÐ½Ð°Ð´ Ðµ
ĠÐ¼ Ð¸Ð¼Ð¾
ĠÐ½Ð¾ ÑĩÐ¸
Ð· Ð¸
ĠÐ½ Ð¾Ð¶
Ñĥ Ð¶Ðµ
ĠÐºÐ¾ÑĤÐ¾ ÑĢÐ¾Ð¼
? ..
ĠÐ· Ð°ÑıÐ²
Ð°Ð¹ Ð½
ĠÐ²Ð½Ð¸Ð¼ Ð°ÑĤÐµÐ»ÑĮÐ½Ð¾
Ð¸ ÐºÐ¸
ĠÐ¾ÑĤÐºÑĢÑĭ Ð»
ÐµÑĢÑĤ Ð²
Ð°Ð½ ÐµÑĤ
ÑĭÐ² Ð°Ð»Ð°
Ð¼ ÐµÑĢ
ĠÑħ Ð»Ð¾Ð¿
Ð¸ÑĤ Ð°Ð½
Ð¾Ð» Ñı
Ð¾ÑĢ Ð´
ĠÐ´ÑĢÑĥÐ³ Ñĥ
ĠÐ¿Ð¾ÑĩÑĥÐ²ÑģÑĤÐ² Ð¾Ð²Ð°Ð»
ĠÐ° Ð»
ĠÐ¿Ð¾Ð± ÐµÐ´
Ð¸ ÐµÐ¼
Ð¾ÑĢÐ¼ Ð¾ÑĤ
Ð¾Ð³ Ðµ
Ð»Ñı Ð´
ĠÐŁ Ð¾ÐºÐ°
ĠÐ¶Ð´ Ð°ÑĤÑĮ
ĠÐĴ Ð¸Ð´
ĠÐ¿Ð¾Ð³ Ð¾Ð²Ð¾ÑĢÐ¸ÑĤÑĮ
Ð°Ðº Ð¾Ð½
ĠÑĥÐ· Ð½Ð°ÑĤÑĮ
ÑĤÐ¸ Ñı
ĠÐ²Ð¾Ð´ Ñĭ
ĠÐ²Ð¾Ñģ Ð¿Ð¾Ð¼Ð¸Ð½Ð°
ĠÐ²Ð¾Ð» ÑĪÐµÐ±
ĠÐ° Ð½Ð³
Ð¸Ð² Ð°ÐµÑĤÑģÑı
ĠÑģ Ð¾Ð»
ĠÑĤÑĢ ÐµÐ±
ĠÐ´Ð¾Ð³ Ð°Ð´
ĠÐ´ÑĢ Ð¾Ð¶
ĠÐ½Ð°Ñĩ Ð°Ð»Ð¸
ĠÐ²Ñģ ÐµÐ¼Ñĥ
Ð¡ Ð¿
ĠÐ´ Ð°Ð»ÐµÐºÐ¾
ĠÐŁ ÐµÑĢ
ÑĤÑĢ Ð°Ðº
Ð¾Ð¹ Ð´Ñı
ĠÐ¿ÑĢÐ¾ÑĪÐµÐ¿ÑĤ Ð°Ð»
ÐµÑĢ Ñĭ
ĠÑĤ Ñı
ÑĢÐ¾ ÑĩÐµÐ¼
ÑĤ Ð¾Ð¹
Ñĩ ÐºÑĥ
ĠÑĢÐ°Ð· ÑĥÐ¼
ĠÑģÐ°Ð¼ ÑĭÐ¼
ĠÐ¡ Ð¾
ĠÐ¿Ð¾Ðº Ð°Ð·
ÐµÐ² ÐµÑĢ
ĠÑĤÐ²Ð¾ Ñı
ĠÑĦ ÑĥÑĤ
ĠÑģÑĤ Ð°ÑĤÑĮ
Ñı ÑĤÑĮÑģÑı
ĠÐ²Ð²ÐµÑĢ Ñħ
ĠÐ¿ÑĢÐ¸Ñģ ÑĥÑĤÑģÑĤÐ²
ĠÐ´ Ð¾Ð¶Ð´
Ð»Ð° Ð½
ĠÐ²Ð¾Ð² ÑģÐµ
ĠÐ³Ð¾Ð»Ð¾Ð² Ñĭ
ĠÐ´ÐµÐ² Ð¾ÑĩÐºÐ°
ĠÐŁÐ¾ ÑįÑĤÐ¾Ð¼Ñĥ
ĠÑĥÐ´ ÐµÑĢÐ¶
ĠÐ²Ñĩ ÐµÑĢÐ°
ĠÐ»Ð°Ð´Ð¾Ð½ ÑĮ
ÑĥÑİ Ñī
ĠÐ¼Ð¾ Ð¸Ð¼
ĠÐ²Ð¾Ñģ ÐºÐ»Ð¸
ÑĢ ÐµÐ±
ĠÐ²Ð¿ Ð¾Ð»Ð½Ðµ
ĠÑĢÑĥ ÐºÐ°
ĠÐ¿Ð¾ÑģÑĤÐ¾Ñı Ð½Ð½Ð¾
ĠÐ¼Ð³Ð½Ð¾Ð² ÐµÐ½Ð¸Ðµ
ĠÐ¿Ð¾ ÑĪÐµÐ»
ĠÐ±ÑĥÐºÐ² Ð°Ð»ÑĮÐ½Ð¾
ĠÑģÐ²Ð¾ Ñĳ
ĠÐŁÐ¾ÑĤ Ð¾Ð¼Ñĥ
âĢ ķ
Ð° Ð½Ñĥ
ĠÐ¼Ð¾Ð³ ÑĥÑĤ
Ð¸ÑĪÑĮ ÑģÑı
Ð½ Ð¾Ðº
ĠÑĥÐ´Ð¸Ð² Ð»
ĠÑģÐ¼ÐµÑĢ ÑĤÐ¸
ÑĥÑģÑĤ Ð¸Ð»
ĠÐ³Ð¾Ð´ Ð°
ĠÐ¿Ð¾ÑģÐ¿ ÐµÑĪ
Ðº Ð¾Ð»ÑĮ
ÑĮ Ð¼Ð¸
Ð¾Ð³ Ð¸
ĠÐ¸ÑģÐ¿ Ð¾Ð»ÑĮÐ·
ĠÐ¿Ñĥ ÑĤÐ¸
Ð»ÐµÐ½ Ð°
ĠÐºÐ¾ ÑĦÐµ
ÐĿ ÐµÑĤ
ĠÐ»ÑİÐ± Ð¸ÑĤ
ĠÐº ÑĢÑĥÐ¶
Ð´ Ð°ÑĤÑĮ
ĠÐ¿Ð¾Ð¶Ð°Ð» ÑĥÐ¹ÑģÑĤÐ°
ĠÐ²Ð¸Ð´ Ðµ
Ð¸ Ð¿
ĠÐ³Ð¾ ÑģÑĤÐ¸
ĠÐ²Ð· ÑıÐ»Ð°
ĠÑĢÐ°ÑģÑģ Ð»Ð°Ð±
ĠÑģÐ½Ð° ÑĩÐ°Ð»Ð°
ĠÐ¼Ð°Ð»ÑĮÑĩÐ¸ Ðº
ĠÐ³ ÑĢÑı
ĠÐ¾ ÑĢÑĥÐ¶
ĠÐºÐ¾ ÑĪ
ĠÑĤÐ²Ð¾ Ð¸
ĠÐºÑĥÑħ Ð½Ñİ
ÑĭÐ² Ð°ÑıÑģÑĮ
ĠÐ½Ð°Ð¿ ÑĢÐ¾ÑĤÐ¸Ð²
ĠÐ½Ð°Ð¿ÑĢÑı Ð¶
ĠÐĴ Ð¿
ÐµÐ½ Ñģ
ĠÐ¿ÐµÑĢ ÐµÐ¼
ĠÑį Ð»ÑĮÑĦ
ĠÐ· ÐµÑĢÐº
Ð²Ð¸ Ð½Ð¸
ĠÐĲ Ð´
Ð»Ð¸ Ðº
ĠÐ¾ÑĤÐ½Ð¾ÑĪ ÐµÐ½Ð¸Ñı
ĠÑģÑĤÐ°ÑĢÐ° ÑıÑģÑĮ
ĠÐ½ÐµÐ¾Ð± ÑħÐ¾Ð´
ĠÐ·ÐµÐ¼ Ð»Ñİ
ĠÑģÐ²Ð¾ ÐµÐ¼
ĠÐ¼Ð°Ð» ÑĭÑĪ
ÐµÑĤ Ñĭ
Ð¾Ð² Ð°Ð»Ð¸
ĠÐ¼ Ð°Ðº
ĠÐ³Ð¾Ð²Ð¾ÑĢ Ð¸Ð»Ð°
ĠÐ¾ÑĤ Ð¼
ÑĥÑģ ÑĤÐ¾
ĠÐĶÐ°Ð² Ð°Ð¹
ĠÐ¿Ð¾Ñģ Ð»ÑĭÑĪ
ĠÑĦ ÑĭÑĢ
ĠÐ¾Ðº Ð½Ð¾
ĠÐĲ Ð»
ĠÑģÐ¼ ÑĥÑī
ĠÐ¿ÑĢÐ¸Ð²Ñĭ Ðº
ĠÐ¿Ð¾Ð´ Ð¿
ĠÐ¿ÑĢÐ¾ ÑħÐ¾Ð´
ĠÐ³Ð¾ ÑģÐ¿
ĠÐ¿ÑĢÐ¸Ð´ ÑĥÐ¼
Ð» ÐµÑĩ
ĠÐ´ Ð½ÐµÐ¹
ĠÐĿÐ° ÑĨÑĥ
Ð² Ð¸Ð³
ĠÐ¿Ð¾ ÑĢÐ°
ĠÑĢÑĥ ÐºÐµ
Ð½Ñı ÐºÐ°
ĠÑĤ ÑĢÐ°Ð²
Ð»Ð¸ ÑĤ
ĠÑģÐ¾Ñģ ÐµÐ´
Ð½Ð¸ ÐºÐ¾Ð¼
Ñĥ ÐºÐ°
ĠÑĪ ÐºÐ°
ĠÑĥ Ð¼Ð°
ĠÐĿÐµ ÑĥÐ¶ÐµÐ»Ð¸
ĠÐ¾Ð±ÑĬ ÑıÑĤÐ¸
ĠÐŁÐ°ÑĢ ÐµÐ½ÑĮ
ĠÐ·Ð°Ðº Ð°ÑĤ
Ð¸Ð² Ð°ÑĤÑĮÑģÑı
ĠÐ¿ÑĢÐ°ÐºÑĤÐ¸ ÑĩÐµÑģÐºÐ¸
ÐµÐ»Ð° ÑģÑĮ
ÐµÐ½ Ð½ÑĥÑİ
ĠÐ± ÑĥÑĢ
ÐµÐ¼ ÑģÑı
Ð°Ð¶ Ð¸
ĠÑģ Ð°Ð¼Ð¸
ĠÐ¾Ð± Ð°
Ñģ Ð½Ð¾
ĠÐ¾ÑģÑĤ Ð°Ð»Ð¾ÑģÑĮ
ĠÐ²ÐµÑĢ Ð½ÑĥÐ»ÑģÑı
ĠÐ»ÑİÐ±Ð¾Ð² ÑĮ
ĠÐ¿ Ñģ
ĠÐķ ÑīÐµ
ĠÑħ Ð¾ÑĢÐ¾
ĠÐ¼Ð°ÑĤ ÐµÑĢÐ¸
ÑıÑī ÐµÐ³Ð¾
ĠÑĤ Ð°Ð»Ð¸
ĠÐĶÐ¶ ÐµÐº
ĠÐ° Ð±ÑģÐ¾Ð»
Ð¾ Ð½Ñĥ
ĠÐ² Ð½ÐµÐ·Ð°Ð¿Ð½Ð¾
ÑĤÑĥ ÑĢ
ĠÑģÐ¿ ÐµÑĪ
ĠÑģ Ð¸Ð³
ĠÐ¿Ð¾Ð» Ð¾Ð²
ĠÐ¾Ðº ÑĢÑĥÐ¶
ÐĴ Ð¾ÑĤ
ĠÐļ Ð»Ð°
ĠÑģ Ð¾ÑĤ
ĠÐ²Ñĭ Ð³
ĠÑĥÑģÐ»ÑĭÑĪ Ð°Ð»
ĠÐŀÐ´ Ð½Ð°ÐºÐ¾
ĠÐ¾ÑģÐ¾Ð± ÐµÐ½Ð½Ð¾
Ð½Ðµ ÑĪ
Ðŀ Ð½Ð¸
Ð¾Ð»ÑĮ ÑĪÐµ
ĠÐ· Ð´Ð¾ÑĢÐ¾Ð²
ĠÐ¼ ÑĥÑĩ
ĠÐµ Ð»Ðµ
ĠÐ¿ Ð°Ð¼
ĠÐŁÐ¾ÑĤ Ð¾Ð¼
ĠÐ¿ÑĢÐ¸ ÑĪÐµÐ»
ĠÐ¶ÐµÐ»Ð° Ð½Ð¸Ðµ
ÑĭÐ² Ð°Ñİ
Ð¾Ð´ Ð½Ð¾
ĠÑĥÑĤ ÑĢÐ¾
Ñĳ ÑĪÑĮ
ĠÐ¿ÑĢÐ¾ Ñħ
ĠÐ½Ð¾ÑĢÐ¼ Ð°Ð»ÑĮÐ½Ð¾
ĠÑĢÐ°ÑģÑĤ ÐµÑĢ
Ð¾Ð´ Ð¸
ĠÐ·Ð°Ð± Ð¾ÑĤ
Ð¾ÑĤ Ðº
ĠÐ¾ ÑģÐº
ĠÐĲÐ»ÐµÐº Ñģ
ĠÐ½Ð°Ñģ Ð»Ð°Ð¶
ĠÐ¿ÑĢÐ¸ Ð½Ð¸Ð¼
ĠÐ´ Ð°Ð»
ĠÐľÐ°Ðº Ñģ
ĠÐ´ÐµÐ» Ð°ÐµÑĤ
ĠÐ´ÐµÐ²ÑĥÑĪ ÐºÐµ
ĠÐ½Ð°Ð¿ Ð¸Ñģ
ĠÐ¾ ÑħÐ¾ÑĤ
ĠÐ¿Ð¾ÑĨÐµÐ»Ð¾Ð² Ð°Ð»
Ð» Ð°Ð³
ÑĦÐ¾ÑĢ Ð¼Ð°
Ð½ Ð°Ð»Ð°
Ð°Ñģ Ðº
ĠÑģÑĩÐ° ÑģÑĤÑĮ
ÐĶ ÐµÐ²ÑĥÑĪÐºÐ°
ÑĢÐ¸ Ð·
ĠÐµ Ñħ
ĠÐĳ ÑĢ
ĠÑĥÐ´ Ð°Ð»Ð¾ÑģÑĮ
ĠÐ½Ð°Ð¿ÑĢÐ°Ð² Ð¸Ð»ÑģÑı
ÑĥÑĪ ÐºÐ¸
ĠÐ¼ÐµÐ½ÑĮ ÑĪÐµ
Ð»Ð¾ Ñī
ĠÐĲ Ð¹
ĠÐ² Ð¾Ð¹
ĠÐ½ÐµÐ¶ Ð½Ð¾
ĠÐº Ð»ÑĥÐ±
ÑĢÐ° ÑģÑĤ
ĠÐ²Ð·Ð´Ð¾Ñħ Ð½ÑĥÐ»Ð°
ÑĭÐ² Ð°ÐµÑĤÑģÑı
Ð»Ð° ÑĤ
ĠÐ¿ÑĢÐ¾ ÑĨ
Ð½Ñı Ð»
ÑĢ Ð°Ð»ÑģÑı
ĠÐ¼ Ð¸Ð³
Ð¾Ð± Ð½Ð¾
ĠÑģÑĤÐ¾ Ð»ÑĮ
ĠÐ¾Ð´ Ð½Ð¸Ð¼
Ð»Ñĭ Ð¼
ĠÐŁ ÑĢÐ¸Ð²ÐµÑĤ
ĠÐº Ð°ÑĤ
ĠÐ¿ÑĢÐ¸ ÑĪÐ»Ð°
ĠÑģÐº Ð¾Ð»ÑĮÐ·
ĠÑĨÐ²ÐµÑĤ Ð°
ĠÐ±Ð¾Ð»ÑĮÑĪ Ð¾Ð¹
ĠÑĦ Ð¾ÑĢ
Ð°ÑİÑī Ð¸Ñħ
ÑģÑĤ Ð°Ð½Ð¾Ð²
ÐµÐ½Ð¸ ÑĢÐ¾Ð²
Ñĳ Ð¿
ĠÐ¶ Ð°ÑĢ
ĠÐ¿ÑĢÐ¾ ÑĦ
ÐµÑħ Ð°Ð»Ð¸
ĠÑĩÐ°Ñģ Ð°
ĠÑĥ ÑĢÐ¾Ðº
ĠÑĢ ÐµÐ´
ĠÑĤÐ²Ð¾ ÐµÐ¹
Ð° Ð°
ĠÐºÐ°Ðº ÑĥÑİ
Ðº Ð°Ðº
ĠÐ¼Ð¸ÑĢ Ðµ
ĠÐ³ÑĢÑĥ Ð¿Ð¿
Ð°Ð¶ Ñĥ
ĠÐ¿Ð¾ ÑĪÐ»Ð¸
ĠÑģÑĤ ÑĥÐ¿
ĠÑģÐ¼Ð¾Ð³ Ð»Ð°
ĠÑĢ Ð°Ð½
ĠÐ£ ÑĩÐ¸Ñħ
ĠÐ³Ð¾Ð²Ð¾ÑĢ Ñı
ĠÐ± Ð°Ð»
ĠÐ¿Ð¾Ð² ÑĤÐ¾ÑĢ
ĠÐ´Ð°Ð² Ð°Ð¹
ĠÑĢÐ°Ð´ Ð¾ÑģÑĤ
Ð¾Ð» Ð·
ĠÐ²Ð¼ ÐµÑģÑĤÐ¾
ĠÐ½Ð¾Ð¼ ÐµÑĢ
ĠÐºÐ¾Ð½ ÑĨÐ°
ĠÐ²Ð¸Ð´ Ð½Ð¾
Ð¾Ð² Ð°Ð»Ð¾
ĠÐ´Ð¾Ð»Ð¶ Ð½Ð¾
ĠÐ¿Ð¾Ð¿ÑĭÑĤ Ð°Ð»ÑģÑı
ĠÐ¿Ð¾ ÑĪ
ĠÐº ÑĢÐ°
ĠÐ¿ÑĢÐ¾Ð³ Ð¾Ð²Ð¾ÑĢÐ¸Ð»
ĠÐ¼ ÐµÑĢ
ĠÑģÐ¿ Ð¾ÑĢ
ÐµÐ³ Ð°
Ð¾ Ð½Ðµ
ĠÐŀ Ñĩ
ĠÐĹÐ½Ð° ÑĩÐ¸ÑĤ
ĠÐ´Ð¾Ð¼ Ðµ
ĠÑĩÐµÑĢ ÑĤ
ĠÑĦÑĥÑĤ Ð±Ð¾Ð»
ĠÐ»Ð¸ ÑĨÑĥ
Ð½Ð¸ ÐºÑĥ
Ð°ÑİÑī ÐµÐ³Ð¾
Ð¾Ð² Ð°Ð»Ð°ÑģÑĮ
ĠÐ¾Ð´ Ð½Ð°ÐºÐ¾
ĠÐ¿ÑĢÐ¾ÑĤ Ñı
ĠÐ²Ð·Ð´ÑĢ Ð¾Ð³
ĠÑĩ Ð¸ÑģÑĤ
ĠÑĥÐ± Ð¸Ð¹
Ð ĸ
ĠÑĥÐ± Ð¸ÑĤÑĮ
ĠÐ¾ÑĢ Ð³
ĠÑĤÑıÐ¶ ÐµÐ»
ÑĥÑģ Ð°
ĠÑĥÑģÑĤ Ð°Ð»Ð¾
Ð°Ðº Ð¾Ð²
ĠÐ²Ñĭ Ð¶
Ð» Ð¾Ð¹
Ñı Ñı
Ð°ÑĢ ÑĤ
ĠÐĿÐ°Ð´ Ð¾
ĠÐ²Ð¾Ð· Ð¼
ĠÐļ ÑĢÐ¸Ñģ
Ñĳ Ð´
ĠÐ¿Ð»Ð°ÑĤÑĮ Ðµ
Ð¾Ð¶ ÐµÑĪÑĮ
ĠÐ¿ÑĢÐ¸ ÑıÑĤÐ½Ð¾
ĠÐ´ÐµÐ² ÑĩÐ¾Ð½
ÑĢ ÐµÑĪ
ÐµÐº Ð¸
Ñī ÐµÐ¹
ÑģÑĤ Ð½Ð¾
ĠÐ± Ð°Ð±
ĠÐ»Ð°Ð´ Ð¾Ð½Ð¸
ĠÐ· Ð°Ð¹
ĠÐ¾ÑĩÐµÑĢÐµÐ´ Ð½Ð¾Ð¹
Ð»Ð¸ Ð¶
ĠÑİ Ð½Ð¾ÑĪ
ĠÐĴ Ð°Ñģ
ÑĢÐ¾Ñģ Ð¸Ð»Ð°
ĠÐ¿ÑĢÐ¾ÑĪ Ð»Ð¾
ĠÑģÐ»ÑĭÑĪ Ð°Ð»
ĠÐŁ Ð¾Ð¼
ĠÐ¼Ð°Ð³ Ð°Ð·
Ð¾Ð´ Ñĥ
ĠÐĳ ÑĥÐ´
ĠÐ½Ð°Ð´ ÐµÐ¶
... "
ĠÐ²Ð¸Ð½Ð¾Ð² Ð°ÑĤ
ĠÑģÐ¿ Ð°Ð»ÑĮ
Ñİ Ð±
Ñĩ ÐºÐ¸
ĠÐ²Ð¿ ÐµÑĢÐ²ÑĭÐµ
ĠÐº Ð¾ÑĤ
ĠÐ¼Ð¾Ð» Ñĩ
ĠÑĢÐ°Ð·Ð² Ðµ
Ð¸Ð½ Ð³
Ð°ÐµÑĪÑĮ ÑģÑı
ĠÑĥ ÑħÐ¾Ð´
ĠÐĿ Ð°Ð¼
ĠÐ´ÑĢÑĥÐ³ Ð¸Ñħ
ĠÑĩÑĥÐ²ÑģÑĤÐ² ÑĥÑİ
ĠÑģÑĤÐµÐ½ Ðµ
ĠÑĢÐ°Ð±Ð¾ÑĤ Ñĥ
ĠÑģÐ¼Ð¾Ð³ Ñĥ
ĠÐ½ÑĥÐ¶ ÐµÐ½
ĠÑģÐ¸Ð» Ð¾Ð¹
ĠÑģÑĤÑĢÐ°ÑĪ Ð½Ð¾
ÐµÐ´ Ñĥ
Ð» ÐµÐ·
ĠÑĪÐºÐ° ÑĦ
ĠÑģÑĤÐ¾ Ð»Ð°
ĠÑĥÐ»Ð¸ ÑĨÐµ
ĠÐ³ÑĥÐ± Ð°Ð¼Ð¸
Ġ ...
ĠÑĤ ÑĥÐ¼
Ð½Ð° ÑĢÑĥÐ¶
ĠÐ±ÑĭÑģÑĤÑĢ ÐµÐµ
Ð¸Ð½ ÐºÑĥ
ĠÐľÐ°Ð¹ Ðº
ĠÐ¾Ð´ ÐµÐ¶
ĠÑģÐ¸Ð» Ñĥ
ĠÐ§ Ð°Ð½
ÑĪ ÐµÐ¼Ñĥ
ĠÑģÐ¸Ð´ ÐµÐ»Ð°
ĠÑģÐ¿ Ð¸Ð½Ðµ
Ð»Ð¸ Ð±Ð¾
ĠÐ¼ÑıÐ³ ÐºÐ¾
ĠÐ¼Ð¸Ð½ÑĥÑĤ Ñĥ
Ð¡ ÑĤ
Ð½Ð¾Ð² ÑĢÐµÐ¼ÐµÐ½Ð½Ð¾
ÐµÑħ Ð°Ð»
ĠÑĥÐ³ ÑĢ
ĠÐ¾Ð´ Ð½Ð¾Ð¼
ĠÐ¾Ð± Ð»ÐµÐ³
ÑĨ ÐµÐ¼
Ð¾ÑĢ Ñĭ
Ð°ÑĢ Ðº
ĠÐ¿ÑĢÐ¸Ð´ ÐµÑĤÑģÑı
ÐµÑĢ ÐµÐº
ĠÐ· ÑĢ
ĠÐ°ÐºÐºÑĥÑĢÐ°ÑĤ Ð½Ð¾
Ð²Ð¾ ÑģÑĤ
Ġ 2
ĠÑĥÐ»ÑĭÐ± Ð°ÐµÑĤÑģÑı
ĠÑģÑĤÐ¾ Ð¸Ð»Ð¾
ĠÐ² ÑĢÐ°Ð³
ĠÑĥ Ð¹ÑĤÐ¸
ĠÐŀ Ñģ
Ð» ÑĥÐ¶
ĠÐºÐ¾ÑĤÐ¾ÑĢÑĭ Ð¼
ÐµÐ»Ð¸ ÑģÑĮ
ĠÑĥÐ²ÐµÑĢ ÐµÐ½Ð½Ð¾
ÑĪ ÐºÐ¸
ĠÐĶ ÐµÐ¹
ĠÑĤÐµÐ» Ñĥ
ÑĢÐ° ÑĩÐ¸Ð²
ĠÑģ ÑĥÐ´ÑĮ
Ð¾Ð± ÑĢÐ°Ð·
ĠÐ· ÐµÐ»ÐµÐ½
ĠÐ¡ ÑįÐ¼
ĠÐ· Ð´Ð°
ÐµÐ´ Ð¶
Ð¾Ð²Ð¾ÑĢ Ð¸Ð»Ð°
ĠÐ¾ ÑĤÐ¾ÑĢ
ĠÐ²ÑĭÑĢ Ð²
ĠÐ´ÑĢÑĥÐ· ÐµÐ¹
ĠÐ½Ð°ÑĩÐ¸Ð½Ð° ÐµÑĤ
ĠÐ¡ Ð¸
ĠÑĥÑģÐ¿ ÐµÐ»Ð°
ÐŁ Ð¾
ĠÑĥÐ· Ð½Ð°
ĠÐ³Ð¾ÑĢÑı Ñĩ
ĠÑĥÐ»ÑĭÐ± Ð°ÑıÑģÑĮ
Ðµ ÑĨÐ¸
ĠÐ¿ÑĢÐ¸Ð¿ Ð¾Ð´Ð½Ñı
ĠÐŃ Ð»
ĠÐ·Ð°Ð± ÑĭÐ»
ĠÐ¿Ð¾Ð¼ ÐµÑī
ÐŁÐ¾Ñģ Ð»Ðµ
ÑĢÑĭ Ð¼
ĠÐ¿ÑĢÐ¾Ð´Ð¾Ð»Ð¶ Ð¸Ð»
ĠÐ½ÐµÐ· Ð½Ð°ÐºÐ¾Ð¼
ĠÐ¾Ðº Ð°Ð·Ð°Ð»Ð¾ÑģÑĮ
ĠÑģ Ð¸Ð»Ð°
Ð¸ÑĢÐ° Ñı
Ð´ ÐµÑĢ
ĠÐºÐ°Ðº Ð¾Ð³Ð¾
ĠÐ·Ð² ÑĥÑĩ
Ð¸ ÑģÑĮ
ĠÑĨ Ð°ÑĢ
ĠÑĢ Ð°Ð²
ĠÐľ ÐµÑĢ
ÑĢÑĭ Ð»
ĠÐ½Ð° ÑĤ
ĠÐ¿Ð¾Ð½Ð¸Ð¼ Ð°Ñı
Ð¸Ð½ ÐºÐ¸
ĠÑĩ Ð°Ð¹
Ð¾Ð³ Ð°
ÐµÐ½ Ñĥ
ĠÐ¿ Ñĭ
ĠÐ¸Ð½ ÑĦÐ¾ÑĢÐ¼Ð°
ÑĨÐ¸ Ð¾Ð½
ĠÐ¡ ÐµÑĢ
Ð»ÑĮ Ð·
ĠÐ¾Ð±Ñī ÐµÐ¼
ĠÑĤÐµÐ¿ Ð»Ð¾
ĠÐ¿Ð¾Ð¼ Ð½Ñİ
ÐĹ Ð°
ĠÑĨ ÐµÐ¿
ĠÑĨ ÐµÐ»Ð¾Ð²
ÑĢÑı ÑĤ
Ñģ Ð¾Ð²
Ð¸ÑĤ ÐµÐ»Ñı
ĠÐ·ÑĥÐ± Ñĭ
Ð»Ð¸ Ð½Ð°
ĠÐ¾Ð¿ ÑĢÐµÐ´ÐµÐ»
ÑĢÐ¾Ð² Ð°ÑĤÑĮ
ĠÐ¾ÑĤ Ð»Ð¸Ñĩ
ĠÐ¾Ñģ Ð½Ð¾Ð²
ĠÑħ ÑĥÐ¶Ðµ
ĠÑĥÑĩ ÐµÐ½Ð¸
ÐµÐ½ÑĤ Ñĭ
ĠÐ¿ÑĢÐ¸ Ð³Ð¾ÑĤÐ¾Ð²
ÑĢÑĥ Ñĩ
ĠÐ´ÑĥÑĪ Ðµ
Ð¿ Ñĥ
ĠÐ·Ð° ÑħÐ¾ÑĤ
ÑĨÐ¸ Ð¹
Ñģ Ñĭ
ĠÐ¿Ð¾Ð´Ð½Ñı Ð»ÑģÑı
ĠÐ¿Ð¾ Ð»Ð¸
ĠÐ¾ÐºÐ°Ð· Ð°Ð»Ð°ÑģÑĮ
ĠÐ¿Ð¾Ð¿ ÑĢÐ¾Ð±
ĠÐĶ Ð¸
ĠÐ¼ Ð¸ÑģÑģ
ĠÐ± Ð¾Ð¹
ĠÐ¿ ÑĥÑĤ
ĠÐºÐ°Ð±Ð¸Ð½ ÐµÑĤ
ĠÐ¼ ÐµÑĢÐµ
ĠÐ²Ð· ÑıÑĤÑĮ
ĠÐ¼ÑĭÑģ Ð»Ñı
ĠÑģÑĤ Ð°Ð²
ĠÐ·Ð½Ð° Ñĩ
Ð½Ð¸ ÑĪÑĮ
ĠÐ° Ð»ÑĮÑĦ
ĠÐ¾Ð´ Ð½Ð¾Ð²ÑĢÐµÐ¼ÐµÐ½Ð½Ð¾
ÑĢ ÐµÐ²
ĠÑĤÐ°Ðº Ð¾Ð¼
Ð¾Ñĩ Ð½Ð¾
ĠÑĪ ÐµÐ»
ĠÐĶ Ð»Ñı
ĠÐ¿Ð¾Ðº ÑĢÐ°Ñģ
ÑĤÐ¸ Ñħ
ĠÐ¿Ð°ÑĢ Ð½Ð¸
ĠÐ¿Ð» Ð°Ðº
ĠÑĢ Ð¾Ð²
ĠÐ³Ð¾Ð»Ð¾Ð² Ð°
Ð½ ÑĳÑģ
ĠÐĹ Ð°ÑĤ
Ñĩ ÐºÐ°
ĠÐºÐ¾Ð½ ÑĤÑĢ
ĠÑĤ Ð²Ð¾ÑĢ
ĠÐ½ÑĥÐ¶ Ð½Ð°
Ð²ÐµÑĢ Ð´
ĠÑį Ð½
ÐµÑĢ Ð¾Ð¼
ÑĢÑı Ð¼
ĠÑĩ ÐµÑģÑĤÐ½Ð¾
ĠÐ¨ÐµÑĢ Ð»Ð¾Ðº
ĠÐ¸Ð½ÑĤÐµÑĢÐµÑģ Ð½Ð¾
ĠÐ¿Ð»Ð° Ð½
ĠÑĤÑĢÑĥ Ð´Ð¾Ð¼
ĠÐ¾Ð± Ð½Ð°ÑĢÑĥÐ¶
ĠÐ¾ÑĤ ÑģÑĤ
ĠÑĩ ÐµÐ¼Ñĥ
ĠÐ°Ð±ÑģÐ¾Ð» ÑİÑĤÐ½Ð¾
ĠÐ²ÑģÑĤ Ð°Ð»Ð°
Ð°Ð¼ ÐµÑĤ
Ð´ ÐµÑĤ
Ð¿ ÐµÐ»
Ð¾Ð² Ð°ÑĤÑĮÑģÑı
ĠÑĤ ÑĢÐ¾
ĠÐ¿ÑĭÑĤ Ð°Ð»Ð°ÑģÑĮ
ĠÑĥÑĤ ÑĢÐ°
ĠÑĩÐ° ÑģÑĤÐ¸
Ñĭ Ð³
ĠÐ´ÑĥÐ¼ Ð°ÐµÑĪÑĮ
P O
ĠÐº Ð¾Ð¿
ĠÐ¿Ð¾Ð¿ ÑĢÐ°Ð²
Ñĥ ÑģÑĤÑĮ
Ð¾ Ð¸
ĠÐĴ ÐµÑĢ
Ð» ÐµÐ¿
ĠÑĪÐ¸ ÑĢ
ĠÑĦ Ð¾ÑĤ
ĠÑģ ÐµÐ»Ð°
... -
ĠÐ»Ð¸ Ð±Ð¾
ĠÐ¿ÑĢÐ¸ ÑĩÐ¸
ĠÑĤÑĢÑĥ Ð±
ĠÐ¿Ñģ Ð¸Ñħ
ĠÐ¾ÑĤ ÐºÐ¸
ĠÐ¿ÑĢÐ¾Ð± Ð¾ÑĢÐ¼Ð¾ÑĤ
Ð¾ÑĢ Ð¾Ð¼
ĠÐ½Ð° ÑĥÑĩ
ĠÐ»Ð¸ ÑĩÐ½Ð¾
ĠÐ¥ Ð¾Ñĩ
ÑĢÐ¾Ð² Ð°Ð»
ĠÐ¾Ðº Ð½Ð°
ĠÐ½Ð°Ñħ Ð¼ÑĥÑĢ
ĠÐ´Ð¸Ð² Ð°Ð½
Ð°ÑİÑī ÐµÐ¹
ĠÑĪ Ð°ÑĤ
ĠÐļ Ð°Ñģ
Ñĩ ÑĮ
ĠÐŃ Ð½
ĠÐ³ ÑĢÐ°
Ð¸ÑĢÐ¾Ð² Ð°ÑĤÑĮ
Ð°Ðº Ñĥ
Ð°Ñİ ÑīÐµ
ĠÑĤÑĢ ÐµÐ½Ð¸ÑĢÐ¾Ð²
PO V
) ,
Ñĥ Ð²
ĠÐ¸Ð· Ð¼
ĠÑĢ ÐµÐ²
ĠÐ±ÑĥÑĤ ÑĭÐ»
ĠÑģÑĢÐµÐ´ Ð¸
ĠÐ§ ÐµÑĢÐµÐ·
ĠÐ½ ÐµÐ³
ĠÐĽ Ðµ
ĠÐ¿Ð¾Ð²ÐµÑĢ Ð½ÑĥÐ»ÑģÑı
ĠÐ²ÑĢÐµÐ¼ ÐµÐ½ÐµÐ¼
ĠÐ¼Ð°ÑĪÐ¸ Ð½Ñĥ
ĠÐ» Ð¾Ð¶
ĠÐ¿Ð¾Ð¼Ð¾Ñī ÑĮ
Ð°Ð»ÑĮ Ð½Ð¾Ð¹
ĠÐ½Ð° ÑĪÐ¸
ĠÐ¼Ð¾Ð³ Ð»Ð¾
ĠÐ½Ðµ ÑģÐº
Ð»Ñı ÑĤÑĮÑģÑı
ĠÐ´ Ð¾Ð²
Ñĳ Ðº
ĠÐ» ÐµÐ·
ĠÐ¿ÑĢ ÐµÑĢÐ²
ĠÐ¿Ð¾ÑģÐ¼Ð¾ÑĤÑĢ ÐµÑĤÑĮ
ÑĢÑĭ Ñħ
ĠÑĢ Ð¸Ñģ
ĠÐ¸ÑģÐº ÑĢÐµÐ½
ĠÑĥ ÑĩÐ¸ÑĤ
ĠÐ¿Ð¾Ð² ÐµÐ´
ĠÐ± Ð»ÐµÐ´
ĠÑĢÐ°ÑģÐ¿ Ð°Ñħ
ĠÑģ Ð½Ð¸Ð¼
ĠÐĽ Ð¾ÐºÐ¸
ĠÐ¿Ð¾Ð· Ð´Ð½Ð¾
ĠÐ¿ÐµÑĢ ÐµÐ³
ĠÐ¾Ð±Ð½Ñı Ð»
ĠÑĩÑĥÐ²ÑģÑĤÐ² ÑĥÑı
ĠÐ¿Ð¾Ðº Ð°Ð·Ð°Ð»Ð¾ÑģÑĮ
Ð½Ðµ ÑģÑĤÐ¸
ĠÐ³Ð¾Ð»Ð¾Ñģ Ðµ
ĠÐ¿Ð°Ð»ÑĮÑĨ ÐµÐ¼
ĠÐ½Ð°ÑĪ ÐµÐ¹
ĠÐ²Ð¸Ð´ Ñĥ
Ð°Ð½ Ð½Ð¾Ð¹
ĠÐŁ ÑĢÐ°Ð²Ð´Ð°
ÑĤ Ð¾Ð³Ð¾
ÐµÐ¹ ÑĤ
ĠÐ¾Ð±Ð»ÐµÐ³ Ñĩ
ĠÐ¾ÑģÑĤÐ°Ð½Ð¾Ð² Ð¸Ð»ÑģÑı
ĠÑĢÐµ Ð°Ðº
Ð¾Ð½ ÑĮ
ĠÐ¾ ÑĤÐ¾
ĠÐ¿ Ð°Ð»Ð°
Ð± Ð»
Ð°Ð´ Ð°
ÑĤ Ð¾Ð¶
Ð¼ Ñģ
ĠÐ´ÐµÑģÑı ÑĤÑĮ
ĠÑģÑĤÐµÐ½ Ñĭ
ĠÑħ ÑĢÑĥ
ĠÐ±ÐµÑģ Ñģ
ÑĢ ÑįÐ½
Ñĩ Ð½ÑĭÐ¹
ĠÐŁ Ð¸ÑĤ
ĠÐ¼ÐµÐ½ ÐµÐµ
ĠÐĶ ÐµÐ²
ĠÑĥÐ³Ð¾ Ð»
ĠÑıÐ·Ñĭ Ðº
ĠÐ½ÐµÐ² Ð¾Ð·Ð¼Ð¾Ð¶Ð½Ð¾
ĠÐ¼Ð°ÑĪÐ¸ Ð½Ñĭ
ĠÐ²Ñĭ Ðº
Ð°Ð´ ÑĮ
ĠÑĥÐ± ÐµÐ´
ĠÐ¿Ð¾Ð· Ð²Ð¾
ÑĢÑĭÐ² Ð°Ñı
Ð¼Ñĥ Ñī
ĠÐ³ÑĢÑı Ð·
Ñģ ÐºÐ¸Ðµ
ĠÐ² ÑĤÐ¾
ÑĢÑı Ñħ
Ñĥ Ð²ÐµÑĢ
Ð»Ð¸ Ð¿
ĠÐ Ļ
ĠÐ¿ÑĢÐµÐ´ ÑĥÐ¿
ÑĤÐ¾ Ðµ
ĠÐ¿ÑĢÐ¸Ð² ÐµÑĤ
Ð»Ð° Ñı
ĠÐºÐ¾ÑĢ Ð¾Ð»ÐµÐ²
ĠÐĶÐ¶ ÐµÑĢ
ĠÐ¿ÑĢÐ¾Ð´Ð¾Ð»Ð¶ Ð°Ð»
ĠÐ´Ð² Ð¾ÑĢ
Ð¾Ð± ÑĢ
ĠÐ¿ÑĢÐ¸Ð± Ð»Ð¸Ð¶
Ð½Ð¸ ÐµÐ¼
ÑĤÐ° ÑĩÐ¸
ĠÐĴ Ð·
ĠÐŃÑĤÐ¾ ÑĤ
ĠÑĢÐ°ÑģÑģ Ð¼Ð°ÑĤÑĢÐ¸Ð²
ĠÑģÐ¿ ÐµÑĨÐ¸
ĠÐ¿Ð¾Ñģ Ð»ÑĥÑĪ
Ð½ ÐµÐ¼Ñĥ
Ġ t
ĠÐ³Ð»ÑĥÐ± Ð¾ÐºÐ¾
ĠÑĪ ÐµÐµ
ĠÐ³Ð» Ð¾ÑĤ
ĠÐ² Ð¾ÑĢ
ĠÐ¿Ð¾ ÑıÑģ
ĠÐ·Ð½Ð° Ñı
ĠÐ´ ÑĥÑĢ
Ð¸ ÑĨ
ĠÑħ ÑĢÐ¸Ð¿
ĠÐļÐ°Ð¶ ÐµÑĤÑģÑı
ÐŁ ÑĢÐ¾
ÐµÑģ ÑģÐ¸
Ð¾Ð³ ÑĢÐ°ÑĦ
ĠÐ²Ð¾Ð· Ð±
ĠÐ¼ÑĥÐ¶ÑĩÐ¸ Ð½Ñĭ
ĠÑĨ ÐµÐ½ÑĤ
ÑĭÐ² Ð°ÑĤÑĮÑģÑı
ĠÑģÐ» Ð¾Ð¼
Ð»Ð° ÑĪ
ĠÐ¿ Ð°Ñħ
ĠÐ²ÐµÑģ ÐµÐ»Ð¾
ĠÐ¿Ñĥ ÑĤÑĮ
Ð´ ÐµÐ»
ĠÐ½Ð¾Ñĩ ÑĮÑİ
ĠÐ¿Ð¾Ð¹ ÑĤÐ¸
ĠÐ¶ ÑĥÑĤ
Ð¾Ð± Ð¸
ĠÐ¾Ð± Ð²
ĠÐºÐ°ÑĢ Ð¼Ð°
ĠÐ½Ð°Ñĩ Ð¸Ð½
ĠÑĢÐ°Ð·Ð´ Ð°Ð»ÑģÑı
ĠÐ¿Ð¾Ð½Ð¸Ð¼ Ð°ÐµÑĪÑĮ
ĠÐ»ÑİÐ± Ð²Ð¸
ĠÐł Ð°Ñģ
ĠÐ¡Ð°Ðº ÑĥÑĢÐ°
ĠÐ½Ð° ÑģÐºÐ¾Ð»ÑĮÐºÐ¾
ĠÑĥÐ´Ð¸Ð² Ð»ÐµÐ½Ð½Ð¾
ÑĳÑĢ ÑĤ
ĠÐ´Ñĥ ÑĪÐ¸
ĠÐ¿ÐµÑĢ ÐµÑģ
Ð°ÑģÑĤ ÐµÑĢ
ĠÐĿÐ°Ð²ÐµÑĢ Ð½Ð¾Ðµ
ĠÐ¾Ð±ÑĢÐ°Ð· Ð¾Ð¼
ĠÑģÐ» Ð¾Ð¶Ð½Ð¾
ÐŁ Ð°ÑĢ
ĠÐ¾ÑģÑĤ Ð°Ð»ÑģÑı
ĠÑģÑĤ Ñĭ
ÑĥÐ»ÑĮ ÑĤ
â Ī
Ð»Ñı ÐµÑĤ
Ð½ Ð°Ð´ÑĨÐ°ÑĤÑĮ
âĪ Ĵ
Ð»ÐµÐ½ Ð½ÑĭÐ¹
ĠÐ¾Ñĩ ÐµÑĢ
ĠÐł ÐµÐ¹
ĠÐ·Ð² ÑĥÐº
ĠÐ¿Ð¾ÑıÐ² Ð¸Ð»ÑģÑı
ĠÐ¿Ð¾Ð»Ð¾Ð¶ Ð¸Ð»
ĠÐ² ÐºÐ»ÑİÑĩ
ÑĭÐ² Ð°Ð»Ð¸
ÑģÑĤÐ²ÐµÐ½Ð½Ð¾ Ðµ
ĠÐ±ÑĢÐ¾Ñģ Ð¸Ð»
ĠÐ¾Ñī ÑĥÑĤ
ĠÐ³ Ð½ÐµÐ²
ĠÐ·Ð°Ñī Ð¸ÑĤ
ĠÑģÑħÐ²Ð°ÑĤ Ð¸Ð»
ĠÐ¾ÑĤÑģ ÑİÐ´Ð°
ĠÐ²Ð·Ð³Ð»Ñı Ð´Ð°
ĠÐ´Ð¶ Ð¸Ð½Ñģ
Ð»Ñı Ð»ÑģÑı
ĠÐ» ÑĳÐ³
ĠÐ²Ð½ÑĥÑĤ ÑĢÑĮ
ĠÐ¿Ð¾Ð´ Ð°Ð²
ĠÐ²ÐµÑĢ Ð½ÑĥÑĤÑĮÑģÑı
ĠÐ¿ÑĢÐ¸ ÑģÑĤ
ĠÐ²ÐµÑģÑĮ Ð¼Ð°
ĠÐķ Ðµ
ĠÐķ Ð¹
ĠÐ½ÐµÐ± Ð¾
ĠÐ¿Ð¾ÑĩÑĥÐ²ÑģÑĤÐ² Ð¾Ð²Ð°Ð»Ð°
ÑĪ ÐµÐ´
ĠÑģÑĤ Ð°Ð½ÐµÑĤ
i n
Ð¸ÑĢ ÐµÐº
ĠÐ£ Ð¶Ðµ
ĠÐĳ ÐµÐ·
Ð´Ð° Ð½
ĠÐ° Ð´
ĠÑģ Ð¾Ð¶Ð°Ð»
ĠÐ²Ð· Ð´
ĠÐ² Ð´Ð¾Ñħ
ĠÐŀ Ð¿
ĠÐ¢ ÑĥÑĤ
ĠÐ¼Ð¾ Ñĳ
ĠÐºÐ¾Ð½ Ñĩ
ĠÑģÑĭ Ð½Ð°
ĠÑģ Ð¾Ðº
ĠÑįÑĤ Ð°Ð¶
ĠÐ·Ð¾Ð² ÑĥÑĤ
ĠÐ·Ð°Ð¼ Ð¾Ð»
ĠÐ½Ð¾Ñģ Ð¾Ð¼
ĠÐ²Ñĭ ÑĤÐ°Ñī
ĠÐº ÑĥÑĩ
ĠÑĢÐ°Ð· Ð³Ð»ÑıÐ´
Ð¾ Ð½Ñĭ
ĠÑģÐ¿ Ð°ÑģÐ¸Ð±Ð¾
ÑıÐ³ Ð¸Ð²Ð°Ñı
ĠÐº Ð¾Ð¶Ñĥ
ĠÑģÑĤ ÑĢÐµÐ¼
ĠÐ¿Ð¾Ð· Ð½Ð°ÐºÐ¾Ð¼
ĠÑģÐ¾Ð±Ð¸ÑĢ Ð°Ð»ÑģÑı
ĠÑĥÑħ Ð¾
Ð¸ÑĤÐµÐ»ÑĮ Ð½ÑĭÐ¹
ĠÐ½ÐµÐ´Ð¾ ÑĥÐ¼
ĠÐ½ÐµÐ±Ð¾Ð»ÑĮÑĪ Ð¾Ð¹
ĠÑĪ Ð°Ð½Ñģ
Ð½ ÐµÐ½Ð¸Ñı
ĠÐ¼ Ð°Ñħ
ĠÑģÑĤÐµÐ½ Ñĥ
Ð´Ð¶ Ð¸
ĠÐºÐ¾Ð½ ÑĨÐ¾Ð²
Ð»Ð¾Ð½ Ð¸Ð»ÑģÑı
Ð¾Ð± ÑĢÐ°Ð¶
ĠÐ¡ Ð¼
Ñģ Ñģ
ĠÐ½ÐµÐ¾Ð¶Ð¸Ð´Ð° Ð½
ĠÐĲ Ð¼
ĠÑģÐ¿ÑĥÑģÑĤ Ñı
ĠÑģ Ð¾Ð±Ñĭ
ĠÐ½ÐµÐ¿ Ð¾Ð½
ĠÐ»ÑİÐ± Ð¸Ð»
ĠÐĴ Ð¾Ð·Ð¼Ð¾Ð¶Ð½Ð¾
ĠÐ¿ ÑĮÑı
ĠÑĩÐµÐ»Ð¾Ð² ÐµÑĩ
ĠÐ¼Ð°Ð»ÐµÐ½ÑĮ ÐºÐ¸Ð¹
ĠÐ¿ÑĢÐ¾Ð¸Ñģ ÑħÐ¾Ð´
ĠÐ½Ð° ÑģÑĤ
Ð¾Ð³ Ñĥ
ĠÐ´ÐµÐ»Ð° ÐµÑĪÑĮ
Ð° Ð½Ñĭ
ĠÐ¾Ð´ ÐµÐ¶Ð´Ñĥ
ĠÐ³ÑĥÐ± Ñĥ
ĠÐºÐ°ÑĢ ÑĤÐ¸
ÐµÐ½Ð¸ ÑĤÑĮ
ĠÐ¸Ð´Ð¸ Ð¾ÑĤ
Ð°Ð½ Ð½Ð¾Ðµ
ĠÐ³Ð» Ð°Ð´
ĠÐ½ ÐµÐ»Ð¾Ð²
ĠÐ¾ÑĤÐºÑĢÑĭ Ð»Ð°
ĠÐ½Ðµ Ð¸Ð·Ð²
ĠÐ½ÐµÐ½Ð°Ð² Ð¸Ð´
ĠÐ¿Ð¾ÑģÐ»ÐµÐ´ Ð½ÐµÐµ
ĠÑĥÐ¿ Ð°Ð»
ĠÐ´ÐµÑĤ ÐµÐ¹
ĠÐ± ÑĢÐ°ÑĤÑĮ
. "
ĠÐ¶Ð´ Ð°Ð»
ĠÑĤÐ²Ð¾ Ñİ
ĠÑģÐ»Ð¾Ð² Ð°Ð¼Ð¸
ĠÐ·Ð°Ð¿ Ð¸Ñģ
ĠÐ²Ð¾Ð» Ð½Ñĥ
ĠÐ¼ Ð¸Ð»Ð¾
ĠÑĩÑĥÐ²ÑģÑĤÐ² Ð¾Ð²Ð°Ð»Ð°
ÑħÐ²Ð°ÑĤ Ð¸Ð»
ĠÐĵ Ð¾Ñģ
Ð°ÑİÑī Ð¸Ð¼
ÑĪÐ¸ ÐµÑģÑı
ĠÐ½ÐµÑĢÐ² Ð½Ð¾
ĠÐ¾ÑĤÐ²ÐµÑĤ Ð°
ĠÐĴ Ð»Ð°Ð´
ĠÐĲ Ð»Ð¸
ĠÐ¿Ð¾ÑģÐ»ÐµÐ´ Ð½Ð¸Ðµ
ĠÐŃ Ð´
Ð°Ð»ÑĮ Ð½ÑĭÐµ
ĠÑĤÐ°Ðº ÑĥÑİ
ĠÑģÐ°Ð¼ Ð¾
ĠÑĥÐ»ÑĭÐ± ÐºÑĥ
ĠÐ·Ð°ÑģÑĤÐ°Ð²Ð»Ñı Ñı
ĠÐ¿Ð» Ð¾ÑĤ
ÑĥÑģ ÐºÐ°Ñı
ĠÐľ Ð¸Ð½
ĠÐ²Ð¾Ð» Ð½Ð¾Ð²
ĠÐ¸Ð³ ÑĢÐ°
ÑĢÑĭ Ð·
ÑĪÐµÐ³Ð¾ ÑģÑı
ĠÑĥÑħÐ¼Ñĭ Ð»ÑĮ
ĠÐ¾ÑģÑĤÐ°Ð½ Ð°Ð²Ð»Ð¸Ð²
ĠÐº Ð¾Ð¶
ĠÐ¾ÑĤÐº Ð°Ð·
Ñı ÐµÑĤ
Ð°ÑĢ Ð°Ðº
ĠÐ¸ ÑĤ
ĠÐ¾ÑģÐ¾Ð± Ð¾
ĠÐ² Ð¾ÑĢÐ¾ÑĤ
ĠÐ´Ð¾ ÑģÑĤÐ°Ð²
ĠÐ¾ÑĤ ÑĩÐµÐ³Ð¾
ĠÐ¸ÑģÐº Ð°ÑĤÑĮ
Ð²Ð¾ ÑĢÐ°ÑĩÐ¸Ð²
ĠÑĥÑĤ ÑĢÐ¾Ð¼
ĠÑģÐ»ÐµÐ´ÑĥÑİ ÑīÐ¸Ð¹
ĠÐ²ÑĭÐ´Ð¾Ñħ Ð½ÑĥÐ»
ĠÐļ Ð°Ð¹
Ð¶ Ð´
ĠÐ±Ð»Ð¸Ð· ÐºÐ¾
ÐµÑħ Ð°ÑĤÑĮ
ĠÐ¾ÑĤ ÑģÑĤÑĥÐ¿
ĠÐ¿ Ð°ÑĢÐ°
ĠÑģÐ» ÑĥÐ¶
ĠÑĢÐ°Ñģ ÑģÑĤ
ĠÑĥ ÑĪÐµÐ»
ĠÐ¿Ð¾Ðº Ð¸
Ð½ Ð°Ð»Ð¸
ĠÐ¿ÑĢÐ¸Ð² Ð»ÐµÐº
ĠÑĩÑĤ Ð¾Ð±
ĠÐ¼ Ð¸ÑĢÐ°
ĠÐ½Ð¾Ð³ Ñĥ
ĠÑĤ Ð°Ð¹
Ð°ÑĤ Ñĥ
Ð¾Ð² Ð¾Ð¹
ĠÐ² Ð½ÐµÑĪ
ĠÐºÐ¾ÑĢ Ð°Ð±
ĠÐ¿Ð¾Ð´ ÑĤ
ĠÐ» ÐµÐ²
ĠÑģÑĤÐ¾ ÑıÐ»Ð¸
ĠÐ¡ ÐµÐ³Ð¾Ð´Ð½Ñı
ĠÑģ Ð¾ÑĢÐ²
ÐµÑĤ Ð¸
ĠÐ±ÑĢÐ¾Ð² Ð¸
ĠÐ± Ð°Ð½
ĠÑģÐ¾ÑģÑĤÐ¾Ñı Ð½Ð¸Ð¸
ĠÐ²Ñĭ ÑĤ
ĠÑģ ÑĥÐ¿
ĠÑģÐ¼ÐµÑĢ ÑĤÑĮ
ĠÐ¿Ð¸ ÑģÑĮ
ĠÑħÐ²Ð°ÑĤ Ð¸ÑĤ
ÑĩÐ¸ Ðµ
ÐµÑĤ Ñĥ
Ð¼ Ð¾Ð½
Ñģ Ð°Ð½
ĠÐ¿ÑĢÐ¸ÐºÐ¾Ñģ Ð½Ð¾Ð²
ĠÐ¸Ð· ÑĥÑĩ
ÑĤ Ð¾Ð±Ñĭ
ĠÐ¿Ð¾Ð´ÑĥÐ¼ Ð°Ð»Ð°
Ñī ÐµÐ³Ð¾
ĠÑĤ ÑĳÐ¼
o u
ĠÐ§ ÐµÐ³Ð¾
ĠÐ¾ÑĤ Ð¾Ð·Ð²
ÑĢ Ð°Ð»Ð¸
Ð°Ð½Ð¸ Ñİ
ĠÐļ Ñĥ
Ð¾Ð¶Ð´ ÐµÐ½Ð¸Ñı
ÐºÐ° ÑĤ
ĠÐ½ÐµÐ´ ÐµÐ»Ñİ
ĠÑĪÐºÐ¾Ð» Ðµ
ĠÐľ Ð¾ÑĢ
ĠÐ¾ÑĤÐ²ÐµÑĤ Ð¸ÑĤÑĮ
ĠÐ·Ð°Ð´ ÐµÑĢÐ¶
ĠÐ¾ÑģÑĤÐ°Ð»ÑĮ Ð½ÑĭÐµ
ĠÐ²Ð°Ð¶ Ð½Ð¾
ĠÐ¸Ð½ ÑģÑĤ
ĠÐ´ÐµÐ» Ð°Ð»
ÑĥÑİ ÑĤ
Ð½Ð° Ñħ
Ð¾Ð´ Ñı
) .
ĠÐ¾Ñģ Ð¼Ð¾ÑĤÑĢ
ĠÑĦ Ð¸Ð·
ĠÐ²ÑģÐµÐ¼ Ð¸
ĠÐºÑĥ Ð»
ĠÐĺ ÑĤÐ°ÑĩÐ¸
ĠÐ² Ð°Ð¼Ð¸
ĠÐ¿ Ð»Ñİ
Ð¾Ñĩ ÐµÐº
ĠÐĴ Ð°Ð¼
Ð´ Ð¾Ð¹
ĠÑĥÑģÐ»ÑĭÑĪ Ð°Ð»Ð°
ĠÐ²Ð¿ ÐµÑĢ
ĠÑĥÐ²Ð¸Ð´ ÐµÐ²
Ñİ ÑīÐ¸Ð¹
ĠÐ·Ð¾Ð» Ð¾ÑĤ
ÑĥÐ¶ Ð½Ð¾
ĠÐ» Ð°Ð¿
ĠÑĥÐ· Ð½Ð°Ð»
ÐµÑģ ÑģÐ°
Ðľ Ð½Ðµ
ÐµÐ² Ð¸
ĠÐ¡ Ð¾Ð²
ĠÑĥ Ð¼Ð¸
ĠÐ»ÑİÐ± Ð¾Ð¿ÑĭÑĤ
ĠÐ½Ð¾Ð³ Ð°Ð¼Ð¸
Ġ .
ĠÐ¿ÑĢ ÐµÐ¿
ÐµÐ» ÐµÐ¼
ĠÐĹÐ½Ð° ÐµÑĪÑĮ
ĠÐ´ÑĢÑĥÐ³ Ð¾Ð³Ð¾
Ð° ÑĤÐ¾
ĠÐ´ Ð°ÑĤÑĮ
ĠÑģÐ²ÐµÑĤ Ðµ
ĠÐ³Ð¾ÑĤÐ¾Ð² Ð°
ĠÐ¡ Ð½ÐµÐ¹
ĠÐ½ ÐµÑĢ
Ð´ Ð°Ð²
Ð¾Ð» Ð¸
ĠÐ¢ Ñį
ĠÐ³Ð»ÑĥÐ± Ð¾Ðº
Ð°Ð» Ð¸Ð»ÑģÑı
ĠÐ¿Ð¾ÑıÐ² Ð¸Ð»Ð°ÑģÑĮ
ĠÐ¿Ð¾Ð´Ð± Ð¾ÑĢÐ¾Ð´
Ð°ÑĢ Ñĭ
ĠÐļ Ð¸
Ð¾Ñħ Ð¾ÑĤ
Ð°Ð½ Ð½ÑĭÐ¼
ĠÑĢÐµÐ±Ñı ÑĤ
ĠÑģÑĤÐ¾ Ñı
ÑĥÐ¶ ÑĩÐ¸Ð½Ð°
ĠÐľÐ°Ð»ÑĦ Ð¾Ð¹
ĠÐº Ð¾Ð»ÑĮ
Ñİ Ð¼
ĠÐ¢ Ð¾ÑĢ
ĠÐ½ÐµÐ² ÐµÑĢÐ¾
Ð¾Ð¿ Ð°Ñģ
ĠÐ´Ð²ÐµÑĢ ÑĮÑİ
ĠÐ¿Ð°ÑĢ Ð½Ñİ
ĠÐ»Ð¸ ÑģÑĤ
ĠÐ· Ð²ÐµÑĢ
Ð¾Ð» Ð½Ñı
ĠÐ½Ð°Ð²ÐµÑĢ Ð½ÑıÐºÐ°
ĠÐ½Ð°Ð¿ÑĢÐ°Ð² Ð¸Ð»Ð°ÑģÑĮ
ĠÐ¾ÑĩÐµÑĢ ÐµÐ´ÑĮ
ĠÑģ Ð¾Ñĩ
ĠÐ½ÐµÐ¿ Ð¾Ð´
ĠÐĲ Ñħ
ĠÑģÑĤÐ°Ð½Ð¾Ð² Ð¸ÑĤÑģÑı
ĠÐ¿ÑĢÐ°Ð² Ð°
ĠÐ¿Ð¾Ð´ÑĥÐ¼ Ð°ÑĤÑĮ
Ð¸Ð½ Ð¾Ð¼
ÑĥÑģÑĤ Ð¸ÑĤÑĮ
Ð½Ð¸ÑĤ ÐµÐ»ÑĮ
ĠÑģÐµÑĢÑĮ ÑĳÐ·
ĠÐ¾Ð± Ð¸Ð¶
ĠÐ¿ÑĢ Ð°Ð·Ð´
ĠÐ§ Ð¾Ð½
ĠÐ¿ÑĢÐ¾Ð¸Ð· Ð½ÑĳÑģ
ĠÐ¼ Ð¾Ðº
ĠÐºÑĢÐ¸ Ðº
ĠÐ²ÐµÑĢ Ñħ
ĠÐ´ÑĢÑĥÐ³ Ð¸Ðµ
ĠÑĪÐºÐ¾Ð» Ñĭ
ĠÑģÐ¾Ð¼ Ð½ÐµÐ²
ÐµÐ¿ ÐµÐ½Ð½Ð¾
Ñī Ð°
Ñģ ÐºÐ¸Ñħ
Ðº Ð¾ÑĢ
ĠÑģÑĤ Ñĥ
Ð½Ð¸Ñĩ ÑĤÐ¾Ð¶
ĠÑĩÐµÑĢ ÑĤÐ¾Ð²
ĠÑģÑĤ Ð¾Ð¹
ĠÐ¿Ð¾Ð´ ÑħÐ¾Ð´
Ð°Ð½ Ð½Ð°Ñı
ĠÐ½Ð¸Ðº Ð¾Ð¼Ñĥ
ĠÐ·Ð°Ðº ÑĢÐ¸
ĠÑĤ ÑĥÐ¿
ĠÐ³ÑĢ Ð¾Ð·
ĠÐ¼ÐµÑĩ ÑĤ
ĠÐ¡ÑĤÐ°Ð¹Ð» Ð·
ĠÐ¿ÑĢ ÐµÐ·
ĠÐ½Ð¸ÐºÐ°Ðº Ð¸Ñħ
ĠÐ²Ð¾Ð¿ÑĢÐ¾Ñģ Ñĭ
ĠÐĶÑĥÐ¼ Ð°Ñİ
ÐºÐ¾Ñĩ Ð¸Ð»
ĠÐ½Ð°ÑģÐ»Ð°Ð¶ Ð´
ĠÐ½ ÑĳÐ¼
Ð° ÑĦ
ĠÑģ Ð¾Ð´
ĠÐ²Ñĭ ÑģÑĤÑĥÐ¿
ĠÐ½Ð° ÑĢÑĥÑĪ
ĠÐºÐ¾ÑĢÐ¸Ð´ Ð¾ÑĢ
ÑĢ Ð°Ðº
Ñı Ð»Ð¸ÑģÑĮ
ĠÐ¿Ð¾Ð´Ð½Ñı Ð»Ð°
ĠÑĥÑģÐ¿ Ð¾ÐºÐ°
ĠÐļ ÑģÑĤÐ°ÑĤÐ¸
ĠÐ¾ ÑĦÐ¸
ĠÐ½ÐµÐ² Ð¾Ð»ÑĮÐ½Ð¾
ĠÐ¿ÑĢÐ¾ÑĪÐµÐ¿ÑĤ Ð°Ð»Ð°
ĠÐ±Ð¾Ð» ÐµÐ·
ĠÐ²ÐµÑĤ ÐµÑĢ
e r
Ð¾Ð½ Ð·
ĠÐ¾ÐºÐ¾Ð½Ñĩ Ð°ÑĤÐµÐ»ÑĮÐ½Ð¾
ĠÐ¿ Ð¸Ñģ
ĠÑĤÐ°Ð»Ð¸ Ñİ
ÑģÑĤÐ² Ð¸Ñı
ĠÐĲ Ð³Ð°
ĠÑĩ Ð°ÑĪ
ĠÐ¿Ð¾Ð¿ Ð°Ð´
Ð¼ ÐµÑĪ
Ð¾ÑĢ Ñī
ĠÑħ ÑĥÐ´
ĠÐ½ÐµÐ´ Ð¾Ð²Ð¾Ð»ÑĮÐ½Ð¾
ĠÐ±Ð»Ð¸ Ð¶
Ð¸Ð² Ð°Ð»ÑģÑı
ĠÐ´ÐµÑĤ Ð¸
ĠÐ±Ð»Ð¾Ð½ Ð´Ð¸
Ð» ÐµÐ¶
Ñĩ Ð°ÑĤ
ĠÐ·Ð°Ð±Ñĭ ÑĤÑĮ
ĠÐ¾Ð±ÑıÐ· Ð°ÑĤÐµÐ»ÑĮÐ½Ð¾
ĠÐ²Ñĭ ÑĪÐµ
ĠÐ² Ð°Ð»
ĠÑĪ Ð°ÑĢ
ÑģÑĤ ÐµÐ¹
ĠÐ²Ð°Ð¼Ð¿ Ð¸ÑĢ
ĠÐ¼Ð¾ ÐµÐ¼Ñĥ
ĠÑĢÐ°ÑģÑģÐº Ð°Ð·Ð°ÑĤÑĮ
ĠÐ·Ð°ÐºÑĢÑĭ Ð»
ĠÐ½ÐµÑģ Ð¼Ð¾ÑĤÑĢÑı
ĠÐ¿ÑĢ Ð¾Ð¶
ĠÐ½Ð°ÑĪ ÐµÐ»
ĠÐ¿ÑĢÐµÐ² ÑĢÐ°ÑĤ
ĠÐ·Ð°Ð´ÑĥÐ¼ ÑĩÐ¸Ð²Ð¾
ĠÑĥ ÑĪÐ»Ð°
Ð°Ñİ ÑīÐ¸Ðµ
ĠÑģÑĭ Ð½
ĠÐ¿Ð¾Ð¹ Ð´Ñĥ
ĠÐ³Ð¾Ð²Ð¾ÑĢ Ñİ
Ð· Ð°Ð´Ð¸
ÐµÐ½ÑĤ Ð¾Ð²
Ð»Ñĭ Ñħ
ĠÑĩÐµÐ»Ð¾Ð²ÐµÐº Ð¾Ð¼
Ð¾Ð² Ð°Ð²
ĠÐ¾ÑĤÐ² Ð»ÐµÐº
ĠÑĩÑĥÐ²ÑģÑĤÐ² ÑĥÐµÑĤ
ĠÐ¸Ð·Ð± Ð°Ð²
ĠÐ¼ Ð¾Ð½
ĠÑģ Ð¸Ð¼
ĠÐ¿Ð¾Ð½Ð¸Ð¼ Ð°Ð»Ð°
ĠÑģ Ð¸Ð½
ÐµÐ² ÐµÐ»
ĠÐŁ ÑĥÑģÑĤÑĮ
ĠÑģÑĤ Ð°Ðº
ĠÐ¿ÑĢÐ¾Ð±Ð»ÐµÐ¼ Ñĭ
ĠÑĢÐµÑĪ Ð¸Ð»Ð¸
ĠÐŀ Ñħ
Ð¼Ðµ ÑıÐ»Ð°ÑģÑĮ
ĠÑĥÑģÐ¿ ÐµÐ²
Ð´Ðµ ÑĤÑĮ
ĠÑħÐ¼Ñĭ ÐºÐ½ÑĥÐ»
ĠÐºÐ°Ðº Ð¸Ñħ
ĠÐ¾Ð´ Ð¸Ð½Ð¾
ĠÐºÑĢÑĭ Ð»ÑĮ
ĠÐ¿ÑĢÐ¾ ÑģÑĤÐ¸
ĠÐ½Ð°Ð¹ Ð´
Ð»Ñı ÑıÑģÑĮ
ÑĤÐ¾ ÑıÑĤ
Ð°ÑĢ ÐµÐ»
ĠÑĪÐºÐ¾Ð» Ñĥ
ĠÐ¿ÑĢÐ¸ Ð½ÐµÑģ
ĠÐļ ÑįÑĢ
ĠÑĢÐ¾Ð· Ð¾Ð²
ĠÐ¿ÑĭÑĤ Ð°ÐµÑĤÑģÑı
ĠÐĶ Ð¾Ð±
ĠÐ¿ÑĢÐ¸ Ð¾ÑĤÐº
ĠÐ¿Ð¾Ð»ÑĥÑĩ Ð¸Ð»Ð¾ÑģÑĮ
ĠÐº Ð»Ñİ
Ð°ÑĢÐ°Ðº ÑĤÐµÑĢ
ĠÐ¿Ð¾ÑģÑĤ ÐµÐ»Ð¸
Ð½Ð° ÑĩÐ°Ð»Ð°
ĠÐ¤ ÑĢÑįÐ½
ĠÐ¿Ð¾Ð¸Ð½ÑĤÐµÑĢÐµÑģ Ð¾Ð²Ð°Ð»ÑģÑı
ĠÐŀ ÑģÑĤ
ÐµÐ´ Ð¸Ð½
ĠÐ¿ÐµÑĢÐ² ÑĭÐ¼
ÐµÐ´ Ð°
Ñİ ÑĢ
ĠÐĳÑĭ Ð»Ð¾
ĠÐ½ÐµÐ¿ÑĢÐ¸ ÑıÑĤ
ÑīÐ¸ ÐµÑģÑı
ĠÑģÑĤ ÑĢÐ¾
ĠÐ´ÑĥÑĪ Ñĥ
ĠÑĢÐ¾Ð´Ð¸ÑĤ ÐµÐ»Ð¸
ĠÐ½Ð°Ð¿ÑĢÑı Ð³
ĠÑĥ Ð½Ð¸
Ñĭ ÑĢÐµ
ĠÐ´ Ð¾ÑĩÑĮ
ĠÐ½Ð¾Ð² ÑĭÐ¹
ĠÑģÐ² ÐµÐ¶
ĠÐ¢ ÑģÑĥ
ĠÐ¿ ÑĥÑģÑĤÐ¾
ĠÐºÐ¾ÑĢ Ð¾Ð±
ĠÐĽÑİ Ð±
Ñħ ÑĳÐ½
Ð½Ð¾ ÑĢÐ¸
Ð¸Ð´ Ð½Ð¾
ÑĨ Ð¾
ĠÐ¾Ð± ÑĢ
Ð°Ð»ÑĮ Ð½ÑĭÐ¼
ĠÐºÐ¾ Ð½ÐµÑĨ
ĠÑĥÐ»Ð¸ ÑĨÑĥ
ĠÐ³Ð»Ð°Ð² Ð½Ð¾Ðµ
ĠÐĶ Ñį
ĠÑĥ ÑĪ
ÑĪÑĮ ÑģÑı
ĠÑĢ Ð°Ð±
ĠÐ³Ð¾ÑĢÐ¾Ð´ Ð°
ĠÐ¿ÐµÑĢ ÐµÐ½
ÑĢ ÐµÑģÑĤ
Ð½Ð° Ð½Ð¸Ñı
ĠÐ³ÑĥÐ± Ð°Ð¼
Ð°Ð½ Ð½Ð¾Ð³Ð¾
ĠÐ´ Ð°ÑĢ
ĠÐ£ Ð·
ĠÐ¿ÑĢ Ðµ
ĠÐ¿Ð¾Ð²ÐµÑĢ Ñħ
ĠÑĤÑĭ ÑģÑı
ÐŁ Ð¾Ð´
ĠÐ´ Ð¾Ð²Ð¾Ð»ÑĮ
ĠÐ¿ÑĢÐ°Ð² Ð¸Ð»ÑĮÐ½Ð¾
ĠÐ²Ð¾ÑģÐ¿Ð¾Ð¼Ð¸Ð½Ð° Ð½Ð¸Ñı
ĠÑħ Ð¸ÑĤ
ĠÐ²Ð½ÑĥÑĤ ÑĢÐµÐ½
ĠÑĤÑĢ ÐµÐ²
ĠÐ°Ð² ÑĤÐ¾Ð¼
ĠÐ´Ð¾ÑģÑĤ Ð°Ð»
ĠÑģÐ¸Ð´ ÐµÐ»Ð¸
ĠÑĢÐ°Ð±Ð¾ÑĤ Ñĭ
ĠÑģÐ¼Ð¾ÑĤÑĢ ÐµÐ»Ð¸
ĠÐļ Ð¾Ð»
ĠÐŀÑĩ ÐµÐ½ÑĮ
ĠÐ´ Ð¸ÑĢÐµÐº
Ðµ Ð¸
ĠÐ²Ð¾Ñģ Ñħ
ĠÐ¡ Ð°Ð½
ĠÑĥ ÑĩÐ°
ÑĨ Ð¾Ð¼
ĠÑģÑĤ ÑĢÐ°Ð´
ĠÐ½Ð° ÑģÑĤÑĥÐ¿
ĠÐ´ ÑĭÐ¼
ĠÐ²Ð¾Ð´ Ñĥ
Ð¿ Ðµ
ĠÐ¾Ð´ ÐµÑı
Ð¾Ð´ Ð¸ÑĤ
Ð½Ð¸ ÑĤÑĮÑģÑı
ĠÐ± Ð¾ÑĢ
ĠÑģÐ¿ ÑĢÑıÑĤ
ĠÐº ÑģÑĤÐ°ÑĤÐ¸
ĠÐ² Ð»Ð°
ĠÐ¿Ð¾Ð· Ð¶Ðµ
ĠÑįÑĤ Ð¸Ð¼Ð¸
ĠÐ· Ð²Ð¾
Ð¼Ð¸ Ð³
ĠÐ¿ÑĢÐ¾ Ð¸Ð³
ĠÐ´Ð²Ð¸Ð¶ ÐµÐ½Ð¸Ñı
ĠÐ¿Ð°Ð»ÑĮÑĨ ÐµÐ²
ĠÐ¶ÐµÐ»Ð° Ð½Ð¸Ñı
ĠÐ²Ð¾Ð· Ð¼ÑĥÑī
ĠÐ²Ð¾Ð»Ð¾Ñģ Ð°Ð¼Ð¸
ÑģÑı ÑĤ
ÑĢÑĥ Ð´
Ð½ÑĥÑĤ ÑĢÐ¸
ĠÐ´ÐµÐ½ÑĮ Ð³Ð¸
ÐµÐ¼ Ð¾Ð½
Ñģ ÑĤÐ¾Ñı
ĠÐ¡ ÐµÐ²ÐµÑĢ
ÐµÐº ÑĤÐ¸Ð²
ĠÐŁ Ð¾Ð¶Ð°Ð»
ĠÑģÐ¶ Ð°Ð»
Ð¾ÑĤ Ñĭ
ĠÐ²Ð¸Ð´ Ð¸ÑĤ
ĠÑĥ Ð½Ð¸ÑĩÑĤÐ¾Ð¶
Ð»ÑĥÑĪ Ð°Ð¹
ĠÐ¾ÑģÑĤ Ð°ÑĤÑĮÑģÑı
ĠÐļ Ð°ÑĤ
ĠÐ¸Ð´ ÐµÑĤ
ĠÐ»ÐµÐ¶ Ð°Ð»
ÐµÐ½ÑĮ ÐºÐ¾
ÑĢÐ¸ Ð´
Ñģ ÐºÐ°Ñı
Ñĥ Ð½Ð°
Ð ®
ÑĨÐ¸ ÐµÐ¹
ĠÐ²ÐµÑĩÐµÑĢ Ð¾Ð¼
Ð°Ð¼ ÐµÐ½
ĠÑģÐ°Ð¼ Ð¾Ð¼Ñĥ
Ð°Ð½ Ð½ÑĭÑħ
ÑĮ Ðµ
ĠÐ´ Ð°Ð»ÑĮ
Ð½Ð¾Ð² Ð¾Ð»Ð¾Ñģ
ÑĢÑĥ ÑĤ
ĠÑģÐ¸Ð³ Ð°ÑĢ
ĠÑĢÐµÐ±Ñı ÑĤÐ°
ĠÑħ Ð²Ð¾ÑģÑĤ
* *
ÐµÐ» Ðµ
ĠÐ¿ÑĢÐ¸Ð½ Ð°Ð´
ĠÐĶ ÐµÑĢÐµÐº
ĠÐ½ÐµÐ´ Ð°Ð²Ð½Ð¾
ĠÐ±ÑĥÐ´ ÑĮ
ĠÐ§ ÐµÑĢÑĤ
Ð¸Ð² Ð°ÑİÑĤ
ĠÐ½Ð¸ Ð¶Ðµ
ĠÐ¼ ÐµÐ»ÑĮ
Ðĺ Ð·
ĠÐ¿ÑĢÐ¸Ðº Ð°Ð·
ÑĪ ÐºÑĥ
ĠÑĦ ÑĢÐ°Ð·
Ð½Ð°Ð¶ Ð´Ñĭ
Ð Ļ
ĠÑĢÐ°Ð· Ð¾Ð±
ĠÑİÐ½Ð¾ÑĪ Ð°
ĠÐ·Ð°Ð½ ÑıÑĤÐ¸
ĠÐ½Ð°Ð· Ð²
ĠÐ¿Ð¾Ð³ Ð¸Ð±
ĠÐ¶Ð¸Ð· Ð½
Ð°Ð½Ð¸ Ð¹
ĠÐ·Ð°Ð¿ Ñı
ĠÐ·Ð°Ðº Ð»ÑİÑĩ
ĠÐ¿Ð¾Ð½Ð¸Ð¼ Ð°ÐµÑĤ
ĠÐ² Ð°ÑĢÐ¸
ĠÑĢÐ°Ð· ÑĢÐµÑĪ
ÑĥÐ¼ Ñı
ĠÐ¿ÑĢÑı Ð¼
ĠÑıÐ·Ñĭ ÐºÐ¾Ð¼
ĠÐ¼ÑĭÑģ Ð»ÐµÐ¹
ĠÐ½Ð¸ Ð·
ĠÐºÑĥÑĢ ÑĤ
ĠÐĴ Ð¾Ð»
ĠÐ¿ÑĢÐ¸Ð¼ ÐµÑĢ
Ð» ÐµÐ±
ĠÑĤÐ¸ÑĪÐ¸ Ð½Ð°
Ð½Ð¸ ÑģÑĮ
Ð¸ÑĢÐ° ÑĤÑĮ
Ñĥ ÐµÑĤÑģÑı
ÑģÑĤ Ðµ
ĠÐ²Ð¾Ð· Ð½Ð¸Ðº
ÐµÐ»ÑĮ Ðµ
ĠÑģÐ¿ÑĢÐ¾Ñģ Ð¸ÑĤÑĮ
ĠÐ¿Ð¾ Ð»ÑĮÐ·
ĠÐ¡ÑĤ Ð°ÑĢ
ĠÑģÐ¸ÑĤÑĥÐ° ÑĨÐ¸Ð¸
Ð°Ð¹ ÑĤ
ĠÑģÐ¾Ð· Ð½Ð°Ð½Ð¸Ðµ
ĠÐłÐ°Ð· Ð²Ðµ
ĠÐķ Ñĳ
ĠÑģÐ¾Ð¿ ÑĢÐ¾ÑĤÐ¸Ð²
ĠÐ¾ÑģÑĤÐ°Ð² Ð°Ð»Ð¾ÑģÑĮ
ÑĢÐµÐ´ Ð¸
ĠÑı ÑģÐ½Ð¾
ĠÐ¾ÑĤ Ð½Ð¾Ñģ
ĠÐ±Ð»Ð¸Ð¶ Ð°Ð¹
ĠÐ´ÑĥÐ¼ Ð°ÐµÑĤ
ĠÐ´ÐµÐ¹ÑģÑĤÐ² Ð¸Ñı
ÐĴ Ñĭ
Ð½ ÐµÑĤÑģÑı
ĠÐĺÐ¼ ÐµÐ½Ð½Ð¾
ĠÐĹ Ð´ÐµÑģÑĮ
ĠÐ¾Ðº Ð°Ð·ÑĭÐ²
ĠÐ»ÑİÐ± Ð¾Ð¹
ĠÐ·Ð° ÑĤÑĭ
ĠÑĤÐ²Ð¾ ÐµÐ³Ð¾
ĠÐľ Ð¾Ð¶Ð½Ð¾
ĠÐĿÐ°Ð´ ÐµÑİÑģÑĮ
ĠÑģÑĤÐ¾ Ð»Ð¸
ĠÑģ Ð¸
ĠÑģÐµÑģÑĤ ÑĢÐ°
ĠÑĥÐ³ Ð¾Ð´Ð½Ð¾
ĠÐ±ÐµÑģÐ¿ Ð¾ÐºÐ¾
ĠÐ´ ÑĢÑĥ
ĠÐ¿Ð¾ ÑħÐ¾Ð´
ĠÐ» Ð¾Ð±
ÑĢÑĭ ÑĤ
ĠÐŀ Ðº
ĠÐ½Ð°Ð¼ ÐµÑĢ
ÐµÐ´ Ð»ÐµÐ½Ð½Ð¾
ĠÐ²ÐµÑģ ÐµÐ»
ÐµÐ½ Ð½ÑĭÐ¼Ð¸
ĠÐ¿Ð¾ Ð¸Ñģ
ĠÑģÑĤ ÑĥÐ»
ĠÑģÐ¾Ð»Ð½ ÑĨÐµ
ĠÐŃ Ð»ÑĮ
ĠÐ£ÑĩÐ¸Ñħ Ð°
ĠÐľ Ð¾Ð¹
ÑĪÑĥÑİ ÑģÑı
ÑĩÐµ ÑģÑĤÐ²Ðµ
Ð¡ Ðº
Ð»Ð°Ð· Ð°
ĠÐºÐ°Ð¶Ð´ ÑĭÐ¼
ĠÐ½Ð°ÑĪ ÐµÐ³Ð¾
ĠÐ¾ÑĤ ÑĢÐ°Ð¶
ÑĢÑĥ Ñı
Ð¸Ð» Ð»Ð¸
ĠÐ½ÐµÑģÐº Ð¾Ð»ÑĮ
ĠÐ¿ÑĢÐ¸ Ð´Ñĥ
Ñī ÑĥÑĢ
Ñİ Ðº
ĠÐ³Ð¾Ð»Ð¾Ñģ Ð°
ĠÐ²ÑĭÐ´ Ð°Ð²
ĠÐ¾Ð³Ð¾ Ð½ÑĮ
ĠÐ´ Ð²Ð¾
ÑĤÐ¾ ÑĢÑı
Ð§ ÐµÑĢÐµÐ·
ĠÐĿ Ð°Ð¿
ĠÐ¼Ð¸ ÑģÑĤÐµÑĢ
ĠÐ²Ñĭ Ð²
ĠÐ¿Ð¾Ð² Ð¾ÑĢÐ°ÑĩÐ¸Ð²
ÑĪ ÐµÐ¼
ĠÑģÐ¸Ð´ ÐµÑĤÑĮ
Ðĵ Ð°ÑĢÑĢÐ¸
ÑĪ Ð¸Ð¼Ð¸
ĠÐ´Ð¾ÑĢÐ¾Ð³ Ñĥ
Ðº Ð½ÑĥÐ²
ÐºÐ° ÐµÑĤ
Ð¾Ð» Ð°Ð³
Ð» ÐµÑĩÑĮ
ĠÐ·Ð° ÑīÐ¸
ĠÑĥÑģÑĤ ÑĢÐ°
ĠÐ» ÐµÐº
ĠÐ¥ Ð°
ĠÑģÐ°Ð¼ ÑĭÐµ
ĠÐ¾Ð¶Ð¸Ð´ Ð°Ð»
ĠÑģÐ¿ Ð°Ð»
ĠÐ¿Ð» Ð°Ð¼
ĠÐ¼ÑĭÑģ Ð»ÐµÐ½Ð½Ð¾
ĠÐºÐ»Ð°Ñģ Ñģ
ĠÐ²Ð¾Ð·Ð± ÑĥÐ¶Ð´
ĠÐĵÐ¾Ñģ Ð¿Ð¾Ð´
ĠÐ²Ð¾Ð·Ð´ÑĥÑħ Ðµ
Ð³Ð¾ Ðµ
ĠÐ¿ÑĢÐ¸ ÑĩÐ¸Ð½
ĠÑĢÑĥ Ð³
ÑĢ ÐµÐº
Ñģ ÐµÐ³Ð´Ð°
ĠÐº Ð¾Ð¶Ð°
ĠÑĤ Ð°Ð±
Ð°Ñģ Ð°
ÑģÐº Ð¾Ð¼
Ð¸ Ð½Ð°Ñı
ĠÐ¢ Ð²Ð¾
ĠÐ¿ÑĢÐ¾ÑĤÑı Ð½ÑĥÐ»Ð°
ĠÐ±ÑĥÐ´ ÑĥÑī
ĠÑģÐ²ÐµÑĤ Ð°
ĠÑĢ ÐµÐ¿
ĠÐ½ÐµÐ¿ Ð»Ð¾Ñħ
ĠÐĲ Ð»ÑĮ
ĠÐŁ Ð¾Ð²
ĠÑĢÐ° Ð½Ð¾
ĠÐ¾Ð±ÐµÑĢ Ð½ÑĥÐ»ÑģÑı
ĠÑģÐµÑĢÑĮÐµÐ· Ð½Ð¾
ĠÐĺ Ñħ
ĠÐ»ÐµÑģÑĤ Ð½Ð¸ÑĨÐµ
ĠÐ±ÐµÐ· Ð¾Ð¿Ð°Ñģ
ĠÑħ Ð°ÑĢÐ°ÐºÑĤÐµÑĢ
ĠÐ±Ð» Ð°Ð³Ð¾
ĠÑĤ Ð°ÑĢÐµÐ»
ĠÑģÐ¾ Ñħ
ĠÐ·Ð°Ð³ Ð»Ñı
a n
Ð¾Ð± Ð¾ÑĢÐ¾ÑĤ
ĠÐ¿Ð¾Ð½Ñı ÑĤÐ½Ð¾
ĠÐ²Ð¿ ÐµÑĩÐ°ÑĤ
ÑģÑĤÑĢ ÐµÐ»
Ñĳ Ð·Ñĭ
ĠÐľ Ñį
Ð¾Ñĩ ÐºÐµ
ĠÐºÑĢÐ°Ð¹ Ð½ÐµÐ¹
Ñī ÑĥÑİ
ĠÐ¼Ð¾Ð¶ ÐµÐ¼
ĠÐ·Ð°ÑģÑĤÐ°Ð² Ð¸Ð»
ĠÐ½Ðµ ÑĥÐ²ÐµÑĢ
Ð¾Ð· Ð¼
ĠÑĪÐ¸ÑĢ Ð¾ÐºÐ¾
ĠÐ²Ñģ Ð»ÐµÐ´
ĠÑĩÐµÑĤ ÑĭÑĢÐµ
ĠÑĥ Ð¹
ÑĤ ÑĢÐ¸
ĠÑĥÐ¿ Ð°Ð»Ð°
Ñħ ÐµÐ½
ĠÑħÐ¾Ð»Ð¾Ð´ Ð½Ð¾
Ð°ÑİÑī ÑĥÑİ
ĠÐ¿ÑĢÐµÐ´Ð¿ Ð¾Ñĩ
ĠÐ´ Ð²Ð¾Ðµ
ÐµÑħ Ð°Ð»Ð°
Ñĩ Ð½Ð¾Ð¹
ĠÐ·Ð°Ð² ÑĤÑĢÐ°Ðº
ĠÐ¿ÑĢÐ¾ÑĪ Ð»Ð°
Ð°ÑİÑī Ð°Ñı
ĠÐ·Ð°Ð¿Ñı ÑģÑĤÑĮ
ĠÐ¿ÑĢÐ¸Ð· Ð½
o n
ĠÑģ Ð¾ÑĢ
ĠÐ½Ð¸ Ð¶
ĠÐĿ ÑĥÐ¶Ð½Ð¾
ĠÐ¿Ð°ÑĢ Ð½ÐµÐ¹
Ð»ÐµÐ½ Ð½ÑĭÐµ
ĠÐ²ÑĭÑħÐ¾Ð´ Ñĥ
ĠÐ¿Ð¾Ð¿ÑĭÑĤ Ð°Ð»Ð°ÑģÑĮ
Ð½Ñĥ ÑģÑĮ
Ð»Ð¾Ð² Ð½Ð¾
ÐµÐ² Ð°Ð»
ĠÑĢÐ°Ð·Ð¼ ÑĭÑĪ
ĠÐ¿Ð¾ÑģÐ»ÑĭÑĪ Ð°Ð»ÑģÑı
ĠÑģ ÑĨÐµÐ½
ĠÐ½Ð°ÑħÐ¾Ð´ Ð¸ÑĤÑģÑı
ĠÐŀ Ð¹
ĠÐ¼Ð¾Ð¼ ÐµÐ½ÑĤÐ°
Ð¾Ñģ Ñģ
ĠÐ¿Ð¾Ð´ Ð²
Ñī Ð°Ñı
ĠÐ¾ÑĤ ÑĤ
ĠÐŀ Ð´Ð¸Ð½
ĠÑģÑĤÐ°ÑĢ Ð°Ð»ÑģÑı
ÑģÑĤÑĢ ÐµÑĩ
ĠÐ¿ÑĢÐ¾ÑĪ Ñĥ
ĠÐ¸Ð·Ð´ ÐµÐ²
ĠÐ· Ð°Ð³Ð¾
ÐµÐ¶ Ð°Ð»Ð¸
ĠÐ¼ÐµÑģÑı ÑĨ
ÑĪÐµÐ¹ ÑģÑı
ĠÐ¾ÑĢÐ³ Ð°Ð½Ð¸
ĠÑĥÐ´Ð¸Ð² Ð¸Ð»ÑģÑı
Ð² Ð°Ð½
ĠÐ¾ÑĤÑģÑĤ ÑĢÐ°Ð½
ĠÐ²Ð· ÑĢÐ¾Ñģ
ĠÐ·Ð°Ð¼ÐµÑĤ Ð½Ð¾
ĠÐ¿ÑĢÐ¸Ð½ ÑıÐ»ÑģÑı
ĠÑģÑĤ ÑĥÐ´
ĠÑĢÐµÐ± ÑĳÐ½
ĠÐ±ÑĢÐ¾Ð² ÑĮ
ÑĢ Ð°Ð»Ð°ÑģÑĮ
ĠÐĶÐ¶ Ð¸Ð½
ĠÐ¿Ð¾Ð´ Ð°Ð»ÑĮÑĪÐµ
ĠÑĤÐµÐ» Ð¾Ð¼
ĠÑģ Ð·Ð°Ð´Ð¸
ĠÑĤÐ¾ÑĢ Ð¾Ð¿
Ð°Ð¼ Ð¿
ĠÑĥÐ¶Ð°Ñģ Ð½Ð¾
ĠÐ²Ð¸Ð´ Ð¾Ð¼
ĠÑĤ ÐºÐ°
ĠÐĺ Ð´Ð¸
ĠÐ¿ÑĢÐ¾ÑĦ ÐµÑģÑģ
ĠÑĥÐ»ÑĭÐ± Ð½ÑĥÐ²ÑĪÐ¸ÑģÑĮ
ĠÐľ Ð°Ð³
ÑĢÑĥ Ðº
Ð´Ð° ÐµÑĤ
ĠÐ²ÑģÑĤÑĢÐµÑĩ Ð¸
ĠÑĢÐ°Ð· Ð½ÑĭÐµ
ĠÐ½Ð°Ð±Ð»Ñİ Ð´Ð°Ñı
ĠÐ´Ð² Ð°Ð´ÑĨÐ°ÑĤÑĮ
ĠÐĳ ÑįÐº
ĠÐ²Ð¿ÐµÑĢ ÑĳÐ´
ĠÑģÐ¼ ÑĥÑĤ
Ð¾Ð· Ð°
ÑĢÐµÐ´ Ð¾ÑĤÐ¾
ĠÑģÐ»ÑĥÑĩÐ°Ð¹ Ð½Ð¾
ĠÐ´ Ð¾Ñĩ
Ðķ ÑģÐ»Ð¸
ĠÑĤÑĢÑĥ Ð´Ð½Ð¾
ĠÑĤ ÐµÐº
ĠÐ²Ñĭ Ð¹
ĠÐĿ Ð°ÑĤ
ĠÐ¿Ð¾Ð´ Ð¶
ÑĢÐ¸ ÑĨ
ĠÐ´ÑĢÑĥÐ³ Ð¸Ð¼
ĠÐ¿Ð¾Ð´Ð¾ÑĪ ÑĳÐ»
ĠÐ½Ðµ Ð¾Ð±Ñĭ
ĠÑģÑĤÑĢÐ° ÑħÐ°
ĠÐķ ÑīÑĳ
ĠÑģÑĤÐ¾Ð» Ð¾Ð¼
ĠÐĿ Ð°Ð¹Ð»
ĠÐ²Ð¾Ð·Ð¼Ð¾Ð¶Ð½Ð¾ ÑģÑĤÑĮ
Ð°Ð± Ñĭ
Ð¾Ð² Ð¸
ĠÑģÐ¿ÑĢÐ°ÑĪ Ð¸Ð²Ð°ÐµÑĤ
ÑĢÐ¸ ÑģÑĤ
Ñī Ð¸Ð¼
ĠÐ²ÑĭÐ³Ð»ÑıÐ´ ÐµÐ»
ĠÐ¾ÑīÑĥÑī ÐµÐ½Ð¸Ðµ
ÐŁÐ°ÑĢ ÐµÐ½ÑĮ
ÑģÑĤÐ² Ñĥ
Ð°ÑģÑĤ Ð¸Ð½
ĠÐ¢ Ðµ
ĠÐ²Ñĭ ÑĪÐ»Ð¸
ĠÐ³Ð¾ ÑĢÐ°Ð·
ĠÑģÐµÐ¼ÑĮ Ð¸
ĠÐ´ÐµÑĢÐ¶ Ð°
ĠÑģÐ°Ð¼ ÑĭÑħ
ĠÑı ÑĢÐ¾
ĠÐĴÐ¿ ÑĢÐ¾ÑĩÐµÐ¼
ĠÑħÐ²Ð°ÑĤ Ð°Ð»Ð¾
ÑĭÐ² Ð°ÑİÑĤ
ĠÐ¿ÑĢÐ¸Ð· Ð½Ð°
ĠÐ²Ñĭ ÑģÐº
Ð°Ð½ Ñı
ĠÐ²ÑģÐ¿Ð¾Ð¼ Ð½Ð¸Ð»
ĠÐ»ÐµÐ³ ÑĩÐµ
ĠÐ²Ñĭ Ð²Ð¾Ð´
ĠÑĩÐ°Ñģ Ñĭ
ĠÐ¿Ð¾ÑģÑĤ ÐµÐ¿ÐµÐ½Ð½Ð¾
ĠÐ±Ð»Ð¾Ð½Ð´Ð¸Ð½ ÐºÐ°
ĠÐ·Ð°Ð½ ÑıÑĤ
ÑĥÐ¼ Ð°ÐºÐ¸
ĠÑģÐµÐº ÑĢÐµÑĤ
ÑĥÐ»ÑĮÑĤ Ð°ÑĤ
ÐµÐ³ Ñĥ
ĠÑīÐµÐº Ðµ
ĠÐĹ Ð°Ð²
Ð¾Ð¼ Ð°Ð½
ÑĤÐµÑĢÐµÑģ Ð½Ð¾
ĠÐ¿Ð¾Ð´ÑĢÑĥÐ³ Ð°
ĠÐŃ Ð»Ð¸
Ð½ ÐµÐ¶
ĠÐ½ÐµÐ´ Ð¾Ð²Ð¾Ð»ÑĮ
ĠÐ³Ð¾ÑĢ Ð´Ð¾
ĠÐ»Ð°Ð´Ð¾Ð½ ÑĮÑİ
ĠÐ¿Ð¾Ð² ÑĤÐ¾ÑĢÑı
ĠÐĽ Ð¸Ð·
ĠÐ½ Ð°Ð¶
ĠÑģÐ¾Ð³Ð»Ð°Ñģ Ð¸Ð»ÑģÑı
ĠÐ²ÑģÐº Ð¾ÑĢÐµ
Ð» ÑĥÑĩ
ĠÐ¿ÐµÑĢÐ² Ð¾Ð³Ð¾
ÐµÐ´ Ð¸Ð½Ðµ
Ð¸Ð» ÐµÑĤ
ĠÐ½ÐµÐ¾Ð±ÑħÐ¾Ð´ Ð¸Ð¼Ð¾
ĠÐ¥ Ð¸Ð½Ð°
ĠÐ¡ÑĤ Ð¸Ð²
ĠÐ´ÑĢÑĥ Ð³Ð¾Ðµ
ĠÐ³ Ð°Ð´
ĠÐĶÐ¶ Ð°ÑĢ
ĠÑĦ Ð¸Ð»ÑĮ
ĠÐ¾ÑĤÐ¾ÑĢ Ð²
ĠÐ½Ð°Ð¼ Ð½Ð¾Ð³Ð¾
Ð¾ Ñĥ
ĠÐ» Ð¾Ðº
ĠÐŁ ÑĢÐµÐ´
ĠÐ³Ð¾ÑĢÐ°Ð· Ð´Ð¾
ĠÐ¿ÐµÑĢÐ² Ð¾Ð¹
ĠÑģÑĤÐ°Ðº Ð°Ð½
ĠÐ¾ÑģÑĤÐ°Ð² Ð¸ÑĤÑĮ
ĠÐ¸Ð¼ ÐµÐµÑĤ
Ð³Ð»Ñı Ð´ÐµÑĤÑĮ
ÐºÐ¸ Ð´
Ð½Ð¾ ÑĢ
ÑĢÐ¾Ñģ Ð¸ÑĤÑĮ
ĠÐĽ ÑĥÑĩ
ĠÑħ ÑĢ
ĠÐ² ÑĢÑıÐ´
ĠÑģ ÑĥÑħ
ĠÐ²Ð· ÑıÐ²
ÑĩÐ½Ð¾ Ðµ
ĠÑĤ ÑĢÑı
ĠÐ¼Ð°Ð»ÑĮÑĩÐ¸ ÐºÐ°
Ð»Ð¾ Ð½Ð¸Ð²
ĠÑĢÐ°ÑģÑģÐº Ð°Ð·
ÑĢ Ðº
ĠÑģÐ²ÐµÑĢ ÑħÑĥ
ÑģÑĤÐ² ÑĥÐ¹
ĠÐ¼Ð¾Ð· Ð³
ĠÐ¿ÑĢÐ¸Ð± Ð»Ð¸Ð·
Ð¸ ÑģÑĤÐ¸
Ð½Ð¸ Ñİ
ĠÐļ Ð°Ð½
ĠÐ¿Ð¾Ð´ ÑĬ
ĠÑħÐ²Ð°ÑĤ Ð°ÐµÑĤ
ĠÐ·ÐµÐ¼ Ð»Ðµ
ĠÐ²Ð¾Ñģ ÑĤÐ¾ÑĢ
ĠÐĹÐ°ÑĤ ÐµÐ¼
ĠÐºÐ½Ð¸ Ð³Ñĥ
Ñĭ Ð¶
ĠÑĢÐ°Ð· Ð¾Ñĩ
ĠÑĢÐ¾Ð´Ð¸ÑĤ ÐµÐ»ÐµÐ¹
ÐµÐ½ ÐºÐ°
ĠÐ¾Ð¿ÑĥÑģÑĤ Ð¸Ð»
ĠÐ½Ðµ ÑĩÐµÐ³Ð¾
ĠÐĿ Ð°Ñģ
ÑħÐ²Ð°ÑĤ Ð¸Ð²
ÐµÑı ÑĤÑĮÑģÑı
ĠÐ¸Ð· ÑĥÐ¼
Ð»Ñİ ÑģÑĮ
ÑĤÐ¸ Ðº
Ð°Ð» Ð»Ð¸
ĠÑĪ Ð»Ð°
ĠÐĳ Ð¾Ð»ÑĮ
ĠÑģ ÑĢÐ°Ð²
Ð¾Ð» ÐµÐ·
ĠÐºÐ°Ð¿ Ð¸ÑĤÐ°Ð½
ĠÑģÐº Ð»Ð°Ð´
ĠÑĢÐ°Ð· ÑĢÑĥÑĪ
ÑģÑĤÐ² Ð¸Ðµ
ĠÐ¿Ð¾Ð» ÐµÐ·
ĠÐ²Ð·Ð³Ð»Ñı Ð½ÑĥÐ»
ĠÐ³Ð¾ÑģÑĤ Ð¸Ð½Ð¾Ð¹
Ð ¬
ĠÐ¶ Ð°Ð»ÑĮ
ĠÑĤÑĢ ÐµÑĤÑĮ
ĠÐ½Ð°Ñĩ Ð°ÑĤÑĮ
ĠÐļ ÑĥÐ´Ð°
Ð»Ð¾ Ð½Ñı
Ð°Ð»ÑĮ Ð½Ð¾Ð³Ð¾
ĠÐ² Ð¸Ð·
ĠÐ½Ð¸ ÐºÑĥÐ´Ð°
ĠÐ¾ÑģÑĤÐ°Ð² Ð¸Ð²
ĠÐºÑĥÑħ Ð½Ðµ
ĠÑĢÐ°Ð´ Ð°
Ð´ ÑĥÐ¼
ĠÐ´ÐµÐ²ÑĥÑĪ ÐºÐ¾Ð¹
ĠÐ¿Ð¾ÐºÑĢÐ°Ñģ Ð½
Ð°Ð½ ÑĩÐ¸Ð²
Ð» Ð¾Ð³Ð¾
h e
ĠÐºÐ° ÑĦÐµ
Ðµ ÑģÑĮ
Ð´Ð° ÑĤ
ĠÐ´ÑĢÑĥÐ³ ÑĥÑİ
ĠÑĩÐµÑĤ Ð²ÐµÑĢ
ĠÐ²Ñĭ ÑıÑģ
ĠÐ¾ÑĤ Ð»Ð¸ÑĩÐ½Ð¾
ĠÐº Ð°Ñĩ
ĠÐ° Ð¿
ĠÐ¿Ð¾Ð» Ð¾ÑĤ
ĠÐ¿Ð¾Ð¿ ÑĢÐ¾ÑģÐ¸Ð»
ĠÐ¾ÑģÑĤÐ°Ð² Ð»ÑıÑı
ĠÑģ ÑĢÐ°Ð¶
Ð¾ Ð½Ð¸Ð¼
ĠÑĤ Ð¾Ð¿
ĠÑĪ ÑĤÐ°
Ð½Ð¾Ñģ Ð¸ÑĤ
ĠÑĦÐ¾ÑĤ Ð¾Ð³ÑĢÐ°ÑĦ
ĠÐ¿ÑĢ Ð¾Ð·Ð²
ĠÐ¥ Ð¼
ĠÐ¼Ð¾Ð» ÑĩÐ°Ð»
ĠÐ´Ð°Ð² Ð°Ñı
ĠÐ·Ð°Ð¿ Ð¾Ð¼
ĠÑĢÐ°Ð´Ð¾ÑģÑĤ Ð½Ð¾
ĠÐ½ ÐµÐ»
ĠÐĵÑĢ ÐµÐ¹
ÑĢ Ð°Ð»Ð¸ÑģÑĮ
Ð¾Ñħ Ð¾Ð¶Ðµ
ĠÐ¿Ð¾Ð· Ð°Ð´Ð¸
ĠÐĲ Ðº
ÐµÑĢ Ð¾Ð²
ĠÐ±ÑĭÐ² Ð°ÐµÑĤ
Ð´ Ð°Ð»Ð°
ĠÐ²Ð¾Ð² ÑĢÐµÐ¼Ñı
Ð½Ð¸ Ð¼Ð¸
ĠÐºÐ°Ð¶Ð´ Ð¾Ð³Ð¾
ĠÐ²Ñĭ Ð¹ÑĤÐ¸
ĠÑģÑĤ Ð°
ĠÐĽ Ð¸Ð»Ð¸
Ð¾Ð½ Ð¾Ð¼
ĠÐ¿ÑĢÐ¾ÑĪ ÐµÐ»
ĠÐ¿ÑĢÐµÐ´Ð»Ð¾Ð¶ Ð¸Ð»
ĠÑģÐ»ÐµÐ´ Ð¾Ð¼
ĠÑģÑĤÐ¾ Ð»Ðµ
ĠÐĿÐ¸Ðº ÑĤÐ¾
ĠÑģÐµÑĢÐ´ ÑĨÐ°
ĠÐ² Ð»Ð°Ð´
Ð± Ðµ
ĠÐ¼Ð¾Ð»Ð¾Ð´ Ð¾Ð¹
ĠÐ¡Ðº Ð¾Ð»ÑĮÐºÐ¾
ĠÐ¸ÑģÐº Ð»ÑİÑĩ
Ð´ ÑĭÐ¹
ĠÐ½Ð¸ÐºÐ°Ðº Ð¾Ð³Ð¾
ÑĢ ÐµÐ¹
Ð°Ð»ÑĮ Ð½Ð°Ñı
ĠÐ¿ÑĢÐµÐ´ Ð¼ÐµÑĤ
ÑĥÑģÑĤ Ñı
ĠÐ¾ÑĢÑĥÐ¶ Ð¸Ðµ
ĠÐ¿ Ð°Ð½Ð¸
Ðº Ð½ÑĥÐ»ÑģÑı
Ñı Ð·Ð°
ĠÐ¿ÑĢÐ¸ ÑĪÐ»Ð¸
ÐºÐ¸ Ð½ÑĥÐ»
ĠÐ½ÐµÐ»Ð¾Ð² ÐºÐ¾
Ð»Ñı Ð»
ĠÐ¾ÑĤÐ´ ÑĭÑħ
ĠÐ¿ÐµÑĢÐµ Ð¾Ð´
ĠÐ¿Ð¾Ð¼ Ð¾
ĠÐ´ÑĢ Ð°ÐºÐ¾Ð½
ÐµÐ´ Ð¾Ð¼
ĠÐ½Ðµ ÑĩÑĤÐ¾
Ð°ÑĢ ÑĮ
ĠÐ²ÐµÑĩ Ð½Ð¾
ĠÐ¿Ð¾ÐºÐ° ÑĩÐ°Ð»
Ð¸Ð½ Ð´
ÐµÑģ ÐµÐ´
ĠÐŁ Ð¾Ð½
ĠÐ¾Ð± Ðµ
ĠÑģÐ°Ð¼ Ð°Ñı
Ðļ Ð¾
ĠÐ»Ð°Ñģ ÐºÐ¾Ð²
ĠÐ¾ÑģÑĤ Ð°Ð»Ð°ÑģÑĮ
Ðķ Ð³Ð¾
ĠÐ¾Ð´ÐµÑı Ð»Ð¾
ĠÐ²ÐµÑĢ Ð½ÑĥÐ»Ð°ÑģÑĮ
ĠÐ¿ÑĢÐ¾Ð³ Ð¾Ð²Ð¾ÑĢÐ¸Ð»Ð°
ĠÐ¿Ð¾Ð²ÐµÑĢ Ð½ÑĥÐ»Ð°ÑģÑĮ
ÑĩÑĥ ÑĤÑĮ
ĠÐ¿ ÑĤÐ¸
ĠÐĶ Ð¾Ðº
ĠÐ» ÑĮ
ĠÐ½Ð°ÑĪ Ð»Ð°
Ð¾Ð» Ð°Ð¹Ð½
Ð»Ñİ Ð´
ĠÐ¼Ð³Ð½Ð¾Ð² ÐµÐ½Ð½Ð¾
ĠÐ¾Ð± Ð¾ÑĢÐ¾ÑĤ
........ ........
Ñħ Ð»Ð¸Ð¿
ĠÑĥÑĩ ÐµÐ±
ĠÑģÐ¼ÑĭÑģ Ð»Ðµ
ĠÐ·Ð° Ð¸Ð½ÑĤÐµÑĢÐµÑģ
ĠÐ´ÐµÑģÑı ÑĤ
Ð¾Ð² ÑĭÐ¹
ĠÐ½Ð°Ð´ ÐµÑİÑģÑĮ
Ñĥ ÑģÑĮ
ÑĢÐ°Ð½ Ð½Ð¾
Ð¼ Ð°Ñħ
ĠÐ²ÐµÑĩ ÐµÑĢÐ°
ĠÐļÐ°Ðº Ð¾Ð¹
Ðµ ÐµÑĪÑĮ
ĠÐ± ÐµÑĪ
ĠÐ½Ð° ÑĢÐ¾Ð´
Ð´ÑĢÐ°Ð² ÑģÑĤÐ²ÑĥÐ¹
Ñģ ÐºÑĥÑİ
ĠÐļ Ð¾Ð½
ĠÐĽ ÐµÐ²Ð¸
Ñĥ ÑĢÑĥ
ĠÐĴ Ð¸Ðº
ĠÐ¾Ð´ Ðµ
ĠÑģÑĥÐ¼ ÐºÑĥ
ĠÐ¿Ð¾Ð¼ ÐµÑĪ
Ð¾ÑĢ Ð½Ð¾
ĠÑģÐ¾Ñģ ÑĢÐµÐ´Ð¾ÑĤÐ¾
ĠÐ£ Ð±
ÐµÐ² Ð°Ñı
Ðº Ð°Ð»
ĠÐŁ ÐµÑĢÐµÐ´
ĠÐ¿ Ð°Ðº
ĠÐ¿ÑĢÐ¾Ð±Ð¾ÑĢÐ¼Ð¾ÑĤ Ð°Ð»
ÑĭÐ² Ð°Ð»ÑģÑı
ĠÐ¿ÑĢÐ°Ð² Ð´Ñĥ
ĠÐĳ Ð¾Ð¶Ðµ
Ð½Ð¸ ÐºÐµ
ĠÑģÐ»ÑĭÑĪ Ð°Ð»Ð°
Ð¸Ð² Ð°Ð¹
ĠÑģ Ñģ
ĠÐ²ÑģÑĤ Ð°ÑĤÑĮ
ĠÑĢÐµÐ±ÐµÐ½ ÐºÐ°
ĠÐ·Ð½ Ð°Ðº
ĠÑĤÑĢ Ð¾Ð³
ĠÑĤÑĢÑĥÐ± ÐºÑĥ
ĠÐ½ÐµÐ´ ÐµÐ»Ð¸
ĠÑĩÐµÐ»Ð¾Ð²ÐµÑĩ ÐµÑģ
ĠÑģÐºÐ°Ð¶ Ñĥ
ĠÐ½ÐµÐºÐ¾ÑĤÐ¾ ÑĢÐ¾Ðµ
ĠÐ¼Ð¸Ð½ÑĥÑĤ Ñĭ
ĠÐ¾Ð± ÐµÑģÐ¿
ÑĢÐ¸Ð¼ ÐµÑĢ
ĠÐ±Ð¾ ÑıÐ»ÑģÑı
ĠÐ¾ÑĤÑģ ÑĥÑĤÑģÑĤÐ²
ĠÑĥÑģÑĤÐ°Ð² Ð¸Ð»ÑģÑı
Ð¾Ð´ ÑĥÑĪ
ĠÐ²Ð·Ð³Ð»ÑıÐ´ Ñĭ
Ñħ Ð¾
ĠÑģÑĤÐ¾ÑĢÐ¾ Ð½Ðµ
ĠÑĢÐµÐ´ ÐºÐ¾
ÑĪÐ¸Ñħ ÑģÑı
ÐŁ ÑĢÐ¸
Ð¾Ð² Ð¾ÑĢÐ°
ĠÐ´Ð¾Ð±Ð°Ð² Ð¸Ð»
ĠÐ½Ð°Ñĩ Ð°Ð»Ð¾
Ð°Ð»ÑĮ Ð½Ð¾Ðµ
ĠÐº Ð»Ð°Ð´
Ð¸ÑĤ ÐµÐ»ÐµÐ¹
Ġ âĢķ
ĠÑģÑĤ ÑĥÐº
ĠÐĹ ÐµÐ¹Ð½
ĠÑĤ ÐµÐ¼Ñĥ
ĠÐŃ ÑĤÐ°
ĠÐ¿ÑĢÐ¾Ð² ÐµÐ»
ĠÑĥÐ²ÐµÑĢ ÐµÐ½Ð°
Ð½ ÐµÐ½Ð½Ð¾
ĠÐ´ ÑĥÑĢÐ°
ĠÑģÐ¸Ð´ Ð¸ÑĤ
ĠÐ¾ÐºÐ°Ð· Ð°Ð»Ð¸ÑģÑĮ
ĠÐ¼Ð°ÑĪÐ¸ Ð½Ðµ
Ð°Ð² ÑĪÐ¸Ð¹
Ð¸ÑĤÐµÐ»ÑĮ Ð½ÑĭÐ¼
ĠÐ¿Ð¾Ð² Ð¾Ð´Ñĥ
ĠÑģÐ» ÑĳÐ·Ñĭ
ÑĩÐ¸ Ð³Ð¾
ĠÐ¿Ð¾Ð»ÑĥÑĩ Ð¸Ð»
Ñĥ Ð»Ð¸
ĠÐ¶ÐµÐ» Ð°Ñı
Ð½ Ð¾Ð³
ĠÐ·Ð²Ð¾Ð½ Ð¾Ðº
Ð» Ð°Ð¼
Ð¾Ð¹Ð´ ÐµÑĤ
Ð¸ÑĢÐ¾Ð² Ð°Ð»
ĠÐ¡ ÑĤÐ¾
Ð´ ÐµÐ¼
ĠÐ¡ Ð¾Ð½
ĠÑģÐ´ Ð°Ð²
ĠÐ¿Ð¾Ð» ÐµÑĤ
ĠÑĥÑħÐ¼ÑĭÐ»ÑĮ Ð½ÑĥÐ»ÑģÑı
ĠÐ´ ÐµÐ½
ÑĢÐ¾Ð¼ Ð°ÑĤ
ĠÐ¿ÑĢÐµÐº ÑĢÐ°ÑĤ
ĠÐ¸ÑĤ Ð¾Ð³Ðµ
Ð» ÐµÐ½Ð¸Ð¸
ĠÐ¾Ð± Ð¼
ĠÐľ Ð°ÑĢÐ¸
ĠÐ¡ ÐµÐ±
ÑģÑĤÐ¸ Ð³
ĠÐ» ÐµÐ´Ñı
ĠÑĩ ÑĮ
ĠÐ³Ð¾ÑĢ Ð»Ð¾
Ð°Ð» Ðµ
ĠÑĪÐ¸ ÑĢÐ¾Ðº
ĠÐ² Ð»Ð°Ð¶
ĠÑĢÐ°ÑģÑģ Ð¼ÐµÑıÐ»ÑģÑı
ĠÐ½ÐµÐ· Ð°Ð¼ÐµÑĤ
ĠÐ² ÐµÑģÑĤÐ¸
ĠÐºÑĢÐ¸ ÐºÐ½ÑĥÐ»
ĠÐ¿Ð¾ Ð¾Ð±
ĠÐ±Ñĭ ÑģÑĤ
ĠÐ¸Ð´Ðµ Ñı
ĠÐ·Ð°ÑīÐ¸ Ñī
ĠÐŁ ÐµÑĢÐ²
ÑĤÑĥ Ð´Ð°
ĠÐ±Ð¾ ÑİÑģÑĮ
ĠÐ¿Ð¾ ÑĢÐ°Ð¶
ÑĤÐµ ÑĦ
ĠÐ´ÑĭÑĪ Ð°ÑĤÑĮ
ĠÐ§ ÑĤÐ¾Ð±Ñĭ
ĠÐ¿ÑĢÐ¸Ð¶ Ð°Ð»
ĠÑħ Ð¸Ñħ
ĠÐ´Ð¾ÑĢÐ¾Ð³ Ðµ
Ð°Ð» Ð»
ĠÑģÐ» ÑĥÑħ
ĠÐĹ Ð°Ð±
Ð» ÑĥÑħ
ĠÐ³Ð¾Ð²Ð¾ÑĢ Ð¸Ð»Ð¸
ĠÐ¼ Ð°Ð¹
ÐµÐ² ÑĪÐ¸ÑģÑĮ
ĠÐĴ Ð°
ĠÑģ ÑĥÑī
ĠÐ¿Ð°Ð» ÐµÑĨ
ÑĢÑĥ ÐµÑĤ
ÑĤ Ð¾Ð±
ÐĴ Ñģ
ĠÑĥ ÑĢÐ¾Ð²
ĠÐĵ Ð¾Ð»
ĠÐĴ Ð¸Ð½
ĠÐł ÑĥÐºÐ¸
ĠÐ¾ÑĤÐ´ Ð°Ð»
ĠÐ¸ÑģÑĤ ÐµÑĢÐ¸
ĠÑĢÑĥÐº Ð°Ð²
ÐµÐ¹ Ð»
ĠÐ¼Ð¾ ÐµÐ¼
ĠÐ² ÐµÐ·
ĠÐ¸ Ð±Ð¾
ĠÑĥÐº Ð°Ð·
ĠÑĢ Ð²Ð°
ĠÑĢÐµÐ±ÐµÐ½ Ð¾Ðº
ĠÐ¿ÑĢÐµÐ´ Ð»Ð°Ð³
ĠÐ±ÐµÑģÐ¿ Ð¾ÐºÐ¾Ð¹
ÑĢÑĭ Ð»Ð°
Ñī Ð¸Ñħ
ĠÐ¿ Ð»Ð¾Ñī
ĠÐ½Ð°Ð¿Ð¾Ð¼ Ð¸Ð½Ð°
ĠÐºÐ»Ñİ ÑĩÐ¸
ĠÐ¿ÑĢÐ¸Ðº ÑĢÑĭÐ²
ĠÐ½ÐµÐ¿Ð¾Ð½ ÑıÑĤ
ĠÐ¿ÑĢ Ð¸Ð»Ð¸
Ð¸ÑĤÐµ ÑģÑĮ
ÐµÑĩ Ð¸
Ñģ Ð¾Ð¼
ĠÐĿ Ð°ÐºÐ¾Ð½ÐµÑĨ
ĠÐ¿ÑĢÐ¾ ÑıÐ²
ĠÐ¿ÑĢÐ¾Ð´Ð¾Ð»Ð¶ Ð°Ñı
ĠÐ¿Ð¾Ð¼Ð¾ ÑīÐ¸
ĠÑĤ ÑĮ
Ñĩ Ð½ÑĭÐµ
ĠÐºÐ°Ð¶Ð´ Ð¾Ð¹
ĠÐ¿Ð¾ÑĤ ÑĢÑıÑģ
ÑĢÐ¾ ÑĦ
ĠÑĥÑģÐ»ÑĭÑĪ Ð°ÑĤÑĮ
ĠÐ¸Ð³ ÑĢÐ°ÑĤÑĮ
ĠÐ² Ð°ÑĪÐ¸
ĠÐºÐ¾ÑĤÐ¾ÑĢ Ð¾Ð¼Ñĥ
ĠÐ·Ð°Ð±Ñĭ Ð»Ð°
ĠÑĥ ÑĪÐ¸
ĠÑĤÐ²Ð¾ Ð¸Ñħ
ÑĤ Ð°Ð½
ĠÑģÐ»ÑĭÑĪ Ð½Ð¾
ĠÐºÐ°ÑĢ ÑĤ
ĠÑĥÑģÑĤ Ð°Ð»
ĠÑĥÑĩ Ð°ÑģÑĤ
ĠÑĤÐ²Ð¾ Ðµ
ĠÐ² ÑĨÐµÐ¿
ĠÐ´ÑĥÐ¼ Ð°Ñı
ÑĥÑĤ ÑģÑı
ĠÐ· ÑĢÑı
ĠÐ¸ÑģÐºÑĢÐµÐ½ Ð½Ðµ
ĠÐº Ð¾Ð¶Ðµ
ĠÐĽ ÐµÐº
ĠÐ¾ÑģÑĤÐ°Ð»ÑĮ Ð½ÑĭÑħ
ĠÐĴÐ¸Ð´ Ð¸Ð¼Ð¾
ĠÐ¼ Ð°ÑĪ
ĠÐ·Ð°Ð² Ð¸Ñģ
ĠÐ²Ñģ ÑħÐ»Ð¸Ð¿
ĠÐ½Ð°Ñģ Ð¼ÐµÑĪ
ĠÑĢÐ°ÑģÑģ ÑĤÐ¾Ñı
ĠÑıÑĢ ÐºÐ¾
ĠÐ¿Ð» ÐµÐ²Ð°ÑĤÑĮ
ĠÐ§ ÐµÑĢ
ĠÑģ ÑĩÐµÑĤ
ĠÐ¡ ÐµÑħ
ĠÐ¾ÑĤÐ²ÐµÑĩ Ð°ÐµÑĤ
Ð± ÐµÑĢ
ĠÑĪ Ð»Ð¸
ĠÑįÐ¼Ð¾ ÑĨÐ¸Ð¸
Ð»Ð°Ñģ Ñģ
ĠÑĤÐ¾ Ð½Ð¾Ð¼
Ġ m
ĠÐº Ð»ÐµÑĤ
Ð¸Ð½ ÐºÐ°
" ?
ĠÐ½ÑĢÐ°Ð² Ð¸Ð»Ð¾ÑģÑĮ
Ð¾Ð¼ Ð°
ĠÐĿ ÐµÐ²
ĠÑħÐ¾ÑĤ ÐµÐ»Ð¸
ĠÐ¸Ð¼ ÐµÐ½Ð¸
ĠÐ·Ð°ÐºÑĢÑĭ Ð»Ð°
ĠÑģÐ»ÑĥÑĪ Ð°ÑĤÑĮ
ĠÐ´ Ð¾Ð¼Ñĥ
ĠÐ½ÐµÐºÐ¾ÑĤÐ¾ ÑĢÑĭÐµ
ĠÐ¿Ð¾ Ð»Ð°
ĠÐ¸Ð·Ð² ÐµÑģÑĤ
ĠÑģÑĤÐ¾ÑĢÐ¾Ð½ Ð°Ð¼
ĠÐ¡ Ð½Ð°ÑĩÐ°Ð»Ð°
ÑĥÑĩ Ð¸
ĠÐ·Ð°Ð¼ÐµÑĤ Ð¸Ð²
ĠÐ·Ð°Ð³ Ð°Ð´
ĠÐ´ Ð¾Ð¶
ĠÑĩÑĥÐ²ÑģÑĤÐ² Ð¾Ð²Ð°ÑĤÑĮ
ĠÐ³Ð¾ÑģÐ¿ Ð¾Ð´
ĠÐ¼ÑĥÐ¶ÑĩÐ¸ Ð½Ñĥ
ĠÐ¿ÑĢÐ¸ Ñĩ
ĠÐ²Ð¾Ð· ÑĮÐ¼Ð¸
ĠÐ° Ð³
ĠÐ³Ð»ÑĥÐ¿ Ð¾
ĠÐ¾Ð±Ð½Ñı Ð»Ð°
ÐµÐ¹Ð½ Ð´Ð¶
ĠÐ¿ÑĢ ÐµÐ¶
ĠÑĥÐ´Ð¸Ð² Ð»ÐµÐ½Ð¸Ðµ
ĠÐ¿Ð¾Ð²ÐµÑĢ Ð¸ÑĤÑĮ
ĠÐ¿Ð¾Ð´ ÑĩÐ¸Ð½
ĠÐ¿ÑĢÐ¸Ð½ ÑıÑĤÑĮ
ĠÑģÐ¸Ð»Ð° Ñħ
ĠÐ¸Ð¼ ÐµÑİ
ĠÐ³ ÐµÑĢÐ¾
Ð» Ð¸Ð»
ĠÑĢÐ°Ð±Ð¾ÑĤ Ð°ÑĤÑĮ
? ?
ĠÐ¿ÑĢ ÐµÑģÑĤ
ĠÑģÐ¶Ð¸Ð¼ Ð°Ñı
ĠÐļ ÐµÐ½
ĠÐ¿Ð¾Ð´ÑĢÑĥÐ³ Ñĥ
ĠÑĪ ÐºÐ¾Ð»ÑĮ
ĠÐºÑĢÐ¾Ð² ÑĮÑİ
ĠÑĤÐ°Ðº Ð¸Ð¼Ð¸
ĠÐ¿ÑĢÐ¾Ð² Ð°Ð»
ĠÐ·Ð° ÑĪ
ĠÐ¼Ñĭ ÑĪ
ĠÐºÐ²Ð°ÑĢÑĤÐ¸ ÑĢÑĥ
ĠÑĥÑģÐ¼ÐµÑħ Ð½ÑĥÐ»Ð°ÑģÑĮ
ĠÐ¿Ð¾Ð´ ÐµÐ»
ÑĢ Ð°Ð±Ð¾ÑĤ
ĠÐĹ Ð°Ðº
ĠÑĢÐ°Ð·Ð± ÑĥÐ´
ĠÐ² ÐµÐ»
ĠÐ¡Ðº Ð¾ÑĢ
ĠÐ¿Ð¾Ð² ÐµÐ·
ĠÐ£Ð· ÑĥÐ¼Ð°ÐºÐ¸
ĠÐ½Ð°Ð² ÑģÐµÐ³Ð´Ð°
ĠÐ¿ÑĢÐ¾Ñħ Ð»Ð°Ð´
ĠÐ¸ Ð´Ñĥ
ĠÐ£ Ñģ
ĠÑģÐ¾Ð² ÐµÑĤ
ĠÐ½ÐµÑĥÐ²ÐµÑĢ ÐµÐ½Ð½Ð¾
ĠÐºÑĥ Ð»Ð°Ðº
ĠÐºÐ½Ð¸ Ð³
ĠÐ¼ ÐµÑĢÑĤÐ²
ĠÐ²ÐµÑĢ Ð½Ð¾
ĠÑģÐ¼Ð¾ÑĤÑĢ Ñİ
ĠÑĥÑĩ Ð¸ÑĤÐµÐ»ÑĮ
ĠÐ¾Ð±Ð¾ Ð¸Ñħ
ĠÑģÐ¾ÑģÑĢÐµÐ´Ð¾ÑĤÐ¾ Ñĩ
ĠÐ¿Ð¾ÑģÐ¼Ð¾ÑĤÑĢ ÐµÐ²
ĠÑģÑĥÐ´ Ð¾ÑĢ
ĠÐ´ÐµÐ²ÑĥÑĪ ÐµÐº
ĠÐł Ð°Ð¹
ÑĨ ÐµÐ»
ĠÑģÐ¼ ÐµÑĢÑĤ
ĠÐ½Ð¾Ð² Ð¾Ð¹
ĠÐł Ð¾Ð±
ĠÑģÐ²Ð¾ ÑĳÐ¼
ĠÐ¿ÐµÑĢ ÐµÑħ
ÑĨ ÐµÐ¹
ĠÐľ Ñĥ
ĠÐ°Ð» ÐºÐ¾Ð³Ð¾
ĠÑģÐº ÑĢÐ¸Ð¿
ĠÐ¾Ð± Ð»Ð¸Ð·
ĠÑģÐ¾Ð±Ñĭ ÑĤÐ¸
ĠÐ·Ð°Ðº Ð°Ð½ÑĩÐ¸Ð²
Ð¾ÑĤ Ð²ÐµÑĤ
ĠÐ·Ð°Ñħ Ð¾Ñĩ
ĠÐľ Ð¾Ñı
Ð°Ð½ Ð½ÑĥÑİ
ĠÑĦÐ°Ðº ÑĤ
ĠÐ¾Ð¿ ÑĢÐ°Ð²
ĠÐ¿Ð¾ Ð»Ñı
Ð°Ñģ Ñģ
ĠÐºÑĢÑĥ ÑĤ
ĠÑģÑĤÑĢ ÐµÐ»
ÑĦ ÐµÑĢ
ĠÑģÐ¾Ð± ÐµÑģÐµÐ´
ĠÑģÐ² Ð°Ð´ÑĮ
ĠÐ¿Ñĥ Ð»ÑĮ
ĠÐ½Ð°Ð¿ Ð°Ð´
Ñĭ Ð½
ĠÐ¾Ð¿ Ð¾Ð·
ĠÐ½Ð° Ð¾Ð±Ð¾ÑĢÐ¾ÑĤ
ĠÐ¿Ð°Ð¿ Ð°
ĠÐ¾Ð±ÑĬ ÑıÐ²
ĠÐ¾ÑĤÐº Ð°Ð·ÑĭÐ²
ĠÐ¿ÑĢÐ¾ÑģÑĤ ÑĢÐ°Ð½
ĠÐ½Ð°ÑħÐ¼ÑĥÑĢ Ð¸Ð»ÑģÑı
ĠÐº Ð°ÑĪ
Ð· Ð²
ĠÐ½Ð° ÑĪÐ¸Ñħ
ĠÑĪÐ°Ð³ Ð¾Ð²
ĠÐ»Ñİ Ð´Ñı
ĠÐ¿ÐµÑĢ ÐµÑĪ
ĠÐ¢ Ð¸
ĠÐķ ÑģÑĤÑĮ
ĠÑĢÐ°Ð· Ð»Ð¸Ñĩ
ĠÑīÐµÐº Ð¸
ĠÑģÐ² Ð°Ð»
ĠÐł Ð¾Ð½
ĠÐ¿ÑĢ Ð¾ÑĩÑĮ
ĠÐĶÐ¶ Ð¾
ĠÑĢ ÐµÑĩÑĮ
ĠÐ·Ð½Ð°ÐºÐ¾Ð¼ ÑĭÐ¹
ĠÐ¥ Ð°Ð½
ĠÐĺ Ñģ
ĠÐ¿Ð¾ÑĤÐµÑĢ ÑıÐ»
ĠÐ²ÑĭÑĢÐ°Ð¶ ÐµÐ½Ð¸Ðµ
ĠÐ²Ð¾ÑĪ ÐµÐ»
ĠÐ¿Ð¾Ð» Ð½Ð¾Ð¹
ĠÐ¼Ð°Ð³Ð°Ð· Ð¸Ð½
ĠÐ¿ÑĢ Ð¾Ð»
ĠÐ¿Ð¾Ð´ ÑĢÐ¾ÑģÑĤ
ĠÐ¿Ð¾ ÑĢÑĭÐ²
ĠÑģÐ¾Ð±ÑģÑĤÐ²ÐµÐ½ Ð½Ð¾Ð¹
ĠÐ» ÐµÐ½
ĠÑģÐ¿ Ð°ÑģÑĤÐ¸
Ð¸ÑĤ Ð¸
ĠÑĤÐ°Ð½ ÑĨ
ĠÑģÐ»ÐµÐ´ ÑĥÐµÑĤ
ĠÐ´ÑĥÑĪ Ð°
ÐµÐº Ð°
ĠÐ¾ÑĤÐº ÑĢÐ¾Ð²
ĠÐ¾ ÑĨÐµÐ½
ĠÐºÐ¾Ð¼Ð¿ Ð°Ð½Ð¸Ð¸
ĠÐ´ Ð°Ð¼
ĠÐ¿ÑĢÐ¾ Ð½Ð¸Ðº
ĠÐĴ Ð°Ð»
ĠÐ¼Ð°Ð»ÐµÐ½ÑĮ ÐºÐ°Ñı
ĠÐ¿ÐµÑĢ ÐµÑģÐ¿
ĠÐº Ð»ÑİÑĩ
ĠÐ²ÑģÐ¿Ð¾Ð¼ Ð¸Ð½Ð°
ĠÐ¾ÑĦÐ¸ ÑĨÐ¸
ĠÐ¿ÑĢÐ¾Ðº Ð»Ñı
ĠÐ³ÑĢÑĥ Ð±Ð¾
Ñĩ Ð½ÑĭÐ¼
ĠÐ³ Ð°Ð·
ĠÐ¿ÑĢÐ¸ ÑģÑĤÑĥÐ¿
ĠÐļ Ð¸ÑĢ
Ð¸Ð´ Ð¶
ĠÐŁ Ð¾Ð·
ĠÐ²Ð¾Ð·Ð¼Ð¾Ð¶Ð½Ð¾ ÑģÑĤÐ¸
Ð¾Ð² Ð°Ð½Ð¸Ðµ
ĠÐ¾Ð¶Ð¸Ð´Ð° Ñı
ĠÐ¾ÑģÑĤ Ð°Ð»Ð¸ÑģÑĮ
ĠÐºÐ¾Ð» ÐµÐ½
Ð¸ÑģÑĤÐ¾ Ð»ÐµÑĤ
ĠÑĤ ÐµÑĤ
ÑĢÐ¸ ÑĦÑĦ
Ñĩ Ð¾Ðº
ĠÐ¿ÑĢ Ð¾Ð¹ÑĤÐ¸
ĠÑĢÐµÐ· ÑĥÐ»ÑĮÑĤÐ°ÑĤ
ĠÐ² ÑĢÐ°Ñĩ
ĠÑĦÑĭÑĢ ÐºÐ½ÑĥÐ»
Ð¾ÑĪ Ð»Ð¸
ĠÐ³Ð¾Ð²Ð¾ÑĢ Ð¸ÑĪÑĮ
ĠÐ½ÐµÐ² Ñĭ
Ð°Ð³ Ðµ
0 0
ĠÐ¿ÑĢ ÐµÑģ
ĠÐ° ÑĢÐ¾Ð¼Ð°ÑĤ
ĠÐº Ð»Ð¸
ĠÑĥÐ± ÐµÐ¶
Ð°Ð² Ð¸
Ð¾Ð² Ð¾
ĠÑģÐ² Ð¸Ð´Ð°
ĠÐ¿Ð¾ ÑĪÑĳÐ»
ĠÐĲ Ñģ
ÑĤÐµ ÑģÑĮ
ĠÐ² Ð½Ñĥ
ĠÐºÑĢÐµÑģ Ð»Ð¾
ĠÐ¾ÑģÑĤÐ°Ð² Ð¸Ð»
ĠÐ·Ð°Ñħ Ð»Ð¾Ð¿
ĠÐ¤ ÑĢÐ°Ð½
Ð¸Ð² Ð°Ð»Ð¸ÑģÑĮ
ĠÐ¾Ð±ÑĬÑıÑģ Ð½Ð¸ÑĤÑĮ
ĠÐ® Ð½
Ð¸Ð¼ Ð¾Ðµ
Ñĥ ÐµÑĪÑĮ
ĠÐ³ÑĢÑĥ Ð±
ĠÐ½Ð¾Ð³ Ð°Ñħ
ÑĢÐ° ÑĤÐ¸
ÑĢÑĥ Ð±
ĠÑģÑĤÐ¾ ÑıÑĤÑĮ
ĠÑĢÐ°Ð·Ð¾Ñĩ Ð°ÑĢÐ¾Ð²
ÑĢÐ¾ Ñī
ĠÐ¼Ð¾ Ñī
ĠÑĢÐµÑĪ ÐµÐ½Ð¸Ðµ
ĠÐ½Ð°Ð±Ð»Ñİ Ð´Ð°Ð»
ĠÑĢ Ð¾Ñģ
Ðµ ÐµÑĤÑģÑı
ĠÑĥÐ»ÑĭÐ± Ð°Ð»ÑģÑı
Ð¼ ÐµÐ»
ĠÐ²ÑĭÐ¿ Ð¾Ð»
ĠÑģ ÑħÐ¾Ð´
ĠÐ¾ÑĤÐ´ Ð°Ð²
ĠÑĤÐ¾Ð» ÑģÑĤ
Ð¾ÑĤ Ñĥ
ĠÐĲ Ð²
ĠÐ³ Ð°Ð»
ĠÐ¾ÑĤÐºÑĢÑĭ ÑĤ
ĠÐľ Ð¾Ð»
ĠÐ¾Ñģ Ð¼Ð°ÑĤÑĢÐ¸Ð²
Ð°Ð´ Ðµ
Ð «
ĠÑĥÐ´Ð°ÑĢ Ð¸Ð»
Ñħ Ð¾Ð¶Ñĥ
Ð¸Ð± Ð»Ð¸
ĠÐ¼ Ð¾ÑĤ
ĠÐļÑĥÑĢ ÑĤ
ĠÐ»ÐµÐ¶ Ð°Ð»Ð°
ĠÐ·ÐµÐ¼ Ð»Ð¸
ĠÑĢ Ð¾Ð±
ĠÐ´Ð¸Ð² Ð°Ð½Ðµ
Ð¼ Ð°ÑĢ
! ..
ĠÐ´ÑĢ Ð¾Ð¶Ð°
ÐµÐ½ Ð´
Ð¸Ñģ Ð°
ĠÐ±Ð» ÐµÑģÑĤ
Ð¿ ÑĢÐµÐ¶
ÑĥÑģÐº Ð°ÑĤÑĮ
Ð¾Ð» Ð°
Ð¾Ñĩ ÐºÐ¾Ð¹
ĠÐ¾Ð± Ð»Ð°Ð´
ĠÐ¿Ð°ÑĢ Ð½ÐµÐ¼
ĠÐ²Ð¾ÑģÐºÐ»Ð¸ ÐºÐ½ÑĥÐ»
ĠÑģ Ð½Ñı
ĠÐ²Ñĭ Ð»ÐµÑĤ
Ð¾Ð· Ð½Ð°
Ð¸Ð»Ð¸ Ñı
ĠÐºÐ¾Ð½ ÑĩÐ¸
ĠÑĤ Ñī
ĠÐ¿Ð¾Ð´Ð½Ñı Ð»Ð°ÑģÑĮ
Ð¼ Ð¼
ĠÑģÐµÐ¼ ÑĮÑı
ĠÐ¾ÑĤ Ð¼ÐµÑĤ
Ñī ÐµÐ¼Ñĥ
ĠÑĥÐ² Ð°Ð¶
ĠÐĶ Ð°Ð¹
ĠÐŃÐ¼ Ð¼Ð°
ĠÑģÑĥÐ¼ Ð°Ñģ
ĠÑģÑĤ ÑĢÑĥ
Ð½Ñĥ Ð¶Ð´
ĠÐ¾ÑĤ ÑĤÑĥÐ´Ð°
ĠÑĥÐ¿ ÑĢÐ°Ð²
r e
Ð» ÐµÐ²
ĠÐ± Ð¸ÑĤ
Ð°Ð¶ ÐµÑĤÑģÑı
ĠÐ¿Ð¾Ð»Ð¾ÑĤ ÐµÐ½
Ð¿ÑĢÐµÐ¶ Ð½ÐµÐ¼Ñĥ
ĠÐ² Ð¸
Ð¸Ð½ Ð°Ð»
ĠÑĢÐ°Ð±Ð¾ÑĤ Ðµ
ĠÐ¥ Ð¾
ÑĤÐ¾ÑĢÐ¸ Ð¸
ĠÐ¶ÐµÐ» ÐµÐ·
ĠÐ´ÐµÑĢÐ¶ Ð°ÑĤÑĮ
ĠÐ½Ðµ ÑĥÐ´
ĠÐ¿ÑĢ ÑĭÐ³
ĠÑģÐºÐ°Ð¶ Ð¸
ĠÐ½ÐµÐ¸Ð·Ð² ÐµÑģÑĤ
ĠÐº Ð»Ð°
ĠÑĥÑħÐ¼Ñĭ Ð»
ĠÐ¾ÑĤ ÑĢÑĭÐ²
ĠÐ¿ÑĢÐ¾ ÑĪÐ¸
ĠÐ½Ð°ÑģÑĤÑĢÐ¾ ÐµÐ½Ð¸Ðµ
ĠÐ´Ð¾Ð³ Ð¾Ð²Ð¾ÑĢ
Ð°ÑĤ ÑĭÐ¹
ĠÑĢÐµ Ð°Ð»ÑĮÐ½Ð¾
ĠÑĢÑĥÐ±Ð°ÑĪ ÐºÑĥ
ĠÐ¼ ÑĥÑģ
ĠÐĲÑĢ ÑĤÑĥÑĢ
ĠÐ¾ÑĤÐº Ð»ÑİÑĩ
ĠÐ´ Ð¾ÑĤ
Ð°ÑĤ Ð°
ĠÐ¾ ÑĦ
Ġ s
ĠÐ½ÐµÐ¿ Ð¾Ð½Ð¸Ð¼
ĠÐ¾ ÐºÑĥ
ĠÐ¿ÑĢÐ¸Ð½ ÑĨÐ¸
ĠÐ¿Ð¾Ð´Ð±Ð¾ÑĢÐ¾Ð´ Ð¾Ðº
ĠÑĤÐµÐ» Ðµ
Ðº Ð°ÑĢ
ĠÐ½ÐµÑģÐºÐ¾Ð»ÑĮ ÐºÐ¸Ñħ
ĠÐ²Ð°Ð½ Ð½Ð¾Ð¹
Ð»Ð¸Ð² ÑĭÐ¹
ĠÐ¿ÑĢÐµÐ´ÑģÑĤÐ°Ð² Ð¸ÑĤÑĮ
ĠÐ¶ÐµÐ½ÑīÐ¸ Ð½Ñĭ
ĠÐ¿Ð°Ð¼ ÑıÑĤÐ¸
ĠÐ¿ÑĢÐµÐ´Ð¿ Ð¾Ð»Ð¾Ð¶
ĠÐ´Ð¾Ðº ÑĥÐ¼
ĠÐ¿Ð¾ÑģÑĤÐ°Ð² Ð¸Ð»
ĠÐ¡ Ð°Ð¹
ĠÐ½Ð°ÑĪ Ð°
ĠÐ¾ÑĤÐ¾Ð·Ð² Ð°Ð»ÑģÑı
ĠÐ¸Ð¼ ÐµÐ»
ĠÐ¿Ð¾Ðº ÑĢÑĭÐ²
Ð¾Ð² Ð°Ð½Ð¸Ñı
ĠÑĢÐ°ÑģÐ¿ Ð¾Ð»Ð¾Ð¶
ĠÐ¾ÑģÑĤ Ð°ÑĤ
ĠÐºÐ°Ðº Ð¾Ð¼
ĠÑįÐ¼Ð¾ ÑĨÐ¸Ð¹
Ðŀ Ð´
ĠÐ¶ ÑĥÑĢ
ĠÑģÑĤÐ¾Ð» Ñĥ
ĠÐ²Ð¾Ð·Ð¼ ÑĥÑĤ
ĠÐ·Ð½Ð° ÐµÑĤÐµ
ÑĢ Ð¾Ð³
ĠÑģÑĤÐ¾ Ð½
ĠÐ¿ Ð¸ÑģÑĤÐ¾Ð»ÐµÑĤ
ĠÐ¡ Ð²
Ñģ ÐºÐ¸Ð¼
ĠÑĪ ÑĤ
ÑĤÐ¾ÑĢ Ð¾Ð¶
Ð¾Ð± Ð¸Ð»ÑĮ
ĠÐºÐ°Ð¿ Ð»Ð¸
ĠÐĶÐ¶ Ð°ÑģÑĤÐ¸Ð½
ĠÑĢÐ°Ð· Ñĥ
ĠÐ¥ Ð¾ÑĤÑĮ
Ñĩ Ð½Ð¾Ð³Ð¾
ĠÐ¿Ð¾ÑĤ ÑĢÐµÐ±
ĠÐ²Ð¾Ð´ Ð¾Ð¹
Ð½Ð¸ÑĨ ÐµÐ¹
ĠÐĴ Ð´ÑĢÑĥÐ³
Ñı ÑīÐ¸Ð¹
ĠÐ¿ÑĢÐ¸ ÐºÑĥÑģ
Ð´ ÑĨÐµ
Ð¼Ñĭ Ñģ
ÐºÐ¾Ñĩ Ð¸Ð»Ð°
ĠÑĤ ÐµÑĩ
Ð² Ð¾ÑĤ
ĠÐ¿ÑĢ Ð¾Ð½Ð·
ĠÐĺÐ· Ð²Ð¸Ð½Ð¸
Ñĥ ÑĤÑĮ
ĠÐ·Ð½ Ð°Ð»Ð¸
ĠÐ° ÑĤÐ°Ðº
ĠÐļÑĢÐ¸ ÑģÑĤÐ¸
ĠÑģÐµÑĢ ÐµÐ±
ĠÐ²ÐµÑĢ Ð½ÑĥÑĤÑĮ
ĠÐ¾Ñĩ ÐµÐ²
ĠÐ·Ð°Ð¼ Ð¾Ðº
ÑĭÑħ Ð°ÐµÑĤ
ĠÐ½Ð°Ð¿ ÑĥÐ³
Ð¾Ð½Ð¸ Ð½
ĠÑģÐ¼ Ð¾ÑĤÑĢÐ¸
Ðº Ñģ
Ð¶ Ð°Ð»
ĠÐ½ÐµÐ¿ ÑĢÐ°Ð²
ĠÑģÐ¼ ÐµÐ½
ĠÐ¾ÑīÑĥÑī ÐµÐ½Ð¸Ñı
ĠÑģÐ¿ ÑĥÑĤ
ĠÐ¾ÑĤÐºÑĢÑĭ ÑĤÑĮ
ĠÐ¿Ð¾Ð´ Ð¼Ð¸Ð³
ĠÐ¿Ð¾Ð´Ð½Ñı Ð²
ĠÐ¾ÑĤ Ð»Ð¸
ĠÐ½ÐµÐ² Ð¸Ð½
ÑĢ ÐµÐ»
ĠÐ¿Ð»Ð° ÑĤ
ĠÐ¿ÑĢÐ¸ ÑīÑĥÑĢ
Ð´ÑĢ ÐµÑģ
ĠÐ¾ÑĤ Ð´Ð¾Ñħ
ÑģÑĤÑĢÐµÑĩ Ñĥ
ĠÐ¾ÑģÑĤÐ°Ð½Ð¾Ð² Ð¸Ð»Ð°ÑģÑĮ
ÐµÑĪ Ð½Ð¾
ĠÐ»ÑİÐ±Ð¸Ð¼ Ð¾Ð³Ð¾
Ð¾Ð² ÑĭÐµ
ĠÐ¿Ð¾Ð´ Ð³Ð¾ÑĤÐ¾Ð²
ĠÐºÐ°Ð¶Ð´ ÑĥÑİ
ĠÐ°Ðº ÑĤÐ¸Ð²
ÑĩÐ¸ Ð¹
ĠÐ± Ñĥ
ĠÐ¿ÑĢÐ¾Ñģ Ð½ÑĥÐ»ÑģÑı
ÐµÑĢ Ð¿
Ð½Ð¸Ðº Ð°Ð¼Ð¸
ĠÑģÑĥÐ´ Ñı
Ñĭ Ð»Ð°
ĠÐ½ÑĥÐ¶ Ð½Ñĭ
Ð°Ð´ Ð¾Ð±
ĠÐ¿Ð¾Ð´ÑĢÑĥÐ³ Ð¸
ĠÑģÐ´ ÐµÐ»Ð°
Ð¾Ð» Ð²
ĠÑĨ ÐµÐ»ÑĮ
ĠÐ± ÑĢÐµÐ´
ĠÐ´Ð¾ÑĢ Ð¾Ð¶
ÐµÐº ÑĤ
ĠÑĥ ÑģÐº
Ġ 3
ĠÑģÑĩÐ°ÑģÑĤÑĮ Ñı
ĠÐ¢ ÐµÐ±Ñı
ĠÐ²ÐµÑĢ Ð¸ÑĤÑĮ
ĠÐ¼ Ð°ÑĢ
ĠÐ¼ÑĥÐ¶ Ð°
Ð½ ÑĤ
ĠÐ¾Ð´ Ð½Ð¾Ð¼Ñĥ
ĠÐ¿Ð¾Ð³ Ð»Ð°Ð¶
ĠÐ»Ð¸ ÑĦ
ĠÐ½Ð¾Ð² ÑĭÐµ
Ð² Ð¸Ð¶
ĠÐ¾Ð´ Ð½Ð°Ð¶Ð´Ñĭ
ĠÐ±ÐµÑģ ÐºÐ¾
ĠÐ¾Ð± Ð½Ð°Ð¶
Ð¸Ð¼ Ð°Ñı
ĠÐĶ Ð°Ð¼
ĠÐ² Ð¾Ð½
Ð½ Ð°Ð´ÑĨ
ĠÐ¿ÐµÑĢÐµÑħ Ð²Ð°ÑĤ
Ð¼ Ð¾Ð¼
ĠÑħÑĢÑĥ Ð¿
ĠÐ¡ Ð²ÐµÑĤ
ĠÑĢÐ°Ð·Ð²ÐµÑĢ Ð½ÑĥÐ»ÑģÑı
ĠÐ´ Ð½Ð¸
ÐµÐ³ Ð¸
ÑĢÐ¾ ÑħÐ¾ÑĤ
ĠÐ¡Ð½ÐµÐ¹ Ð¿
Ð¸Ð±Ð»Ð¸ Ð¾ÑĤ
ĠÑģÐ¾ÑģÑĤÐ¾Ñı Ð½Ð¸Ðµ
ĠÐ°Ð½Ð³ ÐµÐ»
ĠÐ¿ÑĢÐ¸Ð½Ð°Ð´ Ð»ÐµÐ¶
ĠÑħ Ð¾Ð»
ĠÐ¾ÑĤ Ð¾Ð´
ĠÐŁ Ð¾ÑħÐ¾Ð¶Ðµ
ĠÐ¿Ð»ÐµÑĩ Ñĥ
ĠÐ¿Ð¾ÑģÑĤ Ð°ÑĢ
ĠÐ» Ð°Ð²
ĠÐ±Ð¾Ð» ÑĤ
ĠÐ·Ð°Ñģ Ð»ÑĥÐ¶
ĠÐºÑĢÑĥ Ð¿
Ð¸Ðº Ð¾Ð²
Ðµ ÑĤÑĮÑģÑı
ĠÐł ÐµÐ½
ÑĩÐ°Ñģ Ð°
ĠÐĽÑĥÑĩ ÑĪÐµ
ĠÐ²ÑĭÐ³Ð»ÑıÐ´ Ð¸ÑĤ
ĠÐĵ ÐµÐ½
ĠÐ¿ÑĢÐ¾ ÑģÑĮ
ĠÐ²Ð· ÑĢÑĭÐ²
ĠÑģÐ¿ÐµÑĨÐ¸ Ð°Ð»ÑĮÐ½Ð¾
ĠÐ¼Ð°Ð³ Ð¸ÑĩÐµÑģ
ĠÐ¿Ð¾Ð¼ Ð¾ÑĢÑī
ĠÐ¿Ð¾Ð³ Ð»Ð°Ð´
ĠÐºÐ°Ð±Ð¸Ð½ ÐµÑĤÐ°
ĠÐ¿Ð¾ÑĢ Ð¾Ð³Ðµ
ĠÐļ Ð°Ð¼
ÑĢÐ° ÐµÑĤ
ĠÑĨ ÐµÐ»Ð¸
ĠÐĿÐ¸Ðº Ð¾Ð³Ð´Ð°
ĠÐ¼Ð°Ð³ Ð¸Ð¸
ĠÐ¶Ð´ ÐµÑĤ
ĠÐ±Ð¾Ð»ÑĮÑĪ Ð¸Ð¼
ĠÑģÐ¾Ð· Ð´Ð°
ÑĩÐµÑģ ÐºÐ¸Ð¹
ĠÐ¿ÐµÑĢ ÐµÐ»
ĠÐĺÐ½ ÑĤÐµÑĢÐµÑģÐ½Ð¾
Ð¹ ÑģÑı
ĠÐ¡ÐµÐ²ÐµÑĢ ÑĥÑģ
ĠÐ´ÐµÑĢÐ¶ Ð°Ð»
ĠÐ¾ÑĤ ÑĢÐ¸ÑĨ
ÑĢÐ¾ ÑĩÐ½Ð¾
ĠÑĢÑĥ Ñħ
ĠÐ¾ÑĤ ÑĤÐ¾Ð»
Ð¿ Ñĭ
Ð¼ Ð¾Ñģ
ĠÐ·Ð°Ñģ Ð¼ÐµÑıÐ»ÑģÑı
ĠÐ¿ÐµÑĢÐ² ÑĥÑİ
ÐµÐ½ Ð¾Ðº
ĠÑĤÑĢÑĥ Ð´
ĠÐĶÐ¶ÐµÐ¹ Ð¼Ñģ
ÑĥÐ´ Ð¸
ĠÐ·Ð°Ð± ÑĭÐ²
Ð¾Ð¶ Ð´Ð¸
ÐµÐ¼ ÑĮ
ĠÑĢÐ°Ð·Ð³ Ð¾Ð²Ð¾ÑĢÐ°
ĠÑģ Ð½Ðµ
ĠÑįÐº Ð·
ĠÐ³Ð¾Ð» Ð¾Ð´
ĠÐ¿Ð¾ÑģÑĤ ÐµÐ»ÑĮ
ĠÑħÐ¾Ð´ Ð¸ÑĤÑĮ
ĠÐļÐ°Ðº Ð°Ñı
Ð¸ÑĤ ÐµÐ»Ð¸
ÐµÐ· Ð´Ð°
ĠÐ³ÑĢÑĥ ÑģÑĤÐ½Ð¾
ĠÐĲÐ½ Ð³
ĠÐ´Ð¸Ð² Ð°Ð½Ð°
ĠÐ¿ÐµÑĢÐµÐ² ÐµÑĢ
ĠÐ´ÑĢÑĥÐ·ÑĮÑı Ð¼Ð¸
ĠÑĢÐ°Ð·Ð´ ÑĥÐ¼
ĠÐļÑįÑĢ Ð¾Ð»Ð°Ð¹Ð½
ĠÐ¿Ð¾Ð´Ð°ÑĢ Ð¾Ðº
ĠÑĥÐº ÑĢÐ°ÑĪ
ÑģÑĤÑĢ Ð°Ð´
Ñį Ð»
Ð¢ Ðŀ
ĠÑĤ ÑĳÐ¿
ÑıÑī Ð¸Ð¼
ĠÑĤÐ¾Ñĩ Ð½ÐµÐµ
ĠÐ¸ÑģÐ¿ ÑĢÐ°Ð²
Ñħ Ð¸
Ð´ Ð¸Ð²
ĠÐ²Ð¾Ð·Ð´ÑĥÑħ Ð°
Ð± Ð¾Ð¼
ĠÐ¿ÑĢÐ¸ ÑĪÑĳÐ»
Ñİ ÑīÐµ
ĠÐ¿Ð¾Ð´ ÑģÐº
ÐŁ Ð¾ÐºÐ°
ĠÑģ ÑĢÑĭÐ²
ĠÐºÐ¾Ð» ÐµÐ½Ñı
ĠÐ½Ð°ÑĪ Ð»Ð¸
ĠÐ¿Ð¾Ð» Ð¾Ñģ
ĠÑĩÐ° ÑīÐµ
Ð¸ÑĢÐ° ÑıÑģÑĮ
ÑıÑī Ð¸Ñħ
ĠÐ¿ÑĢÐ¾Ð´Ð¾Ð»Ð¶ Ð¸Ð»Ð°
ĠÐĽÑİ ÑĨÐ¸
Ð°ÐµÐ¼ ÑģÑı
ĠÐ¿Ð¾Ð´ ÑĥÑĪÐºÑĥ
ĠÐ²ÑĭÐ· Ð²
ĠÐľ ÐµÐ»
ĠÑĪÐ°Ð³ Ð¸
ĠÐ½Ð°ÑĪ Ñĥ
ĠÐ° ÑĤ
ĠÑĢ Ð¾Ð¶Ð´ÐµÐ½Ð¸Ñı
ĠÐŀ Ð³
ĠÑĢ ÐµÐº
ĠÐ¿ÑĢÐµÑģÑĤ ÑĥÐ¿
ĠÐ½Ð¾Ð² Ð¾Ð³Ð¾
ĠÐ´Ð²Ð¸Ð³ Ð°ÑĤÑĮÑģÑı
Ð¸Ð»ÑĮ Ð´Ð¸
ĠÐ¿ÑĢÐ¾Ñģ ÑĭÐ¿
ĠÐ´ÐµÐ² Ð¾ÑĩÐºÐ¸
ĠÐ½Ð°Ð² ÑģÑĤÑĢÐµÑĩÑĥ
ĠÑģÐºÐ°Ð¶ ÐµÑĪÑĮ
Ð»Ð¾Ð½ Ð´Ð¸Ð½
ĠÐļ Ð¸Ð¼
ĠÐļ ÑĢÐ°Ñģ
Ñĭ ÑĩÐ½Ð¾
ĠÑħÐ¾ÑĢÐ¾ ÑĪÐ¸Ð¹
ĠÐ²Ð°Ð½ Ð½ÑĥÑİ
ĠÑĤ ÑĢÐ°Ð½
ĠÑĢÐ°ÑģÑģÐº Ð°Ð·Ð°Ð»
Ñĩ ÐµÑģÑĤ
ÑĩÐ¸ Ñģ
ĠÐ½ÐµÑģ ÑĩÐ°ÑģÑĤ
ÑĥÑĪ ÐºÐµ
ĠÐ¿Ð¾Ð»Ð¾Ð¶ Ð¸Ð»Ð°
Ð°ÑĤ ÐµÐ»Ñı
ĠÐ»ÑİÐ± Ð¸Ð»Ð°
ĠÐ° Ð´ÑĢÐµÑģ
ĠÐ¿Ð¾Ðº Ð°Ð·Ð°ÑĤÑĮ
ĠÐ¿ÑĢÐ¾Ð·Ð² ÑĥÑĩ
ĠÐ¿ÑĢÐµÐ¿ Ð¾Ð´
ĠÑĢÐ¾Ð´Ð¸ÑĤ ÐµÐ»Ñı
ĠÐ»ÑİÐ± Ð¸ÑĪÑĮ
ĠÑģÐ¼ Ð¾Ð¶ÐµÑĪÑĮ
ĠÐŁÐ¾Ð¶Ð°Ð» ÑĥÐ¹ÑģÑĤÐ°
ĠÑĦÑĥÑĤÐ±Ð¾Ð» ÐºÑĥ
ĠÐĹ Ð°Ð¿
ĠÐ¿Ð¾Ð³ Ð¾Ð²Ð¾ÑĢ
ĠÑģÐºÐ°Ð· Ð°Ð»Ð¸
Ð»ÐµÑĤ Ð²Ð¾ÑĢ
ÐµÐ» Ñĳ
Ð°ÑĤÐµÐ»ÑĮ Ð½ÑĭÐ¹
ĠÐ´Ð¶Ð¸Ð½Ñģ Ñĭ
ÑģÑĤÐµ ÑģÑĤÐ²ÐµÐ½Ð½Ð¾
ĠÐĵ Ð»Ð°Ð²
Ð²ÐµÑĢ ÑĮ
ĠÐ±Ð»Ð¾Ð½Ð´Ð¸ Ð½Ð°
ĠÐ¼ Ñı
Ð¾Ð² Ð°ÑĢÐ¸
ÑĤÐ¾Ñĩ ÐºÐ¸
ĠÐ¾Ð´ÐµÐ¶ Ð´Ñĭ
ĠÐ²ÑģÐ¿Ð¾Ð¼ Ð½Ð¸ÑĤÑĮ
ĠÐł Ð¸
ĠÑĢ ÐµÑģ
ĠÐ¾ÑĤÑĩÐ°Ñı Ð½Ð½Ð¾
ĠÐ¥ Ð°ÑĢÑĥ
ÐµÐ½ÑĮ Ðµ
ĠÐ¿ÑĢÐ¾Ñĩ Ð¸ÑĤ
ĠÑģÐ¼ÑĭÑģ Ð»
Ð¾Ð² Ð»ÐµÑĤÐ²Ð¾ÑĢ
ĠÐºÐ¾Ð½ ÑĨ
ĠÑĢ Ð¸ÑģÐº
ÐµÐ¹Ð½Ð´Ð¶ ÐµÑĢ
ĠÐ³Ð» ÑĥÑħ
Ð½ ÐµÐ½Ð¸Ðµ
ÐµÑĢ Ð°ÑĪ
ĠÑĢÐ°Ð· Ð°
ĠÐ¼Ð¸Ð» Ð°Ñı
ĠÑģÐ³ Ð»Ð¾ÑĤ
ĠÐ¸Ñģ ÐºÑĥÑģ
ĠÐł ÐµÐ±
ĠÐ± ÐµÐ¶Ð°ÑĤÑĮ
ĠÐ¢ Ð¾Ð½Ð¸
ĠÐ£ Ð¶
ÑĮ ÐµÑĤ
ĠÐ³Ð¾ÑģÑĤÐ¸ Ð½ÑĥÑİ
ĠÐ¢ÑģÑĥ Ð½Ð°
ĠÐ» Ð¾Ð¼
ÑıÐ³ Ð¸Ð²Ð°ÐµÑĤ
Ð¼ ÐµÐ½ÑĤ
ĠÑĢÐ°Ñģ ÑģÑĤÑĢÐ¾
ĠÑĤÑĢ ÐµÐ¿
ĠÐ¿Ð¾Ð´ ÑħÐ¾Ð´Ñı
ĠÐ¥ Ð¾Ð³
ĠÐŁÑĢ Ð¸Ð½
ĠÐ³Ð¾Ð²Ð¾ÑĢ ÑıÑĤ
ĠÐ¾Ð±Ñģ ÑĥÐ¶Ð´
ĠÐ´Ð² ÑĥÐ¼Ñı
Ð¼ Ð¾ÑĤÑĢÐ¸
ĠÐ¿ÑĢ Ð¾ÑĢ
ĠÐŀÑĤ ÐºÑĥÐ´Ð°
Ð½ÑĥÐ»Ð¾ ÑģÑĮ
Ð°ÑĤ Ñĭ
ĠÐ´ÑĢ ÐµÐ²
ĠÐ¶ Ð¸Ð»
ĠÐŁÐ¾Ñģ Ð»ÐµÐ´
Ñı Ð»Ð¾
Ñģ Ñİ
ĠÐ¿Ð¾Ð± ÐµÐ¶Ð°Ð»Ð°
ÐµÐ¼ Ð½Ð¾Ð³Ð¾
ĠÐ·Ð° ÑĪÐ»Ð°
ÑĪÐ°Ñı ÑģÑı
ĠÐĽ ÑĥÑħ
ĠÐ¼ÐµÑĢ Ð·
ĠÑĪÑĤÐ° Ð½Ñĭ
ĠÑĥÑģÐ¼ ÐµÑĪ
ĠÐ¿Ð¾ÑģÑĤ ÑĥÑĩ
ĠÐ¿ÑĢÐ¸ÑħÐ¾Ð´ Ð¸Ð»Ð¾ÑģÑĮ
ĠÐľ Ð¸Ð»
ĠÐŁÑĢÐ¾ ÑģÑĤ
ĠÐ¿Ð¾Ð» ÑĩÐ°ÑģÐ°
Ð»ÐµÐ½ Ð½Ð¾Ð¹
ĠÑĩ Ð°ÑģÑĤ
ĠÐ± Ð¸Ð±Ð»Ð¸Ð¾ÑĤ
ĠÐ¼ÐµÑģÑı ÑĨÐ°
ĠÑĪ ÐµÑģÑĤ
Ġ a
ĠÐ¿Ð¾Ð»ÑĥÑĩ Ð¸ÑĤÑĮ
ĠÐ¾ÑĤÐ¿ÑĢÐ°Ð² Ð¸Ð»ÑģÑı
ĠÑģÑĤ Ð¸Ñħ
Ð¾Ð´ Ñĭ
ĠÐ¾ÑģÐ¾Ð· Ð½Ð°Ð²
ÑĥÐ½ Ðº
Ð¢ Ð¾Ð»ÑĮÐºÐ¾
ĠÐ¿ÑĢÐ¸ Ð¹ÑĤÐ¸
ĠÐºÑĢÐ°Ð¹ Ð½Ðµ
ÑĥÑģÑĤ Ð¸Ð»Ð°
ĠÑģÐ¾Ð±Ð¸ÑĢÐ° ÑİÑģÑĮ
ĠÐ½Ð°Ð¿ Ð¾Ð»Ð½
ĠÐ¾Ñħ ÑĢÐ°
ĠÐ¿ÑĢÐ¾Ð´Ð¾Ð»Ð¶ Ð°Ð»Ð°
ÐŁ Ð¾ÑĩÐµÐ¼Ñĥ
Ð¸ÑĢÐ° ÐµÑĤ
ĠÑģÑĤ ÑĢÐ°Ð¶
Ð´Ð° ÐµÑĤÑģÑı
ĠÐ¾ÑĤÐ´ ÐµÐ»
ĠÐ¿ Ð¸ÑĤÑĮ
ĠÑĥÑģ Ð»Ð¾Ð²
Ð» Ð°Ð³Ð¾Ð´Ð°ÑĢ
ĠÐ¼Ð¾ÑĢ Ð³
Ð°Ð½ Ð³
Ð» ÑĥÐ¿
ĠÐ¾ÑģÐ² ÐµÑī
ĠÐŀ ÑĢ
ĠÐ¼Ñĥ ÑĢÐ°ÑĪ
ÑĳÐ½ Ð½ÑĭÐ¹
ĠÐ±ÐµÐ· ÑĢÐ°Ð·
ĠÐ²Ð¾Ð¿ÑĢÐ¾Ñģ Ð¾Ð²
ĠÐ²Ð¿ÐµÑĢÐµÐ´ Ð¸
ĠÐ³ÑĥÐ± Ð°Ñħ
ĠÐŀÑĤ Ðº
ĠÐ²Ð¼ ÐµÑĪ
ĠÐĳ Ð°ÑĢ
Ð¾Ð» Ð¾Ð³
ĠÐ±ÐµÑģÐ¿ Ð¾Ð»ÐµÐ·
ĠÑĤÐµÐ» ÐµÐ²
ÑīÐ¸ Ð½Ð°
ĠÐ¼ Ð°ÑģÑĤÐµÑĢ
ĠÐ¾Ð±ÐµÑĢ Ð½ÑĥÐ»Ð°ÑģÑĮ
Ð¾ ÑģÑĤÑĮÑİ
ĠÐ²Ð· Ð±
Ð»ÐµÐ½ Ð½ÑĭÐ¼
ĠÐ´ Ñĭ
ĠÐ´Ð²Ð¸Ð¶ ÐµÐ½Ð¸ÐµÐ¼
ĠÐ´ ÑıÐ´
ÐµÑĢ ÑĭÐ²
ĠÐ¼ÑĭÑģÐ»Ñı Ð¼Ð¸
ĠÑģÑĤÐ°ÑĢ ÑĪÐ¸Ð¹
ĠÑĥÐ± Ð¸Ð»
Ġ w
ĠÐ·Ð°ÑħÐ¾ÑĤ ÐµÐ»Ð¾ÑģÑĮ
ĠÑĥÐ´ Ð¾Ð±
ĠÐ³Ð¾ÑĢÐ¾Ð´ Ðµ
ĠÐ±ÐµÐ·ÑĥÐ¼ Ð½Ð¾
ÑıÑī ÐµÐ¹
ĠÐ¿ÑĢÐµÐ² ÑĢÐ°Ñī
ĠÐ¸ Ñī
Ð² ÐµÐ½
Ðł Ð°Ð·
ĠÐ¿Ð¾Ð» Ð½Ð¾
ĠÐ¿Ð¾Ð¼ Ð¾Ð¶ÐµÑĤ
ĠÑģÐ´ÐµÐ» Ð°Ñİ
Ñĥ ÐµÐ¼
ĠÐĽÐ¸ Ð°Ð¼
ĠÐ½Ð°Ñģ Ð»ÐµÐ´
ÑĨ Ð°ÑĢ
ĠÐºÐ¾Ð¼ Ð°Ð½Ð´
ĠÐ¸Ð³ ÑĢÑĥÑĪ
ĠÐ´ÐµÐ» Ð°Ñı
ĠÐ½ÐµÐ²Ñĭ Ð½Ð¾Ñģ
ĠÐµÐ´Ð¸Ð½ÑģÑĤÐ²ÐµÐ½ Ð½ÑĭÐ¹
ĠÐ²Ð¾ÑģÑħ Ð¸Ñī
ĠÐ·Ð° ÑħÐ²Ð°ÑĤ
ĠÐ±Ð¾Ðº Ð°Ð»
ĠÐ¿ÑĢÐµÐ´ÑĥÐ¿ ÑĢÐµÐ´
ĠÑĥÐ´ Ð°Ð»
ĠÐ² ÑĢÐµÐ·
ĠÐ¿Ð¾Ð½ Ð°Ð´Ð¾Ð±
Ñħ Ðµ
ĠÐ½Ðµ ÑģÐ¿
Ð¾ ÑĦ
ÐµÐ½ÑĮ ÐºÐ¸Ð¹
ĠÐ¿ Ð¸ÑĢ
ĠÐ´Ð¾Ðº ÑĤÐ¾ÑĢ
Ð¸Ð½ ÐµÑĤ
ĠÐ½Ð¾Ð² ÑĥÑİ
ĠÐ¡ÐµÐ± Ð°ÑģÑĤÑĮ
ĠÑģÑĩÐ°ÑģÑĤÑĮ Ðµ
Ð¸ÑĤ Ñĭ
ĠÐ¢Ð° Ð¾
ĠÑģÐ¾ ÑģÑĤÐ°Ð²
ĠÑģ Ð¸Ñı
ĠÐĵ Ð»Ð°Ð·Ð°
ĠÐĳ Ð¸Ð»Ð»
ĠÐºÑĥÐ» Ð°ÐºÐ¸
ĠÐ¿Ð¾Ð¼Ð¾Ñī ÑĮÑİ
ĠÐĶÐ¶ Ð¸
ĠÑĢÑĥ Ñģ
ÐµÐ½Ð½Ð¾ ÑģÑĤÐ¸
ĠÐĺ ÑĩÐ¸Ð³Ð¾
Ð¶ Ð¸
ĠÐĴ ÐµÐ»Ð¸
ĠÐºÐ²Ð°ÑĢÑĤÐ¸ ÑĢÐµ
ĠÐºÐ°Ñģ Ð°ÐµÑĤÑģÑı
ĠÑĢÐ¾Ð² Ð½Ð¾
ĠÐ²Ð¸Ð´ Ð¸ÑĪÑĮ
Ñģ ÐºÐ¾Ðµ
ĠÐ¿Ð¾Ð³ Ð»ÑıÐ´
ĠÐ²ÑĭÐ± Ð¾ÑĢ
ĠÑģÐµÐºÑĥÐ½ Ð´Ñĭ
ÑĤÐ¾ Ð½Ð°
ĠÐľ Ð¸ÑĢ
ĠÐ¿Ð¾Ð»ÑĥÑĩ Ð¸ÑĤÑģÑı
ĠÐ¡ Ð»Ð¸ÑĪÐºÐ¾Ð¼
ÑĥÑģÐºÐ° ÐµÑĤ
ĠÑĤÐ¸Ñħ Ð¸Ð¹
ĠÑģÐ¸Ð¼ Ð¿
ĠÑĥÐ· Ð½Ð°Ð»Ð°
ĠÐ§ ÐµÐ¼
ĠÐ³Ð¾Ð²Ð¾ÑĢ Ð¸
ĠÐ»ÑİÐ± Ð¾Ð¼
ĠÐºÐ½Ð¸ Ð³Ð¸
ĠÐ¾Ð¿ Ð¸Ñģ
ĠÐ² Ðº
Ñĩ ÑĳÑĤ
Ñĩ Ð½Ð°Ñı
ĠÐ½Ð°Ð´Ðµ ÑıÑģÑĮ
ĠÐ½ÐµÐ·Ð°Ð¼ÐµÑĤ Ð½Ð¾
ĠÑģÑĤÐ°Ð½Ð¾Ð² Ð¸Ð»Ð¾ÑģÑĮ
ĠÐĳ Ð»ÐµÐ¹
ĠÐ¸Ð· Ð¾Ð±ÑĢÐ°Ð¶
ĠÑĢÐµ Ð°Ð»ÑĮ
ĠÑģÑĤ ÑĥÑĩ
ĠÐ² ÐµÐ¶
ĠÐ ģ
ĠÐ¿ÑĢÐ¸Ð´ ÑĳÑĤÑģÑı
ĠÐ¿ÑĢÐ¸Ð³ Ð»Ð°Ñģ
ĠÐ¿Ð¾Ñģ ÐµÑĤ
ĠÐ¸Ð· Ð²Ð¸Ð½Ð¸
ĠÐ¿ÑĢÐ¾Ð² ÐµÑģÑĤÐ¸
ĠÐ²ÑģÐº ÑĢÐ¸
ĠÑģÐ¿ Ð¸ÑĤ
ĠÑī ÐµÐ»
Ð°Ð½ ÑĤÐ°
ĠÐ¿Ð¾Ð» ÑİÐ±
ĠÐº Ð»Ð¾
ĠÐĶ Ð¶Ðµ
ĠÐ½ÐµÐ² Ð¾Ð·Ð¼
ĠÐ»ÑİÐ±Ð¸Ð¼ ÑĭÐ¹
ĠÑĩÐµÑĢ Ð½ÑĭÐµ
Ð¼ Ð¸ÑĤ
ĠÐ» Ð°Ð±
ĠÑģÑĤÐ¾ Ð»Ð¾Ð²
ĠÐ·Ð°Ðº ÑĥÑģ
ĠÐ¿Ð¾ÑĢÑıÐ´ Ð¾Ðº
Ð½Ðµ ÑĪÑĮ
Ð³ Ð°ÑĢ
ĠÐ± Ð°ÑĪ
ĠÑĤ ÑĢÐ°Ñħ
- -
ĠÐ´ÑĢ Ð°ÐºÐ¾
ĠÐ²ÑģÐ¿Ð¾Ð¼ Ð½Ð¸Ð»Ð°
Ð¾Ðº Ð¾Ð½
ĠÐ½Ð°ÑħÐ¾Ð´ Ð¸Ð»ÑģÑı
Ð»Ñı Ð½
ĠÑĢÐ°Ð±Ð¾ÑĤ Ð°
ĠÐ¸ÑģÑĤÐ¾ÑĢÐ¸ Ð¸
ĠÐ»ÐµÑģ Ñĥ
ĠÐ½Ð°Ñĩ Ð°Ð»ÑĮ
ĠÑĤÐ°Ðº Ð¸
ĠÑĩÐ¸ÑĤ Ð°ÑĤÑĮ
ĠÑģÐ»ÑĭÑĪ Ð°ÑĤÑĮ
ÑĢÑı Ð¼Ð¾
ĠÑĤ ÐµÐ½Ð¸
ĠÐľ ÑĥÐ¶ÑĩÐ¸Ð½Ð°
Ð»Ñı Ñİ
ĠÑħÐ¾Ð·Ñı Ð¹
ĠÐ¸ÑģÑĤ Ð¸Ð½
ĠÑģÑĥÐ¼Ð°Ñģ ÑĪÐµÐ´
Ð» Ð»Ñİ
ĠÑĪÐ¸ Ð¿
ĠÐ´Ð²Ð¸Ð¶ ÐµÐ½Ð¸Ðµ
ĠÐ·Ð°Ðº Ð»Ð¸Ð½Ð°
ÑĪÐ¸ ÑĪÑĮ
Ð»Ð¸ Ð¶Ðµ
ĠÐŁ Ð¾Ð¹Ð´
ĠÐ±Ð»Ð°Ð³Ð¾Ð´Ð°ÑĢ Ñı
Ð»ÐµÐ½ Ñĭ
ÑĤÐ¾ÑıÑĤ ÐµÐ»ÑĮ
ĠÐ¡ Ñį
ĠÑĢÐ¾Ð´ ÑģÑĤÐ²ÐµÐ½
ĠÐ´Ð²Ð¾ Ð¸Ñħ
ĠÐ¿Ð°Ð¼ ÑıÑĤÑĮ
Ð»Ñĭ Ð¼Ð¸
ĠÑģÐ¾Ð¶Ð°Ð» ÐµÐ½Ð¸Ñİ
Ð»Ñı Ð»Ð°ÑģÑĮ
ĠÐ¥ Ð¸
ĠÐºÐ¾ÑĢÐ¸Ð´ Ð¾ÑĢÐµ
ĠÐŁ Ð¾Ñĩ
Ð°ÑĢ Ðµ
ĠÐºÐ¾ÑĢÐ¾ÑĤ ÐºÐ¾
ĠÐ¿ÑĢÐ¸Ñģ Ð»ÑĥÑĪ
ĠÐĿ Ð°ÑģÑĤ
ĠÑĩ Ð¸Ñģ
Ð½ ÑĳÐ¼
ĠÐ²Ñĩ ÐµÑĢÐ°ÑĪ
ĠÐ½Ð°ÑģÑĤ Ð¾Ð¹
ÐĿ Ð¸Ðº
ĠÐ¾Ð± Ð¶
ĠÐĴ Ð¾Ð·
ĠÐ¿Ð¾Ð´ ÑħÐ¾Ð´Ð¸ÑĤ
ĠÐ¾ÑģÑĤÐ°Ð½Ð¾Ð² Ð¸ÑĤÑĮ
ĠÐ¥ Ð²Ð°ÑĤ
ĠÐ¿Ð¾Ð´ Ð·
ÑİÑī ÐµÐ³Ð¾
Ġ y
ĠÑħ Ð¼Ñĥ
ĠÐ²Ð¾ÑģÐ¿ Ð¾Ð»ÑĮÐ·
ĠÑįÐ½ ÐµÑĢÐ³
ĠÐ±ÐµÐ· Ð´
ĠÑĥÐ¶ Ð¸Ð½
ĠÑĥÐ»ÑĭÐ± ÐºÐµ
ĠÐ¿ÑĢ Ð¾Ð·
ĠÐ¼Ð½Ð¾Ð³ Ð¸Ðµ
ĠÑģÐ¼ Ð¸ÑĢ
ÑģÐº Ð¾ÑĢÐµ
ĠÐ³Ð¾ÑĢ ÑĮ
ĠÐ¾ÑĤ ÑģÑĤÑĢÐ°
ĠÐ¿ÑĢÐ¸Ð» Ð¾Ð¶
ĠÑĥ ÑĤÐ¾Ñĩ
ĠÐ²Ð¾ÑģÐºÐ»Ð¸ ÐºÐ½ÑĥÐ»Ð°
ĠÐ·Ð°Ð» Ðµ
ĠÑģÐ½ ÐµÐ³
ĠÑģ Ð¾ÑĪ
Ð¸ÑĢÐ° ÑĤÑĮÑģÑı
ĠÐ´Ð¾Ð¼ Ð°ÑĪ
ĠÐ¼Ð¾Ð¶ÐµÑĤ Ðµ
Ð½ Ð¾Ð¿
ĠÐ¶Ð´ Ð°Ð»Ð°
ĠÐ¥ Ð¾Ð»
ĠÐ²Ñĭ Ð¼
ĠÐ·Ð°Ð² ÐµÑĢ
ÐµÑģÐº Ð¾Ð»ÑĮÐºÐ¾
ÑĢÐ° Ð½Ð¸ÑĤ
ĠÐ½Ð° ÑĢÑĥÐ¶
ĠÐ¿ÑĢÐ¸Ð³ Ð»Ð°ÑĪ
ĠÑĤÑĥ Ð°Ð»
ĠÐ²Ñĭ ÑħÐ¾Ð´Ð¸ÑĤ
ĠÐ½Ð°Ð· Ð²Ð°ÑĤÑĮ
ĠÐ¿Ð¾ ÑĤÐ¾
ĠÐ¿ÑĢÐµÐ´ Ð°ÑĤÐµÐ»ÑĮ
ĠÑģÐ¼ÐµÑĪ Ð½Ð¾
Ð² Ð¸Ð½
Ð¾ÐºÐ¾Ð¹ ÑģÑı
Ð¸Ð² Ð°Ð»Ð¾
ÑĨ Ð²ÐµÑĤ
ĠÐ¿ÑĢÐ¸Ñģ Ð¾
ĠÐ¶ÐµÐ½ Ñī
Ð¾Ð³ Ð»Ð°Ð·
Ð°Ð½ Ð¾Ð¼
ĠÐ²Ð·Ð´ÑĢÐ¾Ð³ Ð½ÑĥÐ»
ĠÑĢÐ°Ð· Ð¾Ð·
ĠÐ¿ÑĢÐ°Ð² Ð¸Ð»ÑĮ
ÐĲ ÐĲ
ĠÐ° Ð¿Ð¿
ĠÐľ Ð°Ð¼Ð°
ÑıÑī ÑĥÑİ
ĠÑĤÐµÐ»ÐµÐ² Ð¸Ð·
ĠÐ¾Ð¿ ÑĭÑĤ
Ð¸Ð¼ ÑĭÐ¹
ĠÑĤ Ð¾Ð²Ð°ÑĢÐ¸
ĠÑģÐ¾Ð»Ð½ ÑĨÐ°
ĠÐļÐ°Ð¶ Ð´ÑĭÐ¹
ÑĢÐ¸ÑĦÑĦ Ð¸Ð½
ĠÐºÐ²Ð°ÑĢÑĤÐ¸ ÑĢÑĭ
ÐµÐ½ Ð½Ð¾Ð¼
ĠÑģÐ¿ Ð¸Ð½Ñĭ
ĠÐ½ÐµÐ¿ÑĢÐ¸ ÑıÑĤÐ½Ð¾
Ð¾Ð» ÑĥÑĩ
ĠÐ¿Ð¾Ð¼ÐµÑī ÐµÐ½Ð¸Ðµ
ĠÐŀ Ð½Ð¾
ĠÐ¿ Ð¾Ð²Ð¾ÑĢ
ĠÐºÑĢÐµÑģ Ð»Ð°
ĠÐŃ ÑĢ
Ð¸ÑĤÐµÐ»ÑĮ Ð½Ð¾Ð¹
Ð¸Ð² Ð°ÐµÑĪÑĮ
ĠÐ¿Ð»Ð° Ð½ÐµÑĤ
ĠÑĪÐ¾Ðº Ð¾Ð»
ĠÐ³ ÐµÑĢ
ĠÐŃ ÑĤÐ¸
ĠÐ¿ÐµÑĢÐµÑģÑĤ Ð°Ð»
ĠÐ¥ ÐµÐ¹
Ð¿ Ð¾
ĠÐ·Ð°Ð´ÑĥÐ¼ Ð°Ð»ÑģÑı
ĠÐŃÐ»ÑĮ Ð·Ð°
ĠÑģÐ¾Ð´ ÐµÑĢÐ¶
ĠÐ´Ð»Ð¸Ð½ Ð½ÑĭÐµ
ĠÐ·Ð° ÑĪÐµÐ»
ĠÑģÐ¼ÑĭÑģ Ð»Ð°
ÑĤÐµ ÑĨ
ÑĪÐµ ÐµÑģÑı
ĠÐ½Ð°Ð¿ Ð°ÑĢ
ĠÐ² ÑĢÐµÐ´
ĠÑīÐµÐº Ñĥ
ĠÐ»ÑİÐ´ ÑĮÐ¼Ð¸
ĠÐºÑĢÐ¸ ÐºÐ½ÑĥÐ»Ð°
ÐµÐ¶ Ð¸ÑĤ
ĠÑĥÐ´Ð¾Ð²Ð¾Ð»ÑĮÑģÑĤÐ² Ð¸Ðµ
ÐµÐ»ÑĮ Ñı
ĠÐ¡ Ð¾Ð±
Ðº Ð¾Ð¼Ñĥ
ĠÐ¼Ð½Ð¾Ð³Ð¾ Ðµ
ĠÐ¶Ð¸Ð·Ð½ ÑĮÑİ
ĠÐ´ Ð°Ð»Ð°
ĠÐµ Ð´Ñĥ
ĠÑģÐµÐ³Ð¾Ð´Ð½Ñı ÑĪ
ĠÐļ Ð°Ð·Ð°Ð»Ð¾ÑģÑĮ
ĠÐ±ÑĥÐ¼ Ð°Ð³Ð¸
ĠÐ¾Ð± Ð¾ÑĢÐ°ÑĩÐ¸Ð²
ĠÐ¿ÐµÑĢ Ð²Ð¾Ðµ
ĠÐ²ÑģÐ¿ ÑĭÑħ
ĠÐ¿ÑĢÐ¸Ð½ ÑıÐ»
ĠÑģÐ»Ð°Ð± Ð¾
ĠÐ¾Ð± ÐµÐ´
Ñĩ Ð°Ð»Ð¸
Ð¾Ð»Ð¾Ñģ Ð°Ñı
ÑĮ ÐµÐ²
ĠÑģÑĤÑĥ Ð»Ð°
ĠÑģ Ð¸Ð½Ñı
ĠÐ²Ð¾Ð·Ð¼ Ð¾Ð¶
ĠÐ¡ Ð»ÑĥÑĪÐ°Ð¹
ĠÐĵÑĢ ÐµÐ¹Ð½Ð´Ð¶ÐµÑĢ
Ð»Ð¸ ÑĤÑĮ
ĠÐ¿Ð¾ÑĤ Ð¾Ðº
ĠÐ¾ÑĤ ÑĩÐµÑĤ
Ñĩ Ð°Ð¹
ĠÐŁ Ð¾Ð¿
ĠÑģÐ¾Ð· Ð½Ð°Ð½Ð¸Ñı
ĠÐ¸Ð³ Ð½Ð¾ÑĢÐ¸
Ð²Ð°ÑĢ ÑĤ
ÐµÐ´ ÐµÑĤ
ĠÐ¿Ð¾Ð¼ Ð½Ð¸ÑĪÑĮ
Ð¸ÑĤ ÐµÑĢ
ĠÐ¾Ð´ Ð½Ð¾Ðº
ĠÑģÐ»ÑĭÑĪ Ñĥ
ĠÐ» Ð¸Ð´
ĠÐ±ÑĥÑĤÑĭÐ» ÐºÑĥ
ĠÐ·Ð² ÑĥÐºÐ¸
ĠÑĪÐ¾Ðº Ðµ
Ð°Ð»ÑĮ Ð½ÑĭÑħ
ĠÐ³ Ð°ÑĢ
ÐµÐ¼ Ð¸
ÑĩÐ¸ ÐºÐ°
ĠÑĤÐµÐ¼Ð½Ð¾ ÑĤÐµ
ĠÐ¾ÑĤ ÑĢÐµÐ·
ĠÐ¿Ð¾Ð²ÐµÐ· Ð»Ð¾
ĠÐĳ Ð¾Ð³
ÑģÑĤ Ñĭ
Ð°ÑĤ Ð¸Ð²
Ð² Ñĥ
ĠÐºÐ¾Ð¶ Ð¸
ĠÐ²Ð¾Ð´ Ð°
ĠÐºÑĢÐµÑģ Ð»Ðµ
ĠÐĶ Ð¾Ð½
ĠÑģÐµÐ¼ ÐµÐ¹
Ð¸Ð¼ Ð¾Ð¹
Ñİ ÑĪ
ĠÐ½ÐµÐ¿Ð»Ð¾Ñħ Ð¾
ĠÐ²Ñĭ ÑĪÐ»Ð¾
ĠÐļ Ð°Ð¿
ĠÑĪÐ°Ð³ Ð¾Ð¼
ĠÑģÐ°Ð¼ ÑĥÑİ
ĠÐ·Ð° ÑĤÐ¾
ĠÐ¿Ð¾Ð»ÑĥÑĩ Ð°ÐµÑĤÑģÑı
ĠÐ¼Ð¸Ð» ÑĭÐ¹
ĠÐ» Ð±Ñĥ
ĠÑģÑĩÐ° ÑģÑĤÑĮÑİ
ĠÑģÐ² Ð¾Ð´
ĠÐł Ð¾Ð´
ĠÑĢÐ°Ð· Ð¾Ð¼
ĠÐ¿Ð¾Ð´ ÑĢÐ¾Ð±
ĠÐ½ Ñĭ
ĠÐ±Ð¾ ÑıÐ»Ð°ÑģÑĮ
Ð½Ðµ ÑģÐ»Ð¸
ĠÐľ Ð¾
ĠÑģÐ¾Ð¿ ÑĢÐ¾Ð²
ĠÐ´ÐµÐ½ ÐµÐ³
ĠÐ¿Ð¾Ð½ÑĢÐ°Ð² Ð¸Ð»Ð¾ÑģÑĮ
ĠÐ½ Ð¾ÑĤ
ÑĤÐ¸ ÑĢÐ°Ñı
ÑĤ ÑĭÐ¹
ÑģÑĤÐ²ÐµÐ½ Ð½ÑĭÐ¹
ĠÐ¿Ð¾Ð´ Ð¾Ð¶Ð´
ĠÐ¥Ð¾Ñĩ ÐµÑĪÑĮ
ĠÐ·Ð°Ðº Ð°Ð·
Ð¾Ð¶ ÐµÑģÑĤÐ²Ð¾
ÑĢ Ð°Ð¹
ĠÐ¿Ð¾ÑĢ ÑĤ
ĠÐĳÐ» ÐµÐ¹Ð½
ĠÑĦ Ð¸
ĠÐº Ð¾Ð²
ĠÐ´ÐµÑĢÐµÐ² ÑıÐ½
! ?
ÑĥÐ´ ÑĢÑı
ĠÐļ Ð»
ĠÑĢ Ð°Ð¹
Ð¸Ð½ Ð°Ð¼Ð¸
ĠÑĢÐ°Ñģ ÑĪÐ¸
ĠÐ»ÐµÐ¶ Ð¸ÑĤ
ĠÐ²ÑĭÐ· Ð¾Ð²
Ðŀ Ð±
Ð»Ð¾Ðº Ð¾ÑĤ
ĠÑģÐ¾Ñħ ÑĢÐ°
ĠÐ¶ Ð°Ð¶
ÑģÐ¸ Ð¸
ĠÑĤ ÐµÐ½ÑĮ
ĠÐ¾ÑĤÐ¼ Ð°Ñħ
ĠÐ§Ð°Ð½ Ñĳ
ĠÐł Ð¾
ĠÐ²Ð¿ ÑĢÐ°Ð²
ĠÐ¾ÑĢÐ³Ð°Ð½Ð¸ Ð·
ĠÐ´Ð² Ð¸
Ñĳ Ð¶
ĠÐ¿ÑĢÐ¾ÑĤÐ¸Ð² Ð¾Ð¿
ĠÑģÐ¿Ð°Ð»ÑĮ Ð½Ñİ
ĠÐĿ ÐµÐ¿
ĠÐ¾Ð± Ð¼Ð°
ĠÐ² Ð¸Ð½Ð°
ÑĤ ÐµÐ¼
ĠÑģ Ð½ÑıÐ»
ÑĢÐ¾ Ñĩ
ĠÐ¾Ð± ÑĢÐ°Ð´
ĠÐ¼Ð¾Ð»Ñĩ Ð°Ð½Ð¸Ðµ
ÑĤÐ¸ Ðµ
ĠÐĽ Ð¸Ñģ
ĠÐĳ Ð¾Ð»ÑĮÑĪÐµ
ĠÑģÐ´ÐµÐ» Ð°Ð»Ð¸
Ð¸Ð½ Ðº
ĠÐ¿Ð» Ð°Ð²
ĠÐ´Ð¾Ð¶Ð´ ÑĮ
ĠÑĢ ÐµÐ¶
ĠÐ²Ð·Ð´Ð¾Ñħ Ð½ÑĥÐ²
ĠÑĤÑĢ ÐµÑĤ
ĠÑģÐ¸ÑĤÑĥÐ° ÑĨÐ¸Ñİ
ĠÐ½Ð° ÐµÐ´Ð¸Ð½Ðµ
ĠÑĥÐ½Ð¸ Ð²ÐµÑĢ
ĠÐ· Ð°Ð»Ð°
ĠÑģÐ¾Ð±Ð¸ÑĢ Ð°Ð»Ð°ÑģÑĮ
ÑģÑĤÐ² Ð¾ÑĢ
ĠÐ¿Ð¾Ð² ÐµÐ»
ĠÐ¸Ð¼ Ð¿
ĠÑĥ ÑħÐ¾Ð´Ð¸ÑĤÑĮ
Ð¾Ñģ Ð½ÐµÐ¶
ÐµÐ½Ð¸Ñı Ð¼Ð¸
ÑĢÐ¸ ÐºÐ°
ĠÐ¸Ð· Ð¾
Ð¢ ÐµÐ¿ÐµÑĢÑĮ
ĠÑģÐµÑģÑĤ ÑĢÑĥ
ĠÐºÐ¾Ð¼Ð½Ð° ÑĤÐ°
Ñĳ Ð²
ĠÐºÐ¾Ð¼Ð½Ð° ÑĤ
ĠÐºÐ¾ÑģÑĤ ÑİÐ¼
ĠÐ²Ð¾ÑĪ Ð»Ð°
Ð¾Ðº Ñĥ
ĠÐ¸Ð·Ð² ÐµÑģÑĤÐ½Ð¾
ĠÑĨÐ°ÑĢ Ð°Ð¿
ĠÐ¿Ð¾Ð¶Ð°Ð» ÑĥÐ¹
ĠÑĤ Ð²
ĠÑħÐ²Ð°ÑĤ Ð¸Ð»Ð¾
ĠÑĥÐ´Ð¾Ð²Ð¾Ð»ÑĮÑģÑĤÐ² Ð¸ÐµÐ¼
ĠÑĢÐ°ÑģÑģÐºÐ°Ð·ÑĭÐ² Ð°ÑĤÑĮ
ÐµÐ½Ð½Ð¾ ÑģÑĤÑĮ
ĠÐĽ Ð¾ÑĢ
ĠÐ»ÑİÐ± Ð¸ÑĤÑĮ
ĠÑģÐ¸Ð´ Ñı
ĠÑĤ ÑĢÑıÑģ
ĠÐºÐ¾Ð»ÐµÐ½Ñı Ñħ
ĠÐĿ Ð°Ð¹
ĠÐ±ÐµÐ´ ÑĢÐ°
ĠÐ³ÑĢÑĥ ÑģÑĤ
Ð» ÐµÐ½Ð¸ÐµÐ¼
ĠÐ¾Ñĩ ÐºÐ¸
ĠÑĢÐ°Ð² Ð½
ĠÐ²Ð·Ð³Ð»Ñı Ð½ÑĥÐ»Ð°
ĠÐ²Ð¸Ñģ ÐºÐ¸
ĠÐ¿ÑĢÐ¸Ð² ÑıÐ·
ĠÑĤÐ²Ð¾ Ð¸Ð¼
ĠÐ¿Ð¸ÑģÑĮ Ð¼Ð¾
ĠÑģ Ð»Ð¸Ð·
ĠÐ¼Ð¸Ð» Ð»Ð¸
ĠÐķ Ð»ÐµÐ½Ð°
ÐµÐ² Ð°
Ðº Ð½ÑĥÑĤÑĮ
ÐºÐ¾Ð»ÑĮ ÐºÑĥ
ĠÐ¾Ð± ÑħÐ²Ð°ÑĤ
ĠÐĺÐ½ Ð¾Ð³Ð´Ð°
ĠÑĥÐ³ Ð»Ñĥ
ĠÐ·Ð°ÐºÐ¾Ð½Ñĩ Ð¸Ð»
ĠÐļ Ð°
ĠÑĥÐ´ Ð¾Ð²Ð»ÐµÑĤÐ²Ð¾ÑĢ
ĠÐº Ð¸Ñģ
ĠÑĪ ÐµÑģÑĤÑĮ
ĠÑĪ Ð¾ÑĢ
ĠÐ¿ÑĢÐµÐ´Ð»Ð¾Ð¶ ÐµÐ½Ð¸Ðµ
ĠÑĢÐµÑĪ Ð¸ÑĤÐµÐ»ÑĮÐ½Ð¾
ĠÐ¿Ð¾Ð· Ð²
ĠÐ¿Ð¾ÑĤÑı Ð½ÑĥÐ»ÑģÑı
ĠÐ° Ð¼
ĠÐ±Ð¾Ð»ÑĮÑĪ Ð°Ñı
l l
ĠÐĳ ÐµÐ½
ĠÑĥÑģ Ð¸Ð»
ÑīÐµ ÑģÑĤÐ²Ð°
ĠÐ´ÑĢÐ¾Ð¶ ÑĮ
ĠÐŀÑģ Ð¾Ð±
ÑĮÑİ ÑĤ
ĠÐĶÐ°Ð¼ Ð±Ð»
ĠÐ²Ð¾Ð»Ð¾Ñģ Ð°Ð¼
ĠÐ¿Ð¾Ðº ÑĥÐ¿
ĠÐ´ Ð°Ð±Ñĭ
ĠÐ¿Ð¾Ð³ ÑĢÑĥÐ·
ĠÑĦ Ð¾ÑĤÐ¾
ĠÐ²Ð¾Ð· ÑĢÐ°ÑģÑĤ
ĠÐ¿ÑĢ ÑıÑĤ
ĠÐ» Ð¾Ð¿
ĠÐ¾Ð±ÐµÑī Ð°Ð»
ĠÐºÐ°ÑĢÐ¼Ð° Ð½Ð°
ĠÐ´ ÑĳÑĢ
ĠÐ¶ÑĥÑĤ ÐºÐ¾
ĠÐ¤ÑĢÑįÐ½ Ðº
ĠÑĥÐº Ð°Ð·ÑĭÐ²
Ð°Ð»ÑĮ Ð½ÑĥÑİ
ĠÐ¾ÑģÐ² Ð¾Ð±Ð¾Ð´
ĠÐļÐ»Ð° ÑĥÑģ
ĠÐ²ÐµÑĢ Ñİ
ĠÐ¿ÑĢÐ¾Ñģ Ð½ÑĥÐ»Ð°ÑģÑĮ
ĠÑħÐ¸Ñħ Ð¸Ðº
ÐµÐ¶ Ð°Ð²
ĠÐ¿Ð¾Ð¿ Ð°Ð»
ĠÐ²Ð¾Ð· ÑĢÐ°Ð·
ĠÐ¿Ð¾Ñģ ÑĢÐµÐ´Ð¸
ĠÐºÐ°Ð¶Ð´ Ð¾Ðµ
ĠÐ²Ð¸Ð´ ÐµÐ»Ð¸
ĠÐ¼Ð°Ð³ Ð¸
ĠÐ¡Ð¸ ÑĢÐ¸
ĠÐ±Ð» Ð°Ð³
ĠÐ·Ð°ÑıÐ² Ð¸Ð»
ĠÐ½Ð°ÑĢÑĥÐ¶ Ñĥ
ĠÐĴÐ¾ Ð¾Ð±ÑīÐµ
ĠÐ¿ÑĢÐµÑĢÐ² Ð°Ð»
Ð¾Ð½ÑĮ ÐºÐ¾
ĠÐ²Ñģ Ð»ÑĥÑħ
ĠÑĩÑĥÐ´ ÐµÑģ
Ð¢ ÐµÐ¼
ĠÐ¾ÑĤÐ¿ ÑĥÑģÑĤÐ¸Ð»
ĠÐ» ÐµÑĩ
ĠÐ´ÐµÐ» Ð°Ñİ
ĠÐ·ÐµÑĢÐº Ð°Ð»Ð¾
ĠÑĢÐ°ÑģÑģÑĤ ÐµÐ³
ÑĢ Ð¾Ð·
ĠÑģÐµÑģÑĤ ÑĢÑĭ
Ð´ ÑĨ
ĠÐ¼ÑĥÐ¶ ÑĩÐ¸Ð½
ĠÐļ Ð°ÑģÑĤÐ¸
ĠÐ¨ Ð¸
Ð¼ Ð¾Ð¹
ĠÑģ Ð¾Ð»Ð½Ðµ
ĠÐ¶ ÐµÑĢÑĤ
ÐµÐ² Ð¾Ð¹
ĠÑĢÐ°Ð± Ð¾Ñĩ
ÑĦ Ð°
ĠÐ¿ÑĢÐ¸Ð¶Ð¸Ð¼ Ð°Ñı
ĠÐĵÐ¾ÑģÐ¿Ð¾Ð´ Ð¸
Ð°Ðº Ðµ
ĠÐºÐ¾ ÑĦ
ĠÐ¿ÑĢÐµÐ´ÑĥÐ¿ ÑĢÐµÐ¶
ĠÐ³ÑĢÑĥ Ð´
ÐµÑĪ Ðµ
ĠÐ¿Ð¾Ðº Ð°Ð·Ð°Ð»
ĠÑģÑĩÐ¸ÑĤ Ð°Ð»
ĠÐ²ÑĭÐ´Ð¾Ñħ Ð½ÑĥÐ»Ð°
ĠÐ´Ð¾ÑģÑĤ Ð°Ð»Ð°
Ð¸Ð¼ ÑĭÐ¼
ÐºÑĥ ÑĢ
Ñı Ñİ
ĠÐ²Ñĭ ÑĤÑı
ĠÐ»ÑİÐ´Ñı Ð¼
ÐĲ Ð½
ĠÐ¿ÑĢÐµÐ´ Ð²
ĠÐ¿Ð¾Ð± ÐµÐ¶Ð°Ð»
ĠÐ²ÑģÑĤÑĢÐµÑĩ Ñĥ
a r
Ð½ÑĥÑĤ ÑģÑı
ĠÐ¥Ð¸Ð½Ð° ÑĤÐ°
ĠÐ² ÑĢÐ°
ÑĢÐ¾Ðº Ð¸
ÑĢÐ°Ð² ÑĪÐ¸ÑģÑĮ
ĠÐ¡Ðº Ð¾ÑĤ
ĠÐ¾ÑĤ ÑĨÐ¾Ð¼
ĠÐ³ Ð¸Ð»ÑĮÐ´Ð¸
ĠÑĢÐ°ÑģÑģ ÑĩÐ¸ÑĤ
ĠÐº Ð°Ð½
ĠÐļ ÑįÑĤ
ĠÑĩÐµÐ»Ð¾Ð²ÐµÐº Ñĥ
ĠÐ¾ Ð³Ð»Ñı
ĠÐ»ÑĥÑĩ ÑĪÐ¸Ð¹
ĠÑĢÐ°Ð· Ð½ÑĭÑħ
ĠÐĶ Ð¾Ð¼
ĠÐ¿Ð¾Ð´Ð½Ñı ÑĤÑĮÑģÑı
ĠÐ·Ð°Ð¼ÐµÑĤ Ð¸ÑĤÑĮ
ĠÐ¿Ð¾ ÑģÑĤÐ°
ÐµÐ½ ÐµÑĢ
ĠÐ¿ÑĢÐ¸ Ð¾Ð±
ĠÐ¿Ð¾Ð» Ð½ÑĭÐ¹
ĠÐºÐ¾ÑĢÐ¸Ð´ Ð¾ÑĢÑĥ
Ð» ÑĥÑİ
ĠÑĨÐµÐ» ÑĭÐ¹
ĠÐŁÑĢ ÐµÐº
ĠÐ¶ Ð¸Ð´
ĠÐ¿Ð°Ðº ÐµÑĤ
ĠÐ¸ Ð»Ð»Ñİ
Ð» Ð¸Ð»ÑģÑı
Ð¸Ð² Ð°Ð»Ð°ÑģÑĮ
ÐµÐ¶ Ð½Ð¾
ĠÑĢÐ°Ð· ÑĢÑĭÐ²
ĠÐ¼Ð°ÑĪÐ¸ Ð½Ð°
ĠÑģÑĤÑĭ Ð´Ð½Ð¾
Ð°Ð´ Ñĭ
ĠÐ°Ð»ÑĮÑĦ Ð°
ĠÑĥÐ´Ð° ÑĢÐ°
ĠÑģÐ» Ð°Ð²
ÑĤ ÐµÐ»ÑĮ
Ð ¦
ĠÑĢÐ°Ð· Ð½Ð¾
ĠÐ¿Ñĭ Ð»ÑĮ
ÑģÑĤ ÑĢÐ¸
ĠÑģÑĤÑĢÐ°Ð½ Ð½Ð¾Ðµ
ĠÐ¢ Ð¸Ñħ
ĠÐ½Ð¾Ð³ Ð¾Ð¹
ĠÐĴ Ð¾Ð½
ĠÑĢ ÑĤÐ°
ĠÑģÐ» ÑĥÐ³
ĠÐºÑĢÐµÐ¿ ÑĩÐµ
ĠÐ¾Ð¿ÑĥÑģÑĤ Ð¸Ð»Ð°
ĠÐ¿Ð¾Ð¾Ð± ÐµÑī
ĠÑĥÑģÑĤ ÑĢÐµÐ¼
ĠÐºÐ¸Ð² Ð°ÐµÑĤ
ĠÐ² ÑĤ
ĠÐ¿Ð¾Ð¼ Ð½Ð¸Ð»
ĠÑĥÐ´Ð¸Ð² Ð¸Ð»Ð°ÑģÑĮ
ĠÐĶÐ¶ÐµÑĢ Ð°ÑĢÐ´
Ġ I
ĠÐĶÐ¶ Ð¾Ð½Ð°
ĠÐ¿Ð°ÑĢ ÑĤ
ĠÐ²Ñĭ ÑĢÑĭÐ²
ĠÐ¿ÑĢÐ¸Ñģ ÐµÐ»
ĠÑĥÐ¼ÐµÑĢ ÐµÑĤÑĮ
ĠÑĢ Ð¾Ð¼Ð°Ð½
ĠÐ¾Ð±ÐµÑģÐ¿ Ð¾ÐºÐ¾
Ð»Ð¾Ð¶ Ð¸Ð»
ĠÐ¿ÐµÑĢ ÑģÐ¾Ð½
ĠÐºÑĥÑĢ ÑģÐµ
ĠÑģÑĤ Ð¾Ð¿
Ð¸Ð· Ð»Ð¸
ĠÐ±ÑĢÐ¾Ñģ Ð¸Ð»Ð°
ÑĢ ÐµÑī
ĠÐ¾Ð´ ÐµÑĤ
ĠÐ¡ Ð°
ĠÐĵ Ð¾ÑĢ
ĠÐ±Ð¾Ð»ÑĮÑĪ ÑĥÑİ
ĠÐºÑĥÑħ Ð½Ð¸
ĠÐ¿Ð¾Ð¿ÑĭÑĤ ÐºÐ¸
ĠÑĤÑĢÐ¸ Ð´ÑĨ
ĠÐ¶ ÐµÑĢÑĤÐ²
Ð³ Ð¾Ð²
ĠÐĳ Ð¾
Ð¼Ð¾ÑĤÑĢ ÐµÑĤÑĮ
ĠÐ¿ÑĢÐµÐ· ÑĢ
ĠÐ¾ÑĤÐ²ÐµÑĢ Ð½ÑĥÐ»ÑģÑı
ĠÐ·Ð½Ð° ÑİÑĤ
ÑīÐ¸ Ðº
ĠÐ¥Ð¾Ð³ Ð²Ð°ÑĢÑĤ
Ġy ou
ĠÐºÑĢÐ¸ ÐºÐ¸
ÑĥÐ´ Ñĥ
Ð°Ð½ Ð½ÑĭÐ¼Ð¸
ĠÐ¿Ð¾Ð´Ð¾Ð± Ð½Ð¾Ðµ
ĠÑĢÐ°Ð´ Ð¾ÑģÑĤÐ¸
Ð»ÐµÐ½ Ð½ÑĭÑħ
Ñĳ Ð½Ð°
ĠÐ¾Ðº Ð½Ñĥ
ĠÑĥ Ð»Ð¾Ð²
ĠÐ·Ð°Ð´ Ð°Ð²
ĠÐ±Ð»Ð¸ Ð½
ĠÐ¿Ð»Ð° Ð½Ñĭ
ÑĨ Ð°Ð¼
ĠÐ½Ð°Ð¼ ÐµÐº
Ð¸ÑĤ Ð°Ð½Ð°
ĠÐºÐ°Ð±Ð¸Ð½ ÐµÑĤÐµ
ĠÐ¼Ð¾Ð¼ÐµÐ½ÑĤ Ñĭ
ÐĿ Ð°Ð´
ĠÐ´Ð¾ÑĢÐ¾Ð³ Ð¾Ð¹
ĠÐ¼Ð°Ð»ÑĮÑĩÐ¸ ÑĪÐºÐ°
ĠÐ¿ÑĢÐ¾ ÑīÐµ
ĠÐ¼Ð»Ð°Ð´ ÑĪÐ¸Ð¹
ĠÐľÐ°Ð¹Ðº Ð»
ĠÐ¿Ð¾ÑĤÐ¾ Ð»Ð¾Ðº
ĠÑĢÐ°Ð·Ð´ ÐµÐ»
ĠÐĵ Ð¾Ð²Ð¾ÑĢ
Ð°Ð¶ Ð½Ð¾
ĠÐŃÐ´ Ð²Ð°ÑĢ
Ð³ Ð°Ð¼Ð¸
ĠÐŁ Ð°Ð¿
ĠÐ²ÑĭÐ¿ Ð°Ð»
ĠÐľ Ð¾Ð¸
ĠÐ¾Ð±ÑĢÐ°ÑĤ Ð¸Ð»ÑģÑı
ĠÑģÑĤÐ°ÑĢ Ð°Ð»Ð°ÑģÑĮ
ĠÐ¼ÐµÑģÑı ÑĨÐµÐ²
ĠÐ¼Ð°Ð»ÐµÐ½ÑĮ ÐºÐ¾Ð¹
ĠÐ²Ð¾Ð· ÑĮ
ÑĤÐ¾ÑĢ Ð¾Ð¿
ĠÑĦ Ð¾Ð½Ð°
ĠÑħÐ¾ÑĤ Ð¸ÑĤÐµ
ĠÐ¾ÑģÑĤÐ°Ð½ ÐµÑĤÑģÑı
Ð¸Ð² ÑĪÐ¸Ð¹
ĠÑģÐº Ð°Ð¼
ĠÐ·Ð°Ð± Ð°Ð²
Ð½Ð¸ ÑĢÐ¾Ð²
ĠÑĥÑģÐ»ÑĭÑĪ Ð°Ð²
ĠÑĤÐµÑĢÐ¿ ÐµÑĤÑĮ
ĠÑĢ ÐµÐ¼
Ð°Ð¹ÑĤÐµ ÑģÑĮ
Ð»Ð¾Ð½Ð¸Ð² ÑĪÐ¸ÑģÑĮ
ĠÐŀ ÑģÑĤÐ°Ð²
ĠÑı Ð³
ĠÐ´ÐµÐ» Ð¾Ð¼
ĠÑģÑĤÑĢÐ°Ð½ Ð½ÑĭÐ¹
ĠÐ½ÐµÐ²ÐµÑĢÐ¾ ÑıÑĤÐ½Ð¾
ĠÑĢÐ°Ð·Ð³Ð¾Ð²Ð°ÑĢ Ð¸Ð²Ð°ÑĤÑĮ
ĠÐ¿Ð¾Ð¶ Ð°Ð»Ð°
ĠÐ¾Ð±Ð½Ð¸Ð¼ Ð°Ñı
ĠÑĢÐ° ÑģÑĤÐ²Ð¾ÑĢ
ĠÐ¾Ð± Ð¾Ð¶
ĠÐºÐ¾Ð½ ÑĦ
ĠÑĤÐµÑĢ ÑĢÐ¸
ĠÐ¸Ð½ÑĦÐ¾ÑĢÐ¼Ð° ÑĨÐ¸Ñİ
ĠÐĶÐ¶ ÐµÐ¹Ð½
Ñĭ ÑģÐº
Ð¸ÑĢ Ð°Ð»
ĠÑīÐµÐº Ð°Ð¼
Ð¸ÑģÑĤ ÐµÑĢ
ĠÑĥÐº Ð°Ð·Ð°Ð»
ÑĤÐ°Ð» Ðº
ĠÐ·Ð°ÑģÑĤÐ°Ð² Ð¸ÑĤÑĮ
ĠÐ¿Ð¾Ð»Ð¾Ð¶ ÐµÐ½Ð¸Ðµ
ĠÑģÐ¾Ð± ÑģÑĤÐ²ÐµÐ½Ð½Ð¾
ĠÐ¿Ð¾Ð¿ Ð°ÑģÑĤÑĮ
ĠÐ¸ÑģÐ¿ÑĥÐ³ Ð°Ð½Ð½Ð¾
ĠÐĹ ÐµÐ¼
ĠÐ·ÑĥÐ± Ð°Ð¼Ð¸
ĠÐ¿Ð¾Ðº ÑĢÑĭ
ĠÐ¾Ð± ÑģÑĤÐ°Ð½Ð¾Ð²
ĠÑħÐ¾Ð»Ð¾Ð´ Ð½ÑĭÐ¹
ĠÑģÐ¸ÑĤÑĥÐ° ÑĨÐ¸Ñı
Ñı Ð½Ð½Ð¾
ĠÐ¿Ð¾ÑıÐ² Ð¸Ð»Ð¸ÑģÑĮ
ĠÐ±ÑĢÐ°ÑĤ Ð¾Ð¼
ĠÐ¡ Ñĥ
ĠÑģÐ¿ Ð¸Ñģ
ĠÐ¿Ð¾Ð² Ð¸Ñģ
ĠÐ³Ð¾Ð´ Ñĭ
ĠÐ¿ÑĢÐ°Ð² Ð¾
ĠÐ¡ Ð°ÑĪÐ°
ĠÐ½Ð°Ñģ ÑĤÐ¾ÑĢÐ¾Ð¶
Ð» ÑĳÐ½
ĠÐºÐ¾Ñģ Ð½ÑĥÐ»ÑģÑı
ĠÐ¼ ÐµÑħ
Ð± Ð¾Ð¹
ĠÐľ Ð¸Ðº
ĠÑįÐº ÑģÐ¿
ĠÐ¼ ÑĢÐ°Ñĩ
Ð¸Ð» Ð»Ð°
Ð¼ Ð¸Ð½
ĠÐ²ÐµÑĢ Ð¾
ĠÑĢÐ°ÑģÑģÐº Ð°Ð¶
ĠÑĥÐ´Ð¾Ð²Ð¾Ð»ÑĮÑģÑĤÐ² Ð¸Ñı
ĠÐ·Ð´Ð° Ð½Ð¸Ñı
ĠÐºÐ°Ð¿ ÐµÐ»ÑĮ
ĠÐĹÐ° ÑĤÐ¾
ĠÐ¾Ðº ÑĢÑĥÐ³
ĠÐ¤ ÑĢÐµÐ´
e n
Ñİ ÑīÐ¸Ðµ
ĠÐ·Ð°Ð± ÑĢÐ°ÑĤÑĮ
ĠÐ¿Ð¾ÑģÐ»ÐµÐ´ Ð½ÐµÐ¹
ĠÐ¿Ð¾Ð· Ð²Ð°Ð»
ĠÐ¸ÑģÑĤÐ¾ÑĢÐ¸ Ñİ
ĠÐ¸Ð½ÑĤÐµÑĢÐµÑģ Ð¾Ð¼
ĠÐ²Ð· Ð²Ð¾Ð»
Ñģ Ð¾Ð½Ð°
Ñĥ ÑĢÑĭ
ĠÑĤÑĢÐµÑĤ Ð¸Ð¹
ĠÑĩ Ð¸ÑģÑĤÐ¾
ĠÐ½Ð°Ð¿ Ð¸ÑĤ
ĠÐŀÑĤ Ð»Ð¸ÑĩÐ½Ð¾
ĠÑĤÐ¸ÑĪÐ¸ Ð½Ñĥ
ĠÑģÑĥÐ´Ð¾ÑĢ Ð¾Ð¶Ð½Ð¾
ĠÐ¾Ñħ ÑĢÐ°Ð½
ĠÑģ Ð¸ÑģÑĤ
ĠÐ½Ð°Ð±Ð»Ñİ Ð´Ð°ÑĤÑĮ
ĠÐ¾Ðº Ð½Ð¾Ð¼
ĠÐ½Ð°Ðº Ð°Ð·
Ð¸ÑĤÐµÐ»ÑĮ Ð½ÑĭÐµ
ĠÐ½ÐµÐ¾Ð¶Ð¸Ð´Ð°Ð½ Ð½Ð¾ÑģÑĤÐ¸
ĠÐĿ Ð°ÑĢ
ĠÐĺ Ð½Ð¾
ĠÐ¿ÑĢÐ¾ÑĪ Ð»Ð¸
Ñģ Ð¸Ð¼
ĠÐĶÐ¶ ÐµÐ½Ñģ
ĠÐºÐ¾Ð½ÑĤÑĢ Ð¾Ð»
ĠÐ»ÐµÐº Ð°ÑĢ
ÑİÑĢ Ð¿
ĠÐ¿Ð°ÑĢ Ñĭ
Ð»ÐµÐ½ Ð½Ð¾Ð³Ð¾
ĠÐºÐ°ÑĢ Ð¼Ð°Ð½
ÐĽ Ñİ
ĠÐ¿Ð¾ ÑĤÐ¾Ð»
ĠÐ¿Ð¾Ð¸Ñģ ÐºÐ°Ñħ
ĠÐ¾ÐºÐ°Ð·ÑĭÐ² Ð°ÐµÑĤÑģÑı
ĠÐ³ ÑĥÐ»Ñı
ĠÐ²Ð¸Ð´ Ñı
ĠÐ¾Ð¼ ÐµÐ³Ð°
ĠÐ¿ Ð¸Ð»
ĠÐ·Ð° ÑħÐ¾Ð´
Ð»Ð°Ð² Ð°
ĠÑĢÑĥ ÑĩÐºÑĥ
ĠÐ¿Ð» ÐµÐ¼
ĠÐ´ Ð°Ð½Ð½ÑĭÐ¹
ĠÑĢ ÑİÐº
ĠÐ¿ÑĢÐ¾Ð² ÐµÐ´
ĠÐ¿ÑĢÐ¾Ñģ Ð¸Ð»
ÑĢ Ð¾Ð¶
ĠÐ¥Ð²Ð°ÑĤ Ð¸ÑĤ
Ñı ÑĤÐ¾
ĠÑĥÐ³ÑĢ Ð¾Ð¶
ĠÐ¾ÑģÑĤ ÑĢÐ¾Ð²
ĠÑģÑĥÐ¿ ÑĢÑĥÐ³
Ð¾Ð½ Ð¾Ð²
ĠÐ± Ð¾Ñģ
ĠÑĤÐºÐ° Ð½ÑĮ
ÐĿ Ð¸
ÑĢÐ¸ÑĦÑĦÐ¸Ð½ Ð´Ð¾ÑĢ
ĠÐŁ Ð¾Ð³
ÑĭÐ² Ð°Ð»Ð°ÑģÑĮ
Ñĩ Ð°Ð½
ĠÐºÐ¾ÑĢ Ð¾Ð»ÑĮ
ĠÑĩ ÐµÐ»Ñİ
ÑĨ Ð°Ð¼Ð¸
ĠÑĪ ÐµÐ¸
ĠÐĿ ÐµÑģ
ÐµÐ±Ñı ÑĤÐ°
Ð°Ð´ ÐµÐ¼
ĠÐ£ Ð²Ð¸Ð´
ĠÐĴÐ¸Ð½ ÑĩÐµÑģÑĤ
ĠÐ° Ñģ
ĠÐº Ð¾Ð³
ĠÐ¿ÑĢÐ¸ÑĤ Ð²Ð¾ÑĢ
ÑģÑĤÐ² Ð¾Ð²Ð°ÑĤÑĮ
ÑĪ ÐµÐº
Ð¸ÑĤÐµÐ»ÑĮ Ð½Ð¾Ð³Ð¾
ÑĤ Ð¸Ð¼
ĠÑĥ ÑĪÑĳÐ»
ĠÑģÐº ÑĢÐµÑģÑĤ
Ð¾Ð´ Ð¸ÑĤÑĮ
ÑĢÑĥ ÑĩÐ¸Ð²
ĠÐļÐ°Ðº Ð¾Ð³Ð¾
ĠÐ¿ÑĢÐ¸Ð½ ÑıÐ»Ð°ÑģÑĮ
ĠÐŁÐ¸ÑĤ ÐµÑĢ
ÑĮ ÑıÐ²
Ð³ Ðµ
ĠÐ¿ÑĢÐ¸Ð¼ÐµÑĢ Ð½Ð¾
ĠÐĹ Ð´ÑĢÐ°Ð²ÑģÑĤÐ²ÑĥÐ¹
ĠÐ½Ð°Ðº Ð»Ð¾Ð½Ð¸Ð»ÑģÑı
Ð» ÑĥÐ³
Ð¸ÑĤÐµÐ»ÑĮ Ð½Ð¾Ðµ
ĠÐ¿ÑĢÐ¾Ð²ÐµÑĢ Ð¸ÑĤÑĮ
Ð°Ð»Ð¸ Ð·
ĠÐ¡ Ð½Ð¾Ð²Ð°
ĠÑĢÐ° Ð½Ñĭ
ĠÐ³ Ð¸Ð±
ĠÐ½Ð° ÑĤÑı
ĠÐ±Ð¾ ÑıÑģÑĮ
ÑĤÑĭ Ð¼Ð¸
Ñĥ Ð¸
ĠÐ¸Ð· Ð½ÑĥÑĤÑĢÐ¸
ÑĢ Ñİ
ĠÐ¸ÑģÐ¿Ð¾Ð»ÑĮÐ· Ð¾Ð²Ð°ÑĤÑĮ
Ñĥ ÑĢÐ¸
ĠÐ£ Ð¸Ð·Ð»Ð¸
ĠÐ³ ÑĢÐ°ÑĦ
ĠÐ¿ÑĢÐ¸ÑģÑĤ Ð°Ð»ÑĮÐ½Ð¾
ÑĩÐµ ÑģÑĤÐ²Ð°
ĠÑģÑĤ ÐµÑģ
ÑĢ Ð°Ð¼Ð¸
ĠÑĪÐµÐ¿ ÑĩÐµÑĤ
ĠÐ¿Ð¾Ð¿ ÑĢÐ¾ÑģÐ¸Ð»Ð°
ĠÐĸ ÐµÐ½
ĠÐ´Ð¾ ÑģÑĤÐ¸Ð³
ĠÐĽ Ð¸ÑĪÑĮ
ĠÐľ Ð°Ð»ÑĮÑĩÐ¸
ĠÐ´Ð¾ÑĢÐ¾Ð³ Ð¸
ĠÑĪ ÐµÐ¿ÑĤ
Ð°Ð» Ñĭ
ĠÐĶÐ¶Ð°ÑĢ ÐµÐ´
ĠÑĢÐ°Ð· ÑĬ
ĠÐ¶ ÐµÐ½Ð¸
ĠÑİ Ð±
ĠÑį ÑĦÑĦ
Ð¾Ð»Ð¾Ñģ ÑĭÐ¹
ĠÐļ Ð°Ð³
ĠÐ¿ÑĢÐ¾Ð±Ð»ÐµÐ¼ Ð°
ĠÑģÐ¾Ð³Ð»Ð°Ñģ Ð¸Ð»Ð°ÑģÑĮ
ĠÑģÐ¿ Ð¸Ð½ÐºÑĥ
ĠÑģÐ¾Ð±Ð¸ÑĢÐ° ÐµÑĤÑģÑı
ĠÐ§ Ð°ÑĢ
ĠÐľÐµÑĢ Ð»Ð¸Ð½
ĠÐ±ÑĢÐ°ÑĤ Ñĥ
ĠÐ» ÐµÐ´Ð¸
ĠÐ¿ ÑıÑĤÐ¸
ĠÐŃ ÑĢÐ¸Ðº
ĠÐĲÐ½ Ð½Ð°
ĠÐŁÑĢÐ¾ÑģÑĤ Ð¸ÑĤÐµ
ĠÐ·Ð°Ñģ ÑĭÐ¿
ĠÐ¾Ð´ Ð½Ð¸
ÑĥÐ¼ Ð¸
ĠÐ¿Ð¾ ÑĢÐ°Ð·
ĠÐ±ÐµÑĢ ÐµÐ¼
ĠÐ¿Ð» ÐµÐ½
ĠÐ½Ð° ÑĩÐ¸
ĠÑĥÐ·Ð½Ð° ÐµÑĤ
ĠÐľ ÑįÑĤ
ĠÑĤÐ¸Ñħ Ð¾Ð½ÑĮÐºÐ¾
ĠÐ½ÐµÐ± ÐµÑģ
ĠÐĵ Ð°ÑĢ
ÑģÑĤ Ð¸ÑĤÑĮ
ĠÐ²Ð´ Ð¾Ð»ÑĮ
ĠÐ¿Ð¾Ð¹Ð´ ÐµÐ¼
ĠÐĽ Ð¸Ð´
ĠÐ¡Ðº Ð°Ð¶Ð¸
ĠÑģÐ¸Ð»ÑĮ Ð½ÑĭÐ¹
Ð½Ð¾ ÑģÑı
ĠÐ²Ñĭ Ð»ÐµÐ·
Ð°Ð½ Ð·
ĠÐŁÑĢÐ¾ ÑĪÑĥ
ĠÐ¿ÑĢÐ¸ ÑĢÐ¾Ð´
ĠÐ»Ð°ÑģÐºÐ¾Ð² Ð¾
ĠÐ¾Ð± ÑĥÑĩ
Ġ âĪĴ
ĠÐĶÐ¾Ðº ÑĤÐ¾ÑĢ
ĠÐ¸Ñģ ÑħÐ¾Ð´
ĠÐ²Ñĭ ÑĤÐµÑĢ
Ð»Ð¾ Ðµ
ĠÑģ ÑĥÑĤ
ÑĢÐ¾Ð² Ð°Ð²
ĠÐ½ÐµÐ²ÐµÑĢÐ¾ ÑıÑĤ
ĠÐĿÐ¸Ðº Ð°Ðº
ÑĢÐ° Ð½Ð°
ĠÑĥÑģÐ¿ ÐµÐ»Ð¸
ĠÐ½Ð°Ð²ÐµÑĢ Ñħ
ĠÐ°Ð² ÑĤÐ¾Ð±
ÑĢÐµ Ð°Ð³
ĠÐ²ÐµÑī ÑĮ
ÑĩÐ¸ ÐºÐ¸
ĠÐ²Ð· Ð²
ĠÐ¾Ð±ÑıÐ· Ð°Ð½
ÐºÑĥ Ð½
ĠÐ¿Ð¾Ð» Ð°Ð³
ĠÐ³ Ð½Ð¾Ð¼
ĠÐ¿Ð¾Ð» Ðµ
Ð¸Ñĩ ÐµÑģÑĤÐ²Ð¾
ĠÐ¿Ð¾ÑĨÐµÐ»Ð¾Ð² Ð°Ð»Ð°
ĠÐ» Ð¾ÑĪ
ĠÐ¿Ð¾Ð·Ð²Ð¾Ð» Ð¸Ð»
ĠÐ´ÐµÐ¼ Ð¾Ð½Ð°
ĠÐ¿ÑĢÐ¸Ð½ÑĨ ÐµÑģÑģÐ°
ĠÐºÑĢÐ¸ ÑĩÐ°ÑĤÑĮ
ĠÐ¾Ð¿ ÐµÑĢÐ°
ĠÐ½Ð°Ð· Ð½Ð°Ñĩ
ĠÑĥÑģÐ¿Ð¾ÐºÐ¾ Ð¸ÑĤÑĮ
ĠÐ¸Ð½ ÑĤÐµÑĢ
ĠÐ¿Ð»Ð°Ðº Ð°ÑĤÑĮ
ĠÑĥ Ð»ÐµÑĤ
ÑİÑī ÐµÐ¹
a t
ĠÑĢ ÐµÑģÑĤÐ¾
ĠÐ·Ð°Ð¿ÑıÑģÑĤÑĮ Ðµ
ÐºÐ¾ ÑģÑĤÑĮ
ĠÑĢÑİÐº Ð·
ĠÐĽ Ð¾Ð½
Ð½Ñĥ Ñģ
ÑĪÐ° ÑĢÐ°ÑĪ
ĠÐ¡ÐºÐ¾ÑĢ ÐµÐµ
ĠÐ¿Ð¾ÑĤ Ð°Ñī
ĠÑĥÐ»ÑĭÐ± ÐºÐ¸
ĠÐ¿Ð¾ÑģÐ¿ÐµÑĪ Ð¸Ð»
Ð°Ñİ ÑīÐµÐµ
ĠÐ¿Ð¾Ð¼ ÐµÐ½Ñı
Ðº Ð½ÑĥÐ»Ð°ÑģÑĮ
ĠÐ²Ð¾Ð· Ð´
Ð¾ÑĢ Ð¾Ð²
ÑİÑī Ð¸Ñħ
ĠÐ¿Ð¾ÐºÐ°Ð·ÑĭÐ² Ð°Ñı
Ð¾Ñĩ Ðµ
ĠÐĳ ÐµÑĢ
ĠÐ²Ð½Ð¸Ð· Ñĥ
ĠÑĨÐµÐ» ÑĥÐµÑĤ
ĠÐ²Ð¿ ÑĢÐ¾ÑĩÐµÐ¼
ĠÐł Ð¾Ð·
Ð½Ð¾ ÑģÑĤ
ĠÐŁ Ð¾ÑĪÐ»Ð¸
ĠÐ¿Ð¾Ð¿ ÑĢÐ¾Ñī
ĠÑĩÐµÑĤ ÑĭÑĢ
ĠÐľ Ð°Ð´
ĠÐ²Ð°ÑĢÐ¸ Ð°Ð½ÑĤ
ĠÑģÐµÐ¼ÑĮ Ðµ
ĠÐ½Ð°ÑģÑĤÐ¾Ñı ÑīÐ¸Ð¹
ĠÐ¿ Ð¾Ð±Ñĭ
ĠÑģÑĤÐ¾ Ð»Ð¸Ðº
ĠÐ¾Ð³ÑĢÐ¾Ð¼ Ð½ÑĭÐ¹
ĠÐĴÐ°Ñģ Ð¸Ð»Ð¸
ÑĤÐ¾ ÑĢÑĭ
ĠÐ¡ÐµÑħ ÑĥÐ½
ÐºÐ¾Ð» ÐµÐ¿
ĠÐ³ ÑĥÑģÑĤ
Ð¢ ÑĥÑĤ
ĠÐ¿Ð¾Ð´ ÑĢÑĥÐ¶
ĠÐ½ÐµÐ½Ð°Ð² Ð¸
ĠÐ¼Ð»Ð°Ð´ ÑĪÐµÐ³Ð¾
Ð¾ÑĢ ÑıÐ´
ĠÐ¾Ð± Ð»Ð°
ĠÐ±ÐµÑģ ÐµÐ´
ĠÐ´ÐµÐ» Ð°Ð»Ð°
Ð¥ Ð¾ÑĢÐ¾ÑĪÐ¾
ĠÐºÑĥÑĢÑĤ ÐºÑĥ
ÑĦ Ð¸Ð³
ĠÐľ Ð°
ÐµÑĢÑĮ ÐµÐ·
ĠÐ±ÐµÑĪ ÐµÐ½
ĠÐ¾ÑĤ ÑĪ
ĠÐ½Ð° Ð¸Ð²
ÑĤÐ¾Ñĩ ÐºÑĥ
ÐµÐº Ñĥ
ĠÑıÐ² Ð»ÑıÐµÑĤÑģÑı
ĠÐ²ÑģÑĳ Ð¼
ĠÐ´ÐµÑĢ Ð³
ĠÑģÐ¾Ð· Ð´Ð°Ð²
ĠÑı Ð´
ĠÑĤ Ð²ÐµÑĢÐ´
ĠÐ¿Ð¾Ð² ÐµÑģ
ĠÐ¿Ð¾ÑģÐ»ÐµÐ´ Ð½ÐµÐ³Ð¾
ĠÐ½Ð°Ð´Ðµ ÑıÐ»ÑģÑı
ĠÑģÑĤ ÐµÐ¿
ÐµÐ½ ÑĤÐ¸
ÐĴ Ð·
ĠÐ¸Ð³ ÑĢÑĭ
ĠÐ² ÑģÑĤÑĥÐ¿
Ñī ÐµÐ¼
ĠÐŀÑģÐ¾Ð± ÐµÐ½Ð½Ð¾
ĠÐ¸Ñģ ÑĤÐ¾Ñĩ
Ñİ Ð·
ĠÑĤ Ñİ
ĠÐ±Ð¾Ð»ÑĮ Ñİ
ĠÑĥÐ¿ Ð¾Ð¼
ĠÐ´ Ð°Ð¹
ĠÐ¿Ð°ÑĢÑĤ Ð½
ĠÐ¿Ð¾ÑĢ Ð¾Ð¹
ĠÐ¿ÑĢÐ¾Ð² ÐµÐ»Ð°
Ð¼ ÐµÑģÑĤ
ĠÑĤÑĥÐ¼ Ð±
ÐµÐ½ Ð½Ð¾Ð¼Ñĥ
ĠÑĤÑĢ ÐµÑħ
ĠÐ¢ Ð¾ÑĩÐ½Ð¾
ĠÐľÐ°ÑĢ Ðº
ĠÐ¼Ð¸ Ð½Ð¸Ð¼
ĠÑģÐºÐ°Ð· Ð°Ð²
ĠÐ²Ñĭ ÐºÐ»ÑİÑĩ
ĠÐ¿Ð¾Ð²ÐµÑĢ Ð½ÑĥÐ»
ĠÑģÐ´ÐµÐ» Ð°ÐµÑĤ
ĠÐ·Ð»Ð¾ ÑģÑĤÐ¸
ĠÐĲ ÐºÐ¸
ĠÑĢÐ°ÑģÑģÐºÐ°Ð·ÑĭÐ² Ð°Ð»
ĠÐ±ÐµÐ·Ð¾Ð¿Ð°Ñģ Ð½Ð¾ÑģÑĤÐ¸
ÑĥÑİÑī Ð¸Ñħ
ĠÐ¡ÑĤ ÑĢÐ°Ð½Ð½Ð¾
ĠÑħÐ¾Ð»Ð¾Ð´ Ð¸Ð»ÑĮ
Ðĳ Ñĭ
Ð¸ ÑĪ
ĠÐ½Ð¸ ÑĩÐµÐ¼
ĠÐ´Ð°Ð»ÑĮ Ð½ÐµÐ¹
ĠÑģÐ¸Ð¼Ð¿ Ð°ÑĤÐ¸
ĠÐ±ÑĥÐ¼ Ð°Ð¶
ĠÐ½Ð°ÑĪ ÑĳÐ»
ĠÐľ Ð¸Ñħ
ĠÐ¾ÑĤÐ´Ð¾Ñħ Ð½ÑĥÑĤÑĮ
Ð¸Ð² Ð°ÑİÑĤÑģÑı
Ðº Ð°ÑĤÑĮ
ÐµÐ½ Ð°Ð²
ĠÐ¾ÑĤÐºÑĢÑĭ Ð»Ð°ÑģÑĮ
ĠÑĦÐ¸Ð· Ð¸
ĠÐ²ÐµÑī ÐµÐ¹
ĠÐ¡ÐµÑĢ Ð´ÑĨÐµ
Ð½ ÐµÐ½Ð¸Ð¹
ĠÐ½Ð°Ð³ Ð»Ð¾
ĠÐ´ÐµÑĤ ÑģÑĤÐ²Ð°
ÑĮÑİ ÑĤÐµÑĢ
ĠÐ±Ð» Ð¾Ðº
ĠÐĲ Ð»ÑĮÑĦ
Ð² ÑĭÑĢ
ĠÐ¾Ð± Ð´ÑĥÐ¼
ĠÐ² Ð±
ĠÐŁÐ¾ Ð½Ð¸Ð¼
ĠÑĥÐ»ÑĭÐ± Ð°ÑĤÑĮÑģÑı
ĠÐŀÐ¿ ÑıÑĤÑĮ
ĠÐĽ Ð¸Ð½
ĠÐ¿ÐµÑĢÐ² Ð°Ñı
ĠÑı ÑĢÐ¾ÑģÑĤ
ÑĥÑģÑĤ Ð¸Ð²
Ñĥ Ð»ÑıÑĤÑĮ
ĠÑģÑĤÐ°ÑĢ ÑĪÐµÐ³Ð¾
ĠÑĢÐ°Ð· Ð³Ð»ÑıÐ´ÐµÑĤÑĮ
ĠÐ¼Ð½ Ð¾Ð¶ÐµÑģÑĤÐ²Ð¾
ĠÐ¿Ð¾Ð² Ð¾Ð´
ĠÐ´ Ð°Ð»Ð¸
ĠÐ² Ð¸Ð´Ð°
Ñĩ ÐµÑģÑĤÐ²Ð¾
ĠÐ·Ð°Ð» ÐµÐ·
ĠÐºÐ½Ð¸ Ð¶
ĠÑģÐºÑĢÑĭ ÑĤÑĮ
ĠÑħÐ¸ÑĤ ÑĢÐ¾
ĠÑĦ Ð°Ð½Ð°
Ð¼ Ð¾Ðº
Ð¸Ð¼ ÐµÑĤ
ĠÐ¸ÑģÑĤÐ¾ÑĢÐ¸ Ñı
ĠÑĢ ÑıÐ´
ĠÐºÐ°Ð¼ ÐµÐ½ÑĮ
ÑĥÐ´ ÑĢ
ĠÐ»ÐµÑģ Ð°
Ñĩ ÐµÐ»
ÐºÑĥ ÑĪ
ĠÐ²ÑĭÐ¿ ÑĢÑıÐ¼
ĠÑģÐ± ÐµÐ¶Ð°ÑĤÑĮ
ĠÐ¿ÐµÑĢÐµÐ³ Ð»Ñı
ĠÑĢ Ð¾Ð¶
ĠÐºÐ¾Ð» Ð¸ÑĩÐµÑģÑĤÐ²Ð¾
ĠÐ¼ÐµÑĤ ÑĢÐ¾Ð²
ĠÐ½ÐµÐ² Ð¸Ð´
ĠÐ¿ÐµÑĢÐµÐ´ Ð¾
ĠÐ²ÑĭÑħÐ¾Ð´ Ð°
ĠÑħÐ¾Ð´ Ñĥ
ĠÑģÐ¿Ð¾ÑģÐ¾Ð± ÐµÐ½
Ġ 5
ĠÐ¿Ð¾Ð´ Ðº
ĠÐ½ Ð°ÐºÐ¸
Ð¼Ñĥ ÑĢÐ¸Ð²
Ðĺ Ð½
ĠÐķ Ð´Ð¸Ð½
ĠÐ²Ñĭ ÑĢÐ°Ð·
Ġ l
ĠÑģÐ²ÑıÐ· Ð¸
Ð»Ð¸ Ñı
ĠÐ¿Ð¾Ð»Ð¾Ð¶ Ð¸Ð²
ÐºÑĥ ÑĢÐ¾
Ñĩ ÐºÐµ
ĠÐ´ÐµÐ²ÑĩÐ¾Ð½ ÐºÐ°
ĠÑĨÐµÐ»Ð¾Ð² Ð°ÑĤÑĮ
ĠÐ·Ð°Ð³ Ð»ÑıÐ´
ĠÐ¼Ð¾Ð¼ÐµÐ½ÑĤ Ð°Ð»ÑĮÐ½Ð¾
ĠÐ¸Ð¼ ÐµÑĤÑĮ
Ð½Ð¸ ÑĤÐµ
ĠÑģÐºÐ°Ð¶ ÐµÑĤ
ĠÐ¾ÐºÐ°Ð· Ð°ÑĤÑĮÑģÑı
ĠÐ¿Ð¾ ÐµÐ·Ð´
ÑģÑĤÑĢ Ð¾Ð¹
Ð¾Ð² Ð¾Ð³Ð¾
ĠÑĥÑĩÐ¸ÑĤ ÐµÐ»Ñı
Ð½ Ð°Ð´
ĠÑĪ ÑĢÐ°Ð¼
Ðļ ÑĤÐ¾
ĠÐ¿ÐµÑĢ Ð¸
ĠÐ²ÑĭÑģÐ¾Ðº Ð¸Ð¹
ĠÐ²ÑĭÑĢÐ² Ð°ÑĤÑĮÑģÑı
ĠÐ¿ÑĢÐ¾ÑĦÐµÑģÑģ Ð¾ÑĢ
ÐµÐ½ÑĮ ÐºÐ°Ñı
ÐµÐ¹ Ð½Ð°
ĠÑĢ ÑĤÑĥ
ĠÐºÑĢÐ°ÑģÐ¸Ð² ÑĭÐ¹
ĠÐ¿Ð¾Ð¸Ð½ÑĤÐµÑĢÐµÑģ Ð¾Ð²Ð°Ð»Ð°ÑģÑĮ
ĠÐł ÐµÐ´Ð¶
ĠÐº Ð»Ñı
Ð¾ Ð¾
o r
ĠÐ²Ñĭ Ð¸Ð³
ĠÐ·Ð°Ð´ Ð°Ð½Ð¸Ðµ
Ð¸ ÑĤÐ¾
ĠÐ¼Ð¸ÑģÑģ Ð¸Ñģ
ĠÐ· Ð¼Ðµ
ĠÐ±ÑĥÐ¼ Ð°Ð³
ĠÐ¿ Ð»Ñı
ĠÑģÐ»Ð¾Ð² Ð°Ñħ
ĠÐ¿Ð¾Ð± Ð»Ð¸Ð¶Ðµ
ĠÐ¸Ð·Ð±Ð°Ð² Ð¸ÑĤÑĮÑģÑı
Ð» Ð¾Ð´
ĠÑĤÐ¸ÑĪÐ¸ Ð½Ðµ
ĠÐ¾Ð¶Ð¸Ð´ Ð°Ð»Ð°
ĠÐ¸Ð·Ð¼ÐµÐ½ Ð¸Ð»Ð¾ÑģÑĮ
ĠÑĤ ÐµÑģ
Ñī Ð¸Ð¼Ð¸
ĠÑĤÐ°Ðº ÑģÐ¸
ÐºÐ¸ Ð½ÑĥÐ²
ĠÐ¿Ð»ÐµÑĩ Ðµ
ĠÑģÐ¿ ÑĥÑģÐº
ĠÑĢ Ð¾Ð»ÑĮ
ĠÐ¾ÑĤÐ²ÐµÑĩ Ð°ÑĤÑĮ
ĠÐ¿ÑĢÐ¾ÑĪ Ð»Ð¾Ð¼
ĠÐ¿Ð¾ÑĨÐµÐ»Ñĥ ÐµÐ¼
ĠÐ³Ð¾ÑĢ Ð»Ðµ
ĠÐ¾ÑĤÐ² ÑĢÐ°ÑĤ
ĠÐµ Ð´Ð¸
ĠÐ¿Ð¾ ÐµÐ´
ĠÐ¿ ÐµÑī
ÑĢÐ¸ Ð°Ð½
ĠÐ·Ð°ÑĤ Ñı
ĠÐ· Ð°Ð·
Ð¡ ÐµÐ¹ÑĩÐ°Ñģ
ĠÐ¡ ÑĥÐ´
ĠÐ¾Ð±ÑĬÑıÑĤÐ¸ ÑıÑħ
ĠÐ²Ñĭ ÑģÑĤÑĢÐµÐ»
ÐĹ Ð½Ð°
Ðµ ÑİÑĤ
ĠÐ½ÐµÐ¿ Ð¾Ñģ
ĠÑĢÐ° ÑģÑĤÑĢ
ĠÐ¾ÑĤÐ»Ð¸ ÑĩÐ¸Ðµ
ĠÐ· ÐµÐ»Ñĳ
ĠÐ·Ð°Ð² Ð¾ÑĢ
ĠÐ²ÑĭÑģ Ð»ÑĥÑĪ
ĠÐ¿ÑĢÐ¾ÑĤ ÑıÐ¶
ĠÐ¿ÐµÑĢÐµÑģÑĤ Ð°Ð²
ĠÐ¾ÑĤÐºÑĢÑĭÐ² Ð°Ñı
Ð¸Ð² ÑĪÐ¸Ð¹ÑģÑı
ĠÐ·Ð°Ð² Ð°Ð»
ĠÑħ Ð°Ð»Ð°
ĠÐ¿ÐµÑĢÐ² ÑĭÐµ
ĠÐ¿Ð¾Ð´Ð½Ð¸Ð¼ Ð°Ñı
ĠÑģÐ» ÐµÐ¿
ĠÐ¼ Ð¾Ð´
ĠÐ¡Ð¾Ð² ÑģÐµÐ¼
ĠÐ²Ð¾Ñģ ÑģÑĤÐ°Ð½Ð¾Ð²
ĠÐ¾ ÑĪÐ°ÑĢÐ°ÑĪ
ĠÐ»ÐµÐ³ Ð»Ð°
ĠÐĳÑĢ Ñİ
ĠÐ¿Ð¾Ð¿ÑĢÐ¾Ð± Ð¾Ð²Ð°ÑĤÑĮ
Ð¼ Ð¾Ð·
Ð½Ð¸ÑĤ ÑģÑı
ĠÐ²ÑĤÐ¾ÑĢ Ð¾Ð³Ð¾
ĠÐ· Ð°Ð¼Ð¸
Ð»Ð¸ ÑĤÑĮÑģÑı
ĠÐł ÐµÑĪ
ĠÑģÑħÐ²Ð°ÑĤ Ð¸Ð»Ð°
i t
ĠÐ·Ð² Ñĥ
ĠÐ¿ÑĢÐ¾Ð¸ÑģÑħÐ¾Ð´ Ð¸Ð»Ð¾
ĠÐ¡ ÐºÑĥ
ĠÑĤ Ð²Ð°ÑĢ
Ġ b
ĠÐ²ÑħÐ¾Ð´ Ð°
Ñĩ Ð½ÑĭÑħ
ĠÐĴ Ð¼
ĠÐ½ÐµÐ¼ ÐµÐ´Ð»ÐµÐ½Ð½Ð¾
ĠÐ¿ÑĢÐ¸Ð· ÐµÐ¼
ĠÐºÑĢÐ°ÑģÐ¸Ð² Ð¾
ĠÐļ Ð°Ð»
ĠÑģÑĥÐ´ÑĮ Ð±Ð°
ĠÐ¿Ð»Ð¾Ñī Ð°Ð´
ĠÐ½Ð¸ÐºÐ°Ðº Ð¾Ð¹
ĠÐ¿ÑĢ Ð¾Ð»ÐµÑĤ
ÐµÑĢÐ² Ð°
ĠÑģÐº Ð»Ð¾Ð½
Ðº Ð¾Ð»ÑĮÐ·
ĠÐ²ÑģÑı ÐºÐ¸Ð¹
ĠÐ¿Ð¾Ð·Ð²Ð¾Ð» Ð¸ÑĤÑĮ
ĠÐ¿ÑĢÐ¸Ðº ÑĢÑĭÐ»
ĠÐ²Ñĭ Ð½ÑĥÐ¶Ð´
ĠÑģÐº ÑĢÐ¸Ð²
ĠÐĹÐ°Ð² ÑĤÑĢÐ°
ĠÐ¿Ð¾Ð³ ÑĢÑĥÐ¶
Ð°Ð² ÑĪÐ¸Ð¹ÑģÑı
ĠÐ¼Ð°ÑĪ Ð¸Ð½
ĠÐºÑĢÐ¸ ÑĩÐ°Ð»
Ð¾ÑĢ Ð±
ĠÐ¾ÑĤÐ¾Ð´ Ð²Ð¸
ĠÐ¿ÑĢ ÑıÐ´
ĠÑģÑĤÑĢ Ð¾Ð³Ð¾
ĠÐ¿Ð° Ñĥ
ÐļÐ¾ Ð½ÐµÑĩÐ½Ð¾
ĠÐ¼ ÑĥÑĤ
ĠÑģÐ»ÑĥÑĪ Ð°Ð»
ĠÑĩÐµÑĢ ÑĤÐ°
ĠÑģ ÑİÑĢÐ¿
ĠÑģÐ¼Ð¾Ð³ Ð»Ð¸
ĠÐ·Ð°Ð¿ Ð»Ð°Ðº
ĠÑĢ Ð¸ÑĤ
Ñģ Ð¸ÑĤ
ÐĶ Ð¾
ĠÐ¿ÑĢÐ¸Ð´ ÐµÑĤ
ĠÐ´Ð¾Ñĩ ÐµÑĢÐ¸
ĠÐĶ Ð¸Ð½Ð°
ĠÐ¸ÑģÐ¿ Ð¾ÑĢÑĤ
ÐĴÑģ Ñĳ
ĠÐ¼ÐµÐ» Ð¾Ð´
ĠÐ²ÑģÐ¿Ð¾Ð¼ Ð¸Ð½Ð°Ñı
ĠÐ¿ÑĢÐµÑģ Ð»ÐµÐ´
ĠÐ± Ð¾ÑĤ
ĠÐ´Ð¾ÑģÑĤ Ð¾Ð¹
ĠÑģÐºÑĥ ÑĩÐ½Ð¾
Ð°Ð´ Ð¾Ð»Ð³Ð¾
ĠÐ¾Ð±ÑĬÑıÑĤÐ¸ Ñı
Ð» ÐµÐ½Ð¸Ñİ
ĠÐ±ÑĢÑİÐ½ÐµÑĤ ÐºÐ°
Ñĥ Ð»ÑĭÐ±
ĠÐ²ÑĭÑĤÐ°Ñī Ð¸Ð»
ĠÐ¾Ð¿ÑĢÐ°Ð² Ð´
Ðº ÐºÐ¸
Ð² ÑĥÑĩ
ĠÐ¿ÑĢÐµÐ¿Ð¾Ð´ Ð°Ð²
ĠÑģÐ¿ Ð°Ð»Ð°
ĠÑĦ Ð°Ð¼
ĠÐľ Ð°Ð¼
ĠÐ¿Ð¾Ð½Ð¸Ð¼ Ð°ÑĤÑĮ
ĠÑĥ ÑħÐ¾Ð´Ð¸ÑĤ
ĠÐ²Ð·Ð²Ð¾Ð» Ð½Ð¾Ð²
ĠÐº Ð»Ð¸Ð½
ĠÑħÐ¾Ð·Ñı Ð¸Ð½Ð°
ĠÐºÐ¾ÑĤÐ¾ÑĢÑĭ Ð¼Ð¸
ĠÐĵ Ð°
ĠÐ¾ÑģÑĤÐ°Ð² Ð°ÑĤÑĮÑģÑı
ĠÐĶÐ¶ Ð¸Ð¼
ÑĢÐ¸ Ð½Ð¸Ð¼
ĠÐºÐ¾Ð»ÑĮ ÑĨÐ¾
ĠÐĹ Ð°Ð¼
ĠÑģÐº ÑĢÐ¾Ð¼
Ð³ Ð´Ðµ
ĠÑİ Ð½Ð¾
ÑıÑī Ð°Ñı
ĠÐ³ÑĢÐ¾Ð¼ ÑĩÐµ
ĠÐ¿ÑĢÐ¾Ð¼ Ð¾Ð»
ÑħÐ¾Ð´ Ð¸
ĠÑģÐ´ÐµÑĢÐ¶ Ð°ÑĤÑĮ
ĠÑħÑĢÑĥ ÑģÑĤ
ĠÐ±Ð¾Ð»ÑĮ ÑĪÐ¸Ðµ
Ð² ÑĪÐ¸ÑģÑĮ
ĠÐ¿Ð¾ ÑģÑĤÑĢÐ°Ð´
ĠÐ» Ð°Ð³
ĠÐļ Ð¸Ñģ
ĠÐ¾ÑģÐº Ð¾Ð»
ĠÐ²ÐµÑĤ ÑĢÐ°
ĠÐ½Ð°Ð¿Ð¾Ð¼ Ð¸Ð½
ĠÐºÐ¾Ð¼Ð¿ ÑĮÑİÑĤÐµÑĢ
ĠÐ¿ÑĥÑĤ ÐµÑĪÐµ
ĠÐ¥Ð¾Ñĩ Ñĥ
ĠÐ¸Ð·Ð² Ð¸Ð½
Ñģ ÐµÑĢ
ĠÐ¸Ð´ ÑĳÑĤ
ĠÐ´Ð¸ÑĢÐµÐº ÑĤÐ¾ÑĢ
ĠÑĥÐ± ÑĢÐ°Ð»
ÑĭÐ² Ð°Ð»Ð¾
ĠÐ¡ Ð°Ð²
ĠÐµÑħ Ð°ÑĤÑĮ
ĠÐ± Ð°Ð·
ĠÐ½ÐµÐ² ÐµÑģÑĤ
ÑĭÐ² Ð°ÐµÐ¼
ĠÐ¿ÑĢÐ¾Ð´Ð¾Ð»Ð¶ Ð°ÐµÑĤ
ÐµÑĢ ÐµÐ²
Ð´ ÐµÐ½
Ð°ÑĤÐµÐ»ÑĮ Ð½ÑĭÐ¼
ĠÑģÑĤÑĢÐ°Ð½ Ð½ÑĭÐ¼
ĠÑĥÐ´Ð¸Ð²Ð» ÑĳÐ½Ð½Ð¾
Ð¾Ñģ Ð»ÐµÐ´
ĠÑĤÐ¾ ÑĪ
ÐµÑĢ Ð±
ĠÐ¿Ð¾Ð»ÑĥÑĩ Ð°Ð»Ð¾ÑģÑĮ
ĠÐ²Ð·Ð´ÑĢÐ¾Ð³ Ð½ÑĥÐ»Ð°
ĠÑĩ ÐµÑģÑĤ
ĠÐŀ ÑĤÐµÑĨ
ĠÐºÑĢÐ°Ñģ Ð¸Ð²Ð°Ñı
Ð¸Ð½ Ð¾Ð±Ð¸
Ð» ÐµÑģ
ĠÐł ÑıÐ´Ð¾Ð¼
ĠÐ¾Ñģ Ð»Ð°Ð±
ĠÐ¿Ð¾ÐºÐ° ÑĩÐ°Ð»Ð°
ĠÐºÐ¾ÑĢÐ¸Ð´ Ð¾ÑĢÐ°
ĠÑģÐ¼ ÐµÑıÑĤÑĮÑģÑı
ĠÐŃÐ»Ð¸ Ñģ
Ð½Ð° ÑģÑĤÐ¾Ñı
ĠÐ¾Ð±ÑĢÐ°Ñī Ð°Ñı
ÑĪÐ¸Ð¼ ÑģÑı
ĠÑĢÐ°Ñģ ÑģÑĤÐ°Ð²
ĠÐ·Ð°Ð¸Ð½ÑĤÐµÑĢÐµÑģ Ð¾Ð²
ÐĶ ÐµÐ²
ĠÐŁ ÑĢÐ°Ð²
ĠÐ¿Ð¾ÑĤÐµÑĢ ÑıÑĤÑĮ
ĠÐ¡ Ð»Ð¾Ð²Ð½Ð¾
Ð½ Ð°Ð¼Ð¸
Ñħ Ð¾Ð¼
ĠÑģÑĤÑĢÐµÐ¼ Ð¸ÑĤÐµÐ»ÑĮÐ½Ð¾
ĠÐ±ÐµÐ» Ð¾ÑģÐ½ÐµÐ¶
ĠÐ·Ð°Ð¿ ÑĥÑĤ
Ð¸Ð¼ Ð¸Ð½
ĠÐºÐ¾Ð¼Ð°Ð½ Ð´Ñĭ
ĠÑģÐµÐ¼ ÑĮÑİ
ĠÐ»Ð°Ð´Ð¾Ð½ ÑıÐ¼Ð¸
ĠÐ° Ð¶
ĠÐ¾ÑģÑĤÐ¾ÑĢ Ð¾Ð¶
ĠÐ¾Ð± ÐµÐ·
ÐĴ Ð¾
ĠÐ¿ÑĢÐ¸ ÐµÐ¼
Ñģ Ð»ÐµÐ´
ĠÐ²Ð· Ð¼Ð°Ñħ
ĠÐ¼ÑĥÐ·Ñĭ ÐºÐ°
Ð°Ð± ÑĢÐ¸
ĠÐ²Ð¾Ð·Ð²ÑĢÐ°Ñī Ð°ÑĤÑĮÑģÑı
ĠÐ¾Ð±ÑĢ ÐµÑĩ
ĠÐ® ÐºÐ¸
ĠÑħ Ð¸Ñī
Ð¸Ð± Ð°ÑĢÐ¸
ĠÑģÐºÑĥ Ñĩ
ĠÑĨÐµÐ» ÑĥÑİ
ĠÐ±ÑĢÑİÐ½ÐµÑĤ Ð°
ĠÑĢÐ°Ñģ ÑģÐµ
ĠÐ¿ÑĢÐ¸ÐºÐ¾ÑģÐ½Ð¾Ð² ÐµÐ½Ð¸Ñı
ĠÑģÐ¾Ð±ÑĭÑĤÐ¸ Ð¹
Ð´ÑĢ ÐµÐ¹
ĠÐ° Ð»ÑĮ
Ð¾Ñģ Ð°
ĠÐ¿ÑĭÑĤ Ð°Ð»Ð¸ÑģÑĮ
ĠÐ¾Ð´ÐµÐ¶ Ð´Ð°
Ð¿ ÐµÐ»Ð°
ĠÑģÐ²ÑıÐ· ÑĮ
ÑĤÐ¾ÑĢÐ¸ Ñİ
ĠÐ¡ ÑĤÐµÑĦ
ĠÐ¿ Ð¸ÑĤ
ĠÐĺ ÑĤÐ°Ðº
ĠÐ± Ð¸
ĠÑĥÑģÐº Ð¾ÑĢ
ÑĦ Ñĥ
ÐµÐ² Ð°ÑĤÑĮÑģÑı
Ð¾Ð² Ð°Ñı
ĠÐ½Ðµ ÑĥÐ´Ð°
ĠÑĩ ÐµÑģÑĤÑĮ
Ðľ Ð¾Ð¶ÐµÑĤ
ĠÐ¶ ÐµÐ½Ð°
ĠÑĦÐ¾ÑĢ Ð¼Ñĥ
ĠÐº Ð½Ð¾Ð¿
ĠÐ¿ ÐµÐ¿
ĠÐ¾Ð´Ð½Ð¾Ðº Ð»Ð°ÑģÑģ
ĠÑĢÐ° Ð½ÐµÐµ
ĠÑģÐµÑĢÑĮÑĳÐ· Ð½Ð¾
ĠÑģÑĩÐ¸ÑĤ Ð°ÑĤÑĮ
ĠÑĪÐ¾ÐºÐ¾Ð» Ð°Ð´
ĠÐ¶ÐµÐ½ÑīÐ¸ Ð½Ñĥ
ĠÑģÐ¾Ð¾Ð±Ñī Ð¸Ð»
ĠÐ¿Ð¾Ð²ÑĤÐ¾ÑĢ Ð¸Ð»
ĠÐ½Ð°ÑħÐ¾Ð´ Ð¸ÑĤÑĮÑģÑı
Ð¾Ð² ÑĭÐ¼
Ð¸Ð» Ñı
ĠÑħÐ¾Ð·Ñı Ð¸Ð½
Ð»Ñı Ð»Ð°
ĠÐ¾ÑĤ Ð·
ĠÐ·Ð°Ñģ Ð¼ÐµÑıÐ»Ð°ÑģÑĮ
ĠÑĥÐ± Ð¸Ð²Ð°ÑĤÑĮ
ĠÐ¿Ð¾Ñģ ÐºÐ¾Ð»ÑĮÐºÑĥ
ĠÐ¿Ð¾ÑĤÐµÑĢ ÑıÐ»Ð°
ÑĩÐµÑģ ÐºÐ¾Ð¹
ĠÐ·Ð°Ñģ ÑĤÐ¾
ĠÐ¿ÑĢÐ¾ÑģÑĤ Ñĭ
ĠÑĥ ÑĢÐ¾Ð´
ĠÑģÐ°Ð¼ Ð¾Ñģ
ĠÑĤÐ¾Ñĩ ÐºÑĥ
ĠÐºÑĢÐ° Ñİ
ÑĤÐ¾ÑĢÐ¸ Ñı
ĠÑĦ Ð°Ð½ÑĤ
ĠÐ¿ÑĢÐ¸ ÑħÐ¾Ð´Ð¸ÑĤ
ĠÐ¾Ð¶ Ð¸Ð²
ĠÐ½Ð¾ ÑĥÑĤ
ÐµÐ½ Ð½Ð¸
ĠÐ´ÐµÑĢÐµÐ² ÑĮÐµÐ²
ĠÑĥÐ¶Ð°Ñģ Ð°
Ġ c
ĠÑį Ð»ÐµÐº
Ð¾Ð¶ ÐµÐ¼
Ñģ ÑĤÐ¾
ĠÑħÐ¾ÑĢÐ¾ÑĪ ÐµÐ³Ð¾
ĠÐļ Ð¾Ð¼
Ð» Ð¾ÐºÐ°
ĠÐ¿ÑĢÐ¾Ð¸Ð· Ð½Ð¾ÑģÐ¸ÑĤ
ĠÐĶ Ð°ÑĢ
ÐµÑĪ Ð¸
ĠÐ·Ð´Ð° Ð½Ð¸Ðµ
Ð¾Ñģ Ðº
ĠÐļ Ð¸ÑĤ
ĠÐ±Ð¾ Ð¸ÑĤÑģÑı
ĠÑģ ÑĢÐ¾ÑĩÐ½Ð¾
ĠÐ²Ð· Ð°
ĠÐ¾ ÑĢÐ¸
ÑĤÐ¾ ÑĢÑĥ
ĠÐ·Ð°Ð½Ð¸Ð¼ Ð°ÑĤÑĮÑģÑı
ĠÐ¿Ð¾Ð» Ð½Ð¾Ð¼
ĠÐ²Ð¾Ð¿ÑĢÐ¾Ñģ Ð¸ÑĤÐµÐ»ÑĮÐ½Ð¾
ÑĢÑĭ Ð¼Ð¸
Ð½Ñı ÑĤ
ĠÐ¢ Ð°Ð¹
ĠÐ³Ð»Ð°Ð· Ð°Ð¼
ĠÑģÐ¾Ð± Ð»Ð°Ð·
ĠÐ¿Ð¾Ñħ Ð»Ð¾Ð¿
ÑĥÑİ ÑīÐ¸Ðµ
ĠÐ¾Ð´Ðµ ÑıÐ»
ÑĭÑħ Ð°Ñı
ĠÐĴ Ð¸
ĠÐ²ÑĭÐ³Ð»ÑıÐ´ ÐµÐ»Ð°
ĠÑģÐ»ÑĭÑĪ Ð¸ÑĤ
ĠÐ¼ Ð¸Ñģ
ĠÐ¿ÑĭÑĤ Ð°ÑİÑģÑĮ
ĠÐ±ÑĥÐ´ÐµÑĤ Ðµ
ĠÐ´ÑĢÑĥÐ³ Ð°Ñı
ĠÐĽÐµ Ð¾
ĠÐ¿Ð¾ÑģÐ»ÐµÐ´ Ð½ÑİÑİ
ĠÐ²Ñĭ ÑģÑĤÐ°Ð²
Ð°Ð½ Ð½Ð°
ÑĥÑİ ÑīÐ¸Ð¹
ĠÐ¿Ð¾Ð¶ ÐµÐ»
ĠÐ¿Ð»Ð° Ñī
ĠÑĨÐµÐ½ÑĤ ÑĢÐµ
ĠÑĨÐµÐ» ÑĥÑı
Ð¡Ð¿ ÑĥÑģÑĤÑı
ĠÑĪ Ð»Ñİ
Ðº Ð½Ð¸ÑģÑĮ
ĠÐļ ÐµÐ¹ÑĤ
ĠÐ¿Ð¾Ð²ÐµÐ´ ÐµÐ½Ð¸Ðµ
Ðº Ð½Ð¾Ð²
ĠÐ¾Ð±Ð¶ Ð¸Ð³
Ð¸Ð² Ð°
Ðĵ ÐµÑĢ
ĠÐ¸ÑģÐº Ð°Ð»
ÑĤÐ¾ÑĢ Ð¾Ð½
ĠÐ¾Ð· Ð½Ð°Ñĩ
ĠÐ¿Ð¾ÑĤ ÑıÐ½ÑĥÐ»
ĠÐ¡ ÐµÐ¹
Ðº Ð½ÑĥÐ²ÑĪÐ¸ÑģÑĮ
ĠÐ¿ÑĢÐµÐ´Ð¿Ð¾Ñĩ Ð¸ÑĤ
ĠÐ·Ð°Ð¼ÐµÑĩ Ð°Ñı
ĠÐļÐ°Ðº Ð°ÑĪÐ¸
ĠÐ¿Ð¾Ð½Ñı ÑĤÐ¸Ñı
ĠÐ¿Ð¾Ñģ Ð°Ð´
Ð°ÑĢÑĤ ÑĦ
ĠÑĥ ÑĢ
ĠÐ½Ð° ÑĪÐµ
ĠÐ¼ Ð¾Ð±Ð¸Ð»ÑĮ
Ð¾Ð² Ð°Ð»Ð¾ÑģÑĮ
ĠÑģ ÐµÐ´
Ġ d
ĠÐ¾Ð¿ÑĥÑģÑĤ Ð¸Ð»ÑģÑı
ĠÑĥ ÑĪÐ»Ð¸
ĠÐ´ÐµÐ² Ð¾ÑĩÐºÑĥ
ĠÑĤ Ð²ÐµÑĢ
ĠÐļ Ð¸Ð±
ĠÐ³ÑĢÑĥÐ¿Ð¿ Ñĭ
Ñĳ Ñħ
ĠÐ¾ÑģÑĤ Ð°ÐµÑĤÑģÑı
ĠÐ¿Ð¾Ð·Ð²Ð¾Ð» ÑıÑı
ĠÑĪÐ°ÑĤ ÐµÐ½
ĠÐŁ Ð¾Ðº
e s
ĠÑĥÐ· Ð½Ð°Ð²
ĠÑģ Ð½ÑıÑĤÑĮ
ĠÑģÐµÑģÑĤ ÑĮ
ĠÐºÐ°ÑĢÑĤÐ¸ Ð½Ñĥ
ĠÐºÐ¾ÑĪ Ð¼Ð°ÑĢ
ĠÐ´ÐµÑĢÐµÐ² Ð°
ĠÐ·Ð°ÑĤÑĭ Ð»Ð¾Ðº
ĠÑī Ñĳ
ĠÐĲ ÐºÐ°
ĠÑĢÐ°Ð· Ð¾ÑĢÐ²
ĠÐ¨ ÐµÐ¿
Ð¾Ðº ÑĥÐ´
ĠÐ»Ð¾Ð² ÐºÐ¾
ĠÐ²ÑģÑĤÑĢÐµÑĤ Ð¸ÑĤÑĮÑģÑı
ĠÐ²ÐµÑĢ Ð½ÑĥÐ»Ð¸ÑģÑĮ
ĠÑĪÐµÐ¿ Ð¾ÑĤÐ¾Ð¼
Ð¾Ð» Ð¾Ð²
ĠÐ¿Ð¾Ð»Ð¾Ð² Ð¸Ð½Ñĥ
ĠÐ½Ð°Ð¿ ÑĢÐ¸Ð¼ÐµÑĢ
ĠÐĶÐ¶Ð¸Ð½ Ð½Ð¸
ĠÐºÑĢÐ°Ñģ Ð½Ðµ
ĠÑħÐ¾ÑĤ ÑıÑĤ
ĠÐ½Ð°ÑĩÐ¸ Ð½Ð°Ñı
ĠÑĢÐ°ÑģÑĤÐµÑĢ ÑıÐ½
Ð½Ð°ÑģÑĤÐ¾Ñı ÑīÐµÐ¼Ñĥ
ÑĢÑĭÐ³ Ð½ÑĥÐ»
ĠÐ³ Ð¸ÑĤ
ĠÐ³Ð»Ð¾ÑĤ Ð¾Ðº
ĠÐ» Ð¾ÐºÐ¾
ĠÐ½Ðµ Ð¸Ð·
ĠÑģ Ð°Ð»
ĠÐ¼Ð°Ð»ÐµÐ½ÑĮ ÐºÑĥÑİ
Ð¡Ð¿ Ð°ÑģÐ¸Ð±Ð¾
ĠÐ¿ÑĢÐ¾ÑĤÐ¸Ð²Ð¾Ð¿ Ð¾Ð»Ð¾Ð¶
ĠÐ² Ð³Ð»ÑıÐ´
Ðº ÐµÑĢ
ĠÐ·Ð² ÐµÐ·Ð´
Ð°Ð² ÑĪÐµÐ³Ð¾
ĠÑģÑĥÑī ÐµÑģÑĤÐ²Ð¾
Ð½Ð° Ð½
Ð¾ÑĢ Ð°Ð´
Ð»Ð¸ Ð½Ð°Ð½Ð¸Ðµ
Ð¾ÑĢ ÑĥÐ¶
ĠÐ¿Ð¾Ð´ÑĤ Ð²ÐµÑĢÐ´
ĠÐŁ ÐµÑĤ
ÑħÐ¾Ð´Ñı ÑīÐµÐµ
ĠÐ±ÐµÐ» ÑĭÐ¹
ĠÐĿ ÐµÐ´
ĠÐ² Ð¸ÑĤ
ĠÐĲÐ½ Ð´
ĠÐ¿Ð¾ÑģÐ»ÐµÐ´ Ð½Ð¸Ñħ
ĠÐ¿ÑĢÐ¾ÑĪÐ¸ Ð¿ÐµÐ»
ĠÑĢ Ð²
ĠÐºÐ¾ÑģÑĤ Ñİ
ĠÐ¼Ð°Ð»ÐµÐ½ÑĮ ÐºÐ¸Ðµ
ĠÑĢÐ°ÑģÑģ Ð¼ÐµÑıÐ»Ð°ÑģÑĮ
ĠÐ¼ÑĥÐ·Ñĭ ÐºÑĥ
ÐĿ Ð°ÐºÐ¾Ð½ÐµÑĨ
ĠÐ²ÐµÐ»Ð¸ ÐºÐ¾Ð»ÐµÐ¿
ĠÐ·Ð°Ð² ÐµÑĢÑĪ
ĠÐ¾Ð±Ñī Ð°ÑĤÑĮÑģÑı
Ð¿ ÐµÑĢÐ²
ĠÐ¾ÑĤÐ¿ÑĢÐ°Ð² Ð¸Ð»Ð°ÑģÑĮ
ĠÐ¿ Ð¸Ð´Ð¶
ĠÐ¿ÑĢÐµÐ´ Ð¾
ĠÑĢÐ°Ð·Ð¾Ð± ÑĢÐ°ÑĤÑĮÑģÑı
ĠÐ¾ÑĤ ÑĨÑĥ
ĠÐºÑĥÑģ Ð¾Ðº
ĠÑģÐµÐº ÑģÑĥ
Ð²ÐµÑĢ Ð¶
ĠÑįÑĤ Ð°Ð¶Ðµ
ĠÐ½ÐµÐ¿ ÑĢÐ¾
Ð°Ð» Ð¾Ð¼
ÑĤÐ¾ÑĢ Ð¾Ð¹
Ñĩ ÑĥÐ²ÑģÑĤÐ²
ĠÐľÐ°ÐºÑģ Ð¸Ð¼
ĠÑĦ ÑĢÐ°Ð·Ñĥ
ĠÐ½Ð°Ð´Ð¾ ÐµÐ»Ð¾
ĠÐ¤ Ð¸Ð½
ĠÐĳÑĭ ÑģÑĤÑĢÐ¾
Ð»Ð¸Ð² Ð°Ñı
ĠÐ¿ÑĢÐ¸Ð² ÐµÑģÑĤÐ¸
Ð°ÑİÑī Ð¸Ð¼Ð¸
ĠÐĳ ÐµÐº
ÑĭÐ² Ð°Ð»Ð¸ÑģÑĮ
Ñī Ð¸ÑĤ
ÑĤ ÑıÐ¼Ð¸
ÑīÑĳ Ð½
ĠÐ£ Ð»ÑĭÐ±
ĠÐ·Ð°Ð¶ Ð¼ÑĥÑĢ
ĠÑĢÐµÑĪ Ð¸Ð²
ÑĢÑĥ Ñģ
ĠÑģÐ¼ ÐµÐ¹
ĠÑĨ ÐµÐ½
ĠÐ¾Ð³ Ð½Ñı
ĠÐºÐ¾ÑĢ Ð¾Ð»Ñı
Ð³Ð¾ ÑĢ
ÐĽ Ð°Ð´Ð½Ð¾
ÐŁ Ð¾ÑĤ
ĠÑĥÐ³ÑĢ Ð¾Ð·
ÑĨ ÐµÐ½ÑĤ
ĠÐ£ ÑģÐ¿
ĠÐĶÐ¶ Ð¾ÑĢ
ĠÑģÐ¾Ð¾Ð±Ñī ÐµÐ½Ð¸Ðµ
ĠÐ´ÐµÑĤ ÐµÐºÑĤÐ¸Ð²
ĠÑĢÐ°Ð²Ð½ Ð¾Ð´ÑĥÑĪ
ĠÐ²Ð·Ð³Ð»Ñı Ð´Ðµ
ĠÐ¶ Ð´Ñĥ
ĠÑĥ ÑĪÐµÐ¹
ĠÐ² Ð¸Ð½
Ð¸Ð² Ð°Ð½Ð¸Ñı
ĠÐ²ÑģÑĤÑĢÐµÑĤ Ð¸Ð»
ĠÐĿ ÐµÐ±
ĠÐ± Ð¾Ð´
ĠÐ¾Ð±Ñģ ÑĤÐ¾ÑıÑĤÐµÐ»ÑĮ
ÐµÑĢ ÐµÐ¼
Ð£ ÑĤ
ĠÐĶÐµÐ¹ Ð¼Ð¾Ð½
ĠÐ´Ð¾ Ð½Ð¾Ñģ
Ð»Ð¾ ÑĤÑĮ
ĠÑĢÐ°Ð´ Ð¾ÑģÑĤÑĮ
ĠÐ´ÐµÑĢÐµÐ² ÑĮÑı
ĠÐŁÑĢÐ¸Ð½ ÑĨ
ĠÐ³Ð¾ÑģÑĤ ÐµÐ¹
ĠÐ²ÑģÐ¿ ÑĭÑĪ
ĠÐ¸ÑģÐ¿ Ð¾Ð»
ĠÐ½Ð°ÑĩÐ¸Ð½Ð° Ñİ
Ð¾Ð½ ÑĤ
ĠÐ®Ð½ Ð³Ð¸
ĠÐºÑĢÐ¾Ð² Ð°Ð²
ÐŁ ÑĢÐ¸Ð²ÐµÑĤ
ĠÐ¿Ð¾Ð»Ð¾ÑĤÐµÐ½ ÑĨÐµ
ĠÐ¿Ð¾Ð´ Ð¾Ð¹ÑĤÐ¸
Ñį Ð»Ñı
ĠÑĥ ÑİÑĤ
ĠÐ²Ð¾Ð· Ð»ÑİÐ±
ĠÑĤÑı Ð½ÐµÑĤ
ĠÑĥÑģ Ð¸Ð»Ð¸
ĠÐ¿Ð¾Ð´Ð½Ñı ÑĤÑĮ
ĠÐ¿ÑĢÐµÐ´Ð¿ Ð¾Ð»Ð°Ð³
ĠÐ²ÑĭÐ± ÑĢÐ°ÑĤÑĮÑģÑı
ĠÐ·Ð»Ð¾ ÑģÑĤÑĮ
ĠÐ½Ð°Ñģ ÑĩÐµÑĤ
Ð¸Ð» Ñĥ
ĠÑģÐ¶ Ð°Ð»Ð°
ÐĲ ÑĢ
Ð»ÐµÐ½ Ð½ÑĥÑİ
ĠÐ¼Ð¸ Ð½Ð¸
ĠÑģÐ²ÐµÑĤ Ð¾Ð¼
ĠÐ³Ð¾ÑģÐ¿Ð¾Ð´ Ð¸Ð½
ĠÐ¿ÑĢÐ¸ÑħÐ¾Ð´ Ð¸ÑĤÑģÑı
ĠÐ¾Ð¿ÑĥÑģÑĤ Ð¸Ð²
ÑħÐ¾ÑĤ Ñı
ĠÐĿ ÐµÐº
Ð¾Ð» Ð¾ÑĤ
Ð°Ð» Ñĥ
ĠÑĩÑĥÐ´ Ð¾
ĠÐ·Ð°ÑģÑĤÐ°Ð²Ð»Ñı ÐµÑĤ
ĠÑģÐ² Ð¸Ð´
ĠÐ¿ÑıÑĤ Ð½Ð°Ð´ÑĨÐ°ÑĤÑĮ
ĠÐ½Ð¾Ð² Ð¾Ðµ
ĠÐĳ Ð¾Ð½
ĠÐ¿ÑĢÐ¸ Ñħ
ĠÐ½Ðµ ÑĥÐ¶ÐµÐ»Ð¸
ĠÐ²ÐµÐ¶ Ð»Ð¸Ð²Ð¾
ÐµÐ» Ð»
Ñģ ÑĥÐ´
ĠÐĺ Ð³
Ñĥ Ñĥ
ĠÐ½Ð°Ð² Ð¸Ñģ
ĠÐ·Ð°ÑģÑĤÐ°Ð² Ð¸Ð²
Ġ S
ÑģÐº Ð°Ð·
ĠÐ·Ð°ÑĢ Ñĭ
ĠÐ³Ð¾ÑĤÐ¾Ð² Ñĭ
ĠÑĪ ÑĤÑĥ
ĠÑĢ ÐµÑĩÐ¸
ĠÐ´ Ð½ÐµÐ¼
ĠÐ¿ÑĢ Ð¾Ð²Ð¾ÑĢ
ĠÐ¿ÑĢÐ¸Ðº Ð»ÑİÑĩ
ĠÐ¿Ð¾Ð´ ÑħÐ²Ð°ÑĤ
ĠÑĢÐ°Ð· Ð²Ð¾ÑĢÐ°ÑĩÐ¸Ð²
ĠÐ¡ Ð»ÐµÐ´
ÐµÐ² ÑĪÐ¸Ð¹
ĠÐ¿Ð¾Ðº Ð¾Ñģ
ĠÐ² ÐµÐº
ĠÐ·Ð°Ð³ Ð¾Ð²Ð¾ÑĢÐ¸Ð»
ĠÐ¿Ð¾ÑĤ ÑĢÐµÐ¿
Ð¾Ðº Ð¾Ð¼
Ð¿Ð¾Ð¼ Ð¾Ñī
ĠÐ¼Ð¾ÑĢ Ðµ
ĠÐºÐ°Ð· Ð°Ð»ÑģÑı
ĠÐ½Ð°Ð±Ð»Ñİ Ð´
ÑĪ ÑĤ
ÑĢÐ¸ Ð¹
ĠÐµ Ñİ
ĠÐ²Ð¾ÑģÐ¿ Ð¸ÑĤ
i s
Ñĩ Ð¸ÑĤÑĮ
ĠÐ´ ÐµÐ´
ĠÐ³Ð¾ ÑĢÐ¸Ð·
ĠÐ½ÐµÐ¿ ÑĢÐ¸Ð²
ĠÐ¡ÐµÐ±Ð°ÑģÑĤÑĮ ÑıÐ½
ĠÑĪ ÑĳÐ»
ĠÐºÐ¾Ð½ ÑĤÐ°Ðº
ĠÑĩÑĳÑĢ ÑĤ
ĠÐ¿Ð¾ÑĨÐµÐ»Ð¾Ð² Ð°ÑĤÑĮ
ĠÐ° Ð½
ĠÐ³ ÑĢÐ¾ÑħÐ¾ÑĤ
ĠÑħ Ð°
ÑĮ ÑģÑı
ĠÐ½Ð°ÑĪ ÐµÐ¼
ĠÑģÑĤÐ°ÑĢ ÑĭÐ¹
ÑĢÐ¾Ð¼ ÐºÐ¾
ĠÑģÑĤÐ¾ Ð½Ñĭ
ĠÐ¿Ð¾Ñģ Ð¼Ðµ
ĠÐ¿ÑĢ ÐµÐ±
ĠÑĥÐ´Ð¸Ð²Ð» ÐµÐ½Ð¸ÐµÐ¼
ÑĢÐ¸ Ñı
ĠÑĢÐ°ÑģÑģÐº Ð°Ð·Ð°Ð»Ð°
ÑĩÐµÑģ ÐºÐ¸Ðµ
ĠÐ½ÐµÐ½Ð°Ð² Ð¸Ð¶Ñĥ
ĠÐ¿Ð¾ÑģÐ¿ÐµÑĪ Ð½Ð¾
ĠÐ¢Ð°Ðº Ð¾Ð¹
ĠÐ¿Ð¾Ð½Ñı Ð»Ð¸
ĠÐ¿ÑĢÐ¸ ÑģÑĤÐ°Ð²
ÑĥÐ¶ Ð´Ð°
ĠÐ²Ð¾Ñģ ÐµÐ¼ÑĮ
ĠÑĥÐ¼ Ð¾Ð»
ÑĦ ÑĦÐ¸
ĠÑĥÑģÑĤÐ°Ð² Ð¸Ð»Ð°ÑģÑĮ
ĠÐ±Ð¾Ð»ÑĮÑĪ Ð¾Ðµ
ÐµÐ»Ñİ Ð±
Ð¾Ð» ÐµÐ½
ĠÐ´ÐµÑĤ ÑģÑĤÐ²Ðµ
Ð´ÑĢÑĥÐ³ Ð¾Ð¼Ñĥ
Ð¸ ÑīÐµ
ĠÐ»ÑİÐ±Ð¸Ð¼ Ð¾Ð¹
ÑĳÐ½ ÑģÑĥ
ĠÐºÐ°Ð¿ Ð¸ÑĤÐ°Ð½Ð°
ĠÐ²ÐµÐ· Ð´Ðµ
ĠÐ²ÑĭÐ´ÐµÑĢÐ¶ Ð°Ð»
ĠÐ¿Ð¾Ð´Ð¾Ð± Ð½Ð¾Ð³Ð¾
ĠÐ·Ð°Ð² ÑıÐ·
ÑĢÐµÐ´ ÐºÐ°
ÐµÐ³ Ð°ÑĤÑĮ
ĠÐ¼Ð¸Ð½Ð¸Ð¼ ÑĥÐ¼
ĠÑģÐ»ÑĥÑĩ Ð¸ÑĤÑģÑı
ĠÐ¿Ð¾ÑĪ ÐµÐ²ÐµÐ»
ÑģÐº Ð°Ð·Ð°Ð»
ĠÐ¼ ÐµÑĢÑĤ
ĠÑĩÐ°ÑĪ ÐºÑĥ
ÑĥÑĢ Ðµ
ĠÑĢÐ°ÑģÑģÑĤÐ¾Ñı Ð½Ð¸Ðµ
ĠÑĢÐ¾Ð´ Ð½Ð¾Ð¹
ĠÐºÐ¸ Ð½ÑĥÐ»
ĠÐµ Ð¶
ĠÑĥÐ² Ð»ÐµÐº
Ð½Ð¸Ðº Ð°Ð¼
ĠÑĤÐ¸ Ð¿Ð°
ĠÐ¿ÑĢÐ¸Ð½ÑĨÐ¸ Ð¿Ðµ
ĠÐ¿Ð¾ÑģÑĤÐ¾Ñı Ð½
ĠÐ¿Ð°Ð´ Ð°ÐµÑĤ
ĠÐ¾ÑģÑĤÐ°Ð½Ð¾Ð² Ð¸Ð»
ĠÐ²Ð·Ð´ÑĢ Ð°Ð³
ĠÐł Ð¾Ð¼
ĠÐ· ÐµÐ²
ĠÑĢÐ°Ð±Ð¾ÑĤ Ð°ÐµÑĤ
ĠÑĥÐ´Ð¸Ð² Ð»ÐµÐ½Ð¸Ñı
ĠÐ¶ Ð°Ð»Ð¾
ĠÐ¿Ð¾ÑģÐ»ÑĥÑĪ Ð½Ð¾
ĠÐł ÑįÐ¹
ĠÑģÐ²Ð¸Ð´ ÐµÑĤ
ĠÑģÑĤ Ð°Ð½
ĠÐ¾ÑĤÐ² Ð»ÐµÑĩÑĮ
ĠÑģÐ¿ Ð¾Ð»Ð·
ĠÑĩ Ð°Ðº
ĠÐ¡Ð¸ÑĢÐ¸ ÑĥÑģ
Ð»Ñı ÑİÑģÑĮ
ĠÐ·Ð°Ð¿ ÑĢÐµÑĤ
Ġ :
ĠÑĤÑĢÑĥ Ð¿
ÑĢÐ¾Ð² Ð°Ð»Ð°
Ð°Ð± Ð°ÑĤ
ĠÐ¿ Ð°Ñĩ
ĠÐ´ÑĭÑĪ Ð°
ĠÐº ÑĢÐ°Ñı
ĠÐľ Ð¾Ð¶ÐµÑĪÑĮ
ĠÐĴÑĭ Ñģ
ĠÑĤÑĢÑı Ð¿
ĠÐ·Ð°Ð¿ Ð°Ñģ
ĠÐ¿Ð¾Ð¼Ð¾Ð³ Ð°ÑĤÑĮ
ÑģÑĤÐ² Ð¾Ð²Ð°Ð»
Ġ1 0
Ð»Ð¸ Ð¹
ĠÐ·Ð°Ðº Ð¸
ĠÑģÐ´ÐµÐ» Ð°Ð²
ĠÐ»ÐµÐ½ Ð¸Ð²Ð¾
ĠÐºÐ»Ð°Ñģ ÑģÐ°
ÑģÑĤ Ð°Ð»
ĠÑĥ ÑģÑĤÑĥÐ¿
ĠÐº Ð¾Ðº
ĠÐ²Ð°ÑĪ ÐµÐ¹
Ð»Ñı ÑİÑĤÑģÑı
ĠÐ¼ÑĭÑģÐ»Ñı Ñħ
ĠÐ·Ð°Ð´ ÑĭÑħ
ĠÐ²Ð´ Ð²Ð¾
ÑĢÑĭ ÑĤÑĮ
Ñĥ ÑģÑĤÐ¸
ĠÑģÑĤ Ð°ÑĤ
ĠÑĥÐ¼ ÐµÐµÑĤ
ÐµÑĩ ÐºÑĥ
ĠÑĤÐ²Ð¾ Ñĳ
ÑĥÑĢ Ñģ
ĠÐ¿Ð¾Ð± Ð»Ð°Ð³Ð¾Ð´Ð°ÑĢ
ĠÐ»ÐµÐ¶ Ð°Ð»Ð¸
ĠÑĩÐµÑĢ Ð½ÑĭÐ¹
ĠÑģÐ¼ ÐµÐ»Ð¾
ĠÐ¿Ð¾ÑĩÑĥÐ²ÑģÑĤÐ² Ð¾Ð²Ð°ÑĤÑĮ
ĠÑĤÑĥ ÑĦ
ĠÐ¡Ðº Ð¾ÑĢÐ¾
ĠÐ·Ð°Ð¼ÐµÑĩ Ð°ÐµÑĤ
Ñį ÑĤÐ¾
ĠÑĢÐ°Ð·Ð²ÐµÑĢ Ð½ÑĥÐ»Ð°ÑģÑĮ
Ð£ Ð¶Ðµ
ĠÐ§ Ð¾Ð½Ð¸Ð½
ÐºÐ¸ Ð½ÑĥÐ»Ð°
Ð¸Ðº Ð°Ð¼
ĠÐ·Ð°Ð¼ ÑĥÐ¶
ĠÐ¿ÑĥÑģÑĤ Ð¾Ð¹
Ġ f
ÑģÑĤ Ð°ÑĢ
ĠÑĥÐ´Ð¸Ð² Ð¸ÑĤÐµÐ»ÑĮÐ½Ð¾
ĠÑĢÐ¸Ñģ ÑĥÐ½
Ðľ ÑĥÐ¶ÑĩÐ¸Ð½Ð°
ĠÑĥÐ½Ð¸Ð²ÐµÑĢ ÑģÐ¸ÑĤ
Ð´ Ð¾Ð½
ĠÐĶÑĢ Ð°Ð³
ĠÐ½Ð°Ð´ ÐµÐ»
ĠÐ¾Ð¿Ð°Ñģ Ð½Ð¾
ÐºÑĥ Ñĩ
ĠÐľ Ð¸ÑģÑĤÐµÑĢ
ĠÐ¶ Ð°Ð´Ð½Ð¾
ĠÑģÐ»ÐµÐ´ Ñĭ
ĠÐ¿ÑĢÐ¾Ð³ ÑĥÐ»
ĠÐĿ ÐµÐ¼Ð½Ð¾Ð³Ð¾
ĠÐ¿Ð»ÐµÑĩ Ð°
ĠÐ¸ Ð¼Ð¸
ĠÐļÐ¾ÑĢ Ð¾Ð»ÐµÐ²
Ð¼Ð¾Ñģ ÑĦ
ĠÐ³ÑĢ Ð¸Ð¼
ĠÐ¿ÑĢÐ¾ÑĪ ÑĳÐ»
ĠÐ´ÑĢ Ð¾Ð³
ĠÐ²ÑĭÐ¿ Ð¸ÑĤÑĮ
ĠÑĢÐ¾Ð´ Ð°
ÐµÐ¿ ÑĤÐ¸
ĠÐ¼ ÑĥÐ´
ĠÐ¾ÑģÑĤÐ°ÑĤ ÐºÐ¸
Ð½Ð¸Ð· Ñĥ
ĠÐ±Ð¾Ð»ÐµÐ· Ð½
Ð°Ð´ Ñĥ
ĠÐ±Ð¾Ð³ Ð°ÑĤ
ĠÑĤÐ¸ ÑĪÐµ
ĠÐ¶Ð´ Ð°Ð»Ð¸
ĠÐ½Ð°Ð¿ÑĢÐ°Ð² Ð»ÐµÐ½Ð¸Ð¸
ĠÐ²Ð¾Ð· ÑĢÐ°Ð¶
ĠÑĪ Ð¸Ð½Ð¾Ð±Ð¸
ÐµÑĤ Ð¾Ð¼
ĠÐ»Ð°Ð± Ð¾ÑĢÐ°
ĠÐ¸Ð½ÑģÑĤ Ð¸Ð½Ðº
ĠÐ½Ð¾Ð² ÑĭÑħ
ĠÑĥÑģÑĤ Ð°Ð»Ð°
ĠÐ¿ÑĢÐµÐ´ ÑģÑĤÐ¾Ñı
Ð½Ð° ÑĩÐ°Ð»
ĠÐ¿ÑĢÐ¸Ð¿Ð¾Ð´Ð½Ñı Ð»
ĠÐ¿ÑĢÐ¸Ð´ ÐµÑĢÐ¶
ĠÑģÐ¼ÐµÑħ Ð°
Ð¸Ð½ ÑģÑĤÐ²Ð¾
ĠÐľ Ð¸ÑģÑģ
ĠÐ¿ÐµÑĢÐµÐ½ Ð¾Ñģ
ĠÐĲ Ð³
Ð» Ð¾Ð³
Ð° ÑĪÐµ
ĠÐ³Ð»ÑĥÐ± Ð¶Ðµ
ĠÐ·Ð°Ðº Ð»Ð¸Ð½Ð°Ð½Ð¸Ðµ
ÐµÐ½Ð¸Ñı Ñħ
Ðº Ð°Ð»Ð¸
ÑĢ ÐµÑģÑģ
ĠÑħÐ¾Ð»Ð¾Ð´ Ð½Ð¾Ð¹
Ð°ÑĤ ÐµÐ»ÐµÐ¹
ĠÑĢÐ°Ð·Ð³Ð»ÑıÐ´ ÑĭÐ²Ð°Ñı
ĠÐ¾ÑĤÐ´ Ð°ÑĤÑĮ
Ð¸Ñģ Ð¿
ĠÑĥ ÐµÐ·Ð¶
ĠÐ¿Ð» Ð°Ð²Ð½Ð¾
ĠÐ·Ð°Ð¹ ÑĤÐ¸
ĠÐ·Ð°Ð¼ ÐµÑĪ
ÑĢÐ°ÑĤ Ð¸ÑĤÑĮ
ĠÐ¾ÑģÑĤÐ°Ð½Ð¾Ð² Ð¸ÑĤÑĮÑģÑı
ÑĢ ÐµÑģ
Ð½ ÑĳÑĤÑģÑı
Ñı Ð±
ĠÐ¾Ð¿ ÑĥÑģÐºÐ°
ĠÐ¿ÑĢÐ¸Ð´ÑĥÐ¼ Ð°ÑĤÑĮ
ĠÐ¿ÑĢÐ¾Ð²Ð¾Ð´ Ð¸ÑĤÑĮ
ĠÐ¢ ÑĢÐ¸
ĠÐºÑĢ ÐµÑģÑĤ
Ð°ÑĢ Ð´Ð°
ÑĢÐ¾Ð´ Ð¾Ð»Ð¶
ĠÐ¶ Ð¸Ð»Ð¸
ĠÐ¿ÐµÑĢÐµÐ± Ð¸Ð»
Ð¸ÑĤ ÑĭÐ¹
ĠÐ½Ðµ Ñħ
Ñį ÑĢÐ¸
ĠÐ± ÑĢÐ¾
ĠÐ¸ÑģÑĩÐµÐ· Ð»Ð°
ĠÐĵÐµÐ½ ÑĢÐ¸
ĠÐĲ Ð±
ĠÑĦÐ¸Ð»ÑĮ Ð¼
ĠÑĥÑģÐ¿Ð¾ÐºÐ¾ Ð¸ÑĤÑĮÑģÑı
ĠÐ¼Ð°Ðº ÑģÐ¸Ð¼
Ð¾Ð¶Ð¸Ð´Ð° Ð½Ð½Ð¾
ĠÐ¿Ð¾Ð´ Ð°Ð»
ĠÐ¿Ð¾ Ð¸ÑģÐº
ĠÐ¼ÐµÑĤ Ð°Ð»Ð»Ð¸
Ð¾Ð² ÑĭÑħ
ĠÐĶÐ°Ð¼Ð±Ð» Ð´Ð¾ÑĢ
ĠÐ¿ÑĢÐ¸ÑĤ ÑıÐ½ÑĥÐ»
ĠÑĢÐµÐ°Ð»ÑĮ Ð½Ð¾ÑģÑĤÑĮ
Ñī Ñĥ
ĠÑħ Ð¾ÑħÐ¾ÑĤ
ĠÐºÐ°Ð¶Ð´ Ð¾Ð¼
Ð½ Ð¾Ð¶
ĠÑĨÐµÐ½ÑĤ ÑĢ
ĠÑĥÑģÐ¿ ÐµÑħ
ĠÑĢÐ°ÑģÑģÐº Ð°Ð¶Ñĥ
ĠÐ¼ÐµÑģÑĤ Ñĥ
ĠÐ¾Ð± Ð¾ÑĪ
ĠÐ¿Ð¾Ð¼ Ð°Ñħ
ĠÐ²Ð¾Ð»Ð½Ñĥ Ð¹ÑģÑı
ĠÑģÐ¾Ð³ Ð»Ð°ÑĪ
ĠÐļ Ñİ
ĠÑĢÐµÐ°Ðº ÑĨÐ¸Ð¸
ĠÑĨÐ²ÐµÑĤ Ñĭ
ÑİÑī ÑĥÑİ
ĠÐ¿ÑĢÐ¸ ÑĩÐ¸Ð½Ð°
Ð½Ð¾Ð²Ð¾Ð»Ð¾Ñģ ÑĭÐ¹
ĠÑģ Ð¸ÑĢ
ĠÑģÐ¾Ð± ÑĢÐ°Ð»ÑģÑı
ÑĪ Ð¸Ð²
ĠÐ¾Ð¿ ÐµÑĢ
ĠÐ½Ð° ÑģÐº
ĠÐ½ÐµÐ±Ð¾Ð»ÑĮ ÑĪÑĥÑİ
ĠÐ¿ÐµÑĢ ÐµÑĩ
ĠÐļ Ð¾ÑĤ
ĠÐ¿Ð¾Ð´ ÑĥÑĪ
ĠÐ¾ÑĤ ÑĢÑıÐ´
ĠÑģÐ¸ÑģÑĤ ÐµÐ¼
ĠÐºÑĥ Ðº
ĠÑħ Ð¼ÑĥÑĢ
ĠÐŁÐ¾Ñĩ ÑĤÐ¸
ĠÑĥÐ± Ð»ÑİÐ´
ĠÑģÑİÑĢÐ¿ ÑĢÐ¸Ð·
ÑĢÐµ Ñı
ĠÑı Ñģ
Ð°ÑĤ ÐµÐ»Ð¸
ÐµÐ´ Ð»Ð¸Ð²Ð¾
ĠÑĤ Ð°Ð»Ð°
ĠÐĳ ÑĥÐ´ÑĮ
ĠÐ²Ð·Ð° Ð¸Ð¼
in g
Ð¾Ð³ Ð»Ð°Ñģ
ĠÐ¥ Ð¸Ð±Ð°ÑĢÐ¸
ĠÑģÐ» Ñİ
ĠÑĢÐ¾Ð¼Ð°Ð½ ÑĤÐ¸
ĠÐľÑį ÑĢÐ¸
ĠÑĤÐµÐ»ÐµÑĦ Ð¾Ð½Ð°
ĠÑĦÑĭÑĢ ÐºÐ½ÑĥÐ»Ð°
ĠÑĢ Ð¾ÑģÑĤ
Ð² ÐµÑĩ
ĠÐ¿Ð¾Ñģ Ð¸Ð´
ĠÐ¾ÑĤÑģÑĤÑĢÐ°Ð½ Ð¸Ð»ÑģÑı
ĠÐļÐ°Ðº Ð¸Ðµ
ĠÐ¼Ð°Ñħ Ð½ÑĥÐ»
ĠÐ·Ð°ÐºÑĢÐ¸ ÑĩÐ°Ð»
Ð¸ ÑĢÐ°ÑĤ
Ð¿ÐµÑĢÐ² ÑĭÑħ
ĠÐ¥ Ð°ÑĢ
ĠÐºÑĢÑĭÐ»ÑĮ Ñı
Ñĩ Ð°Ð²
ĠÐµÐ´Ð¸Ð½ ÑģÑĤÐ²ÐµÐ½Ð½Ð¾Ðµ
Ð» ÐµÐ²Ð°ÑĤÑĮ
ĠÐ³ ÑĥÐ´
ĠÑĢÐ°ÑģÑģÐ¼Ð°ÑĤÑĢÐ¸Ð² Ð°Ñı
ĠÐµ ÑģÑĤÐµÑģÑĤÐ²ÐµÐ½Ð½Ð¾
ĠÐ¿ÑĢÐ¸ ÐµÑħÐ°Ð»
Ð°Ð± ÐµÑĤ
ÑĤ ÐµÐ¹
ĠÐ½ÐµÐ½ Ð°Ð´Ð¾Ð»Ð³Ð¾
Ð± ÐµÑĢÑĤ
ĠÐ±ÐµÑģ Ð¿Ð¾Ð¼Ð¾Ñī
ĠÐ¿Ð¸Ñģ Ð°ÑĤÑĮ
Ð½ ÐµÐ»
ĠÑģÐ¼ Ð°Ð·
ĠÐ¥ ÑĮÑİ
h t
ĠÐĶÐ¶ ÑĥÐ½
ĠÐĲÐ»Ð¸ ÑģÐ°
ĠÐ§Ð°Ð½Ñĳ Ð»ÑĮ
ĠÐ»ÑİÐ±Ð¾Ð² ÑĮÑİ
ĠÑĤ ÑĢÐ¾Ðµ
ĠÑĥÐ»ÑĭÐ± Ð°Ð»Ð°ÑģÑĮ
Ð¿Ð¸ ÑģÑĮ
ÑģÐ¿ Ð¾Ð¼
ĠÐ¿Ð¾Ñħ Ð¾Ð¶Ð°
ÐºÑĥ Ð¿
ĠÐºÑĥÐ¿ Ð¸ÑĤÑĮ
ĠÑģ ÑįÑĢ
ĠÐº Ð¸Ð½
ĠÐ¾ÑĩÐµÐ² Ð¸Ð´Ð½Ð¾
ĠÐºÐ° ÑĩÐµÑģÑĤÐ²Ðµ
ÐµÐ³Ð¾ Ð½ÑĮ
ĠÐĽÑĥÑħ Ð°Ð½
ĠÐ·Ð²ÑĥÑĩ Ð¸ÑĤ
ĠÐ§ ÑĳÑĢÑĤ
ĠÐ·Ð°ÑīÐ¸ÑĤ Ð¸ÑĤÑĮ
ĠÐ½ÐµÐ» ÐµÐ¿
ĠÐĿ Ð°ÑĪ
ĠÑĢÑĥ Ñĩ
Ð»ÐµÐ½ Ð½Ð°Ñı
Ð»Ð¸Ð² ÑĭÐ¼
Ð» Ð¸Ð»Ð°
ÑģÐ¸ Ñİ
ĠÐ½ÐµÐ²Ð¾Ð·Ð¼ ÑĥÑĤ
ĠÑģÑħÐ²Ð°ÑĤ Ð¸Ð²
ĠÐ¿ÐµÑĢÐ² Ð¾Ð¼
ĠÐ¶ÐµÑģÑĤ Ð¾Ðº
Ñı ÐµÑĤÑģÑı
ĠÐ²Ñģ ÐºÐ¾ÑĩÐ¸Ð»
Ð¸Ð½ ÑĤ
ĠÑĥ ÐºÑĥÑģ
ĠÑģÑĤÑĢ Ð¾Ð¹
ĠÐ²Ñĭ Ð³Ð»Ñı
ĠÑĥÑħ Ð°
ĠÐ¾Ð´Ð¸Ð½Ð¾ ÑĩÐµÑģÑĤÐ²Ðµ
ĠÐ§ ÑĥÐ²ÑģÑĤÐ²
ĠÑģÐ¾Ð² Ð¼ÐµÑģÑĤ
ĠÐ¾Ð³ Ð½
ĠÐ´ÐµÐ¹ÑģÑĤÐ² Ð¸Ð¹
ĠÐ¿ÑĢÐ¸ ÑĩÐµÐ¼
ÐĶ ÑĢ
ÐºÐ¾ÑĢ ÐµÐµ
ĠÐ¾Ñĩ Ð°ÑĢÐ¾Ð²
ĠÑģÐµÐº Ñģ
ĠÐ¿Ð¾Ðº Ð¸Ð´
ĠÐ½Ð° ÑģÑĤÐ°Ð²
Ð½Ð° Ñģ
ĠÐ·Ð½Ð° ÐµÐ¼
ĠÑģ ÑħÐ¾Ð´Ð¸ÑĤÑĮ
................ ................
ĠÐ½ÐµÐ´ Ð¾Ð²ÐµÑĢ
ĠÐ½ÐµÐ´ Ð°Ð»ÐµÐºÐ¾
ĠÐ² Ð°ÑĢ
ĠÐ¿Ð¾Ð´ Ð¾ÐºÐ¾Ð½
ĠÐĿ ÐµÑģÐºÐ¾Ð»ÑĮÐºÐ¾
ĠÐĵÐ»Ð°Ð² Ð½Ð¾Ðµ
ĠÐ¼ Ð°Ð½Ð¸
ĠÐ´ ÐµÐº
Ð¡ ÐµÐ³Ð¾Ð´Ð½Ñı
Ð¸ Ð½Ð¸
ĠÐ² ÐµÐ½
ĠÐ±ÐµÐ» ÑĭÐµ
ĠÑĦÐ¾ÑĢ Ð¼Ðµ
ÐµÐ³Ð¾Ð½ÑĮ ÐºÐ¾
ĠÐ¾ÑģÐº Ð¾ÑĢÐ±
ĠÑģÐ² ÑıÐ·Ð°
Ð¸Ð» Ðµ
Ñĥ ÑıÑģÑĮ
ĠÐ²ÐµÑĢ Ð¸Ð»
ĠÑģÐ¿ÑĢÐ°Ð² Ð¸ÑĤÑĮÑģÑı
ĠÐ± Ð¾Ð¶Ðµ
ÑĢÐ° Ð½Ðµ
ĠÑĥÐ² Ð»ÐµÑĩ
ÐºÐ¸ Ð½
ÐµÐ» Ð»Ð°
ĠÐ²Ð°Ð¼Ð¿ Ð¸ÑĢÐ°
ĠÐĴ Ð°ÑĪ
ÐµÐ»Ð¸ Ñı
ĠÑģÑĤÐ° ÑĢÐ°ÑĤ
ĠÐ¼Ð½ ÐµÐ½Ð¸Ðµ
ĠÐµ Ð´Ñĭ
Ð½ÐµÑģ Ð»Ð°
o m
ĠÑĤÑıÐ¶ Ñĳ
ÑİÑī Ð¸Ð¼
ĠÐ·Ð°ÐºÑĢÑĭÐ² Ð°Ñı
ĠÐ·Ð°Ð² ÐµÐ´
ÑĢÐ° ÑĦÐ¸
ĠÐ¿Ð¾Ð¿ Ð°Ð»Ð°
ĠÐ½Ð°Ð· ÑĭÐ²Ð°ÑĤÑĮ
ĠÐ¿ÑĢÐ¾ÑģÑĤÑĢÐ°Ð½ ÑģÑĤÐ²Ð¾
ĠÐ¾Ñģ Ð»ÐµÐ¿
ĠÐ¿ÑĢÐ¸Ð½ ÑĨÐ°
ĠÑĦÐ°Ð½ÑĤ Ð°Ð·
ĠÑĥÑĤ ÑĢÐµÐ½
ĠÐ±ÑĥÐ´Ñĥ ÑīÐµÐµ
ĠÐ·Ð°Ð¿ ÐµÑĢ
ĠÑģ Ð°Ð¿
ĠÑĢÐ°Ð·Ð¼ Ð°Ñħ
ĠÑĢÐ°ÑģÑĤ Ñı
ĠÑģÐ»Ð¾Ð² Ð°Ð¼
ĠÐ¸Ð´Ðµ Ð°Ð»ÑĮÐ½Ð¾
ĠÐ´Ð¾Ð± ÑĢÐ°ÑĤÑĮÑģÑı
ĠÐ½ÐµÐºÐ¾ÑĤÐ¾ ÑĢÑĭÑħ
ĠÐ¾Ð± ÑĢÑĭÐ²
ĠÐ¸Ð·Ð¼ ÐµÐ½Ð¸ÑĤÑĮ
ĠÐ½ÐµÐ´ ÐµÐ»ÑĮ
ĠÐ´ÐµÐ» Ð°Ð»Ð¸
ĠÐ¿ÑĢÐ¾Ð´Ð¾Ð»Ð¶ Ð°ÑĤÑĮ
Ð°Ð»ÑĮ Ð½Ð¾Ð¼
ĠÐ¿Ð¾Ð´Ð¾Ð·ÑĢ Ð¸ÑĤÐµÐ»ÑĮÐ½Ð¾
ĠÐł Ð¸Ð½
ĠÐ¾Ð¿Ð°Ñģ Ð½Ð¾ÑģÑĤÐ¸
ÑĥÐ¼ Ð½Ð¾
ĠÑĤÐ¾Ð½ ÐºÐ¸Ðµ
ĠÐ¿Ð¾ Ñī
Ñģ Ð°Ð¼Ð°
ĠÐł Ð°ÑĦ
ĠÐ¾Ð³ Ð»ÑĥÑĪ
ÑĪÐ¸ Ð½Ð°
Ð¾Ð» ÐµÐµ
ĠÑĤÐ°Ð± Ð»ÐµÑĤ
ÐµÐ»Ð¾ Ðµ
Ð°Ð² ÑĪÐ¸Ðµ
ĠÑıÑĢÐ¾ ÑģÑĤÐ¸
ÑĤÐ¾ ÑıÑĤÑĮ
ĠÐĲÐ½ Ð´ÐµÑĢ
ĠÐ² Ð»ÐµÑĤ
ĠÐºÐ¾Ð½ÑĤÑĢ Ð¾Ð»ÑĮ
ĠÐ¶Ð¸Ð² Ð¾Ð¹
ĠÐ¿Ð¾Ð· Ð´ÑĢÐ°Ð²
ĠÐ½Ð¾Ð² Ð°Ñı
ĠÐ½Ð°Ð¿ÑĢÐ°Ð² Ð¸Ð»Ð¸ÑģÑĮ
ĠÐĴ ÑĢÐ¾Ð´Ðµ
ĠÐ¾ÑīÑĥÑī Ð°Ñı
ĠÑĥÐ¼ Ð¾Ð»Ñı
ĠÐ±ÑĥÑĢ ÐºÐ½ÑĥÐ»
ĠÐ¿ÑĢÐ¸Ð´ Ð°Ð²
ÑĤÐ¾ÑĢ Ð¾Ð¼
ĠÐ¿Ð¾Ð´ ÑħÐ²Ð°ÑĤÐ¸Ð»
ÐµÑĢÑĮ Ñİ
Ð½ÑĥÑĤ ÑĭÐ¹
ĠÐºÐ¾Ð» Ð¸
ĠÐ´Ð¾Ð±Ð°Ð² Ð¸Ð»Ð°
ĠÐ° Ñħ
ĠÑĢÐ°Ñģ ÑģÐ¿
ĠÐ·Ð°Ð¼ÐµÑĤ Ð¸Ð»Ð¸
ĠÐ²Ð¾Ð¿ÑĢÐ¾Ñģ Ð¾Ð¼
ĠÐ´ Ðµ
ĠÑĪÑĥÑĤ ÐºÑĥ
ĠÐ·Ð° ÑĨÐµÐ¿
ĠÐºÑĥÐ» Ð°ÐºÐ¾Ð¼
ĠÐ²ÐµÑĢ Ð½ÑĥÑģÑĮ
ĠÐĺ Ð´
ÑİÑī Ð°Ñı
ĠÐ±Ð¾Ð»ÑĮ Ð½Ð¸ÑĨÐµ
ĠÐ·Ð° Ð¾ÑĢ
ĠÐ³ÑĢÐ¾Ð¼ ÐºÐ¸Ð¹
ĠÐ¿Ð°ÑĢ Ðº
ĠÐ²Ð· Ð¾ÑĢÐ²
ĠÐ¿Ð¾ÑıÐ² Ð»ÑıÐµÑĤÑģÑı
ĠÐ» ÑĥÐº
ĠÑģÐ¿ Ð»ÐµÑĤ
ĠÐ±Ð» ÐµÑģ
ĠÐ¿Ð¾Ð¿ ÑĢÐ¾ÑģÐ¸ÑĤÑĮ
ĠÐŁÑĢÐ¸ Ð·
ĠÐ¾Ð¿ÑĢÐµÐ´ÐµÐ» ÐµÐ½Ð½Ð¾
ĠÑĤÐµÐ¼ Ð½ÑĭÐµ
ĠÐ´ Ð½ÐµÐ²
ĠÐ¶Ð¸Ð²Ð¾ÑĤ Ð°
ĠÐĿ Ðķ
ĠÑģÐ»ÐµÐ· Ð°Ð¼Ð¸
ĠÐ¡Ð¿ Ð¾ÐºÐ¾Ð¹
ĠÑĥÐº ÑĢÑĭ
ĠÐ¢ ÑĢ
ĠÐ¸Ð· ÑĢÐµÐ´ÐºÐ°
ĠÑģ Ñħ
ĠÐ¼ÑĥÐ¶ÑĩÐ¸ Ð½Ðµ
ĠÐºÑĢÐ¸ ÑĩÐ°Ð»Ð°
ĠÐŁÐ¾Ð¹Ð´ ÐµÐ¼
ĠÐ»ÐµÐ¶ Ð°Ñī
ĠÑģÐ»Ð¾Ð¶ Ð¸Ð²
ÐµÑĢ Ð¸Ð½
ĠÐ·Ð°ÑģÑĤÐ°Ð² Ð¸Ð»Ð¾
ĠÐ½Ð°ÑħÐ¾Ð´ Ð¸Ð»Ð°ÑģÑĮ
ĠÐ½Ð°Ð²ÐµÑĢ Ð½Ð¾
ĠÑģÐ¾Ð±ÑģÑĤÐ²ÐµÐ½ Ð½Ð¾Ð³Ð¾
ÐĶÐ¶ Ð¾Ð½
Ð¸Ð² Ð°ÐµÐ¼
Ð¾ÑĢ Ð³
ĠÑĥÐ² ÐµÐ»Ð¸
ĠÐ¿Ð¾Ð»Ð¸ ÑĨÐµÐ¹
ĠÑģ Ð°Ð½ÑĤ
ĠÐ¿Ð¾Ð¼ Ð½Ð¸ÑĤ
ĠÐ¿Ð¾ÑģÐ»ÐµÐ´ Ð¾Ð²Ð°Ð»
ĠÐ¸Ð³ ÑĢÑĥ
ÑĥÐ»Ñı ÑĢ
ÑĢÑı Ð´Ð°
ÐµÑĤ ÐºÑĥ
ĠÐ¿ ÑĥÑħ
ÑĥÐ· Ñĥ
ĠÐ¿Ð¾Ðº Ð»Ð¾Ð½
ĠÐ²Ð·Ð³Ð»Ñı Ð½ÑĥÐ²
ÑģÑĤÐ²ÐµÐ½ Ð½ÑĭÐ¼
Ð¥ Ð¾ÑĤ
ĠÐ·Ð°Ð² Ð¸Ð´
ĠÐ²ÑģÑĤÑĢÐµÑĤ Ð¸Ð»Ð¸ÑģÑĮ
Ð´Ðµ ÑģÑıÑĤ
ÑĥÑĤ Ð°
Ð»Ñı Ð»Ð¸ÑģÑĮ
ĠÐĳÐµÐ» Ð»Ð°
ĠÐ¿ÑĢÐ¾ Ð½ÐµÑģ
ĠÐ´ÐµÐ¹ÑģÑĤÐ² Ð¾Ð²Ð°ÑĤÑĮ
ĠÐ¾ÑĤÐ¿ÑĢÐ°Ð² Ð¸Ð»Ð¸ÑģÑĮ
ĠÐ³Ð»ÑĥÐ± Ð¸Ð½Ðµ
Ð´ Ð²Ð°
ĠÑĪÑĥÐ¼ Ð½Ð¾
ĠÑĢÐ°Ð´ Ð¾ÑģÑĤÑĮÑİ
ĠÐĴÑģ ÐµÐ³Ð¾
ĠÑģÐ» Ñĭ
ĠÐ·Ð° ÑĪÐ»Ð¸
ĠÑĤÐ°ÑĢÐµÐ» ÐºÑĥ
ĠÐ¿Ð¾ÑĨÐµÐ» ÑĥÑı
ĠÐ¾ÑĤÐ² ÑĢÐ°Ñī
ĠÐ³Ð¾ÑĤÐ¾Ð² Ð¸ÑĤÑĮ
ĠÑģÐ¼Ð¾ÑĤÑĢÑı ÑĤ
Ð¢ Ð¾ÑĤ
Ð¸Ð» Ð¾Ð¼
ĠÑģÐ¾Ð¼ Ð½ÐµÐ½Ð¸Ñı
Ð¾ÑĢ Ð¾Ð½
Ðľ ÐµÐ½Ñı
Ñı Ðº
ĠÐ·Ð°Ð¼ ÐºÐ°
ĠÐ¿ÑĢÐ¾Ð±Ð¾ÑĢÐ¼Ð¾ÑĤ Ð°Ð»Ð°
ĠÑĢÐ°Ð·Ð´ Ð°Ð²
ĠÐ± ÑĢÐ¾Ð´
ĠÑıÐ³ Ð¾Ð´Ð¸
ĠÑĩÑĥÐ¶ Ð¾Ð¹
ĠÑģ ÐµÐ»Ð¸
ĠÑĩÑĥÐ²ÑģÑĤÐ² ÑĥÐµÑĪÑĮ
ĠÐ·Ð°ÑģÑĤÐ°Ð² Ð¸Ð»Ð°
Ñĩ Ð½ÑĥÑİ
Ð´Ð° ÑıÑģÑĮ
ĠÐľ Ð¾Ð»Ð¾Ð´
ĠÑĢ ÑĤÐ¾Ð¼
ĠÐ·Ð°ÐºÐ°ÑĤ Ð¸Ð»
ÐĴ Ð´ÑĢÑĥÐ³
ĠÐ¡ ÑĭÐ½
ĠÐ¿ÐµÑģ Ð½Ð¸
ĠÑįÐº ÑĢÐ°Ð½
ĠÐ¿Ð¾ ÑĪÐ»Ð¾
ĠÑĢÐ°Ñģ Ñħ
ĠÐŃÐ» Ð»Ð¸
ĠÐ¿ÐµÑĢÐµÐ³Ð»Ñı Ð½ÑĥÐ»Ð¸ÑģÑĮ
ĠÐ·Ð°Ð¼Ð¾Ð» ÑĩÐ°Ð»
ĠÐ² Ð¶
Ð¸Ð² ÑĪÐµÐ³Ð¾ÑģÑı
ĠÐ±ÑĢÐ¾Ñģ Ð¸Ð»ÑģÑı
ĠÐ¢Ð°Ðº Ð¾Ðµ
ĠÐ¡ Ð¸Ð´
ĠÐ·Ð°ÑĤÑĭ Ð»
Ð½Ñı Ð¼Ð¸
ĠÑħÐ¾ÑĢÐ¾ÑĪ Ð°Ñı
ÐĿ Ð°ÑĢÑĥÑĤÐ¾
ĠÐ¾Ð´ÐµÑıÐ» Ð¾Ð¼
Ñģ ÐµÑģÑĤ
ĠÐ» Ð¾Ð³
ÑĢÐ° Ð½Ð¸Ñĩ
ĠÑĤÐµÑĢ ÑıÑĤÑĮ
ĠÐ¿ÐµÑĢÐµÐ² ÐµÐ»
ÐµÑĢ Ð¸Ð¼
ĠÑĢ Ð¶
Ð¾Ð¹ Ð´Ñĥ
ĠÐ¿ÑĢÐ¾Ðº ÑĢÐ¸
ĠÑĢÐ°Ð·Ð´ÑĢÐ°Ð¶ ÐµÐ½Ð½Ð¾
Ð¸ÑĢÐ° ÐµÑĤÑģÑı
ĠÐ¿Ð¾Ð·Ð½Ð°ÐºÐ¾Ð¼ Ð¸ÑĤÑĮÑģÑı
ĠÐ¿ÑĢÐ¾Ð¿ Ð°Ð´
ĠÑĩ ÐµÐ¹
ĠÐ¾Ð±ÑĢÐ°ÑĤ Ð¸Ð»
Ġt he
ĠÐ·Ð» Ð¾Ð±
ÑģÐº Ð°Ð·Ð°Ð»Ð°
ĠÑģÐ»Ð°Ð´ ÐºÐ¾
ĠÐ» ÐµÐ³Ð¾Ð½ÑĮÐºÐ¾
ĠÐ´ÑĥÑĢÐ° ÑĨ
ĠÐ¿ Ð°Ð½
Ðľ Ð°ÑĢ
Ð¾Ð½ÑĮ ÐºÑĥ
ĠÑĢÐ°Ð· Ð½Ð¸ÑĨÐ°
ĠÐĹÐ½Ð° Ñİ
ĠÐ±ÐµÑģÐºÐ¾ Ð½Ðµ
ĠÐ¿ÑĢÐ¾ÑĨ ÐµÐ´
Ðĵ Ð´Ðµ
ĠÐ¾ÑĤÐ²ÐµÑĢ Ð½ÑĥÐ»Ð°ÑģÑĮ
ÑĢÐ° Ð½ÐµÐµ
ĠÐ¶Ð¸Ð²Ð¾ÑĤ Ðµ
ĠÑģÐ¾Ð±Ñĭ ÑĤÐ¸Ñı
ĠÐ¿Ð¾ÐºÐ¸ Ð½ÑĥÑĤÑĮ
ĠÐ¾Ð±Ð½Ñı ÑĤÑĮ
ĠÐ¿Ð¾ÐºÐ¸ Ð½ÑĥÐ»
Ñį Ð´
ĠÐ¾ÑĤÐºÑĢÐ¾Ð² ÐµÐ½Ð½Ð¾
ĠÐ·Ð°Ð¼ÐµÑĢ Ð»Ð°
ĠÐ¼ÑĥÑĢÐ°ÑĪ ÐºÐ¸
ĠÐ¿Ð¾Ð½Ñı Ð²
ĠÐĳ Ð»Ð¾Ð½Ð´Ð¸Ð½
ĠÐĽÑİ Ð´Ð¸
ĠÐ¿ÑĢÐ¾Ñģ Ð»ÐµÐ´
ĠÐ·Ð°ÐºÑĢÐ¸ ÑĩÐ°Ð»Ð°
Ð¼ ÐµÐ¹
ĠÐ´Ð²Ð¾ÑĢ ÐµÑĨ
ĠÑģ ÑĦ
ĠÑģÑĤ Ð°Ð½Ñĥ
ĠÐ¿Ð¾Ð´Ð½Ð¸Ð¼ Ð°ÐµÑĤ
ĠÑĥÐ»Ð¸ ÑĨÑĭ
Ð¸ ÑĩÐ¸
Ġ 4
ĠÐ½ÐµÐ· Ð°Ð¼
Ð¾Ð¼ ÐµÑĢ
ĠÐ¿Ð¾Ð¼Ð¾ÑĢÑī Ð¸Ð»ÑģÑı
ĠÐ¿ÑĢÐ¾Ð¸Ð·Ð¾ÑĪ ÐµÐ´
ĠÐĲÐ´ Ð°Ð¼
ĠÐĳ Ð»Ð¸Ð½
ĠÑĤÐ°Ðº Ð¾Ð¼Ñĥ
ĠÑģÑĤÑĢ Ð¾Ð³
Ð³ Ð°Ð½
Ð¸ÑĤÐµÐ»ÑĮ Ð½Ð°Ñı
ĠÑģÑĤÐ¾ ÑıÐ²
Ð» ÐµÑģÑĤ
ĠÑģÐ¼ÐµÑħ Ð¾Ð¼
ÑĤÑĥ ÑĢÐ°
ĠÑģÐ¾Ð· Ð½Ð°
ĠÐ¿Ð¾Ð¹Ð¼ Ð°Ð»
ĠÐ¾Ð±ÑĬÑıÑĤÐ¸ Ð¹
ÑģÑĤ Ð°Ð½
ĠÐĳÑĥÐ´ ÑĤÐ¾
ĠÐ¢ Ð¾Ñĩ
ĠÑĢÑĭÐ¶ ÐµÐ²
ĠÐ½Ð°Ð´ÐµÐ¶ Ð´Ñĭ
ĠÐ¿Ð»Ð° Ñĩ
ĠÐ·Ð° ÑĢÐ°Ð½ÐµÐµ
Ð¾Ð´ Ð¸Ð»
ĠÐ¿ÑĢÐµÐº ÑĢÐ°Ñī
ĠÐ²ÑĭÐ¹ Ð´ÐµÑĤ
ĠÐ² ÐµÐºÐ¸
ĠÐ´ Ð¾Ð·
Ñĩ ÐµÑĢ
ĠÑģ ÑĨ
ĠÐ¸Ð·Ð² ÑĢÐ°Ñī
ĠÐ³ÑĢÑĥ Ð·
ĠÐ²ÑĭÐº ÑĢÐ¸
ĠÐºÐ¾ÑĢ Ð¿
ĠÐ¿ÑĢÐ¾Ñī ÐµÐ½Ð¸Ñı
ĠÑģÐ¿Ð¾ÐºÐ¾Ð¹ Ð½ÑĭÐ¼
ĠÐ²Ñĭ ÑĢÐ¾Ñģ
ĠÑģÐ¸Ð³Ð°ÑĢ ÐµÑĤÑĥ
ĠÐŀ Ð»Ð¸
Ð² ÐµÐ´
ĠÐ½Ð°Ðº Ð»Ð¾Ð½
ĠÐ¿Ð¾Ð¹Ð´ ÐµÑĤ
ÑĤÐ¸ Ð¸
ÐĵÐµÑĢ Ð¼Ð¸
ĠÑģÐ¾Ñĩ ÑĥÐ²ÑģÑĤÐ²
ĠÐ¿Ð¾Ð´Ð¾ÑĪ Ð»Ð¸
ĠÑģÑĭ Ð³
ĠÐ½Ð°Ñĩ Ð°Ð»Ð¾ÑģÑĮ
Ð¿Ð¾Ð´ Ð½Ð¸Ð¼
ĠÐĲÐ½ Ð´ÑĢÐµÐ¹
ÑĮ Ð¸
Ð¾Ð· Ð½Ð°Ñĩ
ĠÐ´Ð¾Ñģ ÑĤÐ¾
ĠÐ¿Ð¾Ð´Ð½Ð¸Ð¼ Ð°ÑıÑģÑĮ
ĠÐ²Ð½Ñĥ ÑĪ
ĠÑģÑĤÐ°ÑĢÐ°ÑĤ ÐµÐ»ÑĮÐ½Ð¾
Ð°ÑİÑīÐµÐ³Ð¾ ÑģÑı
ĠÐ¿ÑĢÐ¾Ð³ ÑĥÐ»Ñı
ĠÐĴ Ð¾Ñģ
ĠÐ²ÑģÐ¿Ð¾Ð¼Ð¸Ð½Ð° ÑĤÑĮ
ĠÐ·Ð´Ð¾ÑĢÐ¾Ð² Ð¾
ĠÑģÐ»Ñĭ ÑĪÐ¸ÑĪÑĮ
ĠÐ°ÑĤ Ð¼Ð¾ÑģÑĦ
ĠÐ¼Ð¸ÑĢ Ð½Ð¾
ĠÐ¼Ð°Ð» ÐµÐ¹
ÑģÑĤÐ²ÐµÐ½ Ð½Ð¾Ð¹
ĠÐ±Ð¾Ð» Ð¸ÑĤ
ĠÑĢÑĥÐ±Ð°ÑĪ ÐºÐ¸
ĠÐ¾ÑģÑĤ Ð°
ĠÑģÐ² ÐµÑĩ
Ð¾ÑĤ Ð¾Ð²
ĠÐĺ Ð½Ð°ÑĩÐµ
ÑĢÐ¾Ñģ Ð¸Ð²
ĠÑĤÐµÑĢÐ¿ ÐµÐ»
ĠÐ´ÑĥÑħ Ð¾Ð²
ĠÐ·Ð°ÐºÐ¾Ð½Ñĩ Ð¸ÑĤÑģÑı
ĠÐ¿Ð¾Ð² Ð°Ð»
ÑģÑĤ Ð¾Ð¹
ĠÐ±Ð¾ ÐµÐ²
Ð³ ÑĥÐº
ĠÐ¾Ð±Ð½Ð°ÑĢÑĥÐ¶ Ð¸Ð»
ÐºÐ¾ ÑĤÐ¾
Ð» ÐµÐ½Ð¸Ð¹
ĠÐ¿Ð¾Ð´ ÑģÑĤÐ°Ð²
ĠÐ¸Ð· ÑıÑī
a s
ĠÐ¸Ð·Ð¼ÐµÐ½ Ð¸Ð»ÑģÑı
ĠÐ¿Ð»Ð°ÑĤÑĮ Ñı
ĠÐĶ ÑĢÑĥÐ³
ĠÐ¡ ÐµÐ»
ĠÐ½ÐµÐ½ ÑĥÐ¶
ÑĢÐ° ÑĩÐ½Ð¾
Ð¾ÑĤ Ðµ
Ð°Ð¼ Ðµ
ĠÑģÐ¶ Ð°Ð²
ĠÑģÐ¾Ð³Ð»Ð°Ñģ ÐµÐ½
ĠÐ¿Ð¾Ðº Ð¾Ð¹
ĠÑģÐ¿ ÑĥÑģÐºÐ°
ĠÐ¼Ð°Ð»ÐµÐ½ÑĮ ÐºÐ¾Ð³Ð¾
ĠÐł Ð°Ð½ÑĮÑĪÐµ
ĠÐ¿ÑĢÐ°Ð² Ð¸Ð»Ð°
ĠÐĳÐ» ÑįÐº
ĠÐ²ÑģÑĤÑĢÐµÑĩ Ð°ÑĤÑĮÑģÑı
ĠÑĦÐ¸Ð· Ð¸ÑĩÐµÑģ
ĠÐ´Ð¾ÑĤ ÑĢÐ¾
Ð¾Ð² Ð°Ð»Ð¸ÑģÑĮ
ĠÑĩ Ð°Ñı
ĠÐ¡ Ð¼ÐµÑĢ
ĠÐĽ Ð¾ÑĢÐ´
ĠÐ¾Ð± Ð»Ð¾ÐºÐ¾ÑĤ
ĠÑĪ ÐµÐ²ÐµÐ»
ĠÐ¶ÐµÑģÑĤ Ð¾Ð¼
ĠÑģÑĤÑĥÐ¿ ÐµÐ½ÑĮ
Ð½ÑĥÑĤ Ð¾Ð¹
ĠÐĶ Ð°Ð½
ĠÐ²Ð¾ÑģÐ¿Ð¾Ð¼Ð¸Ð½Ð° Ð½Ð¸Ð¹
ĠÑĤÑĢÐ¸Ð´ÑĨ Ð°ÑĤÑĮ
Ð³ Ð¾Ð²Ð¾ÑĢ
Ð½Ñĭ ÑĪ
ĠÐ¼Ð°Ð³ Ð¸Ñı
ĠÐ¿Ð»Ñİ Ñħ
ĠÐŁÐ¾Ñģ Ð¼Ð¾ÑĤÑĢ
Ð¾ÑĢ ÑĤÐ°
ĠÐ±ÑĭÐ² Ð°Ð»Ð¾
ĠÐł Ð°Ð´
ĠÑģÑĤÑĢÐ°Ð½ Ð½ÑĭÐµ
ĠÐ¾Ð´ Ð¾Ð±ÑĢ
ĠÐĶÐ¾Ð± ÑĢÐ¾Ðµ
ĠÐ°ÑĢ Ð¼Ð¸
Ð°Ðº Ñģ
Ð¸Ð² Ð°ÑİÑģÑĮ
ĠÐ²ÑĢÐ°Ð³ Ð°
Ð² ÑĤÐ¾
Ðº ÑĢÐµÑĤ
ÑĢÐ¾Ñģ Ð°ÐºÐ¸
ĠÐ¿ÑĢÐ¸Ðº Ð°Ð·Ð°Ð»
ĠÐ±ÐµÐ· Ð·
ĠÐ½Ðµ Ð¾ÑĤ
ĠÐ¿Ð¾Ð·Ð²Ð¾ Ð½Ð¸ÑĤÑĮ
ĠÐ´ÑĢÐ°ÐºÐ¾ Ð½Ð°
ĠÐ½ÐµÐ´ Ð¾Ð»Ð³Ð¾
ĠÐºÐ¾Ð» Ð»ÐµÐ³
ÑĩÐ¸ ÐºÐ¾Ð¼
ĠÐ±ÐµÑģÑģ Ð¼ÑĭÑģ
ĠÐŃ Ñħ
ĠÐ¿ Ð°ÑĤ
ÐµÑĢ Ð¿ÐµÐ»
Ġ n
ĠÑĤÑĢÐµÐ² Ð¾Ð¶
ĠÐ»Ð¸ Ñħ
ĠÐ·Ð°ÐºÑĢÑĭ ÑĤÑĮ
ĠÐŀÑĤ Ð²ÐµÑĤ
ĠÐ¿ÑĢÐ¸Ð· Ð½Ð°Ð²
ĠÐ¼Ð°Ñģ Ñģ
Ð°ÑİÑīÐ¸Ð¹ ÑģÑı
ĠÐ¿Ð¾ÑĤÑı Ð½ÑĥÐ»Ð°ÑģÑĮ
ÑģÑĤ ÑģÑı
ĠÐ¿Ð¾ÑħÐ¾Ð¶ Ð¸
ĠÑģÐ²ÐµÑĤ Ð»Ð¾
ĠÐ½Ðµ Ð¾Ð¿
ĠÑĢÐ°ÑģÐ¿ Ð¾Ð»Ð°Ð³
Ð½ÑĥÑĤ ÑĭÐµ
ĠÑģÐºÐ¾ÑĢÐ¾ ÑģÑĤÑĮÑİ
ĠÐ±Ð¾ Ñı
ĠÐ²Ð¸Ð½Ð¾Ð² Ð°ÑĤÐ¾
Ð½Ð¸Ñĩ Ð°ÑĤÑĮ
ĠÐ¿ÑĢÐ¾ÑĤÐ¸Ð² Ð½Ð¸ÐºÐ°
ĠÐ¿Ð¾Ð· Ð²Ð¾Ð½
Ð´Ð° Ñİ
ĠÑħ ÑĢÐµÐ½
ĠÐ·Ð°Ð± ÑĢÐ°Ð»
ĠÑĤÐ¾Ð» ÐºÐ¾Ð¼
ĠÑģÑĥ ÑĢÐ¾Ð²
Ð½Ñı ÐµÑĤ
ĠÑĢÐ°ÑģÑģ Ð²ÐµÑĤ
ĠÐ¿ÑĢÐ¸Ð´Ñĥ ÑĢÐ¾Ðº
ÑĦ Ð°Ð»ÑĮ
ÑĢÑĥ Ð½
ĠÑģÐ¾Ð¾Ð± ÑĢÐ°Ð·
ĠÑĥÐ´ Ð°Ð²
ĠÐºÑĥÑĩ Ñĥ
Ð»ÐµÐ½Ð½Ð¾ Ðµ
ĠÐ´ÑĢ Ð°Ð³Ð¾
ĠÐ¿ÐµÑģ Ð½Ñİ
Ðº Ð½ÑĥÐ»Ð¾
ĠÐ¼Ð°Ð¼ Ñĥ
ĠÑĢÐ°Ð·Ð¼ ÐµÑĢ
ĠÐºÑĢÐ°Ñģ Ð½ÑĭÐµ
ĠÐ¥ Ð°ÑĢÑĤÑĦ
Ð¿ Ð¾Ð½
Ð¸Ð² Ð½Ð¾
ĠÐĿ ÑĮÑİ
ĠÐ¿Ð¾Ð¿ ÑĥÑĤ
ĠÐ±Ð¾Ð»ÑĮ Ð½Ð¸ÑĨÑĥ
Ð¾Ð³ ÑĢÐ°ÑĦÐ¸
ĠÐ¿Ð»Ð°Ð¼ Ñı
ĠÐ¿Ð¾Ðº Ð¾Ñı
ĠÐ¿Ð¾ Ð½Ð¸
ĠÐ²Ð¿ÑĢÐ°Ð² Ð´Ñĥ
ĠÐºÑĢ Ð¸Ð²
ĠÐ±ÐµÐ» Ð¾Ð¹
ĠÐ²Ð¾ÑĪ Ð»Ð¸
Ð¾ÑĢ Ð¾Ðº
ĠÐŀÐ± ÑĭÑĩÐ½Ð¾
ĠÐ¿Ð¾Ð½ÑĢÐ°Ð² Ð¸ÑĤÑģÑı
ĠÐ¿ÑĢÐ¸Ðº Ð°Ñģ
ÐºÐ¾ ÑĪ
ĠÐ¿ÑĢÐ¸Ð·Ð½Ð° ÑĤÑĮÑģÑı
ĠÐ¿ÑĢÐ°Ð² Ð¾Ð¹
Ð¸ÑĢÐ¾Ð² Ð°Ð»Ð°
ĠÐ³Ð¾Ð´ Ñĥ
ĠÐ¸Ð·Ð² Ð¸Ð½Ñı
Ð¾Ð¶ ÐµÐ½
ĠÑĩÐµÑĢ ÐµÐ¿
Ð¾Ð´ Ð¾Ð»
ĠÑĪ ÐµÑĢ
Ð½Ð¾ ÑĤ
ĠÐ¶Ð°ÑĢ ÐºÐ¾
ĠÐ¾ Ð²
ĠÐ½Ð° ÑĥÑĪ
) )
ĠÐ¾ÑĤÐ¿ ÑĥÑģÐº
Ð¾Ðº Ñģ
ĠÑĥÐ²Ð¸Ð´ ÐµÐ»Ð¸
ĠÐĳ ÑĮÑı
ĠÐĴ ÐµÑģÑĮ
ĠÐ» Ð°Ð·
Ñĳ ÑģÑĤ
ĠÐ¿Ð¾Ð´ Ð¾Ð¹Ð´Ñı
ĠÐ´Ð¾Ð»Ð³Ð¾ Ðµ
ĠÐºÐ°Ñģ Ð°ÑıÑģÑĮ
ĠÐ¶Ð¸Ð² ÐµÑĤ
ĠÑĢÐµÐ°Ð»ÑĮÐ½Ð¾ ÑģÑĤÐ¸
ĠÐŃÐ´Ð²Ð°ÑĢ Ð´
o v
ĠÐ²Ð¿ÐµÑĩÐ°ÑĤ Ð»ÐµÐ½Ð¸Ðµ
Ð»Ð¾ÑĤ Ð½ÑĥÑİ
ĠÐ¿ÑĢÐ¾Ð´ ÑĥÐº
ÑĥÑī ÐµÐ¹
ĠÐ²ÑĤÐ¾ ÑĢÐ°Ñı
ĠÐ¿ÑĢÐ¸Ð·Ð½ Ð°Ð»ÑģÑı
Ð¸Ð½ ÐºÐµ
ĠÐ¶ Ð¸Ð»Ð°
ĠÐĴ ÑģÐºÐ¾ÑĢÐµ
ĠÐ½Ð¾Ð² Ð¾ÑģÑĤÐ¸
Ð¾Ð· Ð´
ĠÐĴ ÑĢÐµÐ¼Ñı
ĠÐº ÑĥÐ´ÑĢÑı
ĠÐ´ ÐµÑĢÑĮ
Ðķ ÑīÐµ
ĠÐ¾Ð±ÐµÑī Ð°Ñİ
ĠÐ¾Ð³ÑĢÐ¾Ð¼ Ð½Ð¾Ð¹
ĠÐ´Ð¾ÑĢÐ¾Ð³ Ð°Ñı
ĠÐĶ Ð¸Ð¼Ð°
ĠÑĩÐµÐ¼ Ð¾Ð´
ĠÐ²ÑĭÑħÐ¾Ð´ Ð¸ÑĤÑĮ
ĠÐ·Ð°ÐºÐ¾Ð½Ñĩ Ð¸ÑĤÑĮ
ÑĢ Ð¾Ð¿
ĠÑĥÐ¼ ÐµÐ»
ĠÑĦÐ¾ÑĤÐ¾Ð³ÑĢÐ°ÑĦ Ð¸Ð¸
ĠÐ¼Ð¾ Ð¸Ð¼Ð¸
ĠÐ² Ð¾ÑĢÐ²
ĠÑĥÑĩÐ° ÑģÑĤÐ¸
Ð» Ð°Ð¼Ð¸
ĠÐ¼Ð°Ð³ Ð°
Ðº ÑĢÐ°Ñģ
ĠÐ½Ð¾Ð² ÑĭÐ¼
ĠÑĥÐ¶Ð°Ñģ Ð¾Ð¼
ĠÐŃ Ð²
ĠÐ½ÐµÐ± ÑĢÐµÐ¶
ĠÑģÐ¾Ð¿ ÐµÑĢ
ĠÐ¿Ð¾ÑĨÐµÐ»Ñĥ ÑıÐ¼Ð¸
ĠÐ¡ Ð´ÐµÐ»
ĠÑĢÐ°ÑģÐ¿ ÑĢÐ°Ð²
ĠÑģ ÐºÐ°ÑĤ
ĠÐ¸Ñģ ÑģÐ»ÐµÐ´
ĠÐ¿ÐµÑĢÐµÑģÑĤ Ð°Ð»Ð°
Ð°Ñħ Ð°ÑĢ
ĠÐ¿ÑĢÐ¸Ð± Ñĭ
Ð¾Ð¹Ð´ ÑĳÑĤ
ĠÐ½Ð¸Ð¶ Ð½ÑİÑİ
ĠÐ¿Ð¾ Ð¸Ð³
ĠÐ·Ð°Ð½ ÑıÑĤÑĮÑģÑı
Ð°Ð´ Ð°Ñĩ
ĠÐ½Ðµ Ð¾Ñģ
ĠÑĥ Ð»Ð¾Ð¶
ĠÐ´Ð²ÐµÑĢ ÐµÐ¹
ĠÐ» Ñĥ
ĠÑĥÑĤ ÐµÑĪ
ĠÐ¿ÐµÑĢ ÑĩÐ°ÑĤ
ĠÐ»ÑİÐ± Ð¾Ð³Ð¾
ĠÐ² Ð½ÐµÐ·Ð°Ð¿
ÐĵÐµÑĢÐ¼Ð¸ Ð¾Ð½Ð°
Ð¸Ð¼ Ð°ÐµÑĤ
ĠÐ¥Ð¾ÑĤ ÐµÐ»Ð¾ÑģÑĮ
ÐŃ Ð¹
Ð¶ Ñĥ
ĠÐłÐ°Ñģ ÑģÐº
ĠÐ½ÐµÐ² ÐµÑģ
ĠÐ²Ð¿ Ð»Ð¾ÑĤÐ½ÑĥÑİ
ĠÐ¿ÑĢÐ¾ÑĪ Ð»Ð¾Ð³Ð¾
ĠÐ¿Ð¾Ñģ ÐµÐ»
ĠÐ¾Ð´Ð¸Ð½ Ð°ÐºÐ¾Ð²
ĠÐĳÑĢ Ð°Ð¹
ĠÐ¾Ð´Ð¸Ð½ Ð¾Ðº
ĠÐĵ Ð¸Ð»
ĠÐ·Ð» Ð¾Ð±Ð½Ð¾
ĠÐºÐ¾ÑĢÐ°Ð± Ð»ÑĮ
ĠÑģÐ°Ð½ÑĤ Ð¸Ð¼ÐµÑĤ
ĠÐ²Ð¾Ð» Ð¸
ĠÐ¿Ð¸ ÑĢÐ°ÑĤ
ĠÐ¿Ð¾Ñĩ ÐµÑģ
ĠÑĥÐ´ Ð¾Ð±Ð½Ð¾
ĠÐ¿ÑĢÐ¾ÑĪÐ»Ð¾ Ðµ
ĠÐº Ð»Ñĭ
ĠÑį Ð³Ð¾
! ".
ĠÐ·ÑĢ ÐµÐ»Ð¸
ĠÐĲ Ð·
ĠÐ²ÑĭÐ¿ Ð¾Ð»Ð½
ĠÐ²ÑĭÐ± ÑĢÐ°Ð»
ĠÐºÐ°Ðº Ð¸Ð¼Ð¸
ĠÐļ ÑĢÐ¾Ð¼Ðµ
ĠÑģÐ¾ÑĤ ÑĢÑĥÐ´
Ð¸ÑĤ Ð¾Ð¹
ĠÐĶ ÑįÐ½
ĠÐ¼Ð°Ð¼ Ñĭ
ĠÑĤÐ¾ÑĢ Ð¶Ðµ
ĠÐ» ÐµÐ¿
ĠÑĪ Ð¿
ĠÐ¿ÑĢÐ¾Ñĩ Ð¸Ð¼
Ð°ÑĤ ÑģÑı
ĠÐ¸Ð· Ð³
ĠÑĢ ÑıÐ²
ĠÐ± Ð°Ð³
Ð°ÑĤ ÑĭÐµ
ĠÑģÐºÐ°Ð¼ ÐµÐ¹
ĠÐ·Ð² ÑĥÐºÐ°
ĠÑģÑĤÐµÑģ Ð½Ñı
ĠÐł Ð¾Ñģ
ĠÑģÐ¾Ð± ÑĢÐ°
ĠÐ¸ ÑĢÐ¾
ĠÐ½ÐµÐ¿ÑĢÐ°Ð² Ð¸Ð»ÑĮÐ½Ð¾
ĠÐĴ ÐµÐ½
ĠÑģÑĤÐ°ÑĢ ÑĪÐµ
!! !!
Ð¸ ÑĨÐ°
ĠÐ¿ÑĢÐ¾Ð´Ð¾Ð»Ð¶ Ð¸ÑĤÑĮ
ĠÑĥÑĪ Ð°Ñħ
Ð¼Ð¾ ÐµÐ¼Ñĥ
ĠÐľ Ð°Ð»Ð¸
ĠÐĹ Ð°Ð½Ð·
Ð¸Ð½ÐµÑĤ ÑĤ
ĠÐĶ Ð¼Ð¸ÑĤ
ĠÐ²Ð°ÑĪ Ð°
ĠÐĵ Ð»ÑĥÐ¿
ĠÐ¼Ð½Ð¾Ð³ Ð¸Ñħ
Ð²ÑĤÐ¾ ÑĢÑĭÑħ
Ð°Ð» Ð¾Ð²
ĠÐ¿Ð¾ ÑĤÐ¸Ñħ
ĠÐ²ÑĭÐ± Ð¾ÑĢÐ°
ĠÑģÐ´ Ð²Ð¸
ĠÐ·Ð°Ð´ÑĥÐ¼ Ð°Ð»Ð°ÑģÑĮ
Ð²ÐµÑĢ Ð¶Ð´
ĠÐºÐ»Ð° Ð½Ð°
ĠÐ¿ÑĢÐ¸ ÐµÑħÐ°Ð»Ð¸
ĠÐ½Ðµ ÑĥÐ¼
ĠÑĤÐ°Ð½ ÑĨÐµÐ²
ĠÐ¿Ð¾ÑıÐ² Ð¸Ð»Ð¾ÑģÑĮ
ĠÐ¿ ÑĭÐ»
ĠÐºÑĢÐ¸ ÑĩÐ¸ÑĤ
Ð¸Ð¼ Ñĥ
ĠÐ¿Ð»Ð¾ÑĤ Ð½Ð¾
Ð¾Ð»Ð½ ÑĨÐµ
ĠÐ¿Ð¾ÐºÑĢÐ°ÑģÐ½ ÐµÐ»Ð°
ĠÐ² Ð°ÑĪÐµ
ĠÐ¢ Ð²Ð¾Ð¹
Ð°Ð´ÑĨ Ð°ÑĤÐ¸
ĠÐ»Ð°Ð´ Ð¾ÑĪ
Ð¸Ð½Ñģ ÐºÐ¸
ĠÐ¨ÐµÑĢ Ð»Ð¾ÐºÐ°
ĠÐ´Ð¾ÐºÑĥÐ¼ ÐµÐ½ÑĤÑĭ
Ð°Ð½ Ð½Ð¾Ð¼
ĠÐ¾Ð± Ð»
ĠÐ¡ ÐµÑĢÐ³
ĠÑĤÑī Ð°ÑĤÐµÐ»ÑĮÐ½Ð¾
ĠÐ´ÑĢÑĥÐ³ Ð¸Ð¼Ð¸
ĠÐ¸ÑģÐ¿ Ð¾Ð»Ð½
Ð¸Ð¼ ÑĭÐµ
Ð¾ÑĤ Ð°Ð»
ĠÐ¿ÑĢÐ¸Ð½ ÑıÐ»Ð°
Ðµ ÑĤÐ¾
ĠÐ· Ð»Ð°
Ð» Ð°Ð»
ĠÐ¿Ð¾ÑģÑĤÐ°Ð² Ð¸Ð»Ð°
ĠÑĥÐ¼ ÐµÑİ
ĠÐ·ÑĢ ÐµÐ½Ð¸Ñı
Ðŀ Ð¿
ĠÑģÑĤ Ð¸Ñģ
ĠÐ²ÑĤÐ¾ ÑĢÑĥÑİ
ĠÐ¶ÐµÐ»Ð° Ð½Ð¸ÐµÐ¼
Ñĩ Ð°Ð½Ð¸Ðµ
Ð»Ðµ Ðµ
ĠÑģÐºÑĢÑĭ Ð»ÑģÑı
ĠÑĥÐ± ÑĮÑİ
ĠÐ´ÑĥÑĢ Ð°Ðº
ĠÐĶ ÐµÐ½Ð¸
Ð ģ
ĠÐ¿Ð¾Ð´ÐµÐ» Ð°ÑĤÑĮ
ĠÐ¡ Ð¾Ð»
ĠÐ¿Ð¾ÑģÐ¿ÐµÑĪ Ð¸Ð»Ð°
ĠÐļÐ¾ Ð½Ð¾
Ð½ Ð¸Ð»Ð¾ÑģÑĮ
ĠÐ¿Ð¾Ðº Ð°Ð·Ð°Ð»Ð°
Ð½ Ð°Ð·
ĠÐĺÐ¼ Ð¿
ĠÐ¢Ð¾Ð¼ Ð°Ñģ
ÑĢÐ° Ð½Ð¸ÑĤÐµÐ»ÑĮ
ÑģÑĤ Ð¾Ð²
ĠÐ±Ð» Ð°Ð¶
ĠÑĥÐº Ð»Ð°Ð´
ĠÐ¡ Ð°Ñģ
ĠÑĩÑĮ Ð¸
ĠÐ¼Ð¾ ÑĳÐ¼
ĠÐĴ ÑģÑı
ĠÐŁÐ¾ÑĤÑĤÐµÑĢ Ð°
ĠÐ¼ ÑıÑģ
ĠÑ ĳ
ÑĩÐ¸Ð² ÑĭÐ¹
Ð¢ Ð¾Ð³Ð´Ð°
ĠÐ½ÐµÐ¸Ð·Ð² ÐµÑģÑĤÐ½Ð¾
Ð» Ð¸Ð»Ð°ÑģÑĮ
ĠÐ ©
ĠÑĥÑģ Ð½ÑĥÑĤÑĮ
ĠÐ½ ÐµÐ±Ðµ
Ð¾ÑĢ Ð½
Ð¼Ð¸ Ð½Ð°
ĠÐ² Ð¾Ð¹ÑĤÐ¸
ÑĨ ÐµÑĢ
ĠÐ¿ÑĢÐµÐ´ ÐµÐ»
ĠÐ¿Ð¾Ð³Ð»Ð°Ð¶ Ð¸Ð²Ð°Ñı
ĠÐ½Ð°Ð¿Ð¸Ñģ Ð°Ð½Ð¾
ĠÐ±Ð¾ ÑıÑĤÑĮÑģÑı
ÑĢÐ¾ Ñħ
Ðº Ð½ÑĥÐ»Ð¸
Ñĩ ÐµÑĢÐ°
ĠÑģÐ²Ð¸Ð´Ð° Ð½Ð¸Ðµ
ĠÑģÑĤÐµÐ¿ ÐµÐ½Ð¸
ĠÐĶÐ¶Ð¾ÑĢ Ð´Ð¶
ĠÑģÐ¾ÑĢÐ² Ð°Ð»ÑģÑı
Ð¾Ð¶Ð´ ÐµÐ½Ð¸Ðµ
ĠÐĴÑģ ÐµÐ³Ð´Ð°
ĠÐ¿ÑĢÐ¸Ñģ ÐµÐ»Ð°
ĠÐ¿ÑĢÐ¸ Ð¿Ð¾Ð´Ð½Ð¸Ð¼
ĠÐ½ÐµÐ¿Ð¾Ð½ ÑıÑĤÐ½Ð¾
Ð¸Ð¼ Ðµ
Ð¸ ÐºÐ¾Ð¼
Ð»Ð¾Ð² Ð°
ĠÐ²Ð¾Ð¹ Ð½Ñĭ
ĠÑħÑĢÐ¸Ð¿ Ð»Ð¾
ĠÐ³Ð¾Ð»ÑĥÐ± ÑĭÐµ
ĠÐ°Ñģ ÑĦÐ°Ð»ÑĮ
Ðº Ð²
ĠÐ»ÐµÐ³ ÐºÐ¸Ð¹
Ð»ÑĮ Ñı
ĠÐ· Ð´ÑĢÐ°Ð²
ÑıÐ· Ð²
ĠÑģÐ¼ÑĥÑī ÐµÐ½Ð½Ð¾
ĠÑģÑĩÐ°ÑģÑĤÐ»Ð¸Ð² Ð°
Ġ2 0
ĠÐ¼ÑĭÑĪ ÑĨÑĭ
ĠÐ´Ð¾Ð³ Ð¾Ð²Ð¾ÑĢÐ¸ÑĤÑĮ
Ð¾Ñĩ Ð¸
ĠÐ±ÐµÐ· Ð¶
ĠÑģÐ³Ð»Ð¾ÑĤ Ð½ÑĥÐ»
ĠÑĥÐ¿ Ð°ÑģÑĤÑĮ
ÐµÐ² Ð°Ð»Ð°
ĠÐ¿Ñĥ ÑģÐº
ĠÑĢÐ°Ð· Ð¾ÑĪ
ĠÐºÐ°Ð± Ð»Ñĥ
ĠÐ¾ÑĤ Ð¾Ð¼
ĠÑĤÑĭÑģÑı ÑĩÐ¸
ĠÐ¿Ð¾ÑģÐ»ÐµÐ´ Ð½ÑıÑı
ĠÐļ Ð°Ð·
ĠÐ½Ð° ÑĢÐº
ĠÑģÐ¾Ð± ÑĢÐ°Ð»Ð¸ÑģÑĮ
ĠÐ¡Ðº Ð°Ð·Ð°Ð»
ĠÐ¤ Ð¸Ð»Ð¸
Ðº Ð°Ð»Ð°
ĠÐ½Ð°Ð´ Ð¾Ð»Ð³Ð¾
ĠÐ·Ð°ÐºÐ¾Ð½Ñĩ Ð¸Ð»Ð¾ÑģÑĮ
ĠÐ·Ð°Ð´ Ð½Ð¸ÑĨÑĥ
ĠÐ¢Ð¾Ñĩ Ð½ÐµÐµ
Ð½ ÐµÐ»Ð¾
ÑĥÐ´ Ð¸ÑĤÑĮ
ĠÑģ ÐºÐ°
ĠÑģÐ¾ Ð¾ÑĤÐ²ÐµÑĤ
ĠÐ¡ Ð°Ð¼Ð°
ĠÐ¿ÑĢÐ¾Ð· ÑĢÐ°Ñĩ
ĠÐ¿Ð¾Ðº Ð¾
ĠÐ¾ÑĩÐµÑĢÐµÐ´ Ð½ÑĥÑİ
ĠÐ¿Ð¾ÐºÑĢÐ°ÑģÐ½ ÐµÐ»
ĠÐ¼Ð¾Ð»Ð¾Ð´ Ð¾Ð³Ð¾
ĠÐ¿Ð°Ð»ÑĮ ÑĤÐ¾
Ñĥ Ð»Ð°
ĠÑĥÑģÐ»Ð¾Ð² Ð¸Ñı
ĠÑĥÐ¿ ÑĢÑıÐ¼
ĠÐĽÐ¸Ð· Ð°
ĠÐ·Ð² ÐµÐ·
ĠÐ¾ÑģÑĤÐ°Ð² Ð¸Ð»Ð°
ĠÐ¿ÑĢÐ¸ÑģÑĥÑĤÑģÑĤÐ² Ð¸Ðµ
ĠÑįÐ½ ÐµÑĢ
ĠÑĪ Ð»Ñı
ĠÐ¿Ð¾ÑĤÐ¸Ñħ Ð¾Ð½ÑĮÐºÑĥ
ĠÑģÐ¾Ð¾Ð± ÑĢÐ°Ð¶
ĠÐ¿Ð»Ð°Ðº Ð°Ð»Ð°
ĠÐ¿ÑĢÐ¸Ð» ÐµÑĤ
ĠÐľ Ð¸ÑĢÐ°
ĠÐ¼Ð³Ð½Ð¾Ð² ÐµÐ½Ð¸Ð¹
ĠÐµ Ð·
ĠÐ¿ÑĢÐµÐºÑĢÐ°Ñģ Ð½ÑĭÐ¹
ÐµÐ¹ Ñģ
ĠÐ¿ÑĢÐ¾Ð²Ð¾Ð´ Ð¸Ð»
ĠÑĢ ÑĭÐ²
ĠÐ¶Ð°Ð» ÐºÐ¾
ĠÐļÐ°ÑĢ Ð¸Ð½
ĠÑĦÐ¸ Ð¾Ð»ÐµÑĤ
ĠÑģÐ¶Ð¸Ð¼ Ð°ÐµÑĤ
ĠÐ¿ÑĢÐ¾ÑĨ ÐµÑģÑģ
ĠÑģÐ°Ð¼ Ð¾Ð´
ĠÐĶ Ð²Ð°
ĠÑĢÐµÐ±ÑĳÐ½ Ð¾Ðº
ĠÐĶÐ¶ÐµÐ½Ñģ ÐµÐ½
ĠÐºÐ¾Ð½ ÐºÑĢÐµÑĤ
Ð°Ð¶ Ð¸Ð²Ð°ÑıÑģÑĮ
ĠÑģÐ°Ð¼ Ð¾Ð»
ĠÐ¿ÑĢÐ¾ ÑħÐ¾Ð´Ð¸ÑĤ
ĠÐ³Ð»ÑĥÐ±Ð¾Ðº Ð¸Ð¹
ĠÐ·ÐµÐ¼ Ð»Ñı
ĠÐ´ÐµÐ» Ð°ÑİÑĤ
ĠÐľ Ð°ÑĤ
ÑĥÐ¼ Ð°Ð»
ĠÑģÐ¿ÑĢÐ°ÑĪ Ð¸Ð²Ð°Ñİ
ĠÐĹ Ð²
ĠÐ¸Ð´ ÐµÐ¼
ĠÐ½Ð¾Ð² Ð¾ÑģÑĤÑĮ
Ð¡ Ð°ÑģÐºÐµ
ĠÑĤÑĢ Ð°Ð´Ð¸
ĠÑĢ Ð¾
ĠÐ½Ð°ÑħÐ¼ÑĥÑĢ Ð¸Ð»Ð°ÑģÑĮ
ĠÐºÐ°Ð¿ ÑİÑĪ
ĠÐ²ÐµÑĢ Ð½ÐµÑĤÑģÑı
ĠÐł ÐµÐ·
ĠÑĤÐ¸Ñħ Ð¸Ð¼
ĠÐ½Ðµ Ñĩ
ĠÑĦÐ¸Ð³ ÑĥÑĢ
ĠÑģÐ½ ÐµÐ¶
ĠÑĩ Ð¼Ð¾Ðº
ĠÐŁ ÑĢÐ¾Ð²
ĠÑĢÐ°ÑģÑģÐ»Ð°Ð± Ð¸ÑĤÑĮÑģÑı
Ð»Ð¸Ð² ÑĭÐµ
ĠÑĪÐ¸ ÐºÐ°ÑĢ
ĠÑħÐ¾Ð´ Ð¸Ð»
ĠÐºÑĢÐ°Ñģ Ð°Ð²
Ð½Ð¾ÑĪ Ð°
ĠÐ¿ÑĢÐ¸Ð¶ Ð°Ð»ÑģÑı
ĠÑĥÑģÑĤ Ð°Ð½Ð¾Ð²
ĠÑģÑĨÐµÐ½ Ñĥ
ĠÐł Ð¸Ñĩ
ĠÐ¿Ð¾Ð´Ð¿ Ð¸Ñģ
ĠÐ²Ð¾Ð·Ð¼ÑĥÑĤ Ð¸Ð»ÑģÑı
ĠÐ²Ð°ÑĪ ÐµÐ³Ð¾
ĠÑĤÑĥÐ°Ð» ÐµÑĤ
ĠÐ¢Ð²Ð¾ Ñı
ĠÑĥÐ¼ÐµÑĢ Ð»Ð°
Ñĩ Ð½Ð¾Ð¼
ĠÐ´ÐµÑĢÐ¶ Ð¸ÑĤ
ĠÐ²Ð¾ Ð¾Ð±ÑĢÐ°Ð¶
ĠÐ´Ð°Ð² Ð°Ð»
ĠÐ³ÑĢ ÐµÑħ
ĠÐ¿Ð¾ Ð½ÐµÑģ
ĠÐ½Ð° ÑĢÐ¸Ñģ
ĠÑĢ ÐµÐ³
ĠÐŁ ÑĢÐ¾Ñģ
ĠÑģÑĤÐ°ÑĢ Ð¸Ðº
ĠÐºÐ¸ Ð½Ð¾
ĠÐŃ ÑĤÐ¾Ð³Ð¾
Ð¾ÑģÑĤ ÐµÐ¹
ĠÑĨÐ²ÐµÑĤ Ð¾Ð²
ĠÐ´ÑıÐ´ Ñı
ĠÐ¼ÐµÑģÑĤ Ð°Ñħ
ĠÑĪ ÐµÐ²
ÐµÑĤÐµ ÑģÑĮ
Ñĳ ÑĤÐµ
Ð¸Ð¼ Ñĭ
ĠÑĢÐµÐ±ÑĳÐ½ ÐºÐ°
ĠÐ¡ÑĥÐ´ Ñı
Ð°Ð¹ Ðº
ÑģÑĤ ÑĢÐ¸Ð´
ĠÐ² Ð²
ĠÐĿÐµÑģ Ð¼Ð¾ÑĤÑĢÑı
Ñĩ Ð¸Ð½Ð¾Ð¹
Ð¾Ð² ÐµÑĤ
ÐŃ Ð¼
ĠÐ¿Ð¾Ñģ ÑĤÐ¾ÑĢÐ¾Ð½
ÐŀÐ´ Ð½Ð°ÐºÐ¾
ĠÑĥÐ»ÑĭÐ± Ð½ÑĥÑĤÑĮÑģÑı
ĠÑģÐ»ÑĥÑĩ Ð°Ñı
ÐŁ ÐµÑĢ
ĠÐ½Ð°ÑħÐ¾Ð´ Ð¸Ð»Ð¸ÑģÑĮ
ĠÐ´ Ð°Ð»ÐµÐº
ĠÑĤÐ° Ñī
ĠÐŁ Ð¾ÑĢ
ÑĨ Ð°Ñħ
ĠÑĥÐ¿ Ð¾ÑĢ
ĠÐ½Ð°ÑģÐº Ð²Ð¾Ð·ÑĮ
ĠÑģÐ² Ð¸ÑĤ
ĠÐ´ÐµÐ» Ñĥ
ĠÐ²ÑģÑĤÑĢÐµÑĩ Ð°
ĠÑİÐ½Ð¾ ÑĪÐ¸
ĠÑĩÐµÑĢÑĤÐ¾Ð² ÑģÐºÐ¸
Ð½Ñĭ Ð²
ĠÐ¿Ð¾ÑģÐ¼Ð¾ÑĤÑĢ ÐµÐ»Ð¸
ĠÑģÐ¸Ð»ÑĮ Ð½ÐµÐ¹
ĠÐ´ÑĥÑĪ ÐµÐ²
Ðľ Ð°Ð»
ĠÐ²Ð¾Ð´ Ðµ
ĠÑĢ Ð¸
Ð¾ Ñİ
Ñĭ Ð´Ñĥ
_ _
ĠÑģÐ¸Ð»ÑĮ Ð½ÑĭÐµ
Ð¸Ñģ ÑģÐ°
ĠÑģÐ»ÐµÐ´ Ð¾Ð²Ð°Ð»Ð¾
ĠÐ·Ð°ÑģÑĤÐ¾ Ð½Ð°Ð»
ĠÐ²Ð·Ð´ ÑĭÑħÐ°ÐµÑĤ
ĠÐ¾ÑĤÐ¿ ÑĥÑģÑĤ
ĠÑģ Ð¾Ð¶
ĠÑĥÐ´Ð°ÑĢ Ð¸Ð»Ð°
ĠÑĦ Ð°ÑĢ
ĠÐĸ Ð°Ð»ÑĮ
ĠÐ½Ð°Ðº Ð»Ð¾Ð½Ñı
ĠÑĤÐµÐ¼ Ð¿ÐµÑĢ
ÑĥÑī Ñĥ
ĠÐ´ÐµÑģÑı ÑĤÐ¸
ĠÑħÐ¾ÑĢÐ¾ ÑĪÐµÐµ
ĠÑģÐ» ÐµÑĤ
Ð¾Ð» ÑĤ
ĠÐ½Ð° Ð¸Ð³
Ð°ÑĢÐ¸ Ð¸
ĠÐł Ð°
ĠÐ´ÑĢÑĥÐ³ Ð¾Ð¼Ñĥ
ĠÑĢÑĥ ÐºÐ¾Ð²
ĠÐ¥Ð°ÑĢÑĥ Ð½Ð¾
ĠÐ´ Ð¾Ð»ÑĮÑĪÐµ
ĠÐ½Ð¸ ÑĩÑĤÐ¾
ĠÐļÐ°ÑģÑĤÐ¸ ÑįÐ»ÑĮ
ĠÐº ÑĥÑĪ
ĠÐ£ Ð²ÐµÑĢ
ĠÐĺ ÐºÐºÐ¸
ĠÐ¾Ð±Ð»ÐµÐ³Ñĩ ÐµÐ½Ð¸ÐµÐ¼
ĠÐ¾ÑīÑĥÑĤ Ð¸Ð»
ĠÑģÐ¸Ð³Ð°ÑĢ ÐµÑĤ
ĠÐŃÐ¼ Ð¸Ð»Ð¸
ĠÐľÐ°Ð»ÑĦ Ð¾Ñı
ĠÐ¸Ð»Ð»Ñİ Ð·
ĠÐ±ÑĥÐ´ÑĥÑī ÐµÐ¼
Ð³Ð¾ Ð»
ĠÐ¸ÑģÐ¿ Ð°ÑĢ
ĠÐ¿Ð¾Ñģ ÐºÐ¾ÑĢÐµÐµ
Ðķ ÐĿ
ĠÐ·Ð°Ð½ÑıÑĤÐ¸ Ñı
ĠÐ¿Ð° ÑĨÐ¸
ĠÐºÐ¾ ÑģÑı
ĠÑģÐ¿ÑĥÑģÑĤ Ð¸Ð»ÑģÑı
ĠÐºÐ¾Ð¼Ð¿ Ð°Ð½Ð¸Ñİ
ĠÐ¿ÑĢÐ¾Ð¸Ñģ ÑħÐ¾Ð´ÑıÑīÐµÐµ
ĠÑģÐ¾Ð± ÑĢÐ°Ð»Ð°ÑģÑĮ
ĠÐ½ÐµÐ¿Ð¾Ð½Ð¸Ð¼ Ð°ÑİÑīÐµ
ĠÐ´Ð¾Ð¶ Ð´Ñı
ĠÐ¡Ð¿ ÑĥÑģÑĤÑı
Ð°Ð² ÑĪÐ¸Ñħ
ĠÐ¿Ð¾ÐºÐ°Ð· Ð°Ð»ÑģÑı
ĠÐ¾ÑģÐ½Ð¾Ð² Ð½Ð¾Ð¼
ĠÐĳÐ¾Ð»ÑĮ ÑĪ
ĠÐ¶ÐµÐ» Ð°Ð»
ĠÑħÐ¾Ð»Ð¾Ð´ Ð½ÑĭÐ¼
ĠÑĥÐ¿ Ð¾ÑĢÐ½Ð¾
Ð½Ð¾Ñģ Ð¸ÑĤÑĮ
Ð¸Ð½ Ð¾Ðº
ĠÐ¿Ð¾ÑĩÑĥÐ²ÑģÑĤÐ² Ð¾Ð²Ð°Ð²
ĠÐ¿Ð¾Ð´ÑĢÑĥÐ³ Ðµ
ĠÐ±ÐµÐ· Ð¼
ĠÐºÑĢÐ°Ñģ Ð½ÑĭÐ¹
ĠÑģÑĥÐ¼ ÐºÐ¸
ĠÐ½Ð°Ð±Ð»Ñİ Ð´Ð°Ð»Ð°
ÑĳÐ½ Ð½ÑĭÐµ
ĠÐ¡Ð¼ Ð¾ÑĤÑĢÐ¸
ĠÐ¡ÑĤ Ð°ÑĢÐº
ĠÐ¶ÐµÑģÑĤ Ð¾ÐºÐ¾
ĠÐ¿ÑĢÐ¾ÑĦ ÐµÑģÑģÐ¸
ĠÐ´ Ð°ÐµÑĤ
ĠÐºÐ°Ð· Ð°Ð»Ð°ÑģÑĮ
Ð¾ÑĢÐ¾ ÑĤÑĮÑģÑı
ĠÐĲÐ¹ Ð·
Ð¡ Ð°Ð¼
ÑĤÐ¾ÑĢ Ðµ
ĠÐ¿Ð»ÐµÑĩ Ð¾Ð¼
ĠÐ¿ÑĢÐ¸ÑħÐ¾Ð´ Ð¸Ð»
Ð¢ Ð¾Ð¼
ĠÐ¡ÑĤÐ°Ð¹Ð» Ñģ
ĠÐºÑĢÑĭ ÑĪÑĥ
Ð¶ ÐµÑĢ
Ð¸Ñī Ð°
ĠÐºÐ¾Ð½ ÑĨÑĥ
ĠÐ±ÑĥÐ´ ÑĥÑĩÐ¸
ĠÐĴ ÐµÑĩ
Ð¸ÑĤ ÐµÐ»ÐµÐ¼
Ð°Ð½Ð´ ÑĢÐ°
ÐµÐ² Ð°ÐµÑĤ
ÑĩÐ¸Ð² Ð°Ñı
ĠÐ¿ Ð°Ñģ
ĠÑĢÐ°ÑģÑĤÑĢ ÐµÐ¿
ĠÐ³ÑĢÐ° Ð½Ð¸
ĠÐ²Ð°ÑĢÐ¸ Ð°Ð½
ĠÐ¢ Ð¾Ð±Ð¸
ĠÐ´Ð°Ð² Ð°Ð¹ÑĤÐµ
ĠÑĥÐ¼ ÑĥÐ´ÑĢ
ĠÐ¿Ð¾Ð¸Ñģ ÐºÐ¸
ĠÐ´Ð»Ð¸Ð½ Ð½ÑĭÐ¼Ð¸
ĠÐ¿ÑĢÐµÐ´Ð»Ð¾Ð¶ Ð¸Ð»Ð°
ĠÐ¿ÑĢÐ¸Ð² ÐµÐ·
ÑĥÐ´ Ð¾Ðº
ĠÑĢÐ°ÑģÑĤÐµÑĢ ÑıÐ½Ð½Ð¾
ĠÑģÐ¾Ð± ÑĢÐ°ÑĤÑĮ
ĠÐ³ ÑĢÐ¸ÑĦÑĦÐ¸Ð½Ð´Ð¾ÑĢ
ĠÐ¿ÑĢÐ¸Ð½Ð¸Ð¼ Ð°ÑĤÑĮ
ĠÑģÑĤÑĢÐ° ÑģÑĤ
ĠÑĤÐ²ÐµÑĢ Ð´Ð¾
ÑıÐ² ÑĪÐ¸ÑģÑĮ
Ð½ Ð¸Ð»Ð¸
ĠÑģÐ¿Ð¾ÑĢ Ð¸ÑĤÑĮ
ĠÑģ Ð½Ð¾Ð¼
ĠÑģÐ¼Ðµ ÐµÑĤÑģÑı
ĠÑĩÐ¸ÑĤ Ð°Ð»
ĠÐĵ Ð°Ð¶
ĠÐ·Ð°ÑģÑĤ ÑĭÐ»
ĠÐ¡ Ð»Ð¸Ð·
ĠÐ¾Ð±ÑĬ ÑıÑĤÑĮ
ĠÐ·Ð½Ð°ÐºÐ¾Ð¼ Ñĭ
ĠÐ¸Ð¼ ÐµÐ»Ð°
ĠÑĢÐ°ÑģÐ¿ ÑĢÐ¾ÑģÑĤ
Ðł Ðŀ
Ð° Ð¾
ĠÐ³ ÑĥÐ»
ĠÐ¿ÑĢÐ¸ÑĩÐ¸ Ð½Ðµ
ĠÐ¿ÑĢÐ¾Ð³ ÑĢÐ°Ð¼
ĠÑĩÐµÑĢ ÑĤÑĥ
ĠÐ¿Ð°Ð» Ð¾ÑĩÐºÑĥ
ĠÑĢ Ð°Ð¼
ĠÑħÐ¾Ð»Ð¾Ð´ Ð°
ÑĥÐ± Ñĭ
Ð»Ñı Ð»Ð¸
e t
ĠÑģÐ¸Ð»Ñĥ ÑįÑĤ
ÐĴ Ð¿
ĠÑĪÐ¾Ðº Ð¸ÑĢÐ¾Ð²
ĠÐ±ÐµÑĢ ÐµÑĤ
ĠÐ¿Ð¾Ð¹Ð¼ Ð°ÑĤÑĮ
ĠÐ»ÐµÐ² Ð¾Ð¹
ĠÐ·Ð° ÑĤÐ°
ĠÐŁ Ð¾Ð¶
ĠÐ»Ð¸ Ñģ
ĠÐ¿ÑĢÐ¸ ÐµÐ·Ð¶
ĠÐ¿Ð¾ÑģÐ»ÐµÐ´ ÑģÑĤÐ²Ð¸Ñı
ĠÐ¡ÑĤ Ð¸Ð»
ĠÐ±Ð¾ Ð¸ÑĪÑĮÑģÑı
ĠÐ¿ÑĢÐ¸Ð±Ð»Ð¸Ð· Ð¸Ð»ÑģÑı
ĠÑĦÐ¸Ð³ ÑĥÑĢÐ°
ĠÐĶ ÐµÑĢÐ¶
ĠÐ¿ Ð»Ð¾ÑĤÑĮ
ĠÑģÐ¾Ð» Ð´Ð°ÑĤ
ĠÑģÑĩÐ°ÑģÑĤ Ð»Ð¸Ð²Ð¾
ĠÐł Ñĥ
Ð½Ð¸ Ñģ
ĠÑģ ÐµÐ¹
ĠÐ´ Ð¸ÑģÐº
ĠÐļÑįÑĤ ÑĢÐ¸Ð½
ĠÑĤÑĢ Ð¾Ð¿
ĠÐ¾ÑĤÐ½Ð¾ÑĪ ÐµÐ½Ð¸Ð¹
ĠÐ¢ Ð¸Ð¼
ĠÐ¢ Ð°Ð½Ñı
ĠÑģÑĩÐ¸ÑĤ Ð°ÐµÑĤ
ĠÐ¾Ð´ Ð°ÑĢ
ĠÐ²ÑĭÐ´ ÐµÐ»
ĠÑģÑĤ Ð²Ð¾Ð»
ĠÐ²Ð¾ÑģÐ¿ ÑĢÐ¸Ð½Ð¸Ð¼
Ñĩ ÐºÐ¾Ð¼
ĠÐº Ð²
ĠÑģÐ¾Ð±ÑģÑĤÐ²ÐµÐ½ Ð½ÑĭÑħ
ĠÐŁ Ð°Ðº
ĠÐ¾Ð´ ÐµÐ¶Ð´Ðµ
ĠÐ¼Ð¾ÑĢ Ñī
ĠÐĽ ÐµÐ¹
ĠÐ¾Ð¶Ð¸Ð´Ð° Ð½Ð¸Ð¸
Ð½Ð¾Ð² ÐµÑģ
ĠÑģÐ»Ð¾Ð² Ð¾Ð¼
ĠÑģÑĥÑīÐµÑģÑĤÐ² ÑĥÐµÑĤ
ĠÐ¾ÑĤ Ð²Ð¾ÑĢÐ°ÑĩÐ¸Ð²
Ð¾Ð¿ ÑĢÐ¸
ĠÐĲÐ¼ ÐµÑĢÐ¸
ĠÐ» ÑĥÐ¶
ĠÐ¾ÑĤ ÑĢÐµÐ°Ð³
ĠÐ¾Ð±Ð½Ð¸Ð¼ Ð°ÐµÑĤ
ĠÐľÑĥ ÐºÑĥÑĢÐ¾
ĠÐŀÐ´ Ð½Ð°
ĠÐ½Ð°Ð´ÐµÐ¶ Ð´Ð¾Ð¹
ĠÑĢÑİÐºÐ· Ð°Ðº
ĠÐ¿Ð¾ÑıÑģ Ð½Ð¸Ð»
ĠÐ²Ð¾Ð» Ð½Ð°
ĠÐ¿ÑĢÐµÐ´ ÑĭÐ´Ñĥ
ĠÐº Ð¾Ð·
Ð¼ ÐµÑħ
ĠÐ½ÐµÑĢÐ² Ñĭ
ĠÐ¿Ð¾Ð² ÑıÐ·
ĠÐł Ð¾Ð·Ð°
ĠÑģÐ¼ ÐµÐ»
ĠÐ£ Ð´Ð¸Ð²
ĠÐ´Ð¾ ÑĪÐ»Ð¾
ĠÑĤÐ¸ Ð¿
ĠÐ¼Ð°Ð½ ÑĮÑı
Ð¸Ð» Ñĭ
ÐµÐ»Ð¾Ð² ÐµÐº
ĠÑģÑĤÑĢÐ°ÑĪ Ð½Ð¾Ð³Ð¾
ĠÐ¿ÑĢ ÐµÑĢ
Ð¾Ñģ ÑħÐ¾Ð´
Ð¸Ð¼ Ð°ÑĢÑĥ
ĠÐ´ ÑĮÑıÐ²
ĠÐ°ÑĢ Ñħ
ĠÐ´ÐµÑĢÐµÐ² Ð¾
ĠÐ²ÐµÐ´ÑĮ Ð¼Ð°
ĠÑģÐ¿Ð¾ÐºÐ¾Ð¹ ÑģÑĤÐ²Ð¸Ðµ
ĠÐ¥Ð¾Ð» Ð¼Ñģ
ÑĭÐ² Ð°Ð½Ð¸Ñı
ĠÐ§ Ð¶
ĠÐľ Ð°Ð»Ð¾
ĠÐ¿ÑĢÐ¾ÑĪ Ð»ÑĭÐ¹
ĠÑı ÑīÐ¸
Ð¾ÑģÐ»ÐµÐ´ Ð¾Ðº
ĠÑģÐ¾Ð¿ÑĢÐ¾ÑĤÐ¸Ð² Ð»ÑıÑĤÑĮÑģÑı
ĠÐ» Ð°Ð¼Ð¿
ĠÐ·Ð°Ð³Ð»Ñı Ð½ÑĥÐ»
ĠÑģ ÑĢÐ°Ð±Ð¾ÑĤ
ĠÐ¿Ð¾Ñģ ÐµÑī
ĠÑĥÐ²Ð¸Ð´ Ð¸ÑĤ
ĠÐ¯ ÑģÐ½Ð¾
ĠÑĢÐ°Ð· Ð³Ð¾
Ñģ ÐµÐ´
ĠÐ¿Ð¾Ð²ÐµÑĢÑħ Ð½Ð¾ÑģÑĤÐ¸
ĠÑĪÐµÐ¿ Ð¾ÑĤ
ÑĢ Ð¸ÑĤ
ĠÐ¾Ð± Ð¸ÑĤ
ĠÑĤÑİ ÑĢÑĮ
Ðĵ Ðŀ
ÐµÑĤ ÐºÐ¸
ĠÐ»ÑİÐ± ÑıÑĤ
Ð¸ÑĤÐµÐ»ÑĮ Ð½ÑĭÑħ
ĠÑĢÐ°ÑģÑģ ÑĭÐ¿
ĠÐ±ÑĭÑģÑĤ ÑĢÑĭÐ¼
ĠÑģÐ¼ Ð¾Ð¶ÐµÐ¼
ĠÐł ÐµÐ³
ĠÐ¾Ð±ÑĭÑĩ Ð½ÑĭÐ¹
ĠÐ²ÑĭÑĢÐ°Ð¶ ÐµÐ½Ð¸ÐµÐ¼
ĠÐ¶ÐµÐ½ Ñĥ
ĠÑĩÐµÑĢ ÑĤÑĭ
ĠÑĤÑĢÑĥ Ñģ
ĠÑģÑĤ ÐµÑĢ
ĠÐ¿ÑĢÐ¸Ð³ Ð»ÑĥÑĪ
Ð¼ ÐµÐ½Ð½Ð¾
ÑĪÐ¸ ÑģÑĤ
ĠÐ¸Ð½ÑĦÐ¾ÑĢÐ¼Ð° ÑĨÐ¸Ð¸
ĠÐ´ ÑĥÐ±
ĠÐ¿Ð¾Ð²ÐµÑĢ Ð¸Ð»
ĠÐ¡ÑĤ Ð¾Ð¿
ÐµÐ³ Ð°ÐµÑĤ
ĠÑĥÐ± Ð¾ÑĢ
ĠÐµÐ´Ð¸Ð½ÑģÑĤÐ²ÐµÐ½ Ð½ÑĭÐ¼
ĠÑģÑĤÐµÐº Ð»ÑıÐ½
ÑĤ ÑĭÐµ
ĠÑģ ÐºÐ°Ð½
ĠÐ½ÐµÑĤ ÐµÑĢÐ¿ÐµÐ»
Ð°ÑİÑīÐ¸Ñħ ÑģÑı
ĠÑĥÑħ Ð¾Ð¼
ĠÐ»ÑĥÑĩ ÑĪÐµÐ³Ð¾
ĠÐ²ÑģÐ¿Ð¾Ð¼ Ð½Ð¸Ð²
ĠÐ¾ÑĤÐ¼ ÐµÑĩ
ĠÐ²Ð¾ÑĪ ÑĳÐ»
ĠÐ¿Ð¾Ñģ Ð²
ĠÐļÑĥ ÑĢÐ¾ÑģÐ°ÐºÐ¸
ĠÑģÐ¼ÐµÑĪ Ð¾Ðº
ĠÐ½ÐµÐ± Ð°
ĠÐ»ÑİÐ±Ð¸Ð¼ Ð°Ñı
ĠÑĢ Ð¸ÑĤÑĥ
ĠÐ²ÐµÑĢ ÑĤ
ĠÑĤÐ°Ð»Ð¸ Ð¸
ÐµÑģ Ð°
ĠÐ¾ÑĤÐ´ ÐµÐ»ÑĮ
ĠÑĥÑĩ Ð¸ÑĤÑĮÑģÑı
ĠÐ´ ÐµÑĤÑĮ
ĠÐ·Ð°Ð¿ ÑĢÐµÑī
ĠÑģÐ°Ð´ Ð¸ÑĤÑģÑı
ĠÐ¾ÑĤÐ¿ ÑĥÑģÐºÐ°ÑĤÑĮ
ĠÐ³ ÑĢÐ¾Ð±
ĠÐļ ÑĳÐ½ÑģÑĥ
ĠÐ¾ÑĤ ÑģÑĤÐ°Ð²
ĠÐºÐ¾Ð¼Ð°Ð½ Ð´Ð°
ĠÐ¿Ð¾Ð¼Ð¾Ð³ Ñĥ
ĠÐŀÑĤÐº ÑĢÑĭÐ²
ÑĩÐµÑģ ÐºÐ¸Ñħ
ĠÐ¿ÑĢ Ð¾ÑĢÑĭ
ĠÐ·Ð°Ð¼ÐµÑĩ Ð°Ð»
ĠÐ¨ Ð¸Ð½
ĠÑĪÐ¸ ÑĢÐµ
ĠÐ³Ð¾ÑĢ Ð´
ĠÐ»Ð¸ ÑģÑĤÑĮ
ĠÐºÑĢÐ°ÑģÐ¸Ð² ÑĭÐµ
ĠÐ±Ð¾Ð¹ ÑģÑı
ĠÐ¿Ð°Ð»Ð° ÑĤ
ÑĨÐ¸ Ðº
Ð¸Ð¼Ð¾ ÑģÑĤÐ¸
ĠÑģÐ¿ÑĢÐ°ÑĪ Ð¸Ð²Ð°ÑĤÑĮ
ĠÐ¿Ð¾Ð´Ð¼Ð¸Ð³ Ð½ÑĥÐ»
ĠÐ·Ð°Ð¿ Ð¾Ð»
ĠÐ³Ð¾ÑĢÑı ÑĩÐ¸Ð¹
Ðµ ÐµÐ¼
ĠÐ±ÑĢÐ¾Ñģ Ð¸ÑĤÑĮ
ĠÐ¿ÑĢÐ¸ÑģÐ¾ ÐµÐ´Ð¸Ð½
ĠÐ´Ð² ÐµÐ½
ĠÐ¿Ð¾Ð»Ð¾Ð¶ ÐµÐ½Ð¸Ð¸
ĠÐ¼Ð°Ðº ÑĥÑĪÐºÑĥ
ĠÐºÐ¾Ð¶ ÐµÐ¹
ĠÐ½Ð°Ðº ÑĢÑĭÐ²
ĠÐ¿Ð¾Ð³Ð»Ð°Ð´ Ð¸Ð»
ĠÑĤÑĢÑĥ Ð´Ð°
ĠÐ½ÐµÐ² Ð°Ð¶Ð½Ð¾
Ð¾Ðº Ð°Ð³Ðµ
ĠÐĶ Ð¾ÑĢ
ĠÑĢÐ°Ð·ÑĥÐ¼ ÐµÐµÑĤÑģÑı
ĠÑĪÐºÐ°ÑĦ Ñĥ
ĠÐ¶Ð´ ÑĳÑĤ
ĠÐ½ÐµÐ³ Ð¾Ð´
ĠÐ¼ÑĥÑģ Ð¾ÑĢ
Ð° ÑĢÐ°ÑĤ
ĠÐł ÐµÐ±ÑıÑĤÐ°
ĠÐ£ Ð´
Ð°Ñħ Ð°
Ð¸Ð· Ð¸
ĠÐ¿ÑĢÐ¸ÑĩÐ¸ Ð½Ñĭ
ĠÐ¿Ð¾ÑĢ Ð¾Ð³
ĠÐ¿ÑĢÐ¾Ð± ÑĥÑĢ
Ð°Ð½ ÐºÐ°
ĠÐ¿ ÑĥÐ½Ðº
ĠÑģÐ»Ð°Ð± Ð¾ÑģÑĤÑĮ
ĠÑįÐ»ÑĮÑĦ Ð¸Ð¹
ĠÐ³Ð¸Ð»ÑĮÐ´Ð¸ Ð¸
Ð¾ ÑĪÐ¸
ĠÐ¿Ð¾Ðº Ð¾ÑĢ
ÐµÐ³ Ð°Ñı
ĠÑģ ÑĥÐ±
ĠÑĢÐ°Ð· ÑĢÑıÐ´
ÑĢÐ°Ð½ Ð´Ð°
ĠÐ¿Ð¾Ð¼ Ð¾Ð»
ĠÐ½ÐµÐ³ ÑĢÐ¾Ð¼ÐºÐ¾
Ð½ÑĥÑĤ Ñĭ
ĠÐ¾ÑĤÐ¿ ÑĥÑģÑĤÐ¸ÑĤÑĮ
ĠÐļÐ°Ðº Ð¾Ðµ
ĠÐ·Ð°ÑħÐ¾Ñĩ ÐµÑĤ
ĠÐĿ ÐµÐ»ÑĮÐ·Ñı
ĠÐłÐ°Ð· ÑĥÐ¼
ĠÐ½ÐµÐ´ Ð°Ð²
Ð°ÑĤ Ð¾Ð³Ð¾
ĠÐ¾Ð¿ Ð°Ð·Ð´
Ð¡ ÐµÑĢ
ĠÐ¿Ð¾Ð·Ð²Ð¾ Ð½Ð¸Ð»
ÑĮ ÐµÐ¼
Ð°ÑĢ Ñı
ĠÑģÐ¸Ð»ÑĮ Ð½ÑĭÐ¼
Ð²ÐµÑĢ Ð³
ĠÐ» ÐµÐ´
ĠÐ¿ÑĢÐ¾ÑģÑĤ Ð¾Ð¹
ĠÐ¿Ð¾Ð´ Ð½Ð¾Ñģ
ĠÐºÐ»Ð°Ñģ ÑģÐµ
ĠÐ±ÑĢÑİ ÐºÐ¸
ĠÑĩÑĥÐ²ÑģÑĤÐ² Ð°Ñħ
ĠÐ¼ ÑĳÑĢÑĤ
ĠÐĶÐ°Ð² Ð°Ð¹ÑĤÐµ
ĠÐ´Ð¾ ÑģÑĤÑĥÐ¿
ĠÐ¾ÑģÑĤÐ°Ð² Ð°Ð»ÑģÑı
Ð½ Ð°Ð¹
ĠÐº ÑĢÐ¾ÑĪ
ĠÑģÐ¾Ñģ ÐºÑĥÑĩ
ĠÐ¿ÐµÑĢÐµÐ´ Ð°ÑĤÑĮ
ĠÐ´Ð² Ð¾ÑĢÐµ
ĠÑıÐ·Ñĭ ÐºÐ°
Ñģ ÐºÐ°
Ð¾Ðº ÑĥÑģ
ÑĢÐ¸ Ñħ
Ð» ÐµÑģÐº
ĠÐ§ Ð¸Ð¼Ð¸Ð½
ĠÐ³ ÐµÐ½ÐµÑĢ
ĠÐĴ Ð¸ÐºÐ°
ĠÐ½Ð°ÑĪ Ð¸Ð¼
ĠÐļ Ð¸ÑĢÐ°
Ð°ÑİÑīÐµÐ¹ ÑģÑı
ĠÐºÑĢÐ°Ñģ Ð°Ð²Ð¸
ĠÐ¿Ð¾ ÐµÑħÐ°Ð»Ð¸
ĠÐ´Ð¾Ð¼ Ð¾Ð²
ĠÐ¿Ð»Ð° Ð½Ð¸
ĠÐ½Ð¾Ñģ Ð°
ĠÐ¿ÑĢ ÐµÐ»
ĠÑħÐ¼Ñĭ ÐºÐ½ÑĥÐ»Ð°
ĠÐł Ð¸Ðº
Ð¿ ÑĢÐ¾
ĠÐ¶ÐµÐ½Ñī Ð¸Ð½
ĠÑĤ Ð°ÑĤÑĥ
ĠÐ¿ÐµÑĢÐµ ÑħÐ¾Ð´
ĠÐ³Ð»Ð°Ð² Ð½ÑĭÐ¹
ĠÐ¿ÑĢÐ°Ð² Ð¸Ð»
Ñį ÑĪ
ĠÐ¾ÑĤÐºÑĢÑĭÐ² Ð°ÐµÑĤ
ĠÐ¿Ð¾Ð· Ð´
ĠÐº Ð¸Ð´Ð°
ĠÐ´Ð¾ÑģÑĤ Ð°ÑĤÑĮ
ĠÐ¿ÑĢÐµÐ´ÑģÑĤÐ°Ð²Ð»Ñı ÐµÑĪÑĮ
Ð°ÑĤ Ð¾Ð¹
Ð¸ÑĤ Ð¾Ð³Ð¾
ĠÐ¾ÑģÑĤÐ°Ð»ÑĮ Ð½Ð¾Ðµ
ĠÑĥÑģÑĤÑĢÐ¾ Ð¸ÑĤÑĮ
ĠÐ¾Ð³ ÑĢÑĭÐ·
ĠÐºÑĢÑĥÐ¶ ÐºÑĥ
ĠÐĲ ÑĢÐ¸
ĠÐ¿ÑĢÐ¾Ð² ÑĳÐ»
ĠÐ· ÐµÐ»ÑĮ
Ð¿ Ð¾Ð»
ĠÐŁÐ¾Ð» ÑĥÑĩ
ĠÐ¿ÑĢÐµÐ´ÑģÑĤÐ°Ð²Ð»Ñı Ð»
ÐŁ ÐµÑĢÐ²
Ð³Ð¾ Ð»ÑĥÐ±
ĠÑĤÑĢÐ°Ð½ Ñģ
ĠÐ¾ÑĤÐ¾ ÑĪÐµÐ»
ĠÐĲÐ» Ð»ÐµÐ½
ĠÐ¯ Ð¼
ĠÐ½Ð°ÑģÑĤÐ¾Ð¹ ÑĩÐ¸Ð²Ð¾
ĠÐ°Ð²ÑĤÐ¾Ð± ÑĥÑģ
ĠÐ²ÑģÑĤÑĢÐµÑĩ Ðµ
ĠÐ¾ÑģÐ¾Ð± Ð½Ñı
Ð´Ð° ÑĢÐ°
ĠÐ¼Ð¾Ð· Ð³Ð¸
ĠÑĢÐ°ÑģÑĪÐ¸ ÑĢ
ĠÐ·Ð°Ñģ Ñĥ
ĠÐ¿Ð¸ ÑģÐº
ĠÐ¿ÑĢÐ¸Ð¼ ÐµÑĢÑĥ
ĠÐ·Ð°ÐºÐ¾Ð½Ñĩ Ð¸Ð»Ð°
ĠÐ²ÐµÐ´ ÐµÑĤ
ĠÐ³Ð»Ð°Ð² Ð°
" ...
ĠÐ¿ÐµÑĢÐµÐ² ÐµÐ»Ð°
Ñı ÑīÐ¸Ðµ
ĠÐ¶Ð´ ÑĥÑĤ
ĠÑģÐ»ÐµÐ´ Ð¸ÑĤÑĮ
ĠÑįÐ½ÐµÑĢÐ³ Ð¸Ð¸
ĠÐ¿Ð¾ÑĢ ÐµÐ·
ĠÑĩÐµÐ»Ñİ ÑģÑĤÑĮ
ĠÑģÐ¾Ð±Ð¸ÑĢÐ° ÑıÑģÑĮ
ĠÐ¿Ð»ÐµÐ¼ ÑıÐ½
ÑģÑĤ ÐµÑĢÐ°
ĠÐ²Ð¾Ñģ Ðº
ÐµÐ½ Ð½Ð°
ĠÐ¿ÑĢÐ°Ð·Ð´ Ð½Ð¸Ðº
Ð»Ð° ÑĤÑĮ
ÐĿÐ¸ ÑĩÐµÐ³Ð¾
ĠÐ¾Ð³ÑĢÐ¾Ð¼ Ð½Ð¾Ðµ
ĠÐł ÐµÐ´
Ð· Ñĥ
ĠÑģÐ¾Ð±Ð¸ÑĢÐ° ÐµÑĪÑĮÑģÑı
ĠÑĦÐ¸Ð³ ÑĥÑĢÑĥ
ĠÑĥ ÐµÑħÐ°Ð»
ĠÑĤÑĥ ÑģÐº
ĠÐ¨ÐµÐ¿ Ð°ÑĢÐ´
ĠÐ»Ð¾ÐºÐ¾ ÑĤÑĮ
ĠÐ¶Ð¸Ð² ÑĭÑħ
ÐµÑĩ ÐºÐ¸
ĠÐ²Ñĭ Ð³Ð»ÑıÐ´ÐµÑĤÑĮ
Ð¸Ð· Ñĥ
ĠÐ¾ÑĤ ÑĭÑģÐº
ĠÑģÐ¸Ð» Ð°Ð¼Ð¸
ĠÐ¾ÑĦ Ð¸Ñģ
ĠÐ¿Ð¾Ð»ÑĥÑĩ Ð¸Ð»Ð°
ĠÐ¿Ð¾Ð±Ñĭ ÑĤÑĮ
ĠÐ·Ð° ÑĤÐ¸Ñħ
ĠÑģÑĤÑĥ Ð»Ðµ
ĠÐ¾ÑĤÐºÐ°Ð· Ð°Ð»ÑģÑı
ĠÐ±ÐµÑģÐ¿Ð¾Ð»ÐµÐ· Ð½Ð¾
ĠÑĥÑĩÐ¸ÑĤ ÑĭÐ²Ð°Ñı
ĠÐ¡ÐºÐ¾ÑĤ ÑĤ
o w
ÐµÐ³Ð¾ ÑĢÐ¸
ĠÐ½ÐµÐ½Ð°Ð²Ð¸ ÑģÑĤÑĮ
Ð½Ð¸ Ð³Ð°Ð¼Ð¸
ĠÐ± ÑĮ
ĠÑĤÐ² ÑĳÑĢ
ĠÑĩÑĥÐ¶ Ð¸Ðµ
ĠÑģ ÐµÐ²
ĠÑģÐµÑĢÐ´ ÑĨÐµÐ¼
ĠÐ¼ Ð¸Ðº
ĠÐ¿Ð¾ÐºÑĢÐ°Ñģ Ð½ÐµÐ²
ĠÐ¿Ð°Ð»Ð° ÑĤÑĥ
ĠÐļÐ»Ð° ÑĢÐº
ĠÐ½Ð°Ð· Ð²Ð°Ð»
ĠÐ²ÑĭÑĤ Ð°ÑģÐº
ĠÑĢÐ°Ð² Ð½Ð¾Ð²ÐµÑģ
ĠÐºÐ¾Ñģ Ð½ÑĥÐ»Ð°ÑģÑĮ
ÐµÐº Ðµ
ÑĭÐ² Ð°Ð¹
ĠÐ²Ð°Ð¶ Ð½Ð¾Ðµ
Ð°ÑĤÐµÐ»ÑĮ ÑģÑĤÐ²Ð°
Ð¾Ñĩ ÐµÑĤ
ĠÐºÐ¾Ð¼Ð¿ Ð°Ð½Ð¸Ñı
ĠÐ± Ð»ÑıÑĤÑĮ
ĠÐ½Ð°Ñĩ Ð°Ð»Ð°ÑģÑĮ
ĠÐ¾ÑĤÐ²ÐµÑĩ Ð°Ð»
Ð»Ð¾ ÑĪ
Ð¾Ð² ÑĥÑİ
ĠÐ·Ð°Ð± Ð¾Ð»
ĠÐ¾Ð±Ð¸Ð¶ ÐµÐ½Ð½Ð¾
ĠÐ¢Ð¸Ñħ Ð¾
Ð»Ð¸ÑĤ ÑģÑı
ĠÑĢÐµÑĪ Ð¸ÑĤÑĮ
ĠÑĤÐ¾Ð» Ð¿Ñĭ
ĠÐ´Ð²ÐµÑĢ ÑıÑħ
ĠÐ¾ÑĤÐ¿ÑĢÐ°Ð² Ð¸ÑĤÑĮÑģÑı
ĠÐĴÐ¸Ð½ÑĩÐµÑģÑĤ ÐµÑĢ
ĠÐĵÐ¾Ð» Ð¾Ð²Ð°
ĠÑģÐ°Ð¼ Ð¸Ð¼
ĠÐĶÐ¶Ðµ ÑĦÑĦ
ÑĤÐ¾ÑıÑĤ ÐµÐ»ÑĮÐ½Ð¾
ĠÐ²Ð¸Ð½Ð¾Ð²Ð°ÑĤ Ð°
Ð°ÑĤÐµÐ»ÑĮ ÑģÑĤÐ²Ð¾
ĠÐ¾ÐºÑĥ ÑĤ
Ð°Ð¹ Ð´Ñı
ĠÐ·Ð°Ð¼ Ð°Ñħ
ÐµÐ² Ð¾
ĠÐĶ ÐµÐ»Ð¾
ĠÐ±Ð°ÑĢ Ñħ
Ð°Ð»ÑĮ Ð·
ĠÑĢÐ°Ð·Ð² ÐµÐ´
ĠÐ¿Ð¾Ð´Ð· ÐµÐ¼
ĠÐ²Ð· Ð»ÐµÑĤ
ĠÐ½Ð°Ð´ÐµÐ¶ Ð´Ð°
ĠÐ¿ Ð»Ð¸
ĠÐºÐ¾Ð» Ð¾ÑĤ
ĠÐ¿ÑĢÐ¾Ð¸Ð³ Ð½Ð¾ÑĢÐ¸
Ð¸ ÐºÑĥ
ĠÐ»ÐµÐ· Ð²
ĠÑģÐ²ÐµÑĤ Ð»ÑĭÐµ
ĠÐ¿Ð¾Ñģ Ð¼Ð¾ÑĤÑĢÐ¸
ĠÑĤÑĢ ÐµÑģ
ĠÐ´ Ð¾Ð¶Ð¸Ð´Ð°
ĠÐ·Ð° ÑĪÐ¸
ÑĢÐ°Ð½ ÑĮ
ĠÐºÐ¸ Ð¿
ĠÐ»ÐµÐ³ ÐºÐ¸Ðµ
ĠÑģÐ»ÐµÐ´ÑĥÑİ ÑīÑĥÑİ
ÑĢÐ°Ñģ Ð»ÐµÑĤ
ĠÐ½Ð°Ð´ ÐµÐ¶Ð´Ðµ
ĠÐ¸ÑģÐ¿ÑĥÐ³ Ð°Ð»ÑģÑı
ĠÐĵ Ð¾Ð»Ð¾Ñģ
ÐµÑĢ Ð·
Ñį Ñį
ĠÐºÐ¾Ð» ÐµÐ½Ð¾
ĠÐ·Ð°Ð² ÑĤÑĢ
ĠÐ½Ðµ ÑħÐ¾ÑĤÑı
ĠÐ¿ÐµÑĢÐµÐ¼ ÐµÑģÑĤ
ĠÐ¿Ð¾Ðº Ð¾Ðµ
ĠÑĢÐ°Ð·Ð³Ð¾Ð²Ð°ÑĢ Ð¸Ð²Ð°Ð»Ð¸
ĠÐ»ÐµÑģÑĤ Ð½Ð¸ÑĨÑĭ
ĠÐ´Ð² Ð¾Ð¹
ĠÐºÑĥ Ð·
ĠÑģÑĥ ÑĤÐ¸
ĠÑħÐ¾ÑĢÐ¾ÑĪ Ð¸Ð¼
ĠÐ²ÑģÑĤÐ°Ð² Ð°ÑĤÑĮ
ĠÐĹ Ð°Ð´
Ðŀ Ñĩ
ĠÐ¿Ð¾Ð´ÑĥÐ¼ Ð°Ð²
ĠÐ´ Ð¾Ð±Ñĭ
ĠÐ¿Ð¾Ð¼Ð¾Ð³ Ð°ÐµÑĤ
ĠÐ¿ÑĢÐ¾ÑĤÐ¸Ð² Ð½Ð¾
ĠÐ½Ð¸ Ñĩ
ĠÑĩÐ° ÑģÑĤÑĮÑİ
ÑĤÑĭ ÐºÐ°
ĠÑģÐ¾Ð¼Ð½ÐµÐ² Ð°Ð»ÑģÑı
Ð¸ÑĢ Ð°Ð»ÑģÑı
ĠÑģÐ¿ÑĥÑģÑĤ Ð¸Ð»Ð°ÑģÑĮ
Ð¿ ÐµÑħ
ĠÑģ Ð½Ð¾Ð²
ĠÐĺ ÑĢ
ĠÑģÐ¾Ñģ ÑĤÐ¾
Ð» ÑĭÐ²
ĠÐ²Ð· ÑıÐ»Ð¸
ĠÐº Ð¾ÑĤÐ°
ĠÐ½ÐµÐ½ Ð¾ÑĢÐ¼
ĠÑįÐºÑģÐ¿ ÐµÑĢÐ¸Ð¼
ĠÐºÐ¾ÑĢ Ð¼
ĠÐ±ÑĢÐ¾Ñģ Ð¸Ð»Ð°ÑģÑĮ
ĠÐ¼Ð°Ñģ ÐºÑĥ
ĠÑĢÐ°Ð·Ð³Ð¾Ð²Ð¾ÑĢ Ñĭ
ĠÐ²ÑĭÐ´ Ð°Ð»
ĠÑĪ ÑĳÐ¿
ĠÐ¿ÐµÑĢ ÐµÑĢ
ĠÑĩÐµÑĤ ÐºÐ¾
ĠÑģÐº Ð¾Ð¼
ĠÑģÐ¿Ð¾ÑĢ ÑĤÐ¸Ð²
ĠÐĽÐµÐº Ñģ
ĠÑĢÐ°ÑģÑģ Ð¼Ð¾ÑĤÑĢÐµÑĤÑĮ
ÑĮ ÐµÑĢ
ĠÑģ Ð»Ð¸Ð²
ĠÐľ ÐµÐ¹
ĠÐºÐ°ÑĢÑĤÐ¸ Ð½Ñĭ
ĠÐ§Ð¾Ð½ Ð³ÑĥÐº
ĠÐ¾ÑģÑĤÐ°Ð»ÑĮ Ð½ÑĭÐ¼
ĠÐ½ÐµÑĤ ÐµÑĢÐ¿
Ð°Ð½ Ð´ÑĢ
ĠÑģÐ¾Ð±ÑģÑĤÐ²ÐµÐ½ Ð½ÑĭÐµ
ÑĩÐ¸ ÐºÐ¾Ð²
ĠÐ¿Ð¾ÑģÑĤÐ°Ð² Ð¸ÑĤÑĮ
ĠÐ±ÑĢÐ°ÑĤÑĮ ÐµÐ²
ĠÐ»Ð¸Ñħ Ð¾ÑĢÐ°Ð´
ĠÑģÐµÑĢÐµÐ± ÑĢÑı
ĠÐ¿ÑĢÐ¸Ð¶Ð¸Ð¼ Ð°ÑıÑģÑĮ
ĠÐ¼Ð°Ð¼ Ðµ
ĠÑģÐ»ÐµÐ´ÑĥÑİ ÑīÐµÐµ
ĠÐ²Ñĭ ÑģÐ¿
ĠÐĶÑĥÐ¼ Ð°ÐµÑĪÑĮ
ĠÐ½Ð°Ð¹ Ð´Ñĥ
ĠÐº Ð°Ð¼Ð¸
ĠÐ½Ð°Ð´ ÐµÑıÑĤÑĮÑģÑı
ĠÐ·Ð½Ð°Ñĩ ÐµÐ½Ð¸Ñı
Ð¾Ð» Ð³
ĠÑĩ Ð°ÑĢ
Ð´Ð¸ Ð½Ð°
Ð°Ñİ ÑīÐ¸ÐµÑģÑı
ĠÐĶ Ð°Ð½Ð¸
ĠÑĥÑĢÐ¾Ðº Ð¸
ĠÑģÐ»ÑĥÑĩ Ð¸ÑĤÑĮÑģÑı
ĠÐ¾ÑĤÐºÑĢÑĭÐ² Ð°ÑĤÑĮ
Ð¼ ÑģÐ°
ĠÐĴ Ð½ÑĥÑĤÑĢÐ¸
ĠÐ´Ð¾ÑģÑĤÐ¾ Ð¸Ð½
Ð°ÐµÑĤÐµ ÑģÑĮ
ÐµÐ½Ð°Ð² Ð¸Ð¶Ñĥ
ĠÐ¿Ð¾Ð² ÐµÑĢÑĮ
ĠÐ¿Ð¾ÑĤ ÐµÐº
ĠÑĤÐµÐ»ÐµÐ²Ð¸Ð· Ð¾ÑĢ
ĠÐ± Ð¸Ð»
ĠÐ¤ Ð¸
ĠÐ¾ÑĤÑģÑĥÑĤÑģÑĤÐ² Ð¸Ðµ
Ð¸ÑĤÐµÐ»ÑĮ Ð½ÑĥÑİ
ĠÐ¸ÑģÐ¿ÑĭÑĤ ÑĭÐ²Ð°Ð»
ÑĢ ÐµÑĩ
ĠÐ¶Ð¸Ð² Ð°
ĠÐĽ ÐµÐ³
Ð¸Ð²Ð°Ñİ ÑīÐµ
ĠÑĨÐµÐ» Ð¾Ð¼
ĠÑĢÐµÑģ Ð½Ð¸ÑĨ
ĠÐļÑĢÐ¸ ÑģÐ°
ĠÑĩÑĥÐ´ Ð¾Ð²
ĠÐ¾ÑģÑĤÐ°Ð½Ð¾Ð² Ð¸Ð»Ð¸ÑģÑĮ
Ð°Ð»ÐµÐº Ñĥ
ĠÑĢÐ°ÑģÐº ÑĢÑĭ
ĠÐĿÐ¸Ðº Ð¸ÑĤÐ°
ĠÐĶÑĢÐ°Ð³ Ð½Ð¸Ð»
ĠÐ»ÐµÐ¶ Ð°ÑĤÑĮ
ĠÐ¼Ð½Ð¾Ð³Ð¾ ÑĩÐ¸Ñģ
ĠÐ¾ÑģÐ¾Ð· Ð½Ð°Ð»
ÑģÑĤÐ°Ð²Ð»Ñı Ñı
Ð¸ÑĤ Ñı
Ð»Ð¸Ð² Ð¾Ð¹
ĠÐ½Ð°Ð¿ÑĢÐ°Ð² Ð»ÑıÑıÑģÑĮ
ĠÐ¾ÑĤ Ð´Ð°
Ð½Ñĥ ÑĤÐ°
ÐµÐ¹ Ð·
ĠÑĤÐ¾Ñĩ ÐºÐ¸
ĠÐ¼Ð¾Ð» ÑĩÐ¸ÑĤ
ĠÐ²Ð· Ð¾ÑĢ
ĠÑĥÐ´Ð¸Ð² Ð»ÐµÐ½
ĠÐ¾ÑĤ ÑĤÐ°Ð»Ðº
ÐµÐ½ ÐµÐ»
ĠÐ¿ÑĢÐµÐ´ ÐµÐ»Ð°
ĠÐ²ÑģÑı ÐºÐ¸Ñħ
ĠÐ²Ñĭ ÑĢÑĥÐ³
ĠÐ¸Ð´ ÑĥÑĤ
ĠÐĶ ÐµÐ½ÑĮ
ĠÐ¡ Ð¸Ð»ÑĮ
ĠÐ·Ð°ÑħÐ¾ÑĤ ÐµÐ»
ĠÐ¼ÐµÑħ Ð°Ð½Ð¸
ĠÐ¿ÑĢÐ¾Ð²Ð¾Ð´ Ð¸ÑĤ
Ð¾Ñĩ Ð½Ð¾Ð¹
ĠÐ£Ð²Ð¸Ð´ ÐµÐ²
a c
ĠÐ´ÑĢÑĥÐ·ÑĮÑı Ð¼
ĠÑĢÐ°ÑģÐ¿ Ð¸Ñģ
ĠÑĨÐµÐ»Ð¾Ð² Ð°Ð»
Ð¿Ñĥ ÑģÑĤÐ¸
ĠÑĥÑģ ÐµÐ»ÑģÑı
ĠÐºÐ¾Ð½ÑĤÑĢÐ¾Ð» Ð¸ÑĢÐ¾Ð²Ð°ÑĤÑĮ
ĠÐº Ð¾Ð¹
ĠÐĺ ÑģÐ¿
Ð°Ñģ Ñĥ
ĠÑıÐ·Ñĭ ÐºÐµ
ĠÐ¿Ð¾Ð´Ð¾Ð¶Ð´ Ð°ÑĤÑĮ
ĠÐ²Ð¾Ð» Ð½ÐµÐ½Ð¸Ñı
ĠÐ¼ÐµÐ´ ÑģÐµÑģÑĤ
ĠÐĶ ÐµÐ»
Ð»ÑĭÑĪ Ð°Ð²
ĠÑĦ Ð¾Ð½Ðµ
ĠÑĤÐ²Ð¾ ÐµÐ¼
ÐĲ Ðļ
ĠÐ¼ ÑĢÐ°ÑĩÐ½Ð¾
ĠÐ± Ð¾ÑĢÐ¾ÑĤÑĮÑģÑı
ĠÐ½Ð°Ð¿ÑĢÑıÐ¶ ÐµÐ½Ð¸Ðµ
ĠÐ½ÐµÐº ÑĥÐ´Ð°
ĠÐļ Ñį
ĠÐ½ÐµÐ²ÑĭÐ½Ð¾Ñģ Ð¸Ð¼Ð¾
ĠÐ´Ð¸ÑĢÐµÐº ÑĤÐ¾ÑĢÐ°
ĠÐ¢Ð¾Ð¼ Ð°
ĠÐĶÐ¶ÐµÐ¹ Ðº
ĠÐ¾Ð± ÑīÐµ
ĠÐ²ÑĭÐ¿ ÑĥÑģÐº
ĠÑĢÐµÑĪ Ð¸Ð»ÑģÑı
ĠÐ¾Ð· Ð°Ð´Ð°Ñĩ
Ð²Ð¸ ÑģÑĤ
ĠÐ³Ð¾ ÑģÑĤÑĮ
ĠÐ²Ñģ Ð¼Ð°ÑĤÑĢÐ¸Ð²
ĠÑıÑĢÐ¾ ÑģÑĤÑĮ
ÑĢÑĭÐ³ Ð½ÑĥÐ»Ð°
ĠÑĤÐµÐ¼ Ð¿
ĠÐĿÐ¸ ÐºÐ°
ÑĤ ÑģÑı
ĠÐĺÐ· Ð°Ð±
Ð¸Ð· Ð½ÐµÑģ
ĠÑĤÐµÑĢ Ð·
ĠÐ»ÐµÐ¶ Ð°
ĠÐ¶ÐµÐ½ Ñĭ
ĠÐ»ÑİÐ± ÑĥÑİ
ĠÑĨ Ð¸
ĠÐŁÐ¾Ð´ Ð¾Ð¶Ð´Ð¸
Ñĩ Ð°Ð»ÑģÑı
Ð´ Ð¾Ð²
ĠÐ§ ÐµÑģÑĤÐ½Ð¾
ĠÑģÐ¿ÑĢÐ°ÑĪ Ð¸Ð²Ð°Ð»
ĠÑĢÐ°Ð½ ÐµÐ½
Ñĳ Ð±
ĠÑĥÑģÐ¿ Ð¾ÐºÐ¾Ð¹ÑģÑı
ĠÐ¥ Ð¾ÑĢ
ĠÐ´ÐµÑĢ Ð·
Ð¾Ð¼ Ð¸Ð½Ðµ
ĠÑģÑĤÐµÐ½ Ð°Ñħ
ĠÑģÐ¾ÑĤ Ð½Ð¸
ĠÐº ÑĢÐ°ÑĤ
ĠÐ¸Ð½ÑģÑĤ ÑĢÑĥ
ĠÐ½Ð° ÑĢÑıÐ´
ĠÐ³ Ð¸Ð³
Ð¼Ðµ ÑıÐ»Ð¸ÑģÑĮ
ĠÐ¾ÑĤÑĢÐ¸ÑĨ Ð°ÑĤÐµÐ»ÑĮÐ½Ð¾
ĠÐ»Ð¸ Ð¿
ĠÐ²Ð°ÑĪ Ñĥ
Ð½ Ð¸Ð»ÑģÑı
Ñĥ ÑĤÐ¸
ÑĤÐ¾ ÑĢÐ¾Ð²
ÑĥÐ¼ Ð°
ĠÐ¾Ð¿ÑĥÑģÑĤ Ð¸Ð»Ð°ÑģÑĮ
ĠÑĢÐ°Ð·Ð² Ð»ÐµÐº
ĠÐº Ð¾Ð²Ð°ÑĢ
ĠÐ£ Ñĩ
ĠÐĹÐ´ÑĢÐ°Ð²ÑģÑĤÐ²ÑĥÐ¹ ÑĤÐµ
ĠÑĩ ÐµÐ»
Ð¸ ÑĨÑĥ
ĠÑĤÐ¾Ð½ ÐºÑĥÑİ
ĠÐŀ Ð³Ð¾
ĠÐ¿ÑĢÐ¸Ð· Ð½Ð°ÑĤÑĮ
Ð½ÑĮ Ðµ
ĠÑģÐ¼ ÐµÑı
ĠÑĤÐ¾Ð» ÐºÐ½ÑĥÐ»
ĠÐº ÑĥÐ±
ĠÐ¾ÑĤ ÑĢÐ°Ð²
ÐµÐ¹ÑģÑĤÐ² Ð¸ÑĤÐµÐ»ÑĮÐ½Ð¾
ĠÐ¾ÑĤÐ½Ð¾ÑĪ ÐµÐ½Ð¸Ðµ
Ð» ÐµÑĢ
ĠÐ¸Ð½ ÑĤ
Ð³ Ð¾Ð¼
ĠÐ¾Ðº Ð»Ð¸
ĠÐ½Ð° ÑģÑĤÐ°
ĠÐ¾Ð¶Ð¸Ð´ Ð°ÑĤÑĮ
ĠÐ·Ð°Ð± ÑĥÐ´
ĠÑĥÐ´Ð° ÑģÑĤÑģÑı
ĠÑĤÑĢ ÐµÐ·
ĠÐľÐ¸Ñħ Ð°
ÐĿ Ð°Ð²ÐµÑĢ
ĠÑĥÑĩÐµÐ½Ð¸ ÐºÐ¾Ð²
ĠÐ¼Ð°Ð¼ Ð¾Ð¹
ÑĭÐ² Ð°ÐµÑĪÑĮ
ÑĤÐ¾ÑĢ Ð¾Ð¶Ð½Ð¾
ĠÐľÐ°ÑĢ Ð¸Ð½ÐµÑĤÑĤ
Ðļ Ð¾ÑĢ
ĠÐ³ ÑĥÐ»ÑıÑĤÑĮ
ĠÑīÐµÐº Ð°Ñħ
ÐµÑĩ ÐºÐ¾
ĠÐ¾Ð± Ð·
Ñħ Ñį
ĠÐ½ Ð¾ÑĢ
ĠÐĲ ÑģÑĤÑĢÐ¸Ð´
ĠÐ¿ÐµÑĢÐµÑģ ÐµÐº
ÑĥÐ¼ Ð°Ð½
ĠÐ½Ð°ÑģÐ»Ð°Ð¶ Ð´Ð°ÑıÑģÑĮ
ĠÐ¡ Ð°ÑĢ
ĠÐ¶Ð¸Ð² Ñĥ
ĠÑģÐµÑģÑĤ ÑĢÐ¾Ð¹
ÐµÐ½ ÐµÑĨ
Ð³ Ð»Ð°Ñģ
ĠÐ´Ð²Ð¸ Ð½ÑĥÐ»ÑģÑı
ĠÑģÐ¿Ð°Ð»ÑĮ Ð½Ð¸
ÑĬ ÑıÑģ
ĠÐ¿ÑĢ ÐµÐ³
ĠÐºÐ¾Ð½ Ð²ÐµÑĢ
ĠÐ¾ ÐºÐµ
ĠÐ·Ð°ÑģÑĤ ÑĢÑı
Ð¾Ð² Ð¾Ðµ
ĠÐ¾ ÑħÐ²Ð°ÑĤ
ĠÐ±Ð¾ÑĢ ÑĮ
ĠÑĦ Ð¾Ð½
ĠÐ¿Ð¾Ð³ Ð»Ð¾Ñī
ĠÐ´ Ð¾Ð³Ð¾
Ð°Ð² ÑĪÐ°Ñı
ĠÐĴÐ°ÑģÐ¸Ð»Ð¸ ÑģÐ°
ĠÐ¿Ð¾Ð· Ð°Ð²
ĠÑģÑĥ ÑĤÑĮ
ĠÐ¾Ð± ÑħÐ²Ð°ÑĤÐ¸Ð»
ĠÑĥ ÑħÐ²Ð°ÑĤ
ĠÐ¿ÑĢÐ¾ÑĤ ÑıÐ³Ð¸Ð²Ð°Ñı
ÑĩÐ¸ Ñı
Ð°Ð· Ð¼Ð°
ÐŁÐ¾Ñģ Ð»ÐµÐ´
ÑĮ ÑĤÐµ
ĠÑģÐ»ÑĥÑĪ Ð°Ñı
ĠÑĢÐ°Ð· Ð¶
ĠÐ¿Ð¾Ð´ Ð²Ð°Ð»
Ð°ÑĢÐ° Ñħ
ĠÐ¿ÐµÑĢÐµÑģÑĤ ÑĥÐ¿
Ð¸ÑĤ ÑĭÐ¼
ĠÐ½Ð°ÑĩÐ¸Ð½ Ð°Ð»
ĠÑĪ Ð»Ð¾
ĠÐŃÐ» Ð°Ð¹
ĠÐĵ Ð°Ð±ÑĢÐ¸
ĠÐµÑħ Ð¸Ð´Ð½Ð¾
ĠÐ¿ÑĢÐ¸Ð½ÑĨ ÐµÑģÑģ
ĠÑģÐ¿ Ð»Ñİ
ÐĶ Ð¸Ð½
Ñĭ Ð±
ĠÐ½Ð°ÑĩÐ¸Ð½Ð° ÑİÑĤ
ĠÐ¾ÑĤÐ½Ð¾ÑĪÐµÐ½Ð¸Ñı Ñħ
Ð°Ð´ÐµÐ¼ Ð¸Ð¸
ĠÑĤÑĭÑģÑı Ñĩ
ÑĩÐµÑģ ÐºÐ¸Ð¼
ĠÐĽ ÐµÐ½
ĠÐ¿Ð¾Ð¿ Ð¾Ð»
ĠÐĴ ÑģÐ¿Ð¾Ð¼
ĠÐ¢ ÐµÐ½
ĠÑģÐºÑĢÑĭÐ² Ð°ÑĤÑĮ
Ġ M
ĠÐ¿ÑĢÐ¾Ñģ Ð¸ÑĤÑĮ
ĠÐ¿Ð¾ÑģÑĤÑĥÐ¿ Ð¸ÑĤÑĮ
ĠÑĥÐ½Ð¸ÑĩÑĤÐ¾Ð¶ Ð¸ÑĤÑĮ
Ð½Ð¸ ÑģÑĤ
ĠÑĥÐ¶ Ð¸Ð½Ð°
ĠÐ²Ð¾Ð»Ð½Ð¾Ð² Ð°ÑĤÑĮÑģÑı
ÑĤÐ¸ Ñİ
ĠÐ¡ Ð¼Ð¾ÑĤÑĢ
ĠÐ²ÐµÑĩ Ð½Ð¾ÑģÑĤÑĮ
ĠÐ¿ÑĢÐ¾ÑģÑĤÐ¾ ÑĢ
ĠÐ¡ÑĤÐ¸Ð» Ð¸Ð½ÑģÐºÐ¸
ĠÐ¾ÑīÑĥÑī Ð°Ð»
ĠÐ´Ð¾Ð± ÑĢ
ĠÑĢÐ°Ð·Ð±ÑĥÐ´ Ð¸ÑĤÑĮ
ĠÐ¿Ð¾Ð³Ð¾Ð²Ð¾ÑĢ Ð¸Ð¼
Ð»ÐµÐº Ñģ
ĠÐ²Ð¾ ÑģÑĮ
ĠÐĸÐµÐ½ ÑīÐ¸Ð½Ð°
ÐµÐº Ñģ
ĠÐ¿Ð¾Ð½Ñı ÑĤ
ĠÐļ ÑĢ
ĠÑģÑĥÐ¼ ÐµÐ»
ĠÑĦÑĢÐ°Ð· Ñĭ
ĠÐ¼Ð¾Ð» ÑĩÐ°ÑĤÑĮ
ĠÑıÑĢÐ¾ÑģÑĤ Ð½Ð¾
ĠÐ´Ð¾ Ð½ÐµÑģ
ĠÐ¿ÑĢÐ¾Ð± ÐµÐ¶
ĠÐ¿ÑĢÑı ÑĩÐ°
ĠÐĿÐ¸Ðº Ð¾Ð»
ĠÐ¸ÑģÐ¿ÑĢÐ°Ð² Ð¸ÑĤÑĮ
ĠÐ¼Ð°Ð»ÑĭÑĪ ÐºÐ°
Ð² ÐµÐ¹
ĠÐ±ÐµÑģÐºÐ¾ Ð½ÐµÑĩÐ½Ð¾
ĠÐ½Ð°Ð¿ Ð¾ÑģÐ»ÐµÐ´Ð¾Ðº
ĠÐ²ÑģÑĤÐ°Ð² Ð°Ñı
ĠÐ¿Ð¾Ð½ÑĢÐ°Ð² Ð¸Ð»ÑģÑı
ĠÐ´Ð¾Ð²ÐµÑĢ ÑıÑĤÑĮ
ĠÑĤÐºÐ° Ð½Ð¸
ĠÐµ Ð»
ĠÐ» Ð¾Ð´
ĠÐ¿Ð¾Ð· Ð¸
ĠÑĢÐµ Ð°Ð³
ĠÐ¿ ÐµÑĤ
ĠÐ¿Ð¾Ð¿ÑĥÑĤ Ð½Ð¾
ĠÐ½ÐµÐ´ Ð¾ÑģÑĤ
Ð¸Ð´ Ð¾ÑĢ
ĠÐĿ Ð°Ð¼Ð¸
ĠÐĽÑİÑĨÐ¸ ÑĥÑģ
ĠÐ¿ÑĢÐ¾Ð·Ð²ÑĥÑĩ Ð°Ð»
ĠÐ¿Ð¾ÑĤ Ð°
ĠÑģÐ² Ð¸ÑģÑĤ
ĠÐ³Ð»Ñı Ð½ÑĥÐ»
ĠÐ½ÐµÐ½Ð°Ð² Ð¸ÑģÑĤÐ¸
ĠÐ½Ð°ÑģÐ¼ÐµÑĪ Ð»Ð¸Ð²Ð¾
ĠÐ¼ÑıÐ³ ÐºÐ¸Ðµ
ĠÐ¿Ð¾ÑĨÐµÐ»Ñĥ Ð¸
ĠÐ±ÑĢÐ°ÑĤÑĮ Ñı
ĠÐ¿ÑĢÐµÐ´Ð² ÐºÑĥÑĪ
ĠÐ¾ÑĤ ÑĬ
ĠÐ¶ Ð³
ĠÐ¿ÐµÑĩ Ð°Ð»ÑĮÐ½Ð¾
ĠÐ·Ð°Ð¼ ÐµÐ´
â Ķ
ĠÑĥÐ± ÑĢÐ°ÑĤÑĮ
ĠÐ¾ÑĤ ÑĢÐ°Ð·
ĠÐ½Ð°ÑĩÐ°Ð» Ðµ
ÐµÐ¹ÑĤ ÐµÐ½
ÐµÑģ ÐºÐ¸
ĠÐľ Ð¸Ð½Ð°
ĠÑĥÐ¿ ÐµÑĢ
ÐµÑĢÐ¸ Ð¸
ĠÐľ ÑįÐ¹
ĠÐ¢ ÐµÑĢ
Ñĥ ÑģÐ¿
ĠÑĤÐ°Ð½ÑĨ ÐµÐ²Ð°ÑĤÑĮ
Ð´ ÐµÐ²
ÐµÐ½ÑĮ ÐºÐ°
ĠÐ¾Ñģ Ð¾Ð±Ñĭ
Ð£ Ñģ
ĠÐŁÑĢÐ¸ Ñģ
ĠÐ½ÐµÐ¿Ð¾Ð´ Ð²Ð¸Ð¶
ÑıÑĤ ÐµÐ»ÑĮ
Ð°Ð¶ Ð°
ĠÐ± ÑĢÐ°ÑģÐ»ÐµÑĤ
ĠÑĢÐµÑĪ Ð°ÑĤÑĮ
ĠÐ¿ÑĢÐ¾Ð¿ Ð°Ð»
ĠÑį ÑħÐ¾Ð¼
ĠÑĥÐ³ Ð°Ð´
ĠÐ¿ÑĢÐ¸Ð± Ð°Ð²
ĠÑħ Ð²Ð¾
ĠÐļ Ñĳ
ĠÐľÐ°Ð¹Ðº ÑĢÐ¾ÑĦ
âĶ Ģ
ĠÐ¿ÑĢÐµÐ² Ð¾ÑģÑħÐ¾Ð´
ĠÑĩÐ»ÐµÐ½ Ð°
ĠÐ´Ð¾Ðº Ð°Ð·
ĠÐ¾Ð¼ ÐµÐ³Ð¸
ĠÐºÐ¾ ÑģÑĤÐ¸
ĠÐ¿Ð»Ð°Ð¼ ÐµÐ½Ð¸
ĠÑģÐ¿Ð¾ÐºÐ¾Ð¹ Ð½Ð¾Ð¹
ĠÐ¿ÑĥÑģÑĤÐ¾ ÑĤÑĥ
ÑĥÑĪ ÑĮ
ĠÐ¿ÑĢÐ¸Ð¶ Ð°Ð»Ð°ÑģÑĮ
ĠÐ»Ð¸ÑĪ Ð½Ð¸Ñħ
ĠÐł Ñĳ
ĠÐ° Ð·
Ð¸Ð¼Ð¾ ÑģÑĤÑĮ
ĠÐ¿ÑĢÐ¸ÑıÑĤ Ð½ÑĭÐ¹
ĠÐĸ Ð¸Ð²
ĠÐ½Ð°Ð± ÑĢÐ¾Ñģ
ÑĥÐ± Ð»Ð¸
ĠÐ¸Ð·Ð± ÐµÐ¶Ð°ÑĤÑĮ
ĠÐĳÑįÐº ÑħÑĳÐ½
ĠÐ¿Ð¾ÐºÐ°Ð·ÑĭÐ² Ð°ÑĤÑĮ
Ð¢ Ð¾
ĠÐ´ÐµÐ²ÑĩÐ¾Ð½ ÐºÐ¸
ĠÐ´ ÐµÑģ
ÑĢÑı Ð¶
ĠÐºÐ¾Ð¼Ð°Ð½ Ð´Ñĥ
ĠÐ· ÑĢÐ°Ñĩ
ĠÐĺ Ð²Ð°Ð½
ĠÑģÐ¿ÐµÑĪ Ð°
ĠÐ¥ Ð¸Ð¼
ĠÑģÑĢÐ°Ð² Ð½
ÑĢÐ°Ð½ Ð¶
ĠÐ¿ÑĢÐ¸ÑĩÐ¸ Ð½Ñĥ
Ñĳ Ð¹
ĠÐ¾ÑĤÑĩÐ°Ñı Ð½
ĠÐ°Ð»ÑĮÑĦ Ñĭ
ĠÐ·Ð°Ð´ Ð°Ð»
ĠÐºÐ°ÑĢÑĤÐ¸ Ð½Ð°
a y
ÑĢÐ°Ñģ Ð½Ð¾
ĠÐ´ÐµÑĢÐ¶ Ð°Ð»Ð°
? ".
ÐĶ Ð°Ð²
ĠÐ± Ð¸ÑĤÑĮ
ĠÐ¾ÑĤÑģÑĤÑĢÐ° Ð½Ñı
ĠÐĳÐ¾Ð½ Ð½Ð¸
ÑĢÐ¾ÑģÑĤ Ñĥ
ĠÐŁ Ð¾ÑĢÐ°
ĠÑģÐ¼Ðµ ÑıÑģÑĮ
ĠÑı Ð·Ð²
ĠÐ·Ð°ÑīÐ¸Ñī Ð°ÑĤÑĮ
Ð°Ð·ÑĭÐ² Ð°ÑĤÑĮ
ĠÐ·Ð° Ð¾Ð´Ð½Ð¾
ĠÐºÐ¾Ð¼Ð°Ð½ Ð´Ðµ
ÑĭÐ² Ð°ÑİÑģÑĮ
ĠÑĦ Ð°Ð½
ĠÐĶ Ð¾Ð»Ð¶
ĠÑģÐ¿Ð¾ÑģÐ¾Ð± Ð½Ð¾ÑģÑĤÐ¸
ĠÑĤÐ²Ð°ÑĢ ÑĮ
ĠÐ·Ð°Ð¿ÑıÑģÑĤÑĮ Ñı
ĠÐļÐ°ÑĤ Ñı
ĠÑĥÑģ Ð½ÑĥÐ»
ĠÐ£ Ð³Ñĥ
ĠÑģÑĤÐµÐº Ð»Ð¾
ĠÑĩÐµÑĢ Ð½Ð¾Ð¹
Ñı ÑıÑģÑĮ
ĠÐ·Ð°Ð±Ñĭ Ð»Ð¸
ĠÐĳ Ð¾Ð±
ĠÐ½ÐµÐ¿ ÑĢ
ĠÐł ÑĭÐ¶
ĠÐ¾ÑĤÑĢÐ°Ð¶ ÐµÐ½Ð¸Ðµ
ĠÐ²Ð¾Ð» Ñİ
Ð°ÑĪ ÐºÐ°
Ð¸ÑĢ Ð°Ð¹
ĠÐ¿ÑĢÐ¸Ð²ÑĭÐº Ð»Ð°
ĠÐ¸Ð³ÑĢÐ° ÐµÑĤ
ĠÐ°Ð»ÐºÐ¾Ð³Ð¾ Ð»ÑĮ
ĠÐŁ Ð°ÑĤ
ĠÐ¾ÑĤÐºÐ¸ Ð´
ĠÐ¾ÑĤÐ¾Ð·Ð² Ð°Ð»Ð°ÑģÑĮ
Ñĭ Ñī
ĠÐ¡Ð°Ñģ Ð¾ÑĢÐ¸
ĠÐ»ÑĥÑĩ ÑĪÐ¸Ð¼
ĠÐĵ Ð»ÐµÐ±
Ð¼ Ð¾ÑĤ
ĠÑħ ÑĢÐ°Ð½
Ð¸Ð² ÑĪÐ¸ÐµÑģÑı
Ð¸Ð² ÑĪÐµÐ³Ð¾
ĠÑĤÐ²Ð¾ ÐµÐ¼Ñĥ
Ð¸ÐºÐ°Ð¼ Ð°ÑĢÑĥ
ÐŃÑĤÐ¾ ÑĤ
ÐŁÑĢÐ¾ ÑģÑĤÐ¸
ÐµÐ½ÑĮ Ñı
ĠÐ¿ÑĮÑı Ð½
ĠÐ» Ð±Ð¾Ð¼
ĠÐłÐµÐ´Ð¶ Ð¸Ð½Ð°
ĠÐ¡ÑĤ Ð¾Ð¹
ĠÐºÐ¸Ð½ Ð¶Ð°Ð»
ĠÑįÐ½ÐµÑĢ Ð³Ð¸
ÐĶ Ð²ÐµÑĢÑĮ
ĠÐĴ Ð¾ÐºÑĢÑĥÐ³
ĠÐĽÑİ Ðº
ĠÐĴÐ· Ð³Ð»ÑıÐ´
ĠÐŀÐ± ÐµÑī
ĠÐŁÐ¾Ð´ ÑĥÐ¼
Ð°Ð· Ð¼
ĠÐ¥ Ð¾Ð»Ð¾Ð´
Ð¸Ð²Ð°Ñİ ÑīÐ¸Ð¹
ĠÐ·Ð°Ð³ Ð»ÑĥÑĪ
ĠÐ¿Ð¾ÐºÐ°Ð· Ð°Ð»Ð°ÑģÑĮ
ĠÐ¢ ÑĢÐ°Ð½
ĠÐ¡ Ðµ
ĠÐ²Ð¸Ð´ Ð½
ĠÐ´ÑĢÑĥÐ¶ ÐµÐ»ÑİÐ±
Ð¸ÑĢ Ð°Ð»Ð°
Ð¾Ð¿ ÑĢÐ¾Ñģ
ĠÐŁÐ°Ð¿ Ð°
ĠÐĶ Ð°Ð²Ð½Ð¾
ĠÐ·Ð°ÑıÐ² Ð¸Ð»Ð°
ĠÐŃ ÑĢÐ¸ÐºÐ°
ĠÐ½Ð¾Ð¼ ÐµÑĢÐ°
ĠÑģÐ¾Ð¿ÑĢÐ¾Ð² Ð¾Ð¶Ð´
ĠÐ·Ð² ÑĳÐ·
ÑĢÑĥÐ¶ Ð¸
ĠÑĥÐ´Ð°ÑĢ Ð¸ÑĤÑĮ
ĠÐĵ Ð¾ÐºÑĥÐ´
ĠÐ¼ ÐµÐ±
ĠÐ¾Ð±ÑĬÑıÑģ Ð½Ð¸Ð»
u s
ĠÐ½ Ð°Ð»Ð¸
ĠÐŁÐµÑĢÐ² ÑĭÐ¹
ĠÑĥÐ± Ð¸Ð»Ð¸
ĠÐ²Ð»Ð° ÑģÑĤÐ¸
ĠÐłÐµÐ± ÐµÐº
ĠÐĺ Ð³Ð¾
ĠÐ²ÐµÑĢÐ¾ ÑıÑĤÐ½Ð¾
ĠÐ¾ÑĩÐµÐ² Ð¸Ð´
Ñģ ÐµÐ½
ĠÑĤÐ¾Ð» Ð¿Ñĥ
ĠÐ¿Ð¾ÑģÐ¼Ð¾ÑĤÑĢ Ð¸Ð¼
Ð°Ðº ÑĥÑĢÐ°
ĠÑģÑĥ ÑīÐµÑģÑĤÐ²Ð°
ĠÐ¾ÑĤÐ¿ÑĢÐ°Ð² Ð¸Ð»
ÑĩÐ¸ ÑĪÑĮ
ĠÐ¾ÑĤÐ² ÐµÐ·
ĠÐ°Ð¿Ð¿ ÐµÑĤ
ĠÑĪÐ¾ÑĢ Ð¾Ñħ
ĠÑĦÑĢÐ°Ð· Ð°
ĠÐ´ÐµÑĢÐ¶ Ð°ÑĤÑĮÑģÑı
ĠÐ»ÑİÐ±Ð¸Ð¼ ÑĥÑİ
Ð½Ð°Ð´ÑĨ Ð°ÑĤÐ¸
ĠÐ¿Ð¾ÑģÑĤÑĥÐ¿ Ð¸Ð»
ĠÐ¾ÑģÐ² Ð¾Ð±
Ð¼ÑĥÑĢÐ¸Ð² ÑĪÐ¸ÑģÑĮ
ĠÐ¿Ð¾Ð² ÑĭÑĪ
ĠÑĩÐ¸Ñģ Ð»Ðµ
ĠÐ¿ÑĢ ÐµÑĤ
ĠÐ±Ð¾Ð»ÑĮÑĪ Ð¾Ð³Ð¾
ĠÐ»ÑĥÑĩÑĪÐµ Ðµ
ĠÑĢ Ð°ÐºÐ¾Ð²
ÑģÑİ Ð´Ñĥ
Ð¸ÑĤ Ð¾Ð¼
ĠÐ¿Ð¾Ð´Ð½Ð¸Ð¼ Ð°ÐµÑĤÑģÑı
Ð» Ð¾Ð±
ĠÐ¸Ð· Ð¾Ð³
Ð¸ÑĤÐµÐ»ÑĮ Ð½Ð¸ÑĨÐ°
Ġ h
ĠÑģÑĥÐ¿ ÐµÑĢ
Ð¢ Ð¬
Ð¸Ð½Ñĥ Ð»Ð¸
ĠÐµ ÑĢÑĥÐ½
ÑģÑĤÐ²ÐµÐ½Ð½Ð¾ ÑģÑĤÑĮ
ĠÐ² Ð¸Ð»
ĠÐ¿Ð¾Ð²ÐµÑĢ Ð½ÑĥÐ²ÑĪÐ¸ÑģÑĮ
ĠÑĥÐ¹ Ð´
Ð± ÑĥÐº
ĠÐ§ ÑĥÑĤÑĮ
ĠÐ´ÐµÐ¼Ð¾Ð½ Ð¾Ð²
ĠÐ¾ÑĤÑĩÐµÑĤ Ð»Ð¸Ð²Ð¾
ĠÐ²ÑģÐº ÑĢÐ¸Ðº
ĠÐ¿Ð¸ ÑĪ
ĠÐ¼Ð°Ð»ÑĮÑĩÐ¸ ÑĪ
ÐŁ Ð¾ÑĤÐ¾Ð¼
ĠÐ¢ ÑĮ
ÑĥÐ½ Ð´
ĠÑĢÐ° Ð½Ñĥ
ĠÐ¡ Ð²Ð¾Ð½
ĠÐ¿Ð¾Ð· Ð°Ð±
ÐµÑĩ ÐºÐ°
ĠÐ¾Ð± ÑĢÑĥÑĪ
ĠÑĥÐ³ Ð»Ð°
ÐºÐ¸ Ð½ÑĥÑĤÑĮ
ĠÑĥÐ± ÐµÐ¶Ð°ÑĤÑĮ
ÑĳÐ½ Ð½ÑĭÐ¼
ĠÐľ Ð¾Ð³Ñĥ
Ð¸ ÑĢÑĥ
ĠÐ¶ÐµÐ½ Ð¾Ð¹
ĠÐ·Ð²ÑĥÑĩ Ð°Ð»
ĠÐ½ÐµÑĢ Ð°Ð·
Ð°Ð´ Ð¸Ð»
ĠÐ¿ÑĢÐ¸Ðº ÑĢÑĭÐ»Ð°
ĠÐ³Ð¾ÑĢÐ¾Ð´ Ñĥ
ĠÐ²Ð´Ð²Ð¾ ÐµÐ¼
ĠÐ¼ Ð°ÑģÑĤ
ĠÑħÐ¾ÑĢÐ¾ÑĪ ÐµÐ½ÑĮÐºÐ¾
ĠÐŁ ÑĢÑıÐ¼Ð¾
ĠÑĥÑĢÐ¾Ð² Ð½Ðµ
ĠÑģÑĤÐ¾ ÑıÑĤ
ĠÐºÐ¾ÑĢÐ¾Ð± ÐºÑĥ
ĠÐ¿ÑĢÑı Ð´Ð¸
ĠÐ¿Ð¾ ÑĤÐ¸ÑĢÐ°Ñı
Ð¸Ñĩ Ð½ÐµÐ²
ÐĴ Ð½ÐµÐ·Ð°Ð¿Ð½Ð¾
ÑĭÑĪ ÐºÐ°
ĠÐ¼ÐµÑĩ ÑĤÐ°Ð»
ĠÑģÐ¾Ð±Ð¸ÑĢÐ° ÑĤÑĮÑģÑı
ĠÑģÐ¸Ð³ Ð½Ð°Ð»
ÑĢ ÐµÑģÑģÐ¸
ĠÐ¿Ð¾Ð¿ÑĢÐ°Ð² Ð¸Ð»
ĠÐľÐ°Ð»ÑĮÑĩÐ¸ Ðº
ĠÐĽ Ð¾
ĠÑģÐ°Ð´ ÑıÑģÑĮ
Ð¾Ð´Ð¸ ÑĩÐµÑģÐºÐ¸
Ð¥Ð¾ÑĤ Ñı
ĠÑĢÐµÐ°Ðº ÑĨÐ¸Ñı
ĠÐ¡ Ð¾Ðº
ĠÐŀÑĤ Ð²
ĠÐĳÐ» Ð°Ð³Ð¾Ð´Ð°ÑĢ
ĠÑĥÐ´Ð°Ð² Ð°Ð»Ð¾ÑģÑĮ
Ð´ Ð°Ð»ÑģÑı
ĠÐ´ÑĥÐ¼ Ð°Ð»Ð¸
ĠÐ²ÑģÑĤÑĢÐµÑĤ Ð¸Ð»Ð°
ĠÐ¿Ð¾Ñģ ÑĩÐ¸ÑĤ
ĠÐ½Ð°ÑĤ Ð²Ð¾ÑĢ
ĠÐºÐ¾ÑĢÐ¾Ð»ÐµÐ² Ð°
ĠÐ² Ð½Ðµ
ĠÐ·Ð°Ð´ Ð°Ð½Ð¸Ñı
ĠÐ¾ÑĢÑĥÐ¶ Ð¸Ñı
ĠÐ¾ÑĤ Ð»Ð¾Ð¶
ÐĶ Ð°Ð¶Ðµ
ĠÑģÐ½Ð° ÑĢÑĥÐ¶Ð¸
ÑĢÐ¾Ð² ÑĮ
ĠÐ¿ÐµÑĢÐµÑģÐ¿ ÑĢÐ¾ÑģÐ¸Ð»
Ñĩ ÐµÐº
ĠÐº Ð°Ð»
ĠÑģÐ¾Ð³Ð»Ð°Ñģ Ð½Ð¾
ĠÑįÑĤÐ°Ð¶ Ð°
ĠÐ¿Ð¾Ð´Ð¾Ð± Ð½ÑĭÐµ
ĠÐ¡ Ð»
ĠÐ» Ð¾ÑĢÐ´
ĠÐ¾Ð¿ ÐµÑĪ
ĠÑģÑĤÐ°ÑĢ ÑĭÐµ
ĠÑģ ÑĥÐµÑĤ
ĠÐ¾ÑģÑĤÐ°Ð² Ð»ÑıÑĤÑĮ
ĠÐ·Ð² Ð°Ð»Ð¸
ÑĥÐ´ Ð¾Ð±
ÑįÑĢ Ð¾Ð¿
ĠÐºÐ½Ð¾Ð¿ ÐºÑĥ
ÐĶÑĢ Ð°ÐºÐ¾
ÐµÐ¶ ÑĥÑĢ
ĠÐ²Ð¾ Ð¸Ð½
ĠÐĿÐµÐº Ð¾ÑĤÐ¾
ĠÐ¾ÑĤÐ¾ ÑĪÐ»Ð°
ÑĥÐ½ Ð°Ð´Ðµ
ĠÑĥÑģÐ¼ÐµÑĪ ÐºÐ¾Ð¹
ĠÐŃ ÑĢÐµÐ½
ĠÐ¿Ð¾Ð´ ÑĢÐ°Ð³
ĠÑģÐµÑģÑĤ ÑĢÐµ
ĠÐ¿ÑĢÐ¸ÐºÐ¾ÑģÐ½Ð¾Ð² ÐµÐ½Ð¸Ðµ
ĠÑĥÐº Ð°Ð·Ð°Ð»Ð°
ĠÐ¾Ð±Ð¸Ð´ Ð½Ð¾
ĠÐĴÐ¼ ÐµÑģÑĤÐ¾
Ð´Ð¶ Ñĥ
ÑĤ Ð°Ð¼Ð¸
ÑģÐº Ðµ
Ð¼ ÐµÑĢÑĤ
ĠÐ¾Ð±ÑĬÑıÑģ Ð½ÑıÑĤÑĮ
ĠÐ´ Ð¾Ð´
ĠÐ¤ ÐµÐ»Ð¸
ĠÐ¿Ð°ÑĢ Ð¾ÑĩÐºÐ°
Ð½Ð¸Ð² ÑĪÐ¸ÑģÑĮ
ÐºÐ¾ ÑĩÐ¸Ð²
ĠÐºÐ°Ð¶Ð´ Ð¾Ð¼Ñĥ
ĠÐ·Ð°ÑĢ Ð°Ð·
ÐŁ ÐµÑĢÐµÐ´
ĠÐºÐ¾ÑĢÐ¾ÑĤ ÐºÐ¸Ð¹
Ð¨ ÐµÑĢ
ĠÐºÐ¾ÑĢÐ°Ð± Ð»Ñı
ĠÐŁÐ°ÑĢ Ð½Ð¸
ÑĢÐ° ÑİÑģÑĮ
Ð°ÑĤ Ðµ
ĠÐ¾Ð¿ ÑĢÐµÐ´
ĠÑģÑĬ ÐµÐ¼
ÑĭÐ² Ð°ÑİÑĤÑģÑı
ĠÐ·Ð²ÐµÐ· Ð´Ñĭ
Ð¾Ð³ Ð¾Ð¹
ĠÐ½Ð°Ð¿Ð¸Ñģ Ð°ÑĤÑĮ
ÑĢÐ¾ ÑĪÑĥ
ĠÑģÐµÐº ÑģÐ°
Ð²Ð¾ ÐµÐ¼Ñĥ
ĠÑģÐ¾ ÑİÐ·
Ð³ Ð¾Ð´Ð°
ĠÐ²ÑĭÑħÐ¾Ð´ Ñı
Ñħ Ð¼
ĠÐ°Ð²ÑĤÐ¾Ð¼ Ð¾Ð±
ÑĤÐ¸ Ð½Ð°
ĠÐ¾Ð± Ð¾ÑĢ
Ð¾Ð² ÑĮ
Ð½Ð¾Ð³ Ð¸Ðµ
Ð» Ð¾ÑĢ
ĠÑģÐ¿ ÑĢÑı
Ġ B
ĠÐ²Ð¾Ð¿ÑĢÐ¾Ñģ Ð°
ĠÐ½Ðµ ÑĥÐº
ĠÐ·Ð° Ð¸Ð³
ĠÑĩÑĳÑĢ Ð½ÑĭÐµ
ĠÐ¿Ð¾Ð´ ÑĥÑĪÐºÐ¸
ĠÑĢÐ¾Ð´Ð¸ÑĤÐµÐ»Ñı Ð¼
ĠÐ·Ð°ÐºÐ°ÑĤ Ð¸Ð»Ð°
Ð½Ð¸ ÑģÑģ
ĠÑĥÐ»ÑĭÐ± Ð°ÑİÑģÑĮ
ĠÐ¶ÑĥÑĢ Ð½Ð°Ð»
ĠÑĢÑĭÐ¶ Ð¸Ð¹
ĠÐ·Ð²ÐµÑĢ ÑĮ
ĠÐ´Ð¾Ð¶Ð¸Ð´Ð° ÑıÑģÑĮ
ÑĢÐµÐ¶ Ð´
ĠÐ¿Ð¾Ð¿ ÑĢÐ¾ÑģÑĤÑĥ
ĠÐ¿ÑĢÐ¾Ñģ Ð¸ÑĤ
ÐµÑĤ ÐµÑĢ
ĠÐ±ÑĢÐ¾Ñģ Ð¸Ð²
ĠÑĤÑĢÐµÐ½Ð¸ÑĢÐ¾Ð² ÐºÐ¸
Ð¾Ð² Ñĭ
ĠÐĶ Ð²ÐµÑĢÑĮ
Ð¸ÑĢÐ° Ñİ
ĠÐ¥ Ð°Ð´
ĠÑģ Ð½Ð¸Ð·Ñĥ
Ð½Ñı Ð²
ĠÐ½ÐµÐº Ð¾Ð³Ð´Ð°
ĠÐ¼ÑĥÐ¶ ÑģÐºÐ¾Ð¹
ĠÐļÐµÐ½ ÑģÑĥ
ÑĩÐµÑģ ÐºÐ¾Ð³Ð¾
ĠÐ¿ÑĢÐ¾Ð² Ð¾Ð¶
ĠÐ¿ÑĢÐµÐ´Ð¾ ÑģÑĤÐ°Ð²
ĠÐ³Ð¾ Ð½
ĠÐ¼Ð½ ÐµÐ½Ð¸Ñİ
ĠÐ¿Ð¾Ð± Ð»ÐµÐ´
ĠÐ»ÑİÐ±Ð¾Ð² Ð½Ð¸ÐºÐ°
ĠÐ´ÐµÑĢÐµÐ² Ð½Ð¸
Ðķ Ðł
ĠÐµÐ´Ð¸Ð½ÑģÑĤÐ²ÐµÐ½ Ð½Ð°Ñı
Ñĩ ÑĥÑĢ
Ð°Ð² Ð°
ĠÑĢÐ¾Ð± ÐºÐ¾
Ġ g
ĠÐ²Ð·Ð³Ð»ÑıÐ´ Ð°Ð¼Ð¸
ĠÐ¡ÑĤ ÑĢÐ°Ð½
ĠÐ·Ð°Ð³Ð¾ ÑĢ
Ñĭ ÑĤÐ°
ĠÐ¿ÑĭÑĤ Ð°ÑĤÑĮÑģÑı
ÐµÐ² ÑĪÐ¸Ðµ
ĠÐĳÑĮÑı ÐºÑĥ
ĠÐ¼ÐµÑĪ Ð°ÑĤÑĮ
ÐµÑĤ Ð½Ð¾
ĠÑı Ð±
ĠÐ¿Ð¾Ð¿ÑĭÑĤ Ð°ÑĤÑĮÑģÑı
ĠÐ»ÑİÐ± ÐµÐ·
ÑģÑĤÑĢ ÐµÐµ
ĠÐ½Ð°Ð´Ðµ ÑıÐ»Ð°ÑģÑĮ
ĠÐĽÑĥ ÑĦÑĦÐ¸
ĠÐ´Ð¾Ð¿ Ð¾Ð»
ĠÐ¿Ð¾ÑĤ ÐµÐ¼
ĠÐĴÐ° ÑĪÐµ
ÑĥÑī ÐµÐ³Ð¾
Ð½Ð¾ ÑģÑĤÐµÐ¹
ĠÐ²ÑĭÐ± ÑĢÐ°ÑĤÑĮ
ÑĢÐ° Ñİ
ĠÑĥ ÐºÑĥ
ĠÐ·Ð» Ð¾Ð¹
ĠÐ¼ÐµÑĩ ÑĤÑĭ
ĠÑģÐ²ÐµÑĤ Ð»Ð¾Ð²
ĠÐ½ÐµÐ±ÑĢÐµÐ¶ Ð½Ð¾
ĠÐºÑĥÑĩ Ð°
ĠÐ½Ð°Ð´ ÐµÐ¶Ð´Ñĥ
ĠÐ½Ð¸ ÑĩÑĥÑĤÑĮ
Ð°Ð»ÑĮ Ð´
ĠÐ²Ð¾Ð¹ Ð½Ð°
Ð± Ð¾ÑĢ
ĠÐ²ÑĤÐ¾ÑĢ Ð¾Ð¼
ÑĪÐ»Ð¾ ÑģÑĮ
ĠÑĢÐ°Ñģ ÑħÐ¾Ð´
ĠÐļ ÐµÐ¹
Ð¾Ñģ Ð½Ð¾Ð²
ĠÐ´ Ð°ÑģÑĤ
ĠÐ¿Ð¾ÑģÐ»ÑĭÑĪ Ð°Ð»Ð¸ÑģÑĮ
ÑĥÑī Ð¸Ñħ
ĠÐ²Ð»ÑİÐ± Ð¸Ð»ÑģÑı
ĠÐ¿Ð°ÑĢ Ðµ
ĠÐĵ Ð°Ð»
Ð°Ð½ Ð°Ð¼Ð¸
ĠÐ²ÑĭÑıÑģ Ð½Ð¸ÑĤÑĮ
ĠÐ£ Ñħ
ĠÐ²Ð¾Ð» Ð½ÑĥÑİ
ĠÐ¿ÑĢÐ¾Ð´ ÐµÐ»
ĠÐ¿Ð¾Ð» Ð½ÑĥÑİ
ĠÐ²Ð»Ð° ÑģÑĤÑĮ
ĠÐł ÑĥÑģ
Ð¡ Ð»ÐµÐ´
ĠÑĢÐ°ÑģÐº ÑĢÑĭÐ²
ĠÐ´ÑĥÐ¼ Ð°Ð¹
Ġt o
ĠÐ·Ð°ÐºÐ»Ð¸Ð½Ð° Ð½Ð¸Ñı
Ðº ÑĤÐ¾
ĠÐ¿Ð¾Ð²ÐµÑĢÑħ Ð½Ð¾ÑģÑĤÑĮ
ĠÐ·Ð°Ð¶ Ð¸Ð³
ĠÑĤÐµ Ð°ÑĤ
ĠÐ³Ð½ÐµÐ² Ð°
ÐµÐ» Ð»Ð¸
ĠÐ¢ ÑĳÐ¼
ĠÐ¿ÑĢÐ¸Ñħ Ð¾Ð¶
ĠÐ³ÑĢÑĥÐ¿Ð¿ Ð°
ĠÐ¿Ð¾ÑģÐ¿ Ð°ÑĤÑĮ
ĠÑĥÑģÑĤÐ°Ð² Ð¸Ð²ÑĪÐ¸ÑģÑĮ
ĠÑĤÑĥÑĦ Ð»Ð¸
ÐµÐ´Ð¶ Ð¸
ÑĭÐ¹ Ð´Ñı
ÑģÐº Ð¾Ð¼Ñĥ
ĠÐ³Ð¾ÑĢ Ð»Ñĥ
ÐĽÑİ ÑģÐ¸
ĠÑģÑĩÐ¸ÑĤ Ð°Ñı
ĠÐĿ Ð°Ðº
ĠÐ¿Ð°Ñħ Ð½ÐµÑĤ
ĠÐ¿ÐµÑĢÐ² ÑĭÑħ
ĠÐ¾Ð±ÑĢÐ°ÑĤ Ð¸Ð»Ð°ÑģÑĮ
ĠÑģÐ»ÐµÐ´ Ð¸Ð»
ĠÐ¾Ð¿ ÑĢÐ°Ð²Ð´Ð°
ĠÐ²Ð· ÑĬ
Ð¡ Ð¾
ĠÐ³Ð¾ÑĢÐ¸Ð· Ð¾Ð½
ĠÐºÐ°ÑĢ ÑĤÑĭ
ĠÐ¿Ð¾ÑĪ Ð°ÑĤ
ĠÐ´ÑĥÑĪ Ð¾Ð¹
ĠÐ»ÑĥÐº Ð°Ð²
ĠÐľ Ð¾Ð³
ÐŁ ÑĢÐ¾ÑģÑĤÐ¾
ĠÐ¢ ÐµÐ»Ð¾
Ð± ÐµÐ»
ĠÐ¥ Ð¾ÐºÐ°Ð³Ðµ
ĠÐ¿Ð¾Ð·Ð²Ð¾Ð» ÑıÐµÑĤ
ĠÐ½ÐµÐ½Ð°Ð²Ð¸Ð´ ÐµÐ»
ĠÑģÐ² ÑıÑĤ
ĠÐ»ÐµÐ³ ÐºÐ¾Ð¹
Ð°Ð± Ð¸
ĠÐ¿Ð°ÑĢ Ð¾ÑĩÐºÑĥ
ĠÑĤÐµÑĤ ÑĢÐ°Ð´
ĠÐ½ÐµÐ¿Ð¾Ð´ Ð°Ð»ÐµÐºÑĥ
ÑıÑī ÐµÐ¼Ñĥ
ĠÑģ Ð´Ð°
ĠÐĴ Ð½ÐµÐ·Ð°Ð¿Ð½Ð¾
ĠÐ²Ð¸Ð´ ÐµÐ»Ð¸ÑģÑĮ
ĠÑĢÐ¾Ð´Ð¸ÑĤÐµÐ»Ñı Ð¼Ð¸
ĠÐ¡ ÐµÐ¼
ÐµÑģÑĤ Ð¸ÑĤÑĮ
ĠÑģÐ¾Ð´ÐµÑĢÐ¶ Ð¸Ð¼Ð¾Ðµ
ĠÑĢÑĭ Ð±
ĠÐ½Ð°Ð´ Ð¿Ð¸ÑģÑĮ
ĠÐ¿Ð° ÑĥÐ·Ñĥ
ĠÐ¿ÐµÑĢ ÐµÐ¹
Ñı ÑĢ
ĠÑĥ ÐµÑħÐ°ÑĤÑĮ
ĠÐ¿ÑĢÐ¾ÑĪ Ð»Ð¾Ð¹
ĠÐ±ÑĭÐ² ÑĪÐ¸Ð¹
ĠÐ¿Ð¾ÑģÐ»ÐµÐ´ Ð½Ð¸Ð¼
ĠÐ£ Ð¼
ĠÐ¤ Ð¸Ð»
ĠÑĤÐ¾Ð» Ð¿Ðµ
ĠÐ´ ÐµÐ»Ð¾Ð²
ĠÐºÐ°ÑĢÐ¼Ð° Ð½Ðµ
ĠÐ¼ÑĥÐ¶ ÑĩÐ¸Ð½Ð¾Ð¹
ĠÑĤÐµÐ»ÐµÑĦ Ð¾Ð½Ñĥ
ĠÑģÐ»ÑĥÑĪ Ð°Ð»Ð°
ÐĶÐ¶ ÐµÐ¹
ĠÐ¿ÑĢÐ¸Ð´ÑĥÐ¼ Ð°Ð»
ĠÐ¼Ð¾Ð» ÑĩÐ°Ð»Ð°
ĠÐ¾ÑĤÐºÐ°Ð· Ð°ÑĤÑĮÑģÑı
ĠÐ¿Ð¾Ð´ Ð¼
ĠÑĢÐµÐ¿ ÐµÑĤÐ¸
ĠÑģÐ¾Ð±ÑģÑĤÐ²ÐµÐ½ Ð½ÑĭÐ¹
ĠÐ¾Ð¿ Ð¾Ð¼
ĠÐ¾Ð± Ð¾ÑĢÐ²
ĠÐ´ÐµÐ² ÑıÑĤÑĮ
ĠÐºÐ¾ÑĢ Ð¾Ð»
ĠÐľ Ð¸Ñģ
ĠÑģÑĤÑĢÐ°Ð½ Ð½Ð°Ñı
ĠÐ¨ Ð°ÑĢ
ĠÑĦÐ°Ðº ÑĥÐ»ÑĮÑĤ
Ð°Ð¶Ñĥ ÑģÑĮ
ĠÑĤÐ¾Ð» ÐºÑĥ
ĠÑĤÐ°Ð»Ð° Ð½ÑĤ
Ð¸Ð² ÑĭÐ¹
ĠÐ²ÑĢÐµÐ¼ ÐµÐ½Ð°
ĠÑĢ ÑĥÐ¼Ñı
ĠÐ¾ÑĩÐµÑĢÐµÐ´ Ð¸
ĠÑģÐ¿Ð°Ð»ÑĮ Ð½Ðµ
Ðº Ð½ÑĥÑĤÑĮÑģÑı
ĠÐ¾Ð±Ð² Ð¸Ð½
ĠÐ´Ð¾Ð± ÑĢÑĭÐ¹
ĠÐŁ Ð¾Ð´Ð½Ñı
ĠÑĤÐµÑĩ ÐµÐ½Ð¸Ðµ
ĠÐ¿Ð¾Ð²ÐµÑĢ Ð½ÑĥÐ»Ð°
ĠÐĿÐ°ÑģÑĤ Ñı
ĠÐļÐ°ÑĢ Ð»
Ðļ Ð°ÑĢ
ĠÐ¼Ð°ÑĤ ÐµÑĢ
ĠÐ¿ÑĢÐ¸Ð½Ð°Ð´ Ð»
ĠÑĦ Ð¸ÑĢ
Ðŀ Ñģ
ÐŁ ÑĢÐ¾Ñģ
ĠÐ½Ð°ÑĢÐº Ð¾ÑĤ
ĠÑĤÐ° Ð½ÐµÑĨ
ĠÐ²ÑĭÐ³Ð»ÑıÐ´ Ð¸ÑĪÑĮ
ĠÐ¿Ð¾Ð´ÑģÐº Ð°Ð·ÑĭÐ²
ĠÐ¼ Ð¸Ð¼
ÐĴ ÐµÑĢ
ĠÐĽ ÐµÐ³Ð¾
ĠÐ¼Ð°Ð³ Ð¸Ñİ
ĠÑĥÐ±Ð¸Ð¹ ÑĨÐ°
ĠÐĽÑĥ Ð½Ð°
ĠÐ²ÑģÐºÑĢÐ¸ ÐºÐ½ÑĥÐ»Ð°
ĠÐ±Ð¾Ð»ÐµÐ· Ð½ÐµÐ½Ð½Ð¾
ĠÑģÑĩÐ°ÑģÑĤÐ»Ð¸Ð² Ð¾Ð¹
ĠÑģÐ¸Ð¼ Ð²Ð¾Ð»
ĠÐĶÐ¶ Ð°ÑģÑĤÐ¸
ĠÑģÐ¼Ðµ ÑıÐ»ÑģÑı
ĠÑģÐ´ÐµÑĢÐ¶ Ð¸Ð²Ð°Ñı
Ð¸Ð·Ð² Ð¾Ð»ÑĮÐ½Ð¾
ĠÑĪÐµÐ¿ Ð½ÑĥÐ»
ÑīÑĳ Ð½Ð½Ð¾
ĠÐ¿ÐµÑĢÐµÐ¶ Ð¸Ð²Ð°Ð¹
Ð°ÑĤ ÑĭÐ¼
Ġ D
ĠÐ¾Ðº Ð°Ð¶ÐµÑĤÑģÑı
ĠÐ¿ÑĢÐ¾Ñģ Ð¸Ð»Ð°
Ð°ÑĤÐµÐ»ÑĮ Ð½Ð¾Ð¹
ĠÐ¿Ð°ÑĢ Ð¾Ð¹
ĠÐ¾Ð³Ð»ÑıÐ´ ÑĭÐ²Ð°ÑıÑģÑĮ
ĠÐ¿ÑĢÐ¸Ð²Ñĭ ÑĩÐ½Ð¾
ĠÐ·Ð°Ð¿ ÑĢÐ°Ð²
e l
ĠÐ¾Ð±ÑģÑĤÐ¾ÑıÑĤÐµÐ»ÑĮ ÑģÑĤÐ²
ĠÐºÑĥÑģ Ð¾ÑĩÐµÐº
ĠÐ±ÐµÑĢ ÐµÐ³Ñĥ
Ð°Ð½ Ð´Ð°
ĠÐłÐ°Ñģ Ñģ
ĠÑģÑĥÐ´ÑĮ Ð±Ñĭ
ÐºÐ° ÑĪ
ĠÐ° ÑįÑĢÐ¾Ð¿
ĠÐ² Ð»ÐµÐ·
ÑĥÑħ Ð°
Ð½Ð°Ð· Ð½Ð°Ñĩ
ĠÐ¿Ð¾Ð·Ð² Ð°Ð»Ð°
ĠÑĦ Ð¾ÑĢÐ¼
ĠÑĢÐµÑĪ ÐµÐ½Ð¸Ñı
ĠÐ±Ð¾Ð»ÑĮ Ð½Ð¸ÑĨÑĭ
ĠÐŀÐ»Ð¸ Ð²ÐµÑĢ
ĠÐ¿Ð¾Ð» ÑĥÐ¼
ĠÑĢÐ°ÑģÐº Ð°Ð»
Ð¾Ð¶Ñĥ ÑģÑĮ
Ð°Ð¶ ÐµÑĤ
ĠÐ¾ÑģÐ¾Ð· Ð½Ð°
ĠÑĢÐ°ÑģÑģÐºÐ°Ð·ÑĭÐ² Ð°Ð»Ð°
Ð°Ð½Ðµ ÑĪÑĮ
ĠÐ² Ð¸Ð½Ð¾
ĠÐ²Ð°ÑĪÐ¸ Ñħ
ĠÐ¿Ð¾ ÑĢÑĥÑĩ
ĠÐ±Ð»Ð°Ð³Ð¾ ÑĢÐ¾Ð´
ĠÐ°Ð³ ÐµÐ½ÑĤ
ĠÐ½Ð¾Ñģ Ñĥ
ĠÐ½Ð°Ð¼ÐµÑĢ ÐµÐ²
ĠÐ¿ÑĢÐµÐ´ ÑģÑĤÐ¾
ĠÑĥÐ² Ñĭ
ĠÐľÐ°Ð¹ ÐºÐ¸
ĠÐ¾Ð· Ð°ÑĢ
ĠÐĹÐ°ÑĤ ÐºÐ½Ð¸ÑģÑĮ
ĠÐ¼Ð¾Ð½ ÑģÑĤ
ĠÑģÐ¾Ñħ ÑĢÐ°Ð½
ĠÐ½Ð°ÑģÑĤÐ¾Ñı ÑīÐ°Ñı
ÑĢÐ¸ÑģÑĤ Ð¾Ðº
ĠÐĺÐºÐºÐ¸ Ð½Ð³
ĠÐ¿Ð¾ ÑģÑĤÑĢÐ¾
ĠÐ¿Ð¾Ð¿ Ð»
ĠÐºÑĢÐ° ÐµÐ¼
ĠÑģÐ¼Ð¾Ð³ ÑĥÑĤ
ĠÑĢÐµÐ°Ðº ÑĨÐ¸Ñİ
ÑĤÐµÑĢ Ð°
ĠÐ¿Ð¾Ð»ÑĥÑĩ Ð¸Ð²
ĠÐ³ÑĢ ÐµÐ±
ĠÑģ Ð°ÑĢÐº
ÑįÐ½ Ð´
ĠÐ¾Ð±Ð½Ñı Ð²
ĠÑģÑĩÐ°ÑģÑĤÐ»Ð¸Ð² ÑĭÐ¼
Ð¸Ð· Ð½ÑĮ
ĠÑĤÑĥÐ¼ Ð°Ð½
ĠÐ¿Ð¾ÑģÑĤÐ°ÑĢ Ð°Ð»ÑģÑı
ĠÐ¾ÑĩÐµÑĢÐµÐ´ Ð½Ð¾Ð³Ð¾
ĠÐ½ÐµÐ±Ð¾Ð»ÑĮ ÑĪÐ°Ñı
ĠÐ´ÐµÐ¹ÑģÑĤÐ² Ð¸Ðµ
ĠÐłÐ¾ ÑĥÐ·
ĠÐ¼ Ð°Ð·
ĠÐ·Ð° ÑĪÑĳÐ»
ĠÐºÑĢÐ°Ñģ Ð¾ÑĤ
ĠÐĶÐ¶ ÐµÑģÑģÐ¸
Ð± Ð¸ÑĤ
ĠÐ¸ÑģÐ¿ÑĥÐ³ Ð°Ð»Ð°ÑģÑĮ
ĠÑĢÑĥÑħ Ð½ÑĥÐ»
ĠÐ¿ÑĢÐ¾ÑģÑĤ Ð¸ÑĤÐµ
ĠÐŀ Ð»ÐµÐ³
ĠÐ¼Ð¾ Ð½Ð¾
ĠÐ¡ÑĤ Ð°Ñģ
ĠÐ»ÑĥÑĩ Ð¸
ĠÑģÐ¾Ðº ÑĢÐ¾Ð²
ÑĢÑıÑħ Ð½ÑĥÐ»
ĠÐ¿Ð¾Ð´Ð± ÐµÐ¶Ð°Ð»
ĠÐ¼ÑıÐ³ ÐºÐ¸Ð¹
ĠÐ¿ÐµÑĢÐµÐ¼ ÐµÑī
ĠÐ´Ð¾ÑĢÐ¾Ð³ Ð°
ĠÐĶÐ¶ Ñĥ
Ġ N
ĠÐĳÑĢÑİ Ð½ÐµÑĤ
ĠÐºÐ¾ÑĢ ÑĤÐ¾ÑĩÐºÐ¸
ĠÐ¤ Ð¾ÑĢ
ĠÐ° ÑĥÐ´Ð¸
ĠÑİÐ½Ð¾ÑĪ Ñĥ
ĠÐ£ ÑĤ
Ð½Ð¾Ðº ÑĢÐ¾Ð²
ĠÑģÐ°Ð¼ Ñĥ
ĠÑĢÐ°Ð·Ð¾ÑĪ Ð»Ð¸ÑģÑĮ
ĠÑģÐºÐ¾ÑĢÐ¾ ÑģÑĤÐ¸
ĠÐ¾ÑĤ ÑĢÑıÐ´Ð°
ĠÐ¡Ñį Ð¼Ð°
ĠÐ²Ð¾Ð·ÑĮ Ð¼
ĠÐ¿ Ð°ÑģÑģ
ĠÑĥÐ·Ð½Ð° Ñİ
ĠÐĶÐµÐ² Ð¾ÑĩÐºÐ°
ĠÐ¸Ð³ ÑĢÐ°Ð»
ĠÑģÐ¾ÑĢ Ð¾Ðº
ĠÐ»ÑĥÑĩ ÑĪÐ¸Ñħ
ĠÐ¿Ð¾Ðº Ð¾Ð½
ĠÐ¤ Ð°ÑĢ
Ġ o
ÑĩÐ¸Ð² ÑĭÐ¼
ĠÐŁ ÑĢÐ¾Ð±
ĠÐ¥ Ñį
Ð½ÑĭÑĪ ÐºÐ¾
Ñİ Ð¶
ĠÐ¿Ð¾Ð» Ð½ÑĭÐ¼
ĠÐĲÐ»ÑĮ Ð±
ĠÑĥÑģÑĤÐ°Ð»Ð¾ ÑģÑĤÑĮ
ÐµÐ· Ð´Ðµ
ĠÐ¾Ð±Ð»ÐµÐ³Ñĩ ÐµÐ½Ð½Ð¾
ĠÑĥÐ¼ Ðµ
ĠÑĥÐ´ÐµÑĢÐ¶ Ð°ÑĤÑĮ
ĠÐ¾Ð¼ ÐµÐ³
ĠÑĦ ÑĢÑĥÐº
ĠÑģÐ»ÐµÐ´ Ð¾Ð²
ĠÐ²ÑĭÐ³Ð»ÑıÐ´ ÐµÐ»Ð¾
ÑĭÑģ Ð¾Ðº
Ñĩ Ð¸Ð»
ĠÐ²Ð¾Ð·Ð²ÑĢÐ°Ñī Ð°ÐµÑĤÑģÑı
Ð¸Ð»ÑĮ Ð±Ð¾
Ð¾Ð³ Ð¾Ð²Ð¾ÑĢ
ĠÐ¿ÑĢÐ°Ð² ÑĥÑİ
ĠÐ² ÑĢÐ°Ð¶
ĠÐ»ÐµÐ´Ñı Ð½Ð¾Ð¹
ĠÑģÐ¸Ð»ÑĮ Ð½Ð°Ñı
ÐŁÑĢÐ¾ ÑĪÐ»Ð¾
ĠÐŁÐ¾Ð¶Ð°Ð» ÑĥÐ¹
ĠÐ¢ Ð°Ð¹Ð»
Ð»ÐµÐ½ Ð½ÑĭÐ¼Ð¸
ĠÑģÑĤÐ°ÑĢ Ð¾Ð³Ð¾
ĠÐĶ ÐµÐ¼
ÐĽ ÑİÐ±
ĠÐ½Ð°Ð» Ð¾Ð¶
ĠÐ¿ÑĢÐ¾Ð´ Ð°Ð²
ĠÐ± Ð»Ñİ
ĠÐ¾Ð³ÑĢÐ¾Ð¼ Ð½ÑĭÐµ
ĠÐ¿Ð¾ ÑĥÐ´Ð¾Ð±
ĠÐ·Ð½Ð°ÐºÐ¾Ð¼ ÑĭÐµ
ĠÑģÑĤÐµÐº Ð»Ð°
ĠÐ¿Ð¾Ð» ÑĥÑģ
Ð°Ð½ ÑģÐ°
ĠÐ¼Ð°Ð³Ð°Ð· Ð¸Ð½Ð°
Ð§ ÐµÑĢÑĤ
ÑĤ Ð¸Ð½
ĠÑģ Ð»Ð¾
ĠÐ±ÑĭÐ² ÑĪÐµÐ³Ð¾
ĠÑĥÐ±ÐµÐ´ Ð¸ÑĤÑĮÑģÑı
ĠÐ¿Ð¾Ð´ ÑģÑĤÑĥÐ¿
ĠÐ½Ð¾Ñĩ Ð½Ð¾Ð¹
ĠÐ¾Ð³ÑĢÐ¾Ð¼ Ð½ÑĭÐ¼
ĠÑģÐº ÐµÐ¿ÑĤÐ¸
ĠÐ¿ÑĢÐ¾Ð¼ ÐµÐ»ÑĮ
ĠÐ½ÐµÐ´Ð¾ÑĥÐ¼ ÐµÐ½Ð½Ð¾
ĠÐ²Ñģ ÐºÐ¾ÑĩÐ¸Ð»Ð°
ĠÐ¿ÑĥÐ»ÑĮ ÑģÐ¸
ĠÐ¿Ð»Ð° Ð½Ðµ
ĠÐ¿ ÐµÑĤÑĮ
ĠÑģÑĥÑħ Ð¾
ĠÑģÐ°Ð¼Ð¾Ñģ ÑĤÐ¾ÑıÑĤÐµÐ»ÑĮÐ½Ð¾
ĠÐ¿Ð»Ð¾Ñħ Ð¾Ð³Ð¾
ÑģÑĤÐ²ÐµÐ½ Ð½Ð°Ñı
ĠÐ¿ÑĢÐ¾Ñģ Ð¿
ĠÐ²Ñģ ÐºÐ¸Ð½ÑĥÐ»
ÑıÑĤÐ¸ Ñı
ÑĥÑħ Ð¸
ĠÐ¾Ð¿ Ð¾Ð²
ĠÐ¾ÑĤÐ²ÐµÑĩ Ð°Ñİ
ĠÐ± Ð¾ÑģÑģ
ĠÐ²ÑģÑĤÑĢÐµÑĤ Ð¸ÑĤÑĮ
Ġ *
ĠÐ³ÑĢÐ¾Ð¼ ÐºÐ¸Ð¼
Ð° ÑĢÐ°Ð½
ĠÐ¼Ð°Ð³Ð¸ ÐµÐ¹
ĠÐĽÐ¸ ÑĨÐ¾
ÐµÑĢ Ð¾ÑĪ
Ð°Ðº ÑĤ
Ġm e
ÐµÐ½Ñģ ÐµÐ¹
ĠÐŁÐ¾Ð½ ÑıÑĤÐ½Ð¾
ĠÐºÐ°Ð· Ð°Ð»Ð¸ÑģÑĮ
Ð°Ð½ Ð½Ð¾ÑģÑĤÑĮ
ĠÐ¿Ð¾Ñģ Ð¾Ð²ÐµÑĤ
ĠÐ¶Ð¸Ð² ÑĥÑĤ
ÑĢÐ¾Ñĩ Ð¸Ð¼Ð°ÑĢÑĥ
Ð»ÐµÐ½ Ð¾
ĠÐ¿ Ð¾Ð³Ð¾
ĠÐ·Ð°Ð´ Ð°
ĠÐ¿ÑĢÐ¾Ñģ Ð¸Ð´
/ /
ĠÐ¿Ð¾Ð»Ð¾Ð² Ð¸Ð½Ð°
Ð¿ Ð°ÑĢ
ĠÐ¼Ð¸Ð³ Ð¾Ð¼
Ðĵ Ð»Ð°Ð·Ð°
ĠÐ¿Ð¾ÑĪ ÑĥÑĤ
ÐĹÐ° ÑĩÐµÐ¼
ĠÐ·Ð°ÐºÐ¾Ð½Ñĩ Ð¸Ð»ÑģÑı
ĠÐ¿ÐµÑģ Ð½Ñı
ĠÐ¾ÑģÑĤÐ°Ð² Ð¸Ð»Ð¸
ĠÐ´Ð¾Ðº Ð°Ð·Ð°ÑĤÑĮ
ĠÐ±ÐµÐ» ÑĥÑİ
ĠÑģÐºÐ¾ÑĢÐ¾ ÑģÑĤÑĮ
ĠÐ½Ð¸ Ð³Ð´Ðµ
ĠÐ½ÐµÑĢ ÐµÑĪ
ĠÐºÑĢÑĥ ÑĤÐ¾
ĠÑģÐ¾Ð±Ð¸ÑĢ Ð°Ð»Ð¸ÑģÑĮ
ĠÐļÑĥÑĢ Ð¾ÐºÐ¾
ĠÑģÐ¸Ð»ÑĮ Ð½Ð¾Ð¹
ĠÐł Ð¾Ðº
ĠÑĦÐ¾ÑĤ Ð¾Ð³ÑĢÐ°ÑĦÐ¸
ĠÐ¼Ð°Ð¹ ÐºÑĥ
Ġ ?
ĠÑģÑĩÐ¸ÑĤ Ð°Ñİ
ĠÐĲ Ð¾Ð¼Ð¸Ð½Ðµ
ĠÐ® Ñĥ
ÑĢÐ° ÐµÐ¼
Ð¾Ð»Ð¾Ñģ Ñĭ
ĠÐĸ ÐµÐ»
Ñı Ð½Ð°
Ð¾Ð¿ Ð¾Ð»ÑĥÑĩ
Ġ1 5
ĠÐ¶ Ð°Ð´
ĠÐ¿Ð¾Ð¼Ð¾Ð³ Ð»Ð°
ĠÐ»Ð¸Ð´ ÐµÑĢ
Ñī ÑĥÐ¿
ĠÐ¾ÑĤÐ¼Ð°Ñħ Ð½ÑĥÐ»ÑģÑı
ĠÐ±ÐµÐ» Ð°Ñı
ĠÐ¼Ð°Ð»ÑĮÑĩÐ¸ ÑĪÐºÐ¸
ĠÐ³ ÑĢÐ°Ð´
Ð°Ð· Ð¼Ð¾Ð¼
ĠÐ¿Ð¾Ð· Ð´Ð¾ÑĢÐ¾Ð²
ĠÑĢÐ°Ð±Ð¾ÑĤ Ð°Ð»
ĠÐ² Ð¸Ð½Ñĭ
... ,
ĠÑĥÐºÐ°Ð·ÑĭÐ² Ð°Ñı
ĠÐ²Ð¾Ð»Ð½Ñĥ ÐµÑĤ
ĠÐ¿ÑĢÐ¸ÑħÐ¾Ð´ Ð¸ÑĤÑĮ
ÐµÐ»ÐµÐ½ Ð½Ð¾Ð¹
ĠÐ²Ð·Ð³Ð»Ñı Ð½ÑĥÑĤÑĮ
ĠÑĥÑģ Ð½ÑĥÐ»Ð°
ĠÑĤÐµÑĢÑĢÐ¸ ÑĤÐ¾ÑĢÐ¸Ð¸
ĠÐŁ Ð°
ĠÐľÑįÑĤ ÑĤ
Ñı Ð½ÑĥÐ²
ĠÐ¿Ð¸Ð´Ð¶ Ð°Ðº
ĠÐľ Ð¼Ð¼
ÑĥÑİÑī Ð¸Ð¼
ĠÐ± ÐµÐ»ÑĮÐµ
Ð¾Ñĩ Ð½ÑĭÐ¹
Ð´Ðµ ÑĨ
ĠÑĤÑĢ ÑĳÑħ
ĠÐ´ÑĭÑĪ Ð°Ð»
ĠÑģÑĤÐ°ÑĢ Ð¾Ð¹
ĠÑģÐ²Ð¾Ð±Ð¾Ð´ Ñĥ
ĠÐ½ÑĢÐ°Ð² Ð¸Ð»ÑģÑı
ĠÐ»ÑİÐ±Ð¾Ð¿ÑĭÑĤ ÑģÑĤÐ²Ð¾Ð¼
ĠÐ·Ð°Ð¼ÐµÑĢ Ð·
ĠÑģÐ½Ñı Ð»Ð°
ĠÐ¼ÑĥÐ¶ Ð¸Ðº
Ð°Ð³ Ð°
Ð¸Ð´Ð° Ð½
ÑģÑĤÐ²ÐµÐ½ Ð½Ð¾Ð³Ð¾
ĠÐ´Ð¾Ñģ Ð¿ÐµÑħ
ĠÐ¿ÐµÑĢÐµÐ¶ Ð¸Ð²
ĠÐ¿ÐµÑĢÐµÐº Ð»ÑİÑĩ
ÐµÐ½ ÑĤÑĥ
ĠÐ¢ Ð¾Ð½
ĠÐ¡ÑĤÐ°Ð¹Ð» Ð·Ð°
ĠÐ¿ÑĢÐµÐ´ Ð½Ð°Ð·Ð½Ð°Ñĩ
Ðŀ Ðº
ĠÐ±Ð°ÑĢ Ð°Ð±
ĠÐºÐ° ÑĦ
ĠÐ¿Ð¾Ðº Ð°ÑĤ
ĠÑĢ Ñı
ĠÐ² Ð³
ĠÑģÐ¾Ð±Ð¸ÑĢÐ° ÑĤÑĮ
ĠÐ¿ÑĢÐ¾Ñħ ÑĢÐ¸Ð¿
ĠÐĶ Ð°Ð»ÑĮÑĪÐµ
ĠÐ² Ð°Ð·
ĠÐ»ÐµÐ³ ÐºÐ¸Ð¼
ĠÐ¾Ñĩ Ð½ÑĥÐ»ÑģÑı
Ð½Ð¸ ÐºÐ°Ñħ
ĠÑģ ÑĢÐ¾Ðº
ĠÐ¿Ð¸ ÑĨ
ĠÑģÐ¼ Ð°Ñħ
ĠÐĹ Ð¾ÑĢÐ¾
ĠÑģÑĤÐ°Ð» Ðº
ĠÐ¿Ð¾Ð¼ÐµÑī ÐµÐ½Ð¸Ð¸
ĠÑĥÑĤ ÐºÐ½ÑĥÐ²ÑĪÐ¸ÑģÑĮ
ĠÐ´ÐµÑĤÑĮ Ð¼Ð¸
ĠÐł Ð¾ÑģÑģ
n d
ÐµÑģ Ð»Ð¸
ĠÐ¿ÑĢÐ¾ÑĪ ÐµÐ´
ĠÑĤÐµÐ¼Ð½Ð¾ ÑĤÑĥ
ĠÐ¿ÑĢÐ¾ÑģÑĤÐ¾ Ð½Ð°Ð»
ĠÐ¿ÑĢÐ¸Ð²ÑĭÐº Ð½ÑĥÑĤÑĮ
ĠÐ³ÐµÑĢ Ð¾Ð¹
ĠÐºÐ¾ÑģÑĤÑİ Ð¼Ðµ
ĠÐ¾Ð³Ð¾ ÑĢ
ĠÐŃ Ð»Ð¸Ð·
Ð½Ð¸ Ð½
ĠÑģÐ» ÑĳÐ·
ĠÑħ Ð»ÐµÐ±
ĠÐ¿ÑĢÐ¸Ðº ÑĢÑĭÐ²Ð°Ñı
ĠÐ¿ ÐµÑĪ
Ð¾Ñĩ ÐºÐ°Ð¼Ð¸
ĠÐ¿Ð°Ð»ÑĮ ÑĨÐ°
ĠÐ¿ÑĢÐ¾ÑģÑĤ Ð¸ÑĤÑĮ
ĠÐľÐ¸ ÑĪÐ°
ĠÐ¿Ð¾Ð± Ð¾Ð»ÑĮÑĪÐµ
ĠÐ¼Ð°Ð»ÐµÐ½ÑĮ ÐºÐ¸Ð¼
ĠÐ½ÐµÐ¶ ÐµÐ»Ð¸
ĠÐ¾Ð· Ð²ÑĥÑĩ
ĠÐ¾Ð±ÑĭÑĩ Ð½Ð¾Ð³Ð¾
ĠÐ¸Ð·Ð´ Ð°Ð²
Ð³Ð¾ Ð½
ĠÐ´ÐµÐ» Ð°Ð¼
ĠÐ£ Ð¸Ð»Ð»
ĠÑģÐµÑĢ ÑĭÐµ
ĠÐº Ð°Ð½Ð¸
ĠÐ¿Ð¾Ð¾Ð±ÐµÑī Ð°Ð»
ĠÐ¨ Ð¸ÐºÐ°Ð¼Ð°ÑĢÑĥ
ĠÐļÐ¾ÑĢ Ð¾Ð»ÑĮ
ĠÐ¿Ð°ÑĢ ÐºÐµ
ĠÐ´ ÑĢÐ°Ð·
ĠÑĤÐ¾ÑĢ Ð³Ð¾Ð²
Ð¿ ÑĢÐ°Ð²
ĠÐ¿ÑĢÐ¸Ð· ÑĢ
ÑĨÐ¸ ÑıÐ¼Ð¸
Ñĥ ÑīÐ¸Ð¹
ĠÐ§ ÑĥÐ½
ĠÐ³Ð¾ÑĢÑĮ ÐºÐ¾
ĠÐĴ ÑģÐµÐ¼
ĠÐ½Ð°Ð¿ÑĢÑıÐ³ ÑģÑı
ÐĽ ÑĥÐ¸
ĠÐ¿Ð¾Ð¼ Ð½Ð¸Ð»Ð°
ĠÑĥÑĤ ÐºÐ½ÑĥÐ»ÑģÑı
ĠÐ¼ÑĳÑĢÑĤ Ð²
ĠÐ·Ð°Ð³ Ð¾Ð²Ð¾ÑĢ
ĠÐ¿Ð¾Ð» Ð·
Ð² Ð¾Ð±Ð¾Ð´
ĠÐ¿Ñĥ ÑĪÐ¸ÑģÑĤ
ĠÐ½ÐµÐ² Ð·
ĠÐ¾Ð± Ð¾Ð´
ĠÐ¡ Ð»ÑĭÑĪ
ĠÐ¿ÑĢÐ¸Ð´Ñĥ ÑĢ
ĠÐ°Ð² ÑĤÐ¾ÑĢ
Ġ p
ĠÑĥÐ¶Ð°Ñģ Ðµ
ĠÑĪÐ¸ÑĢ Ð¾ÐºÐ¾Ð¹
ĠÐ¿Ð¾Ð´ Ð»ÐµÑĤ
Ð°Ð² ÑĪÐµÐ¹
ĠÑģÑĨÐµÐ½ Ðµ
ĠÐ±Ð¾Ð»ÑĮÑĪ Ð¸Ð¼Ð¸
ĠÑģÐµÑĢ ÐµÐ´Ð¸Ð½Ðµ
ĠÐ±ÐµÑĢ ÐµÐ³
ĠÐ¿ÑĢÐµÐ´ ÑĩÑĥÐ²ÑģÑĤÐ²
ĠÐ¸Ð¼ ÐµÐµÑĪÑĮ
ÑģÑĤ Ð¾Ð¼
Ð°Ð¼ Ð¾ÑĤÐ¾
Ð°Ð´ Ð°Ð¼
ÑģÑĤÐ¸ Ðº
ĠÐºÐ°Ð¼ ÐµÑĢÑĥ
ĠÑĥÐ· Ð½Ð°Ð»Ð¸
ĠÐ²ÑĢÐ°Ð³ Ð¾Ð²
Ð¸Ð¼ Ð¾Ð³Ð¾
ĠÑģ ÑĩÑĳÑĤ
Ð¿ ÑĢÐ¸
ĠÐ½Ð°Ñĩ Ð°Ð»ÑģÑı
ĠÐ¿Ð¾Ð¿ ÑĢÐ¾Ñģ
ĠÑĢÐµÐ±ÐµÐ½ ÐºÐ¾Ð¼
ĠÑĤÑĢ Ð¾Ð½
ĠÐ¿Ð¾Ð´Ð± ÐµÐ¶Ð°Ð»Ð°
ĠÑģÑĭ Ð½Ð¾Ð¼
ĠÐ¿ÑĢÐ¸Ð½Ð°Ð´Ð»ÐµÐ¶ Ð¸ÑĤ
" -
ĠÐŁ ÑĢÐ¸Ð²
ĠÐ¸Ð³ ÑĢÐ¸Ð²
ĠÐ¡ Ð°Ð»ÑĮ
ĠÐļÐ°Ð¿ Ð¸ÑĤÐ°Ð½
ĠÐ² ÑıÐ·
ĠÑĤÐµÐ¼ Ñĭ
ĠÐ²ÑĢÐµÐ¼ ÐµÐ½
ĠÐ½ÐµÐ´Ð¾Ð²ÐµÑĢ ÑĩÐ¸Ð²Ð¾
ĠÐ´ ÐµÐ¶ÑĥÑĢ
ĠÑģÐ¾Ð± ÑĢÐ°Ð²
ĠÑģÑĤÐ¾Ð»Ð¾Ð² Ð¾Ð¹
ĠÑĢÐ°Ð·Ð² ÑıÐ·
ĠÐ¼ÐµÑĤ Ð°Ð»
ĠÐ¿Ñĭ Ð»Ð¸
ĠÐ³Ð¾ÑģÑĤ Ñı
ĠÐ¿Ð¾ÑĤÐ°Ñī Ð¸Ð»
ĠÐĴ ÑģÑĤÐ°Ð²
ĠÐ¢Ð°Ðº Ð¸Ðµ
ĠÑĥÑģÐ¼ÐµÑħ Ð°ÐµÑĤÑģÑı
ĠÐ¿Ð¾Ð¼ÐµÑī ÐµÐ½Ð¸Ñı
ĠÑĪ Ð°Ð¼Ð¿
ĠÐ¾Ð± ÑĥÐ²
ĠÐ¾ ÑĪ
ĠÑģÐ¿ Ð¸ÑĪÑĮ
ĠÐ¾Ñģ ÐµÐ½
Ð¸Ð· Ð°
ĠÐ¼ÐµÐ» ÐºÐ¸Ðµ
ĠÐºÐ¾Ð½ ÑĤÑĢÐ°Ðº
ĠÐĿÐ°Ð¿ ÑĢÐ¸Ð¼ÐµÑĢ
ĠÐ¼Ð°Ð»ÐµÐ½ÑĮ ÐºÐ¸Ñħ
ÐµÐ² Ð¸Ñĩ
ĠÐ¿Ð¾Ñħ Ð¸ÑĤ
Ð°Ð»ÑĮ ÑĨÑĭ
ĠÐ½ÐµÐ¼ Ð°Ð»Ð¾
ĠÑĤÐµÐ» ÐµÐ¿
ĠÐĳ ÑĢÐ°ÑĤ
ĠÐ½Ð° ÑĢ
ĠÑĥÐ¿ ÑĢÑıÐ¼Ð¾
ĠÐ·Ð¾Ð»Ð¾ÑĤ Ð¸ÑģÑĤ
ĠÐ¼Ð°Ð»ÑĮÑĩÐ¸ ÑĪÐºÑĥ
ĠÐ¾ÑĤÐº ÑĢÐ¾
ĠÑĥÐ´Ð¸Ð²Ð» ÐµÐ½Ð¸Ñİ
ĠÑģÐºÑĥ ÑĩÐ°Ð»
ĠÐŁÐµÑĢ ÑģÐ¸
ĠÐ²Ð¾ÑģÑħ Ð¸ÑĤ
ĠÑħÐ°Ð»Ð° ÑĤ
Ñĩ ÐµÐ½
ĠÐ¾ÑĢÐ³Ð°Ð½Ð¸ Ð·Ð°
Ð°Ð»ÑĮ Ð½ÑĭÐ¼Ð¸
ĠÑĢÑĥÐ±Ð°ÑĪ ÐºÐ°
ÑĤÑĮ Ñİ
ĠÐ± Ð¾Ð¼
ĠÐ² ÐµÑĪ
ĠÑĢÐ°Ð·Ð² Ð°Ð»
ĠÐ¼Ð¾ÑĢ Ð¾Ð¶ÐµÐ½
ĠÐĽ ÐµÐ´Ð¸
ĠÐ·Ð°Ð¼ ÐºÐµ
ĠÐ´Ð¾Ðº ÑĤÐ¾ÑĢÐ°
ĠÐ¿ÑĢÐ¾Ð²Ð¾Ð´ Ñı
ĠÐ² Ð¾Ðº
ĠÑĢÐ°ÑģÐ¿ Ð»Ñĭ
ĠÑĪÐºÐ°ÑĦ Ð°
ĠÑģÑĤÑĢÐ° Ð½Ñĭ
ĠÐŃ Ðº
ĠÐ²Ð°Ð¼Ð¿ Ð¸ÑĢÐ¾Ð²
ĠÑħÐ¾ÑĢÐ¾ ÑĪÐ¸Ðµ
ĠÐ¿Ð¾Ð» Ð³Ð¾Ð´Ð°
ĠÐ¾Ð± Ð»Ð¾Ð¼
ĠÐ¾Ð´ Ð½Ð¸Ñħ
ĠÑĥÐ³ Ð»ÑĥÐ±
ĠÐ³ÑĢÑĥÐ´ ÑĮÑİ
ÑĤÐ° Ð½Ð°
ĠÑĥÐ´Ð°ÑĢ Ð¾Ð¼
ĠÐºÐ¾Ð» Ð´Ñĥ
ĠÐ¾ÑĤÑĢÑĭÐ² Ð°ÑıÑģÑĮ
Ð¼ Ð¾ÑĢ
ĠÑĦÐ°Ð¼ Ð¸Ð»Ð¸
ĠÐ¿Ð¾Ð´Ð¾Ð± Ð½Ð¾
ĠÐ±Ð¾Ð»ÑĮÑĪ ÐµÐ¹
ĠÐºÑĥÐ¿ Ð¸Ð»
ĠÑį Ð»ÐµÐ¼
ĠÐ¢Ð°Ðº Ð°Ñı
Ð¸Ð»Ð¾Ð¼ ÐµÑĤ
ĠÐ½Ð°Ð¿Ð¸Ñģ Ð°Ð»
ĠÐ¿ÑĢÐ¸Ð¶ Ð°Ð²
ÐĽ ÐĲ
ĠÑģÑĤÐ°ÑĢÐ° ÐµÑĤÑģÑı
Ñģ Ð¸Ñı
ÐºÐ¸Ð´ ÑĭÐ²Ð°Ñı
ÐĶ Ð¾Ð±
ĠÐľ ÐµÐ¶Ð´Ñĥ
ĠÐ°Ð½Ð³ ÐµÐ»Ð°
ĠÐ±ÑĥÐº ÐµÑĤ
ĠÐ¿Ð¾ÑģÐ»ÑĭÑĪ Ð°Ð»Ð¾ÑģÑĮ
ĠÐłÐ¾Ð´ Ð¶ÐµÑĢ
ĠÐ± ÐµÐ¶Ð°Ð»
Ð´ Ñį
ÐµÑĢÑĮ ÑĳÐ·
ĠÑħÐ¼Ñĥ ÑĢÐ¾
ĠÐ²Ð¿ Ð¸Ð»ÑģÑı
ĠÑįÐº ÑĢÐ°Ð½Ðµ
ĠÐ± Ð¾ÑĢÐ¼
ĠÐ² ÐµÐ»Ð°
ĠÐĸ ÐµÐ½Ñı
Ðº Ð½ÑĥÐ»Ð¸ÑģÑĮ
ĠÑĤ ÑĥÑĢ
ĠÑģÑĩÐ¸ÑĤ Ð°Ð»Ð°
Ð°Ð½Ð¾Ð² Ð¾
ĠÑĥ ÑĤÐ¾
ÐµÐ² Ð¾Ð¶
ĠÑģÐ¼Ð¾ÑĤÑĢÐ¸ ÑĪÑĮ
ĠÐ¤ ÐµÑĢ
ĠÐ¿Ð¾ÑĢ ÑĤÑĢ
ĠÑģÐ¾Ð±ÐµÑģÐµÐ´ Ð½Ð¸ÐºÐ°
ĠÑģÐ»Ð¾Ð¶ Ð½ÐµÐµ
ĠÐ¿Ð¾Ð´Ñģ ÐºÐ¾ÑĩÐ¸Ð»
" !
ĠÐĹ ÐµÐ¹Ð½Ð°
Ð·Ð° ÑīÐ¸ÑĤ
ĠÐĳ ÐµÑģ
ĠÐ´Ð°Ð² Ð°Ð»Ð¸
ĠÐ¿ÐµÑĢÐ¸ Ð¾Ð´Ð¸ÑĩÐµÑģÐºÐ¸
Ð½Ð°Ñģ Ð¸Ð»
ĠÐ¿ÑĢ Ð¾Ð³Ð¾
ĠÐ¿ÑĢÐ¸ ÐµÑħÐ°Ð»Ð°
ĠÑģÐ¾Ð¿ ÑĢÐ¸Ðº
ĠÑģÐ¿Ð¸Ñģ Ð¾Ðº
ĠÐ¾ÑģÐ¼Ð¾ÑĤÑĢ ÐµÐ»
ĠÑĢÐ°Ð· Ð¾ÑĢ
ĠÐ¶ÐµÐ½ ÑģÐºÐ¸Ð¹
ĠÐ½Ð°Ð³ ÑĢÐ°Ð´
ĠÐ¾ÑĤÐ² ÐµÑģÑĤÐ¸
ĠÐ·Ð²Ð¾ Ð½Ð¸Ð»
ĠÑģÐºÑĢÐµÑģÑĤ Ð¸Ð²
Ð¨ÐµÑĢ Ð»Ð¾Ðº
ĠÑĩÑĳÑĢ ÑĤÐ¾Ð²
ĠÐļÑĥÑĢ ÑĤÐ°
ÐµÐ³ Ð°Ð»
ĠÐŃ Ð¼Ð¸
ÑĥÐ± Ð¸Ð¹
ĠÑı Ð¹
ĠÐľ Ð½Ð¾Ð³Ð¾
ĠÐ·Ð½Ð° Ð½Ð¸Ñı
ĠÐ³Ð°Ð» ÑģÑĤ
ĠÑģÑĤÑĢÐ°Ð½ Ð½Ð¾Ð³Ð¾
ĠÐ·Ð°Ð¾ÑĢ Ð°Ð»
Ð»Ñı Ð¼Ð¸
ĠÐ¿ Ð¸Ð¶
Ð¸Ð´ Ðµ
ĠÐĶÐ¸ Ð¿Ð¿
ĠÐļ Ð¾Ð¼Ñĥ
ĠÑĤÐ¾ÑĪ Ð½Ð¾
ĠÐ¿ÑĢÐ¸ÑģÑĥÑĤÑģÑĤÐ² ÑĥÑİÑīÐ¸Ñħ
Ð´ ÐµÑĢÐ¶
ĠÐľ Ð¾Ðµ
ĠÐ¿ÐµÑĢÐµ ÑĥÐ»
ĠÐ¾ÑĤÐºÐ¸ Ð½ÑĥÐ»ÑģÑı
ĠÐ´ Ð»Ð¸
ĠÐ±ÐµÐ·Ð· Ð°Ð±Ð¾ÑĤ
Ð½ Ð°Ð¼
ĠÐ¼ Ð°Ñı
ĠÐ¾Ð± ÑıÐ·Ð°
ĠÐ´ Ð¸Ðº
ÐŁ Ð¾Ð»
ĠÐ¿Ð¾Ð¼ Ð¸Ð¼Ð¾
ĠÐ³ Ð¸Ð¿
ĠÑģÑĤÑĢÐ° ÑģÑĤÐ½Ð¾
ĠÐ¿ÑĢÐ¸ Ð¾Ð±ÑĢ
ÑĤÐ¸ ÑĢÐ¾Ð²
ĠÐĳ Ð¸Ð±
ĠÐĴÐµÑĢ Ð½Ð¾
ĠÑĤÐ²Ð¾ÑĢ Ð¸ÑĤÑģÑı
ĠÑģÐ»Ð¾Ð² Ñĥ
ĠÐ¿Ð¾Ð´Ð¾Ð± Ð½ÑĭÑħ
ĠÐĳÑĥÐ´ ÐµÑĤ
ĠÐ±ÐµÑģÐ¿ Ð¾ÑĢÑıÐ´
ĠÐ»Ð¸ÑĪ Ð½Ð¸Ð¹
ĠÐ¿ÑĢÐ¾ÑĦÐµÑģÑģÐ¸ Ð¾Ð½
ĠÐļ Ð¾ÑģÑĤ
ĠÐ½Ð°Ð· ÑĭÐ²Ð°ÐµÑĤÑģÑı
ĠÐ»ÑİÐ±Ð¸Ð¼ ÑĭÐ¼
ĠÐ¿Ð¾Ð´ÑĢÑĥÐ³ Ð¾Ð¹
ĠÑį Ð¿
ĠÐ´ÐµÑĢ Ð½ÑĥÐ»ÑģÑı
ĠÐ·Ð°ÑģÑĤ ÑĭÐ»Ð°
ĠÑģÑĤÑĢÐ° ÑģÑĤÐ¸
ĠÑĢÐ°ÑģÐ¿ Ð»Ð°
ĠÐ·Ð° ÑĤÐµ
ĠÐ¿Ð¾Ð³ Ð°Ñģ
Ð½ ÐµÐº
ĠÐ£ Ð¾Ð»
! ",
Ð°Ð´ Ð¸Ð¼
ĠÐ¾ÑĦÐ¸ÑĨÐ¸ Ð°Ð½ÑĤ
ĠÑĢÐ°Ð·Ð± ÐµÑĢ
ĠÐĴÑĭ Ð¿
ĠÑĤÐ°ÑĤÑĥ Ð¸ÑĢÐ¾Ð²
ĠÑĤ ÐµÑģÑĤ
ĠÐ± ÑĢÑĭÐ·
ĠÐ·Ð°ÑģÑĤÐ°Ð² Ð¸Ð»Ð¸
ÑĥÑĪ ÐµÐº
ĠÑģÐ¾ÑģÑĤÐ¾Ñı Ð½Ð¸Ñı
Ðķ Ð¼Ñĥ
ĠÐĹÐ°Ð½Ð· Ð°Ñģ
ĠÑģÐ± ÐµÐ¶Ð°Ð»
ĠÑĢÐ°Ð· Ð»ÐµÑĤ
ĠÑĥÑĤ Ð¾Ð¿
ĠÐ¾ÑĤÐ²Ð»ÐµÑĩÑĮ ÑģÑı
ÑĥÐ³ Ð°
ĠÑĢÐ°ÑģÐ¿ Ð¾ÑĢ
ĠÐ±ÑĥÐ´ÑĥÑī ÐµÐ³Ð¾
Ð¾Ðº ÐµÑĢ
ÐµÑĤ ÐºÐ°
ĠÐ¡Ðº Ð°Ð¹
ÐŁ Ð¾Ð¼
ĠÐ¿Ð¾ÑĤ ÑĢ
ĠÐģ Ð½
ÐĹ Ð°ÑĤ
ÑıÐ½ ÐµÑĤÑģÑı
ĠÑĩÐµÐ¼Ð¾Ð´ Ð°Ð½
ĠÐºÐ¾Ð» Ð»ÐµÐº
ĠÑģÐ´ÐµÐ»Ð° ÐµÑĪÑĮ
ÐĴ ÐµÑĩ
ĠÑģÐ²Ð¸Ð´Ð° Ð½Ð¸Ñı
ĠÑĢÐ°Ð±Ð¾ÑĤ Ð¾Ð¹
ĠÐ´Ð¾ÑĢ Ð¾Ð³Ð¾
ĠÐ²Ð¾ÑĢÐ¾ÑĤ Ð°
ĠÑĢÑĥ ÐºÐ¾
ĠÑģÑĤÑĢÐ°Ð½ Ð½Ð¾Ð¹
ĠÐ¥ Ð°Ð¼
ĠÐ¾Ð±ÑģÑĥÐ¶Ð´ Ð°Ð»Ð¸
Ð»Ñİ ÑĩÐ¸Ð²
ĠÐ´Ð»Ð¸Ð½ Ð½ÑĭÐ¹
ĠÐ·Ð°ÑģÑĤ ÑĭÐ²
ĠÐ° ÑĢÐ¸ÑģÑĤÐ¾Ðº
ĠÐ¸ÑģÐºÐ»ÑİÑĩ Ð¸ÑĤÐµÐ»ÑĮÐ½Ð¾
ĠÐ¿Ð¾ÑĢ Ð°Ð´
ĠÐ² ÑĢÑĥÑĩ
ĠÑĢÑĥÐºÐ¾Ð² Ð¾Ð´
ĠÐ½Ð°Ð¿Ð¾Ð¼ Ð½Ð¸Ð»
ÐºÐ¾ ÑģÑĤÑĮÑİ
ĠÐ¿ÑĢÐ¸ÑĤ ÑıÐ³
ĠÐľ ÐµÐ³
ĠÐ±ÐµÑģ ÑĪ
ĠÑĩ ÑĮÑı
ĠÑģÐ¾ÑħÑĢÐ° Ð½Ð¸ÑĤÑĮ
ĠÐ²Ð·Ð´Ð¾Ñħ Ð¾Ð¼
ĠÐ¾ÑģÐ¾Ð± Ð¾Ð³Ð¾
ĠÐ²ÑģÑĤ Ð°Ð»Ð¸
Ñģ Ð¾
ĠÐ²Ð¾ÑģÐ¿Ð¾Ð»ÑĮÐ· Ð¾Ð²Ð°ÑĤÑĮÑģÑı
ĠÐĲÐ´ ÑĢÐ¸Ð°Ð½
ĠÐ¼Ð¾ÑĢ Ð¾Ð·
ĠÐ¿Ð¾Ðº ÑĥÑģ
ĠÐ²ÑĭÐ· Ð²Ð°ÑĤÑĮ
Ñħ ÑĳÐ½Ð°
ĠÑģÑĭ Ð½Ñĥ
ĠÐ²ÑĭÐ´ ÑĭÑħÐ°ÐµÑĤ
ĠÐ¾ÑĤÐ² ÐµÐ»
ÑĩÐ¸ ÑģÑĤ
ĠÐ±ÐµÐ» Ð¾Ð³Ð¾
ĠÐ´ ÐµÐ±
Ð¼Ñĭ Ð³
ĠÐ½ÐµÐ¿ÑĢÐ¾ Ð¸Ð·Ð²Ð¾Ð»ÑĮÐ½Ð¾
ĠÐ²Ð·ÑĬ ÐµÑĢÐ¾ÑĪ
ĠÐ¡Ð¸ ÑįÐ»ÑĮ
Ð´Ð¸ ÑĢÐ°
ĠÐ¿Ð»ÐµÑĩ Ð°Ñħ
ĠÐ²Ð¾Ð»Ð¾Ñģ Ð°Ñħ
ĠÐ»ÑİÐ±Ð¾Ð¿ÑĭÑĤ ÑģÑĤÐ²Ð¾
ĠÑģÐ¾Ð³Ð»Ð°Ñģ Ð½Ð°
ÐµÑĢ Ð´
ĠÐļÐ°Ð³ Ð°Ð¼Ð¸
ĠÐ± Ð¾ÑĢÐ¼Ð¾ÑĤ
ĠÐļÑĢÐ¸ÑģÑĤÐ¸ Ð½Ð°
ĠÐ· Ð»Ð¸ÑĤÑĮÑģÑı
ĠÐ·Ð°Ð¿ ÐµÑĩÐ°ÑĤ
ĠÐ·Ð°Ñģ Ð½ÑĥÑĤÑĮ
ÑĤÐ¸ ÐºÐ°
ĠÑĥ Ð½Ñĭ
ĠÐ²ÐµÑĢ Ñı
ĠÐ½Ð° ÑĢÑĥÑĩ
ÑĳÐ½ Ð½Ð¾Ð¹
ĠÐ²ÑĭÑģ Ð¾ÐºÐ¾
Ð½Ðµ ÑĨÑĭ
ĠÐ´Ð¾Ð³Ð°Ð´ Ð°Ð»ÑģÑı
ĠÑģ Ð³Ð¾
ĠÑħÐ¾Ð»Ð¾Ð´ Ð½ÑĭÐµ
ĠÑĥÐ´Ð°ÑĢ Ñĭ
ĠÐ¿Ð¾Ð± ÐµÐ¶Ð°Ð»Ð¸
ĠÐ±Ð¾Ð»ÑĮÑĪÐµ Ðµ
ĠÐ²Ð¾Ð»Ð½Ð¾Ð² Ð°Ð»Ð¾
Ð¾Ð´ Ðµ
ÑĢÐ°Ð½ ÑĨÑĥ
Ð»Ð¸Ð² Ð¾Ð³Ð¾
ĠÐļÐ¸ÑĤ Ð½Ð¸ÑģÑģ
ĠÐ² ÐºÑĥ
Ð°Ð² ÑĪÐ¸ÐµÑģÑı
ĠÐ¢ Ð°Ð½
ĠÐ½ÐµÐ½Ð°Ð²Ð¸Ð´ Ð¸ÑĤ
ĠÐ® Ð¸
Ð°Ð² ÑĪÑĥÑİ
ĠÐ·Ð°Ð¿Ð¸Ñģ ÐºÑĥ
ĠÐ¡ÐºÑĥ Ð°Ð»Ð¾
ĠÑĥÐ±ÐµÐ´ Ð¸ÑĤÑĮ
Ð½Ð¾ Ñİ
ĠÐ¾Ð±ÐµÑģÐ¿ ÐµÑĩ
ÐŁ Ð¾Ð²
ĠÐ² ÑĢÐ°ÑĤÑĮ
ÑģÐºÐ¸ Ð¼Ð¸
ĠÐ±ÐµÑĪ ÐµÐ½Ð¾
ĠÐ¶Ð¸Ð´ ÐºÐ¾ÑģÑĤÑĮ
ĠÐ³ ÐµÐ¹
Ð¸ ÑĢÐ¸
ĠÐ½Ð°Ð¿ Ð¾Ð»Ð½Ñı
ĠÑĥÑħÐ¼ÑĭÐ» ÐºÐ¾Ð¹
i c
ĠÐ·Ð°Ð± Ð°Ð²Ð½Ð¾
Ð¾Ð´ Ð¾Ð±
ĠÐ½ÐµÐ´ ÐµÐ»Ñı
ĠÐ²Ñĭ ÑĪ
ĠÐ´ÐµÑĢÐ¶Ð° ÑģÑĮ
ĠÑĥÑĤÐ¾Ñĩ Ð½Ð¸Ð»
ĠÐŃ ÑĪÐ»Ð¸
ĠÐ¿Ð¾Ð³Ð»ÑıÐ´ ÑĭÐ²Ð°Ñı
ĠÐ´Ð² Ð°Ð´ÑĨÐ°ÑĤÐ¸
ĠÐ·Ð°ÐºÐ¾Ð½Ñĩ Ð¸Ð»Ð°ÑģÑĮ
ĠÐ¾ÑĪÐ¸Ð± ÐºÑĥ
Ð½ ÐµÑĢ
ĠÑģÐ¼ÐµÑĢÑĤÑĮ Ñİ
ĠÐ» Ð±Ð°
ĠÐ¿ÑĥÐ³ Ð¾Ð²Ð¸
ĠÐ±ÐµÑĢ ÐµÐ¶Ð½Ð¾
ĠÑģÐ¾Ð±ÑģÑĤÐ²ÐµÐ½ Ð½ÑĥÑİ
ĠÑĤÑıÐ¶ÐµÐ» ÑĭÐ¹
ĠÐ¿ÑĢÐµÐ³ ÑĢÐ°Ð´
ĠÐºÐ¾Ð» Ð¾Ð½
ĠÐ½Ð°Ð¶ Ð°Ð»
ĠÐ½ÑĥÐ¶ Ð½ÑĭÐ¹
ĠÐ»Ð¸ÑģÑĤ Ð¾Ðº
ĠÑĢÐ°Ð·Ð½Ð¾ ÑĨÐ²ÐµÑĤ
ÐºÐ¸ Ð¿
Ġ A
ĠÑĤÐ¾ÑĢÐ¾Ð¿ Ð»Ð¸Ð²Ð¾
ĠÐ¿ÑĢÐ¸ Ð½ÐµÑģÑĤÐ¸
Ð°Ð´ Ð¶
ĠÐºÑĢÑĭ ÑĪÐµ
ĠÐ·Ð°Ð¿ Ð¾Ð»Ð½
Ðĳ Ð»Ð¾Ð½Ð´Ð¸Ð½
ÐŀÑĤ Ðº
ĠÐ¾Ð¶Ð¸Ð´Ð° Ð½Ð¸Ñı
Ð°ÑĢ ÐºÐ°
ĠÐ³Ð»ÑĥÐ¿ Ð¾ÑģÑĤÐ¸
ĠÐ¿ÑĢÐ¾Ð² ÐµÐ»Ð¸
ĠÐ¢Ð¾Ð¼ Ð»Ð¸Ð½
ĠÐ¿Ð¾Ð»ÑĮÐ· Ñĥ
ĠÑĥÐ² Ð¸Ð¶Ñĥ
ĠÐ´Ð°Ð² Ð°Ð»Ð°
o t
ĠÑģÐ´ Ð¾Ñħ
Ñİ Ñħ
ĠÑģÑĢÐ°Ð¶ Ð°ÑĤÑĮÑģÑı
ĠÐºÐ¾Ð½ÑĨ ÐµÑĢÑĤ
ĠÑģÐ¼ Ñĭ
Ð¸Ð² ÑĪÑĥÑİÑģÑı
ĠÐ±Ð»Ð°Ð³ Ð¾Ð¿Ð¾Ð»ÑĥÑĩ
ĠÑĥÑģÐ»ÑĭÑĪ Ð°Ð»Ð¸
ĠÐ¾ÑĤÐ¿ÑĢÐ°Ð² Ð¸ÑĤÑĮ
ĠÐºÐ¸ Ð½ÑĥÐ»ÑģÑı
ĠÑħÑĢ ÐµÐ½Ð°
ĠÐĲ Ð½Ð°
ĠÐ±Ð¾Ð»ÑĮ ÑĪÐµÐ³Ð¾
ĠÐ¿ÑĢÐ¾Ð¶ Ð¸Ð³
ĠÑĥÐ²Ð¸Ð´ Ð¸ÑĪÑĮ
ĠÑįÐ»ÑĮÑĦ Ð°
ĠÑģÑĤÐ°Ð½Ð¾Ð² Ð¸Ð»ÑģÑı
Ðľ Ð¾Ð¹
ĠÐ¿ÑĢÐ¾Ð¸Ð· Ð½ÐµÑģÑĤÐ¸
ĠÐ¿ÑĢÐ¸Ð³ Ð¾Ð´
ĠÐ¿ÑĢÑıÐ´ ÑĮ
ĠÐº Ð»Ðµ
ĠÐ¿ÑĢÐ¾ÑĢÑĭ ÑĩÐ°Ð»
ĠÐ± ÑĢÐ¾ÑĪ
Ð°ÑĤÐµÐ»ÑĮ Ð½Ð°Ñı
ĠÐºÐ¾ÑĪ Ð¼
ĠÑĪ Ð»ÐµÐ¼
Ð½ÑĥÑĤ ÑĥÑİ
ĠÐľÐ¸Ð½ ÑħÐ¾
ĠÐ²ÑĭÐ· Ð²Ð°Ð»
ÐĿÐ°Ð´ Ð¾
ĠÐºÐ¸ Ð½ÑĥÐ»Ð°
ÐµÐ½ Ð¾Ñģ
ĠÑĥÐ¼ ÐµÐµÑĪÑĮ
ĠÐ½ÐµÑĥÐº Ð»Ñİ
Ð¸ÑĤ ÑĭÐµ
ĠÐ¼Ð°Ñģ ÐºÐ¸
ĠÐ·Ð°Ðº ÑĢÑĥÐ¶
ĠÐ¿ÑĢÐµ Ð¾Ð´Ð¾Ð»
ĠÐ½ ÐµÑĢÐµ
ÑĢÐ° ÑģÑĤÐ°
ĠÐ¾Ð´ ÐµÐ²
ĠÐ¾Ð±Ð¾ Ð¸Ð¼
ÐĻ Ð¾ÑĢ
ĠÐ· Ð°Ð½Ð¾Ð²Ð¾
ĠÑĪÐ°ÑĢ ÑĦ
Ð½Ñı Ð»Ð°
ĠÑĥÐ± ÐµÐ¶Ð°Ð»Ð°
ĠÑģÑģ Ð¾ÑĢ
Ð½Ð¸ ÑĨÐ¸
ĠÐ½Ð°ÐºÐ°Ð· Ð°Ð½Ð¸Ðµ
ÐĲ Ñħ
ĠÐ¿ÑĢÐ¾Ð³ÑĥÐ»Ñı ÑĤÑĮÑģÑı
ĠÐ¿ÐµÑĢ ÐµÑĢÑĭÐ²
ĠÐ¿Ð¾ ÐµÑħÐ°ÑĤÑĮ
ĠÐ¢ ÑıÐ¶
ĠÐ»Ð¾Ð¶ ÑĮ
ĠÐºÐ¸Ð² Ð½ÑĥÐ²
ÑģÑĤÐ²ÐµÐ½ Ð½ÑĭÐµ
ĠÐ§Ð°ÑĢ Ð»Ð¸
ÑĢ Ð¸Ð»
ÑĥÐ¿ ÐµÑĢ
ĠÐ¿Ð¾Ð¿Ð¾Ð» Ð°Ð¼
ÐµÐ³ Ð»Ð°Ð·
ĠÐ»Ð¾Ð¿ Ð°ÑĤ
ĠÑĤÑĢÐµÐ± Ð¾Ð²
ĠÐµÑħ Ð¸Ð´
ĠÐ½Ð°ÑĩÐ¸Ð½Ð° ÐµÑĤÑģÑı
Ðł ÐĲ
ĠÑħÐ¾Ð´ Ð¸ÑĤ
ÑģÑĤ ÑıÐ¼Ð¸
ĠÐ¢ Ð¾Ð»
Ð°ÑĤ Ð¾Ð¼
ĠÐ²Ð°Ð½ Ð½Ñĥ
ÐµÑĢ Ð½ÑĥÐ»
Ð»Ð° Ð½Ð°
ÑĥÑī Ð°Ñı
ĠÐ½ÐµÑĥÐ´ Ð¾Ð±
ĠÐ»ÑİÐ± Ð¾Ðµ
ĠÐ¸ÑģÑĩÐµÐ· Ð»Ð¸
ĠÐĿ ÐµÐ½Ð°Ð²Ð¸Ð¶Ñĥ
ĠÐºÐ¾ ÑĪÐºÐ°
ĠÐ¼Ð¸ ÑĢÑĥ
ĠÐ²Ð¾Ð» Ð½Ñĭ
ĠÐ¾Ñģ Ð¼ÐµÐ»
ĠÐ²Ð¾Ð·ÑĢÐ°ÑģÑĤ Ðµ
ĠÑĥÐ²ÐµÑĢÐµÐ½Ð½Ð¾ ÑģÑĤÑĮ
ÐĿ Ðŀ
ĠÐ°Ð½Ð³ Ð»Ð¸Ð¹
ĠÐ²Ð¾Ð» Ð½ÐµÐ½Ð¸Ðµ
ĠÐŃ ÑĪ
ĠÑģÐ¾Ð´ ÑĢÐ¾Ð³
ÑĢÐ¸ ÑĨÐ°
ĠÑħ ÑĢÐ°Ð¼
ĠÑģÐµÑĢ Ð´Ð¸
ĠÐ¡Ð½ÐµÐ¹ Ð¿Ð°
ĠÐ½ÐµÐ¿ ÑĢÐµÐ¼ÐµÐ½Ð½Ð¾
ÐµÑĢÑĥ ÑģÑĮ
ĠÐ¿ÑĢÐ¸ ÑĩÐµÑģ
ĠÐ¾Ð±Ð¼ Ð¾ÑĢÐ¾Ðº
ĠÐľ Ð¾Ð½
ĠÐ¿Ð¾ Ñı
ĠÑįÐ¼Ð¾ ÑĨÐ¸Ð¾Ð½
ÐµÐ½ ÐµÐº
Ð¾Ð¶ Ð´Ð°Ð½
ĠÑĢÐ°Ð· ÑĢÐµÐ·
ĠÐ±ÑĥÑĤÑĭÐ» ÐºÐ¸
ĠÐ¿ÐµÑĢÐµÐ¿ Ð»ÐµÑĤ
Ð´ Ð°Ð»Ð¸
ĠÐ¿Ð¾Ð¿ ÑĥÐ»ÑıÑĢ
ĠÐµÐ´ Ð¾Ð¹
ĠÑĦ Ð°Ð»ÑĮ
ĠÐŀÐ± Ð°
Ð¸Ð² ÑĪÐµÐµÑģÑı
ĠÑĥÑģÑĤÐ°Ð² Ð¸Ð»Ð¸ÑģÑĮ
Ñĩ ÐµÑĢÐº
ĠÐľÐ°ÑĢ Ð¸Ñı
ĠÐ²ÑĭÐ± ÐµÐ¶Ð°Ð»Ð°
ĠÐŀ ÑĢÐ¾ÑĩÐ¸Ð¼Ð°ÑĢÑĥ
ĠÐ¿Ð¾Ð· Ð°Ð±Ð¾ÑĤ
Ð»Ð°Ð´ ÑĪÐ¸Ð¹
ĠÐ¾ÑĤÐ½Ð¾Ñģ Ð¸ÑĤÐµÐ»ÑĮÐ½Ð¾
ĠÐĵÑĢ Ð¸Ð¼
ĠÑĪ Ð²ÑĭÑĢ
Ð°Ð´Ð¸ ÑģÑĮ
ĠÑĩÑĥÐ´ Ð¾Ð¼
ÐµÐ¿ ÐµÑĤ
ĠÐ¡ Ð¸Ð½
ĠÐĴ Ð°ÑĤ
ĠÑģÑĢÐ°Ð²Ð½ ÐµÐ½Ð¸Ñİ
ĠÐ¿Ð¾Ð·Ð²Ð¾Ð» Ñİ
ĠÐº Ð¸Ð»Ð¾Ð¼ÐµÑĤ
Ðļ Ð°Ð¶ÐµÑĤÑģÑı
Ð°Ð¼ÐµÑĤ Ð¸Ð²
ĠÐĶÐ° ÑĪÐ°
ĠÐ¨ Ð¸Ð·Ñĥ
Ð½Ðµ ÑĪÑĮÑģÑı
ĠÐ¿Ð¾Ð¹Ð´ ÑĳÐ¼
ĠÑĢÐ°ÑģÑģÑĤÐ¾Ñı Ð½Ð¸Ð¸
ĠÐ¿ÑĢÐµÐ´ÑģÑĤÐ¾ Ð¸ÑĤ
ĠÐµÐ´Ð¸Ð½ Ð¾Ð³Ð¾
Ð·Ð² ÑĥÑĩ
Ð°Ð° Ð°Ð°
Ðŀ Ñħ
ĠÐºÐ¾Ð¼ ÑĦÐ¾ÑĢ
ĠÐ¼ ÐµÐ¶
ĠÐ¾ÑĤ ÑĢÑĭÐ²Ð°Ñı
Ð¾Ð½Ð¸ Ð¸
ĠÐ²ÑĭÐ´ÐµÑĢÐ¶ Ð°Ð»Ð°
ĠÐ¡ Ð°ÑĢÐ°
Ð± Ð°ÑĢ
ĠÐ¾Ð³ Ð½ÐµÐ¼
ĠÑĤÐ° Ð¸Ð½
ĠÑĢÑıÐ² ÐºÐ½ÑĥÐ»
ĠÐ³Ð¾ÑĢ Ð»Ð°
ĠÑĢ Ð¾Ð¶Ð´
ĠÐ°Ð»ÐºÐ¾Ð³Ð¾ Ð»Ñı
ĠÐ³Ð¾ ÑĢÑĭ
Ð¸Ð½Ñĥ Ð»Ð¸ÑģÑĮ
ĠÐ³Ð¾ÑĤÐ¾Ð² Ð¾
ĠÐ½ÐµÐ¿ÑĢÐ¸Ð² ÑĭÑĩÐ½Ð¾
ĠÐ·Ð°ÑĢ Ð°Ð±Ð¾ÑĤ
Ð¾Ð»ÑĮ ÑĤÐµ
ĠÐ¼Ð°ÑĢ ÑĪ
ĠÐĿ Ð°Ð³
ĠÐ¿Ð¾Ðº Ð°Ð¶Ñĥ
Ġ T
ÐµÐ½ÑĤ Ð°Ð¼Ð¸
ĠÑģ ÐºÐ¾Ð½
ĠÐĶÐ¶ ÑĥÐ»Ð¸
ÑĳÐ½ Ð½ÑĭÑħ
Ð½Ð¸ ÑĩÐ½Ð¾
ĠÐ» ÐµÐ¹ÑĤÐµÐ½
ĠÐ³Ð»ÑĥÑħ Ð¾
ÐĴ ÐµÐ´ÑĮ
ĠÐ¿ÑĢÐ¾Ñī Ð°Ð½Ð¸Ðµ
Ðľ Ð°Ð»ÑĮÑĩÐ¸
ĠÐ¿Ð¾Ð¿ ÐµÑĢ
ÐµÑĢ Ð¸Ð½Ð°
ĠÐ²Ð¾Ð· ÑĢÐ°ÑģÑĤÐ°
ĠÑħ ÑĢÐ°Ð½Ð¸ÑĤ
ĠÑĥÑħ Ñĥ
ĠÐ¥ Ð°Ñı
Ð¸Ð² ÑĪÐ¸Ðµ
Ðļ ÑĥÑĢ
ĠÐĺÐ·Ð²Ð¸Ð½Ð¸ ÑĤÐµ
ÐµÐ² ÑĪÐµÐ³Ð¾
ĠÐ´ Ð½Ðµ
Ð¾Ñĩ ÑĥÐ²ÑģÑĤÐ²
ĠÐ·Ð½Ð°ÐºÐ¾Ð¼ ÑĭÑħ
ĠÑĢÐ°Ð· Ð»Ð¸Ð²
ĠÐ±ÐµÐ³ Ð°ÑĤÑĮ
ĠÑĢÐ°Ð·Ð²ÐµÑĢ Ð½ÑĥÐ²ÑĪÐ¸ÑģÑĮ
ĠÐ¼Ð¾Ð½ ÑģÑĤÑĢ
ĠÐ±ÑĢÐ¾Ñģ Ð°ÐµÑĤ
ĠÑģÐ¸Ð½ ÐµÐ²
ĠÐ¾Ð±ÑĭÑĩ Ð½Ð¾Ð¹
ĠÐ¸Ð·Ð¼ÐµÐ½ Ð¸Ð»Ð°ÑģÑĮ
ĠÐĲÑĢ ÑĤÐµÐ¼
ĠÐ¾Ð³ÑĢÐ¾Ð¼ Ð½Ð°Ñı
ĠÐ·Ð°ÐºÑĢÑĭÐ² Ð°ÐµÑĤ
ĠÑĪ Ð¾ÐºÐ°
ĠÐĴ Ð°Ð¹
ĠÐ¿Ð¾Ðº Ð¸Ð´Ð°
ĠÐłÐ°Ð·ÑĥÐ¼ ÐµÐµÑĤÑģÑı
ĠÐĵÐ° Ð°ÑĢÐ°
ĠÐ¿Ð¾Ð½ÑĢÐ°Ð² Ð¸Ð»Ð°ÑģÑĮ
ĠÐľ Ð°ÑģÑĤÐµÑĢ
Ð¾ ÑĨÐ¸
ĠÐĿ Ð¾ÑĢÐ¼
ĠÐ¾ÑĤÐ´ ÑĭÑĪ
ĠÐ²ÑĭÑĤÐ°Ñī Ð¸ÑĤÑĮ
Ð½Ð¸ ÑĩÐ°Ð»
ĠÑĩÑĥÐ²ÑģÑĤÐ² Ð¾Ð¼
ĠÐ¡Ð°Ð² Ð°Ð´Ð°
ĠÑģÐ¼ÐµÑı Ð»Ð¸ÑģÑĮ
ĠÐ¸Ð³ ÑĢÐ°Ð»Ð¸
ĠÐ¸ ÑīÐ°
Ñı ÐµÑĪÑĮ
ĠÐ´ÑĭÑĪ Ð¸ÑĤ
ĠÑĤ ÑıÐ³
ĠÐĴ ÑĤÐ¾ÑĢÐ¾Ð¹
ĠÑĢÐ°Ñģ ÐºÐ°
ĠÑĩÐµÑĢ Ð½ÑĭÑħ
ĠÐ´Ð¸ Ð°Ð»
Ñĩ ÐµÐ¹
ĠÐ¿Ð¾ ÐµÑģÑĤÑĮ
ĠÐ¿Ð¾ÑıÐ² Ð¸ÑĤÑģÑı
ĠÐ¿Ð¾ÑĨÐµÐ»Ñĥ ÐµÐ²
ĠÐ¿ÑĢÐ¾ ÐµÐ¼
ĠÐ´Ð²Ð¸Ð¶ ÐµÐ½Ð¸Ð¹
ÑıÐ³ Ð¸Ð²Ð°ÑĤÑĮ
ĠÐ± ÐµÐ¶
ĠÐĽ Ð°ÑĢ
ĠÐºÐ°Ð¼ Ð½Ñı
ĠÐ¾Ð±Ð¸Ð´ Ñĭ
ĠÐ¿ÑĢÐ¾Ñħ Ð¾Ð¶
Ñİ ÑīÐµÐµ
ĠÑģÑĤÐ¾ ÑıÑīÐµÐ³Ð¾
ĠÐ¿Ð¾Ð» Ð½Ð¾Ðµ
ĠÐ¼Ð°ÑĤ ÐµÑĢÑĮÑİ
ĠÑģÐ¿ÑĢÑıÑĤ Ð°ÑĤÑĮÑģÑı
ÐĶ Ð»Ñı
ÑĢÐ°Ð· ÑĥÐ¼
ĠÐ½ÑĢÐ°Ð² Ð¸Ð»Ð°ÑģÑĮ
ĠÐºÑĥÐ´ÑĢÑı Ð²
ĠÐ²ÐºÐ»ÑİÑĩ Ð¸Ð»
Ð°Ð± Ð°
ĠÐ½Ð°Ð·Ð² Ð°Ð½Ð¸Ðµ
ĠÐ¸Ñģ ÑĤÐ¾
ĠÐ¡ Ð¾Ð³Ð»Ð°Ñģ
ĠÑĢÐ°Ð·Ð½Ð¾ Ð¾Ð±ÑĢÐ°Ð·
ĠÐļ ÑĥÑĩ
ÐĴ Ð¸Ð´
ĠÐłÐ¾Ð± Ð¸Ð½
ĠÐ³Ð¾ÑĢÑıÑĩ Ð¸Ð¼
ÑĤÐ¸ Ð·
ĠÐ¿ÑĢÐ¾ÑĤÑıÐ¶ ÐµÐ½Ð¸Ð¸
ĠÐ¢Ð¾ÑĢ Ð¸Ð½
ĠÐ¿ ÑĭÑĪ
ĠÐ·Ð°Ð± ÑĥÐ´ÑĮ
ĠÑĤÐ¾Ð½ ÐºÐ¾Ð¹
ĠÐ¿Ð¾Ð» ÑĥÐ¿
ĠÑģ Ð¸Ð¶Ñĥ
ĠÑģÐ² ÐµÐ´
ĠÐ±Ð¾Ð»ÑĮ ÑĪÐ¸Ñħ
ĠÑįÐ»ÐµÐº ÑĤÑĢÐ¸
ĠÐ¿Ð¾Ð´Ð°ÑĢ Ð¸Ð»
Ñģ Ð¸Ð½
e d
ĠÐ·Ð°Ð¿ Ð»Ð°ÑĤ
ÐµÐ½ Ð·
ĠÐ²ÐµÑĢ ÐµÐ²
Ð¾Ð¼ Ð½ÐµÐ½Ð½Ð¾
ĠÐ¾Ð± Ð»Ð°Ðº
ĠÐ¿Ð¾ÑĤÐµÑĢ ÑıÐ²
ĠÑģÑĤÑĢÐ°Ñħ Ð¾Ð¼
ĠÐ²Ð¾Ð·Ð² ÑĭÑĪ
Ð¸Ð»ÑĮ Ð½Ð¸Ðº
ÐµÐ½ Ð¾Ð¼
ĠÑĢÑĥÐ±Ð°ÑĪ ÐºÐµ
ĠÐ¡ Ð»Ð°Ð²Ð°
ĠÐ²Ñĭ ÑĢÐµÐ·
ĠÐĺ Ð´ÐµÐ¼
ĠÑģÑĥÐ´ÑĮ Ð±Ñĥ
ĠÐ¿ÑĢ Ð¾Ð¹Ð´ÐµÑĤ
ĠÑĢ Ð¾Ð¼
ÑģÑĤÐ² Ð¸Ð¸
ĠÐ²ÐµÑĢ Ð¸ÑĤ
ĠÑĥÐ½Ð¸ Ð¶
Ð°ÑİÑīÑĥÑİ ÑģÑı
ĠÐ½Ð°Ð² Ñĭ
ĠÐ²Ð¾ÑģÑĤÐ¾ÑĢ Ð¶
ĠÐ¸Ð³ ÑĢÐ°Ð»Ð°
ĠÐ½Ð°ÑģÑĤÐ¾Ñı ÑīÐµÐµ
ĠÐ½Ð°Ð´ Ð°Ð²
Ð°Ð¶ ÐµÑĪÑĮ
ĠÐķÐ´Ð¸Ð½ ÑģÑĤÐ²ÐµÐ½Ð½Ð¾Ðµ
ĠÑĪ Ð»ÐµÐ¿
ĠÐ£ÑģÐ¿ Ð¾ÐºÐ¾Ð¹ÑģÑı
ĠÐ¾Ñī ÑĥÐ¿
ĠÐ¼ÐµÑĪ Ð°ÐµÑĤ
ĠÐ¶ÐµÑĢÑĤÐ² Ñĥ
ĠÐľÐ°Ðº Ðĵ
ĠÐ¸Ð½ÑĤÐµÑĢ Ð½ÐµÑĤ
ĠÐ²ÐµÑĢ Ð½ÑĥÐ»
ĠÐ²ÑĭÐ¿ Ð¸Ð»
ĠÐ¸Ð· Ð½Ð°ÑģÐ¸Ð»
ĠÐ¿ÑĢÐ¾ÑĦÐµÑģÑģ Ð¾ÑĢÐ°
ĠÐ½Ðµ Ð¾ÑħÐ¾ÑĤ
** *
ĠÐ´ÐµÐ» Ð°Ð¹
ĠÐ»ÐµÐ· ÑĤÑĮ
ĠÐ¿ÑĢÐ¸ ÐµÑħÐ°ÑĤÑĮ
ĠÑĥÑĢ Ð¾ÐºÐ°
ĠÐŁ Ð¾Ð²ÐµÑĢ
ĠÐĽ ÐµÑģÑĤ
ĠÐ¿ÑĢÐ¸Ð¾ÑĤÐº ÑĢÑĭ
ĠÐ¿ÑĢÐµÐ´Ð»Ð¾Ð¶ Ð¸ÑĤÑĮ
ĠÐ¿ÑĢÐ¾Ð¿ ÑĥÑģÑĤÐ¸Ð»
ĠÐ¿Ð¾ÐºÐ¸ Ð½ÑĥÐ»Ð°
ĠÐ±Ð»Ð¸Ð· Ð½ÐµÑĨ
ÑĭÐ² Ð°Ð»Ð¾ÑģÑĮ
ĠÑģ Ð½Ñĭ
ĠÐ²ÑĭÐ³ Ð¸Ð±
ÐµÐ½ÑĮ ÐºÐ¸Ðµ
Ð¾Ð² Ñĥ
ĠÐ²Ñĭ ÑĤÐ¸
ĠÐ±Ð¾Ð»ÑĮÑĪ Ð¸Ð½ÑģÑĤÐ²Ð¾
ĠÐ»Ð¸ Ð½Ð¸Ð¸
ĠÐ²ÐµÑĢÐ¾ ÑıÑĤ
ĠÐ¡ÑĤÐµÑĦ Ð°Ð½
ĠÑĢÑĥ Ð»ÑĮ
ĠÐ¿ÑĢÐ¾ ÑħÐ¾Ð´Ñı
ĠÐŁ Ðŀ
ĠÐ¿Ð»Ð° ÑĩÐµÑĤ
ĠÑĢÐ°ÑģÐ¿Ð¾ÑĢ ÑıÐ¶
ĠÐ¿ÑĢÐ¸ ÑģÐ¿
ĠÐ¿Ð¾Ð·Ð²Ð¾Ð» Ð¸Ð»Ð°
ĠÐ¥ Ð¾Ñģ
ĠÐĽÐ¸Ð´ Ð¸Ñı
) :
ĠÐ¾Ð±Ð½Ð°ÑĢÑĥÐ¶ Ð¸Ð»Ð°
Ð°Ð¹Ð» Ð·
ĠÐ¶ÐµÐ½ÑīÐ¸ Ð½Ðµ
ĠÐ²Ð¾ÑģÐº ÑĢÐµÑģ
ĠÐ·Ð°Ð´ Ð°Ñĩ
ĠÐ´Ð¾Ð² Ð¾Ð»ÐµÐ½
Ð¸Ð· Ð³
ĠÐ¾Ð± ÑħÐ¾Ð´
ĠÐºÐ°Ð½Ð¸ ÐºÑĥ
ĠÑĩÑĥÐ´Ð¾Ð² Ð¸Ñī
ĠÑĥÐº Ð¾ÑĢ
ĠÑĥÐ± Ð¸ÑĢÐ°Ñı
ĠÐºÐ°Ð¶ Ð´Ð°Ñı
ĠÐ²ÑĨÐµÐ¿ Ð¸Ð»ÑģÑı
Ð¾Ð²Ð¸ ÑīÐµ
ĠÐ·Ð°Ð± Ð»
ĠÐºÐ¾ÑĢÐ¿ ÑĥÑģ
ĠÐ´Ð¾ ÑħÐ¾Ð´
ĠÑģ Ð°Ð»Ð°
ĠÐ·Ð°Ð½ ÑıÑĤÑĮ
ĠÑģÐºÐ¾Ð»ÑĮÐ· Ð½ÑĥÐ»
ÐµÑģ ÑģÑĥ
ĠÐºÐ¾Ð¼ Ð¼ÐµÐ½ÑĤ
ĠÐ½Ð°Ð² ÑıÐ·
ÐºÐ¾ ÑģÑĤÐ¸
Ðŀ ÑģÑĤ
ĠÐ½Ð° ÑĢÐ°ÑģÑĤ
ĠÐºÐ°Ð¼ ÐµÑĢÑĭ
ĠÑıÑĢ ÐºÐ¸Ð¹
ĠÐ²ÑĭÐ² ÐµÐ»
ĠÐĺ ÑĤ
ĠÐ´ÐµÑĢ Ð½ÑĥÐ»
ĠÐ¿ÑĢÐ¾Ð´Ð¾Ð»Ð¶ Ð°Ð»Ð¸
ĠÐ± Ð¾ÑĢÐ¾Ð´
ĠÐł Ðµ
ĠÐ³Ð¾ÑģÐ¿ Ð¾Ð¶Ð°
ĠÐ¿Ð¾Ð» ÑĤÐ¾ÑĢÐ°
Ð¸ ÑĨÑĭ
ĠÐ·Ð°Ð½Ð¸Ð¼ Ð°Ð»ÑģÑı
ĠÐ¾Ð¿Ð°Ñģ Ð½Ð¾ÑģÑĤÑĮ
ĠÐ¿ÐµÑģ Ð¾Ðº
ĠÑħÐ¾Ð´ Ð¸Ð»Ð¸
ĠÐ½Ð¾Ð³ Ð°Ð¼
ĠÐŁ Ð¾Ð±
ĠÑĥÐ´Ð°ÑĢ Ð¾Ð²
ĠÐ¿ÑĢÐ¸ÑĤ Ð°Ñī
ĠÐ²ÐµÑĢ Ð¸Ð»Ð°
ĠÑħ Ð¾Ð±
ĠÐ¡ Ð°Ð»
ĠÐ±Ð°Ð» ÐºÐ¾
Ð¸Ð² ÑĪÐµÐ¹ÑģÑı
ĠÐ¸Ð· ÑĢÑıÐ´
Ð¾Ð²Ð° ÑĤÐ¾
Ð³ Ð³
ÐµÐº ÑĥÐ½
ĠÐ¿Ð¾Ðº Ð¾Ð»
ĠÑĥÐ¹ Ð´Ñĥ
ĠÑĤÐµÐ¼ Ð¸
ĠÑģÐºÑĢÑĭ Ð»Ð°ÑģÑĮ
ĠÐ¿ÑĢÐ¾ÑĪÐ¸ Ð¿ÐµÐ»Ð°
Ð°Ð± Ð»Ñİ
ĠÐ°ÑĢ ÑĤÐµÑĦ
ÑįÑĤ Ð°Ð¶
ĠÐºÑĢÐ°Ñģ Ð½ÑĭÐ¼
ĠÐľÐ¾Ð» Ð»Ð¸
ĠÐ² Ð¾Ð½Ð·
ĠÑģÐµÑĢÑĮÐµÐ· Ð½ÑĭÐ¼
ĠÑģÐ¿Ð¾ÑģÐ¾Ð± Ð¾Ð¼
ĠÑĢÐ°ÑģÑĪÐ¸ÑĢ Ð¸Ð»Ð¸ÑģÑĮ
ÑĳÑĪÑĮ ÑģÑı
ÑĥÑĪ Ð¸ÑĤÑĮ
ĠÑĢÐ°Ð·Ð³Ð¾Ð²Ð°ÑĢ Ð¸Ð²Ð°Ð»
ĠÑĩ Ð°ÐµÐ¼
ĠÐ¿Ð¾ÑħÐ»Ð¾Ð¿ Ð°Ð»
ĠÐ¼Ð°Ð³ Ð¾Ð²
ĠÑģÐ¾Ð¼ Ð½ÐµÐ½Ð¸Ð¹
ĠÑĢÐµÑģÑĤÐ¾ ÑĢÐ°Ð½
ĠÐ² ÑħÐ¾Ð´Ð¸ÑĤ
ĠÐ¡ Ð¾Ð»Ð½ÑĨÐµ
ĠÐ¡ ÑĢÐ°Ð·Ñĥ
ĠÑħ Ð¾Ñħ
ĠÑĢ Ð¾Ð»Ð¸
ĠÑģÑĨ ÐµÐ½Ñĭ
ĠÐ²ÐµÑĩÐµÑĢ Ñĥ
Ð°ÑĢ Ð¾
ĠÑĩÑĥÐ¶ Ð¸Ñħ
ÑĥÑĪ ÐºÐ¾Ð¹
ÑĩÐ¸ ÐºÐµ
Ñĥ Ð»Ð¸Ð²
Ð¾Ð»Ð¾Ð² Ð¸Ð½Ñĥ
ĠÑĢÐ¸ÑĤ Ð¼
ĠÐ¶Ð¸Ð² ÑĭÐ¼
i g
ĠÐ¿ÐµÑĢÐµÐ¼ ÐµÐ½
ĠÐ¿ÑĢÐ¸Ð³Ð»Ð°Ñģ Ð¸Ð»
ĠÐ³Ð»ÑĥÐ¿ ÑĭÐ¹
ĠÑĦÐ¸Ð·Ð¸ ÑĩÐµÑģÐºÐ¸
ÐµÐ² Ð½Ð°
Ð¸ÑĤ ÑĥÑĤ
ĠÐ»Ð°Ð¿ Ñĭ
ÑĤÐ¾ÑĢ Ð¼Ð¾Ð·
ĠÐ½Ðµ ÑģÑĥ
ÐĹ Ð°Ðº
ĠÐ³ ÐµÐ½Ð¸
ĠÑĪÑĥÑĤ ÐºÐ°
ĠÐºÐ¾ÑĢÐ¾ÑĤ ÐºÐ¸Ðµ
Ðľ Ð¸
ĠÐ²ÑģÑı ÐºÐ¸Ðµ
Ð¾Ðº Ð¾Ð»
ĠÐĶÐµÐ¹ Ð´Ð°ÑĢÐ°
ĠÑıÑĢ ÐºÐ¸Ðµ
ÐĴ ÑģÐºÐ¾ÑĢÐµ
ĠÑħÐ»Ð¾Ð¿ Ð½ÑĥÐ»
ĠÐ³ÑĢÐ¾Ð· Ð½Ð¾
Ð£ÑĤ ÑĢÐ¾
ĠÐ½ÐµÑĤÐµÑĢÐ¿ÐµÐ» Ð¸Ð²Ð¾
ÑĭÑħ Ð°Ñİ
ĠÐºÐ¾Ðº ÑĤÐµÐ¹
ĠÐ´ÑĢÐ°Ð³Ð¾ ÑĨ
ĠÐ»ÑĥÑĩ ÑĪÐ°Ñı
ĠÐ²Ñĭ Ð²ÐµÑĢ
ĠÐ³Ð¾ ÑĢÐµ
ĠÑĢÐ°Ð·Ð¼ÑĭÑĪ Ð»ÐµÐ½Ð¸Ñı
Ð· ÐµÐ»ÐµÐ½
Ð°Ð½ Ð½Ð¾Ð¼Ñĥ
ĠÐ±Ð¾ Ñİ
ĠÑĢ Ð°Ðº
ĠÐĿ ÐµÐ´Ð¶Ð¸
ÑĢÐ¾ÑĤ Ð²Ð¾ÑĢ
ĠÑĨÐµÐ»ÑĮ Ñİ
ĠÐ²Ð°Ð¼ Ð¿Ð¸
ÑģÐ¿ ÐµÐºÑĤÐ¸Ð²
ÐµÐº Ð²Ð°ÑĤ
ĠÑīÐµÐº Ð¾ÑĤ
ĠÑĥÑĩ Ñĳ
ĠÐ´Ð¾ ÑģÑĤÐ°Ð²Ð»Ñı
ĠÐ·ÐµÑĢÐº Ð°Ð»Ðµ
ĠÐ· ÐµÐ»ÑĮÐµ
ÐµÑģ ÑĩÑĥÑĢ
ÑģÑĤÐ² Ð¾Ð²Ð°Ð»Ð°
ÐĲ Ð»
ĠÐ¿Ð¾Ð¿ ÑĢÐ¸Ð²ÐµÑĤ
ĠÐ´Ð°Ð² Ð°ÑĤÑĮ
Ð°Ð± Ñĥ
ĠÑĥÑģÐ¿Ð¾ÐºÐ¾ Ð¸Ð»ÑģÑı
ĠÑĩ ÑĳÑĤ
ĠÐ½Ð°Ð¿ Ð¾Ð»
ĠÐ¾Ð±Ñī ÐµÐ¶Ð¸ÑĤ
ĠÐ¾ÑĤÐºÑĢÑĭ ÑĤÐ¾
Ðĸ ÐµÐ½
ĠÐŃÐ»Ð¸Ð· Ð°Ð±ÐµÑĤ
ĠÐ½Ð°ÑģÑĤÑĢÐ¾ ÐµÐ½Ð¸Ð¸
ĠÐ¿ÑĢÐ¸ Ð¿Ð¾Ð¼
ĠÐĴÐ¿ ÐµÑĢÐ²ÑĭÐµ
ĠÐ± ÑĥÑħ
ĠÐ³Ð»Ñı Ð´
ĠÐ¿Ð¾ÑĤ ÐµÑĢÐ¸
Ð¿ Ð°Ð´
ĠÑĥÑģÐ¿ ÐµÑĤÑĮ
ĠÑĪ ÐºÑĥ
ĠÐł Ð°Ð´Ð¸
Ð½ÑĥÑĤ Ð°Ñı
ĠÐ¿Ð¾ÑĢ ÑĤÐ°Ð»
ÐµÐ´ Ñĭ
l e
ĠÐ¾Ð³ ÑĢÐ°Ð½Ð¸Ñĩ
ÑĩÐµÑģ ÐºÐ°Ñı
ĠÑĪ Ð°Ð¿
ĠÐ¿ÑĢÐ¾Ð¸Ð· Ð¾Ð¹ÑĤÐ¸
ĠÐµÐ· Ð´
ĠÐ¿ÑĢÐ¸ ÐºÐ¾Ð²
ĠÑĢÑĥÐ¼Ñı Ð½ÐµÑĨ
ĠÑĤÑĢÐ°Ð² Ñĥ
ĠÐĳÑĭ ÑĤÑĮ
ĠÐ¿ÑĢÐ¸ Ð½Ð¾Ñģ
ĠÑģÐ¿ Ð¸ÑĢ
ĠÑĥÑģÐ¿ ÐµÑĪÐ½Ð¾
Ð²Ð¾ Ð½Ð¸Ð»
ÑĥÑī ÑĥÑİ
Ð¼ ÐµÐ½ÑĤÑĭ
Ð¸Ð²Ð°Ñİ ÑīÐ¸Ðµ
Ñĭ Ð»Ð¾
ĠÐ¿ÑĢÐ¸Ñģ Ð¼Ð¾ÑĤÑĢ
ĠÐ½Ðµ Ð¾Ð´
Ð¸Ñı Ð¼Ð¸
ĠÐ¿Ð¾Ð¼ ÐµÑģÑĤ
ĠÐ» Ð¸Ð¼
ÐµÑĢ Ñı
ĠÐ¾ÑĤÐ² Ð¾Ð´Ñı
ĠÐ¿Ð¾Ð½Ð°Ð´Ð¾Ð± Ð¸ÑĤÑģÑı
ĠÐ¿Ð¾Ð¼Ð¾Ð³ Ð°Ð»
ĠÑģÐ´ÐµÑĢÐ¶ Ð¸Ð²Ð°ÑĤÑĮ
ĠÐ¸Ð·Ð¼ ÐµÐ½Ñı
ĠÐ²ÑĭÐ´Ð°Ð² Ð¸Ð»
ĠÐ¼Ð½ Ð¾Ð¶Ðµ
ĠÐ³Ð¾ÑĢÐ´Ð¾ ÑģÑĤÑĮ
ĠÐ¿ÑĢÐ¸Ðº ÑĢÑĭ
ÑĤÑĥ Ðº
Ð± Ð¾Ð»ÑĮ
ĠÐ²ÑĭÑĢÐ² Ð°Ð»ÑģÑı
ĠÐĲ Ð½Ñı
Ð³ Ð°Ð»
ĠÐ¾ÑĢÑĥÐ¶ Ð¸ÐµÐ¼
ĠÑģÑĤÑĭ Ð´
ĠÐ¾ÑģÐ² ÐµÐ´Ð¾Ð¼
ĠÐ¯ Ð½
ĠÐ§ ÑĳÑĢ
ĠÐ½Ð°Ð¿Ð¾Ð¼Ð¸Ð½Ð° ÐµÑĤ
ĠÐ¾ÑĪÐ¸Ð± ÐºÐ¸
ĠÑģÑĤÐ¾ Ñİ
ĠÐĴ Ð¾Ð»Ð¾ÑģÑĭ
ĠÑĢ Ð¾Ðº
ĠÐ¸ Ð½Ð¾Ð¹
ĠÐ¿Ð»Ð¾Ñħ Ð¾Ð¹
ĠÐºÐ¾Ð³ ÑĤÐ¸
ĠÐ½Ð°ÑģÐ»Ð°Ð¶Ð´ ÐµÐ½Ð¸Ñı
ĠÐ¿Ð¾ÑĤÐµÑĢ ÑıÐ½
ĠÐĳ Ð¸Ð»ÑĮÐ±Ð¾
ĠÐ» ÐµÑĩÑĮ
ĠÐ²ÑĭÐ¶ Ð¸ÑĤÑĮ
ĠÐºÐ°ÑĤ ÐµÐ³Ð¾ÑĢÐ¸
Ð°ÐµÐ¼ ÑĭÐ¹
ĠÐŃÐ½ Ð´Ð¸
ĠÐľ Ð¸Ð½Ñģ
ĠÐ½ÐµÐ´Ð¾ ÑģÑĤÐ°ÑĤÐ¾ÑĩÐ½Ð¾
Ġt h
ĠÐ¿ÑĢ ÑĭÐ¶
ĠÐ¼Ð¸ ÑĢÐ¾Ð²
ĠÐ¾ÑĤÐ½Ð¾ÑĪ ÐµÐ½Ð¸Ñİ
ĠÐĲÑĢ ÑĤÑĥÑĢÐ°
ĠÐ½ÐµÐ½Ð°Ð² Ð¸ÑģÑĤ
ĠÐ¿ÑĢÐµÐº ÑĢÐ°ÑĤÐ¸
Ñĥ ÐºÐ¾
ĠÐłÐ¸Ñĩ Ð°ÑĢÐ´
ĠÐ°Ð¿ ÑĤ
ĠÑĢÐ°ÑģÐº Ð»Ð°Ð´
ĠÑģÐ¾Ð¼Ð½ÐµÐ² Ð°ÑİÑģÑĮ
ĠÐĲÐºÐ° ÑĪÐ¸
ĠÐ²ÑĭÐ´ÐµÑĢÐ¶ Ð°Ð²
Ð°ÑĤ Ð¸Ð»ÐµÑĤ
ĠÐºÐ°Ð· Ð°ÑĤÑĮÑģÑı
ĠÐ·Ð°Ðº Ð¾Ð»
ÑĢÑĥ Ð¿Ð¿
ĠÐľ Ð¸Ð»Ð»
ĠÐ¾Ð¿ ÑĥÑģÐºÐ°Ñı
ĠÐ²Ð¾Ð» Ðº
Ð»Ñı ÑİÑĤ
ĠÐ´ÑĭÐ¼ Ð°
ĠÐ» Ð¾Ð³Ð¸
ĠÑħÑĢ Ð°Ð±
ĠÑģÐ¿ ÐµÑĢ
ĠÐ±Ð»Ð¸Ð· Ð¾ÑģÑĤÐ¸
a d
ĠÐĶ ÐµÐ¹ÑģÑĤÐ²Ð¸ÑĤÐµÐ»ÑĮÐ½Ð¾
ĠÑģÑĩÐ¸ÑĤ Ð°ÐµÑĪÑĮ
ĠÐ´ÐµÐ» Ð°Ð¼Ð¸
Ð²Ð¸ Ð½ÑĥÐ»
ĠÐ¼Ð°Ð»ÐµÐ½ÑĮ ÐºÐ¾Ðµ
ĠÐ¦ ÐµÐ»
ĠÐ¾Ð³Ð»Ñı Ð½ÑĥÐ»ÑģÑı
ĠÐ´Ð¾Ð¿ ÑĢÐ¾Ñģ
ĠÐ¡Ð°Ð½ Ð´Ð¶Ð¸
Ð´Ð¾Ñħ Ð½ÑĥÐ²
ĠÑħÐ²Ð°ÑĤ Ð°Ñı
ĠÑĥÑĢÐ¾Ð² ÐµÐ½ÑĮ
ĠÐŀÑĤ Ð¿ÑĥÑģÑĤÐ¸
ĠÐ´ÐµÑĤ ÐºÐ°
ĠÐĳ ÐµÐ´
Ð¸Ð» Ð°Ð½
ĠÐ¿ÑĢ ÐµÑĢÑĭÐ²
ĠÐ½Ð¾ÑĤ ÐºÐ¸
Ðµ Ð¾
ĠÐ¸ Ð½Ð¸ÑĨÐ¸
ĠÐ½ÐµÐº Ð¾
ĠÐĲÐ½ ÑĤÐ¾Ð½
ĠÐ²ÑģÐºÑĢÐ¸ ÐºÐ½ÑĥÐ»
ĠÑĥÐ± ÑĢÐ°Ð»Ð°
ĠÐ¾Ð³Ð»ÑıÐ´ ÐµÐ»
ĠÐ²ÑĭÐ¶ Ð¸Ð´Ð°
ĠÐ¶ÐµÐ» Ð°ÐµÑĤ
ĠÐ¸Ð½ÑĦÐ¾ÑĢÐ¼Ð° ÑĨÐ¸Ñı
ÐĿÐ°Ð²ÐµÑĢ Ð½Ð¾Ðµ
ĠÐ´ÐµÐ¼Ð¾Ð½ ÑģÑĤÑĢÐ¸
ĠÐ¿Ð¾Ð±ÐµÐ´ Ð¸ÑĤÑĮ
Ð²Ð° Ð½Ð°
ĠÐ±ÐµÐ· Ð·Ð°ÑīÐ¸ÑĤ
ĠÐŁ ÑĢÐ¾Ð´Ð¾Ð»Ð¶
ĠÐ¿ÑĢÐ¸Ð´ ÑĳÑĤ
ÐµÐ» Ð¸Ð½
ĠÐ¿ÑĢÐ¸ÑıÑĤ Ð½Ð¾Ðµ
Ð½Ð¾ Ñĩ
Ð»ÑĭÑĪ Ð°Ð»ÑģÑı
ĠÑģÐ»ÐµÐ´ÑĥÑİ ÑīÐµÐ¹
a m
ĠÐ¾Ð±ÑģÑĤÐ°Ð½Ð¾Ð² ÐºÑĥ
ĠÐĳ ÐµÐ»ÑĮ
ĠÐ´Ð¾Ð»Ð³ Ð¾Ð¶Ð´Ð°Ð½
ĠÐ½Ðµ ÑĤÐ¾ÑĢÐ¾Ð¿
ĠÐ½Ð°Ð´Ð¾ ÐµÐ´
ĠÐ´ÐµÑĤ Ð°Ð»Ð¸
ĠÐ·Ð½ Ð°Ð¼ÐµÐ½
Ġ 6
ÐĲ Ð³Ð°
ĠÑĤÑıÐ¶ÐµÐ» ÑĭÐ¼
ĠÐºÑĢÑĭ ÑĪÐ¸
Ð´Ð¶ Ð°
Ðķ Ðµ
ĠÑģÐ¿ Ð¾ÑĤÐº
ĠÐ¶Ð¸Ð²Ð¾ÑĤ Ñĥ
ĠÐ·ÐµÑĢÐº Ð°Ð»Ð°
ĠÐ·Ð°ÑģÑĤ ÐµÐ³
ĠÐĽÑİÐ± Ð»Ñİ
Ð¾Ð· Ð½Ð°Ð½Ð¸Ðµ
ĠÑĩ ÐµÑĪ
ĠÐ± ÐµÐ¶Ð°Ð»Ð°
ĠÐĳ ÐµÐ¹
ĠÐ¸Ð½ ÑĤÐ¾Ð½Ð°
ĠÐĽ Ð°Ð²
ĠÐ¾ÑĤ Ð³Ð¾
ĠÐ½Ð°Ð´ ÐµÐ»Ð°
ĠÑĤÐµÐ¿ Ð»ÑĭÐµ
ĠÐºÑĢÐ°ÑģÐ¸Ð² Ð¾Ð¹
ĠÐºÑĥ Ð»ÑĮ
ĠÑĢÑĥÐº Ð°Ð¼
ĠÐ²Ð¾Ð» Ð½Ð¾Ð¹
ĠÐŁ ÑĢÐ¾Ðº
ĠÐļ Ð¾Ð³Ð¾
ĠÐ¶ÐµÑĢÑĤ Ð²Ñĭ
ĠÐ¸Ð·Ð²Ð¸Ð½Ð¸ ÑĤÑĮÑģÑı
ÐµÐ»Ð¾Ð² ÐµÑĩ
ĠÐ½Ð° ÑīÑĥÐ¿
ĠÐ½Ð°Ð¿ Ð»ÐµÐ²Ð°ÑĤÑĮ
ÑĢ Ð¸ÑĤÑĮ
ĠÐ¢Ð²Ð¾ Ð¸
Ð¸Ð¼ ÑĥÑİ
ĠÑĢÐ°ÑģÑģ ÑĥÐ¶Ð´
ĠÑģÐ¾Ð± ÑģÑĤÐ²ÐµÐ½Ð½Ð¾Ðµ
ĠÐºÐ°ÑĢ Ð¸Ðµ
ÑĢÐ° ÑĤÐ°
ĠÐ¿Ð¾Ð´ ÑĢÑıÐ´
ÐĽ Ð¸
ĠÑģÐ²Ð¾ Ñı
ĠÐ´Ð¾Ð¼ Ð¾Ð¼
Ð½ ÐµÐ½Ð¸ÐµÐ¼
ĠÐ½ÐµÐ¶ Ð½ÑĭÐ¹
Ð°Ð» ÐºÑĥ
ĠÐ¾ÑĤÐ¾Ð¼ ÑģÑĤÐ¸ÑĤÑĮ
ÑĢÐ°Ð· Ð´
ĠÐ¦ ÑĥÐ½Ð°Ð´Ðµ
ÑĦ ÐµÑģÑģ
ĠÐ¿ÐµÑĢÐµÑģ Ð¾Ñħ
ĠÐ·Ð°ÑħÐ¾Ñĩ ÐµÑĪÑĮ
ÑģÐ¿ ÐµÐº
ĠÐ±Ð°Ð± ÑĥÑĪÐºÐ°
Ñı Ð½ÑĥÐ»Ð°
ÑĳÐ½ Ð½Ð¾Ð³Ð¾
Ð³ Ð°Ð¼
ĠÐºÐ¾Ð¼ Ð¾Ðº
ĠÐľ Ð¾ÑĢÐ¸
ĠÐ¿Ð¾Ð½Ð¸Ð¼ Ð°ÐµÑĤÐµ
ĠÑĢÑĭÐ² ÐºÐ¾Ð¼
ÐµÑĢÑĪ ÐµÐ½Ð½Ð¾
ĠÑģÐ¾Ð¾Ð±Ñī Ð¸ÑĤÑĮ
ĠÑĪÐ¾ÑĢ ÑĤÑĭ
Ð°ÑĢ Ð¾Ð¼
ĠÐ±ÐµÐ· Ð²
ĠÑĢÐ°Ð·Ð² Ð¸ÑĤ
ĠÐ¾Ð±ÐµÑī Ð°Ð½Ð¸Ðµ
ĠÐľ ÐµÐ´Ð»ÐµÐ½Ð½Ð¾
ĠÑĩÐµÑĢ Ð½ÑĭÐ¼Ð¸
ĠÐ²ÑģÑĤÑĢ ÐµÐ²Ð¾Ð¶
ĠÐ² Ð»Ð¸Ñı
ĠÐ¼Ð¾ÑĢ Ñı
ĠÐ¼ÑĥÑģ ÐºÑĥ
ĠÐĴ Ð¸Ð½Ñģ
ĠÐŁÑĢ Ð¸Ð¼
ĠÑĢÐ°Ð¹ Ð¾Ð½Ðµ
ÑģÐ¿ ÑĢÐ¾ÑģÐ¸Ð»
ĠÐºÐ¾ÑģÑĤ Ñı
ĠÐ± Ð¸ÑĤÑĮÑģÑı
ĠÐ² Ð»Ð¸
ĠÑģÐ¾Ð·Ð½Ð° Ð½Ð¸Ð¸
ĠÐ¿ÑĢÐ¾Ð³ Ð»Ð¾ÑĤ
ĠÐ¿ÑĢÐ¾Ð¸ÑģÑħÐ¾Ð´ ÑıÑīÐµÐ³Ð¾
ĠÐļÐ°Ð½ Ð´Ð°
ĠÑģÐ¿ÐµÑĪ Ð¸Ð»
Ð»Ñı Ð»Ð¾
ĠÐ¿ÑĢÐ¾Ðº Ð°ÑĤ
ĠÐĲ Ð¼Ñĥ
ĠÐ± ÑĳÐ´
ĠÐ´Ð¾ ÑĪÐ»Ð¸
ĠÐ¼ ÑıÑĤ
ĠÑĢÐ°ÑģÐ¿Ð°Ñħ Ð½ÑĥÐ»
ÐµÑĢÐ° ÑĤÐ¾ÑĢ
ĠÑģÐ»Ð°Ð´ ÐºÐ¸Ð¹
ĠÐ¼ Ð¾Ð»ÑĮ
ĠÐ¾ÑģÑĤÐ°Ð»ÑĮ Ð½ÑĭÐ¼Ð¸
Ġ L
ĠÐŁ ÑĭÑĤ
Ðĳ ÐµÐ·
ĠÐ°ÐºÑĤÐ¸Ð² Ð½Ð¾
ĠÐ½ÐµÐ²ÐµÑģ Ð¾Ð¼
ĠÑįÐºÐ· Ð°Ð¼ÐµÐ½
ĠÑģÐ¼ ÐµÐ½Ñı
Ð¸Ð² Ð°Ð½Ð¸Ðµ
ĠÐ³Ð¾ÑĢ ÐµÐ»
ĠÑģÐ¿ Ð°Ð»Ð¸
ĠÐ¿Ð»Ð¾Ñħ Ð¾Ðµ
ĠÐ» Ð¾ÑĢ
ĠÐ¿ÑĢÐ¾ÑĤ ÐµÑģÑĤ
an d
ĠÑĢÐ°Ð²Ð½Ð¾Ð²ÐµÑģ Ð¸Ðµ
ĠÑĪÐµÐ¿ÑĤ Ð°Ð»
ĠÐ³Ð¾ ÑģÑĥÐ´
ĠÐ²Ð¸Ð´Ðµ Ð¾
ĠÑĢÐ°ÑģÑģÐ¼Ð°ÑĤÑĢÐ¸Ð² Ð°Ð»
Ð¾Ð³Ð»Ð°Ð· ÑĭÐ¹
t p
ĠÐĵÐµÑĢÐ¼Ð¸ Ð¾Ð½Ñĭ
ĠÐ¼Ñı Ñĩ
ĠÑģÑĤÐ¾ÑĢÐ¾Ð½ Ð¾Ð¹
ĠÐ´Ð¾ÑģÑĤÐ°Ð² Ð°Ñı
Ð°Ð² ÑĪÐµÐ³Ð¾ÑģÑı
ĠÐ²ÑĢÐ° ÑĩÐ°
ĠÐ´ÑĢÐ°ÐºÐ¾Ð½ Ð¾Ð²
ÑĢ ÐµÐºÐ¸
ĠÐ²Ð¾Ð·Ð¼ÑĥÑĤ Ð¸Ð»Ð°ÑģÑĮ
ÑĥÐ» ÑĤÐ°Ð½
ĠÐ´ Ð½ÑĳÐ¼
ĠÐŁ Ð°Ð´
ĠÐ¿ÑĢÐ¾ÑĤ ÑıÐ³Ð¸Ð²Ð°ÐµÑĤ
ĠÐ´ ÐµÑĪ
ÐµÐ½Ð¸Ñı Ð¼
Ð§ Ð°Ð½
ĠÐºÐ»ÑĥÐ± Ðµ
ĠÐļ Ð»Ð¸Ð½
ĠÑģÐ¾ ÑģÑĤÐ°Ð²Ð»Ñı
ĠÐ½ÑĢÐ°Ð² ÑıÑĤÑģÑı
ĠÐ¿Ð°Ñħ Ð»Ð¾
ĠÐ½Ð¾ÑĥÑĤ Ð±ÑĥÐº
ĠÑĤÐ°Ðº ÑĤ
Ð½Ð° ÑĤÐ°
ĠÐºÐ¾Ð» ÐµÐ±
ĠÑĢÐ°Ð·Ð² Ð»ÐµÑĩ
ĠÐ¿Ð¾Ð² ÑĢÐµÐ¶Ð´
ĠÐºÐ»ÑĥÐ± Ð°
ĠÐ·Ð½Ð°ÐºÐ¾Ð¼ ÑĭÐ¼
ĠÐļ ÑĢÐ¾
ĠÑĤÐ¾Ð» Ð¿Ð°
ĠÐ·Ð°Ð» Ð¾Ð¶
ĠÑĦ ÐµÐ¹
ĠÐ¼ÐµÐ´ Ð¸ÑĨ
ĠÐ¿ÑĢÐ¸ ÑĪÐµÐ´
ĠÐ·Ð° ÑĥÐ»ÑĭÐ±
ĠÐŀ Ð´Ð½Ð¾
ĠÐ¿Ð¾Ð²ÑĤÐ¾ÑĢ Ð¸Ð»Ð°
Ñĭ Ð»ÑĮ
ĠÐ½Ð°Ðº ÑĢÑĭÐ»
ĠÐ³Ð»ÑĥÐ¿ Ð°Ñı
ĠÐ½ÐµÑĢÐµÑĪ Ð¸ÑĤÐµÐ»ÑĮÐ½Ð¾
ĠÐ¿ÑĢÐ¾Ð± ÑĥÐ±
ĠÐĿ ÐµÐ·
ĠÐ¾ÑīÑĥÑĤ Ð¸Ð»Ð°
ĠÐ¾Ñģ Ñĥ
ĠÐ½Ð°Ð¹ Ð´Ñı
ĠÐ·Ð°Ð½ Ð°Ð²
ĠÐ¸Ð½ÑĤÐµÑĢÐµÑģ Ð½Ð¾Ðµ
ĠÑģÑĥÑĤ ÐºÐ¸
ĠÐ½Ð°Ð´ ÐµÑĤÑĮ
Ð´ ÐµÐ½Ð¸Ðµ
ĠÐ²Ð½ÐµÑĪ Ð½Ð¾ÑģÑĤÑĮ
ĠÐ·Ð° Ñĩ
ĠÐ·ÐµÐ»ÐµÐ½ ÑĭÐµ
ĠÐ¿Ð¾ÑĥÐ´Ð¾Ð± Ð½ÐµÐµ
ĠÐ²Ñĭ ÑĢÑĥÐ±
ĠÐ¿ÑĢÐµÐ´ÑĥÐ¿ÑĢÐµÐ´ Ð¸Ð»
ĠÐĶÐ¾Ð½ ÑħÑį
ĠÐ¼ Ð°Ð´Ð°Ð¼
ĠÐŁÐ¾Ð¼ Ð½Ð¸ÑĪÑĮ
ĠÐ¾ÑĪÐ¸Ð± ÑģÑı
ĠÐĿÐ¸ÐºÐ°Ðº Ð¸Ñħ
ĠÐ¿Ð¾Ð· Ðµ
ĠÐļ Ð¾ÑĤÐ¾
ĠÐ¿Ð¾Ð¿ÑĭÑĤ ÐºÑĥ
ĠÐ²ÑĭÐ¿ Ð¸Ð²
Ð°Ð»ÐµÐº Ðµ
ĠÐ¶Ð°Ð» Ð¾Ð±Ð½Ð¾
ĠÐ´Ð¸ ÐºÐ¾
ĠÐ¥Ð¾ÑĢ ÑħÐµ
ĠÐº ÑĢÐ¾
ĠÑĪ Ð¾Ñĥ
ĠÐºÑĢÐ° ÑģÐºÐ¾Ð¹
ĠÑģÐ¾ÑģÑĢÐµÐ´Ð¾ÑĤÐ¾Ñĩ Ð¸ÑĤÑĮÑģÑı
ĠÐ±Ð°ÑĢÑħ Ð°ÑĤ
ĠÐ¿ÑĢÐ¸Ð³Ð¾ÑĤÐ¾Ð² Ð¸ÑĤÑĮ
ĠÐŃ Ð»ÑĮÑĦ
ĠÐ¾ÑĤ Ð¾Ð±
ÑģÑĤ Ð°Ð»Ð°
ĠÐ¾Ð±ÐµÑģÐ¿Ð¾ÐºÐ¾ ÐµÐ½Ð½Ð¾
ĠÐ·Ð°Ð¼ÐµÑĩ Ð°ÑĤÐµÐ»ÑĮÐ½Ð¾
ĠÑĩÐµÑĢ ÐµÑģÑĩÑĥÑĢ
ĠÑĨ ÐµÑĢÐµÐ¼
Ð½Ñĥ ÑĤÐ¾
Ð¾Ð² Ð°Ð½Ð¸Ð¸
ĠÐ¾Ð± ÐµÐ´Ð°
ĠÐŁÑĢÐ¸ ÑĪÐ»Ð¾ÑģÑĮ
ĠÐĿÐ° Ñĩ
ĠÐĿ ÐµÐ¹
ĠÐ´ Ð¸Ñģ
ĠÐ¿ÑĥÑģÑĤ Ñĭ
ht tp
ĠÐ¶ÐµÐ½Ñī Ð¸Ð½Ð¾Ð¹
ĠÐ¿ÑĢÐ¸ÑīÑĥÑĢ Ð¸Ð»ÑģÑı
ÐĿ Ð°ÑģÑĤ
ĠÐ·Ð°Ð´ Ð°ÑĤÑĮ
ÑĢÐ¾Ð½ Ð¸Ð»
ĠÐ¿Ð¾Ð´ÑĤ Ð²ÐµÑĢÐ¶Ð´
ĠÑįÑĦÑĦ ÐµÐºÑĤ
ĠÐ¾ÐºÑĢÑĥÐ¶ Ð°ÑİÑīÐ¸Ñħ
ÐļÐ¾ Ð½ÐµÑĨ
ĠÐĲ Ð¼Ð¸
ĠÐ¿ÑĢÐ¸ÐºÑĥÑģ Ð¸Ð»
ĠÐ·Ð°Ð¼Ð¸ ÑĢÐ°ÐµÑĤ
ĠÐºÑĢÑĥÐ³ Ð¸
ĠÑĥÐ¼Ð¸ ÑĢÐ¾ÑĤÐ²Ð¾ÑĢ
ĠÐ¿Ð¾ÐºÐ¾Ñģ Ð¸Ð»ÑģÑı
ĠÑģÐ² Ð¾Ð»
ĠÐ½Ðµ Ð¸Ð¼
Ð¾Ð¹ Ð´Ð¸
Ð± ÑĥÑĢ
Ð°Ð² Ð¸Ñģ
ĠÑĤÑĢÐ¾Ð³ Ð°ÑĤÑĮ
ĠÑģÐ´ Ð°Ð»ÑģÑı
ÐµÑĢÐµÐ´ Ð¸
ĠÑģÐ»ÑĥÑħ Ð¸
ĠÑģÐ²Ð¾Ð±Ð¾Ð´ Ð½Ð¾Ðµ
ĠÐĵÐ°Ð¶ Ð¸Ð»
ĠÑĢÑĥ ÑĩÐºÐ¸
ĠÑĪ Ð¿Ð¸
ÑĪÐµÐ» Ð¾Ð¼
ÑĢÑı ÑģÑĮ
ĠÐ´Ð¾ ÑģÑĤÐ°
ĠÐ²ÑĤÐ¾ ÑĢÐ¾Ðµ
ĠÑĥÑģÐ¿ÐµÐ² Ð°ÐµÑĤ
ĠÐ¢ Ð¾Ð¶Ðµ
Ð¾Ð» Ðµ
ÑģÑĤÐ² Ð¸Ð¹
ĠÐ¿Ð»Ñİ Ñģ
ĠÐºÐ»ÐµÑĤ ÐºÑĥ
ĠÑģÐ¿Ð¾ÐºÐ¾Ð¹ Ð½ÑĭÐ¹
ĠÐ¿Ð¾Ð»ÑĥÑĩ ÑĪÐµ
ĠÑģÐ² ÑıÑī
ĠÐ¾ÑĤÑĤ ÐµÐ½
ĠÐ·Ð²Ð¾Ð½ ÐºÐ°
ĠÑģÐ¿Ð¾ÑģÐ¾Ð± Ð½Ð°
ĠÐ± ÑĥÑĪ
ĠÐĴÐ¾Ð½ Ð³Ð¾
ĠÐ¾Ð¿ Ð¸ÑĢÐ°ÑıÑģÑĮ
ĠÐĶ ÐµÑģÑı
ĠÐ½ÐµÐ±Ð¾Ð»ÑĮÑĪ Ð¾Ðµ
ĠÐ¿ ÐµÐ´
ĠÑĥÐ± Ð¸Ð»Ð°
Ð°ÑĤÐµÐ»ÑĮ Ð½Ð¾Ð³Ð¾
ĠÑĪÐµÐ» ÐºÐ¾Ð²
ĠÐļ Ð°Ð½Ð°
ĠÐĽÐµ Ð¾Ð½
ĠÐ¿ÑĢÐ¸ ÑĪ
ĠÐĶ ÐµÐ¼Ð¾Ð½
ĠÑĥ ÑĤÐ¸Ñħ
ĠÐ· Ð»Ð¾Ð²
ĠÐ¾ÑģÐ¾Ð± ÐµÐ½Ð½Ð¾Ð³Ð¾
ĠÐ²ÑĭÐ± ÑĢÐ°Ð»Ð°
ĠÑģÑħÐ²Ð°ÑĤ Ð¸Ð»ÑģÑı
Ð´ ÐµÐ¹
Ð»Ð¸ÑĤ ÐµÐ»ÑĮ
ĠÐ² Ð¸Ð½Ñĥ
ĠÐ´ ÑĢÑı
ĠÐ¿ÑĢÐµÐºÑĢÐ°ÑĤ Ð¸ÑĤÑĮ
ĠÐ¿ÐµÑĢÐµÐ¿ ÑĥÐ³
ĠÐ»ÐµÐ² ÑĥÑİ
Ð°Ð¶ Ð¸ÑĤÐµ
ĠÐ¾Ð´Ðµ ÑıÐ»Ð°
ĠÐĴ Ð¾Ð»ÑĮ
ĠÐ·Ð°Ð³Ð»ÑıÐ´ ÑĭÐ²Ð°Ñı
ĠÐĲÐ½ ÑĤÐ¾
ĠÑģÐ¾Ð½ Ð½Ð¾
ĠÑĤÑĢ Ðµ
ĠÑĢÐ°Ð´ Ñĭ
ĠÐ¿ÑģÐ¸Ñħ Ð¾Ð»Ð¾Ð³
ĠÐ¼Ð¾Ð» Ð½Ð¸Ð¸
ĠÐºÐ°Ðº Ð¾Ð¼Ñĥ
ĠÑĢÐ°Ð·Ð²ÐµÑĢ Ð½ÑĥÐ»
ĠÐ¡ Ð¸Ð¼
ÑĤ Ð°Ñı
ĠÐ·Ð°Ð¿ Ð¸Ñħ
ĠÐ¾Ð±ÐµÑī Ð°Ð»Ð°
ĠÐ¾Ñĩ ÐµÑĢÑĤ
ĠÐ¿Ð¾Ðº ÑĢÑĭÑĤ
ĠÑĢÑĭÐ¶ Ð°Ñı
ĠÐ¿Ð¾ÑĪÐµÐ²ÐµÐ» Ð¸ÑĤÑĮÑģÑı
ĠÐ²Ð½ÑĥÑĤÑĢÐµÐ½ Ð½Ð¸Ð¹
ĠÐ±ÐµÐ· Ð½Ð°Ð´
ĠÐ¿ÐµÑĢÐµÑģÑĤ Ð°ÑĤÑĮ
: //
ÑĤÐ¾ÑĢ Ð¼
Ð»Ð° Ñħ
ĠÐ¿Ð¾Ðº Ð»Ð¾Ð½Ð¸Ð»ÑģÑı
ĠÐĲÐ»ÑĮÑĦ ÑĢÐµÐ´
ĠÐ½Ð°Ð² Ð°Ð»
Ġ 7
ÑģÑĤ ÑĢÐ°ÑĤ
ÑĥÑİÑĤ ÑģÑı
ĠÐ¾Ð±ÑĢÐ°Ñī Ð°ÑĤÑĮ
ĠÐŁÑĢÐ¸ Ðº
Ð½Ð°Ñĩ Ð°Ð»ÑĮÐ½Ð¾
ĠÐĿÐ°Ð²ÐµÑĢ Ð½ÑıÐºÐ°
ĠÑĤÑĥÐ¿ Ð¾
Ðł Ðĺ
ĠÐº Ð°Ð´
ĠÑĥÐ¼ ÑĢ
ĠÐ»ÑĥÑĩ ÑĪÐ¸Ðµ
ĠÐ½Ð°ÑħÐ¾Ð´ ÑıÑģÑĮ
Ð¿ Ñģ
ĠÐ¼ÐµÑĩ Ð¾Ð¼
Ð½Ð¸ÑĤ ÐµÐ»ÑĮÐ½Ð¾
ĠÑģÐ²ÐµÑĢ Ñħ
ĠÐ§ Ð¾Ð½Ð¸
ĠÐ¾ÑģÑĤÐ°Ð½Ð°Ð²Ð»Ð¸Ð² Ð°ÐµÑĤÑģÑı
ÑĢÑĥÐ· ÑĮÑı
Ð¶ Ð°
Ð¼ÐµÐ½ ÑĤÐ¸
ĠÐ¿ÐµÑĢÐµÐ± Ð¸Ð»Ð°
ĠÐ²Ñĭ ÑĤÐ¸ÑĢÐ°Ñı
ĠÐ½Ð°ÑģÑĤÐ¾Ñı ÑīÐ¸Ð¼
Ðł Ð°Ñģ
? ...
ĠÐºÑĥÑĢ Ñģ
Ð½Ð¾Ð²Ð¾Ð»Ð¾Ñģ Ð°Ñı
Ð¾Ð´ ÐµÐ¹
ÑĤÑĥ Ð·Ð¸
ĠÐŃ ÑĢÐ¸
ĠÐ²Ð¾Ð·Ð´ ÑĥÑĪ
ĠÐ¾Ð± ÑħÐ²Ð°ÑĤÐ¸Ð²
ĠÐºÐ°Ð¼ Ð½Ð¸
ĠÐ¿Ð¾Ð²Ð¾ÑĢÐ°ÑĩÐ¸Ð² Ð°ÑıÑģÑĮ
ĠÐ½ÐµÑĥÐ´ Ð¾Ð±Ð½Ð¾
ĠÐ¿ÑĢÐ¸Ð½ÐµÑģ Ð»Ð°
ĠÑģ ÑĨÐµÐ¿
ĠÐ½ÐµÐ·Ð½Ð°ÐºÐ¾Ð¼ ÐµÑĨ
ĠÑģÑĤ ÑĥÐ»ÑĮ
ĠÐ·Ð°Ð³Ð»Ñı Ð½ÑĥÑĤÑĮ
ĠÐ¿ÑĢ Ð¾Ð¹Ð´
ĠÐ·Ð°Ð½ÑıÑĤÐ¸ Ðµ
ĠÑģÐ²Ð°Ð´ÑĮ Ð±Ñĭ
Ð°ÐºÑĤÐ¸ ÑĩÐµÑģÐºÐ¸
ĠÐ¼Ð°Ð»ÑĭÑĪ Ð°
ĠÐ²Ð¾Ð·ÑĢÐ°Ð· Ð¸ÑĤÑĮ
ĠÐ±Ð¸Ð±Ð»Ð¸Ð¾ÑĤ ÐµÐºÐµ
ĠÑģÐºÐ°Ð· Ð°Ð½Ð¾
ĠÐ´ÑĥÐ¼ Ð°ÐµÑĤÐµ
ĠÐ¿ÑĢÐµÐ´Ð°ÑĤÐµÐ»ÑĮ ÑģÐºÐ¸
ĠÐ¡ Ð°Ð¼Ð¸
a l
ĠÐ¿Ð¾ÐºÐ° ÑĩÐ¸Ð²
ĠÐ¼Ð¾Ð»Ñĩ Ð°Ð»Ð¸
ÐĿÐµ ÑĥÐ¶ÐµÐ»Ð¸
Ð°ÑĤÐµÐ»ÑĮ ÑģÑĤÐ²
ĠÑĪÐ°ÑĤ ÐµÐ½ÐºÐ°
ĠÐ´ÑĥÑħ Ð°
ĠÐ¿ÐµÑĢ ÐµÑĤ
ĠÐļÐ» ÑįÑĢÐ¸
ĠÐĳ Ð¾Ð»ÐµÐµ
ĠÑģÑĤÐ°ÑĢ Ð¸ÐºÐ°
Ð°Ð»Ð¸ Ð½Ð°
ĠÐĲÐºÐ¸ ÑĢÐ°
ĠÐ¿Ð¾Ð²Ð¾ÑĢÐ°ÑĩÐ¸Ð² Ð°ÐµÑĤÑģÑı
Ð¡ÑĤ Ð°ÑĢ
ĠÐ½Ðµ Ñĥ
ĠÐ§ ÐµÐ»Ð¾Ð²ÐµÐº
ĠÐ±ÐµÐ´ ÑĢÐ°Ð¼Ð¸
ĠÐĴ ÑĩÐµÑĢÐ°
ĠÑģÑĤÐ¾Ñı ÑīÐ¸Ð¹
ĠÐ¢Ð¾Ð¼ Ð¼Ð¸
ĠÐ¿Ð¾Ð¿ÑĢÐ¾Ð± ÑĥÐ¹
ĠÐ·Ð°Ð² ÐµÑĤ
ĠÑĢÐ°ÑģÑģÐ¼Ð°ÑĤÑĢÐ¸Ð² Ð°ÑĤÑĮ
ĠÐķ Ð²
ĠÐ¼ Ð¸Ð½
Ð¼Ð¾ Ð½Ð°
ĠÐ° ÑģÑģ
ĠÐŁÐ¾Ð½Ð¸Ð¼ Ð°ÐµÑĪÑĮ
ĠÐ¥ Ð°ÑĤ
ĠÐ¨ ÐµÐ½Ð½Ð¾
ĠÐ½Ð°ÑĩÐ¸Ð½ Ð°Ð»Ð°
ĠÐ¾ÑĤÑĪ Ð°ÑĤ
ĠÑģÐ¾Ð» Ð´Ð°
ĠÑĥ ÑİÑĤÐ½Ð¾
ĠÐ± ÐµÐ¶Ð¸ÑĤ
ĠÑĤ ÑĥÑĩ
Ð» ÑĳÐº
ĠÐ±ÐµÐ» Ð¾Ð¼
ĠÐ¾Ð³ÑĢÐ¾Ð¼ Ð½ÑĥÑİ
ĠÐºÐ¾Ð½ ÐºÑĥÑĢ
ÐµÐ´ Ð¸Ð½Ñı
ĠÐ²Ð¾Ð·Ð´ÑĥÑħ Ð¾Ð¼
ĠÐĿÐµ Ð¾Ð¶Ð¸Ð´Ð°Ð½Ð½Ð¾
Ð¾Ñģ ÑĤÐ¾
ĠÐ±ÐµÐ· Ð·Ð²ÑĥÑĩ
ĠÑģÐ¸ Ð½Ð¸Ðµ
ĠÐ³Ð»Ð°Ð· ÐºÐ¸
ĠÐ¡ Ð°ÑĪ
ĠÐĺ ÑģÐº
ĠÐ¾Ð¿ ÑĥÑģÑĤÐ¾
ĠÐ¿Ð¾Ñģ ÑĥÐ´Ñĥ
ĠÐŁÑĢÐµÐº ÑĢÐ°ÑĤÐ¸
ĠÐ¿Ð¾Ðº Ð¾ÑĢÐ½Ð¾
ĠÑĢÐ²Ð° Ð½ÑĥÐ»
ĠÐ²ÑĭÐ½ÑĥÐ¶Ð´ ÐµÐ½
ĠÐ° Ð±
ĠÐ¸Ð¼ ÐµÐ½Ð°
Ð¾Ñĩ Ð°
ÑĢÐ°Ð½Ð¶ ÐµÐ²
Ð¾Ð´Ð¸ÑĤ ÐµÐ»Ð¸
ĠÑĪÐ°Ð³ Ð½ÑĥÐ»
Ð¸Ð² ÑĪÐ¸ÑħÑģÑı
ÐµÑģÑģ Ð¸Ð»
ÑĩÐ¸ Ð¸
ÐµÐ² Ð°ÑĢ
ĠÐ½Ñĭ Ð½ÐµÑĪ
ĠÐºÑĥÑĢÑĤ ÐºÐ¸
ĠÐ¥ Ð¾Ð·Ñı
ĠÐĴÐ¾Ð» Ð´ÐµÐ¼
ĠÑĥÐº ÑĢÐ°Ð´
ĠÑĥÐ¼Ð¸ ÑĢÐ°ÑĤÑĮ
ĠÐ¾ÑĤÐº Ð»Ð¸Ðº
ĠÐ¼ÑıÐ³ ÐºÐ¾Ð¹
ĠÐºÐ¾Ð¼Ð¿ Ð»Ð¸
Ġ C
ĠÐºÐ¾ÑĢ Ð·
ĠÐ¼Ð¾ ÑĤÐ¾
ĠÐ¿Ð¾Ð²Ð¸Ñģ Ð»Ð°
ĠÐ·Ð°Ð± ÑĢÐ¾ÑĪ
ĠÐ¸Ð¼ ÐµÐ½
ĠÑģÐµÑĢÐ´ ÑĨÑĥ
ĠÐŀ Ð¼
ĠÐ¾ÑĤ ÑĩÐ¸ÑĤ
ĠÑĦÐ°Ð½Ð° ÑĤ
ĠÐ¿ÑĢÐ¾Ð¼Ð¾Ð» ÑĩÐ°Ð»
Ð¾Ð³ Ð¾Ð²
ĠÐ·Ð°Ð²Ð¸Ñģ Ð¸ÑĤ
ĠÐ¤ Ñĥ
ĠÐ·Ð°Ð² Ð°ÑĢ
ĠÐ´ÑĭÑħ Ð°Ð½Ð¸ÐµÐ¼
ĠÐ¾Ð± Ð¼Ð°Ð½
ÐµÐº ÑĤÐ°
ĠÐ¿Ð°Ð»Ð° ÑĤÑĭ
ĠÐ²Ð¾Ð·ÑĢÐ°Ð· Ð¸Ð»
ĠÐ¡ÑĤ ÑĢÐ°Ð¶
ĠÐ¿ÐµÑĢÐµÐ´ Ð°Ð²
- "
Ð½Ð¾ ÑģÑıÑĤ
ĠÐ·Ð² Ð°ÑĤÑĮ
ĠÐºÐ¾Ð½ÑĩÐ¸ ÐºÐ°Ð¼Ð¸
Ð³Ð¾ Ð»ÑĮ
ĠÐ·Ð°Ð¼ÐµÑĩ Ð°Ñİ
Ð°Ð¶ Ð´Ñĭ
ĠÐ½Ð°Ð± ÑĢÐ°Ð»
ĠÐ¯Ð¼ Ð°Ð¼Ð¾ÑĤÐ¾
ĠÑģÐ²Ð¾Ð±Ð¾Ð´ Ð½Ð¾Ð¹
Ð¸ÑĤ ÑĭÑħ
Ð¸Ð½ Ð°Ð»Ð°
ĠÐŁÐ¾Ð² ÐµÑĢÑĮ
ĠÑģÑĤÐ¾ Ð½ÐµÑĤ
ĠÐ·Ð½Ð°ÐºÐ¾Ð¼ ÑģÑĤÐ²Ð°
ĠÐ¾ÑĤÐ² ÐµÐ»Ð°
Ð¡ ÑĤÐ¾
ĠÐĽÐµÐ³Ð¾ Ð»Ð°Ñģ
?! -
ĠÐ¿ÑĢÐ¸Ñĩ Ð¸Ð½Ð¾Ð¹
ÑĦÐ¸ ÑĨÐ¸
ĠÐĴ ÑĢÑıÐ´
ĠÐ¡Ðº Ð°Ð·Ð°Ð»Ð°
ĠÐ± Ð°Ð»Ð°
ĠÐ¼ÐµÐ´ Ð²
ĠÐ¿ÑĢÐµÐ²ÑĢÐ°ÑĤ Ð¸Ð»ÑģÑı
ĠÐ¸Ð·Ð³ Ð¸Ð±
ĠÑĩÐµÑĢ Ð½Ð°Ñı
Ð½ Ð¸Ð»Ð¾
ĠÐĶÐ¼Ð¸ÑĤ ÑĢÐ¸Ð¹
ĠÐ²Ð¾Ð·Ð±ÑĥÐ¶Ð´ ÐµÐ½Ð¸Ñı
ĠÐ¿ÑĢÐ¸Ð½Ð¸Ð¼ Ð°Ñı
ĠÐĳÐ¾ ÑİÑģÑĮ
Ð¡ Ð½Ð¾Ð²Ð°
Ð¢ ÐµÐ±Ðµ
ĠÐĶÐ¶ Ð°Ñģ
ÑĢ ÐµÑĤÑĮ
Ðĳ Ð»
ĠÑĨ Ð²Ðµ
ĠÑĥÑħÐ¾Ð´ Ð¸
ÑĤÐ¸ ÐºÐ¸
ĠÐ±Ð°Ð» ÐºÐ¾Ð½
ĠÑĦ ÑĢÐ°Ð½ÑĨÑĥ
ĠÐ±Ð»Ð¾Ð½Ð´Ð¸Ð½ ÐºÐ¸
ĠÐ´Ð¾Ð¶Ð´ Ð°Ð²ÑĪÐ¸ÑģÑĮ
ĠÐĶÐµÑĢÐµÐº Ð°
ĠÑħÐ¸ÑħÐ¸Ðº Ð½ÑĥÐ»Ð°
Ð¸ÑĢ Ð°Ð»Ð¸
ĠÑħÐ¾Ð´ Ð¸Ð»Ð°
ÑĩÐµÑģ ÐºÑĥÑİ
Ð¾Ð² Ð°Ð²ÑĪÐ¸ÑģÑĮ
ĠÐ¿Ð»Ð¾ÑĤ Ð¸
ĠÐºÐ° ÑĢÐ°Ð½Ð´Ð°
ĠÐ¿Ð¾ ÑĤÐ¾ÑĢÐ¾Ð¿
ĠÑģÐ¿ÑĢÐ°Ð² Ð°
ĠÐºÐ»Ð¸Ð½ Ð¾Ðº
ĠÐ¾Ð±Ð¾ÑĢÐ°ÑĩÐ¸Ð² Ð°ÑıÑģÑĮ
ĠÐºÐ¾Ð½ÑĤÐ°Ðº ÑĤ
ĠÐºÐ¾ Ð½Ðµ
ĠÐ´Ð¾Ð± Ð¸ÑĤÑĮÑģÑı
ĠÑĥÐ± ÑĮÐµÑĤ
Ð°Ð» Ðº
ĠÑģÐ½Ð¸Ð¼ Ð°ÑĤÑĮ
ĠÑĨÐ²ÐµÑĤ Ð°Ð¼Ð¸
ĠÐ¡ Ð²Ð¾
ÐµÑĢÐ¾ ÑıÑĤÐ½Ð¾
ĠÑĤÐµÐ¿ Ð»ÑĭÐ¹
ĠÐ¾ÑģÑĤ ÑĢÑĭÐµ
ĠÐ¸Ð´Ðµ Ð¸
ĠÐĶ ÑįÐ¹
Ð¡ Ð¢
ĠÐŀ Ñĥ
Ð´ ÐµÐ½Ð°
Ð°ÑĤÐµÐ»ÑĮ Ð½ÑĭÐµ
Ð°ÑİÑī Ð¸Ð¼ÑģÑı
ÐµÐ½ÑĤ Ð¾Ð¼
Ð°ÑģÐº Ð¾Ð»ÑĮÐºÐ¾
ĠÐ²ÐºÑĥÑģ Ð½Ð¾
ĠÐ±Ð¾Ð»ÑĮ Ð½Ð¸Ñĩ
ĠÐ¸Ð¼ ÐµÐ½ÐµÐ¼
ĠÑĥÑĢÐ¾Ðº Ð¾Ð²
Ðķ ÑīÑĳ
ĠÐ±ÐµÐ·ÑĢÐ°Ð· Ð»Ð¸Ñĩ
2 0
ĠÑģÐ²ÐµÐ¶ Ð¸Ð¹
Ð½ ÐµÐ½ÑĮÐºÐ¾
ĠÐ¿Ð¾Ð¿ Ð°Ð»Ð¸
ĠÐ²Ð´Ð¾Ñħ Ð½Ð¾Ð²
ĠÑģÐ¿ÑĢÐ°Ð² ÐµÐ´Ð»Ð¸Ð²Ð¾
Ð»Ð¸ Ñģ
ĠÑģÐ»ÑĭÑĪ Ð°Ð»Ð¸
ĠÐ¼ÑıÐ³ ÐºÐ¸Ð¼
ÑĪÐµÐ¼Ñĥ ÑģÑı
ĠÐºÐ¾Ð½Ñĩ Ð¸Ð»
ÐŁ Ð¾Ð·
ĠÐ¿Ð¾Ð³ Ð¾Ð´Ð°
ÑıÑī Ð¸Ð¼Ð¸
ĠÐºÑĢÐ°Ñģ Ð½ÑĭÐ¼Ð¸
ĠÐ±Ð»Ð°Ð³Ð¾Ð´Ð°ÑĢ ÐµÐ½
ĠÑģÐºÑĢÑĭÐ² Ð°Ñı
ĠÑĤÐµÐ¿ Ð»Ð°
ĠÑĪÐºÐ¾Ð» Ð°
ĠÐ²Ð¾Ð·Ð¼ÑĥÑī ÐµÐ½Ð½Ð¾
ĠÑĤÐµÐ¼ Ð½Ð¾Ð¹
ĠÑģÑĤ ÑıÐ½ÑĥÐ»
ĠÐ¼Ð¾Ð»Ñĩ Ð°Ð½Ð¸Ñı
ÐµÐ½ ÑĨÐ¸
ĠÐ¿Ð¾Ð¿ÑĭÑĤ ÐºÐµ
ĠÑĢÐ°Ð²Ð½Ð¾Ð´ÑĥÑĪ Ð½Ð¾
ĠÐ¿Ð¾Ð» Ð½Ð°Ñı
ÑĪ Ð¸Ð½
Ð¾ÑĢ Ð¸ÑĤÑĮ
ĠÐ¾ÑĤÐ²ÐµÑĤ Ñĭ
ĠÐºÐ¾ÑģÑĤ ÐµÐ¹
ĠÐ¿Ð¾Ð² ÑĭÑģ
ĠÑģÐ¾Ð±ÑģÑĤÐ²ÐµÐ½ Ð½ÑĭÐ¼
ĠÐ½Ð¾Ñĩ Ð°Ð¼
ĠÐľ ÐµÐ´
ĠÑĤÑĢÐµÑĤÑĮ ÐµÐ³Ð¾
ĠÐ¿Ð¾Ð´Ð½ÑıÐ² ÑĪÐ¸ÑģÑĮ
ĠÑģÐ¸Ð½Ñı ÐºÐ¸
Ð² ÑģÐµ
ĠÐ± Ð¸Ð·Ð½ÐµÑģ
Ð»Ð¸ Ð¸
ĠÐ±ÐµÐ» ÑĭÑħ
ĠÐĳ ÑĭÐ»
ĠÑģÐ»Ð¾Ð¶ Ð¸Ð»
ĠÑįÐ½ ÑĤÑĥÐ·Ð¸
ĠÐ³Ð»Ð°Ð² Ð½Ð¾Ð³Ð¾
ĠÐ° Ð½Ð°Ð»Ð¸
ĠÐ½Ð°Ð¿ Ð¾Ð»Ð¾Ð²Ð¸Ð½Ñĥ
ĠÐ¾ÑģÐº Ð°Ð»
ĠÐ³Ð¾ÑĢÑıÑĩ ÐµÐµ
ĠÐ¿Ð°ÑĢ Ð°Ð»Ð»
ĠÐ²ÑģÑĤ Ð°ÐµÑĤ
ĠÐ·Ð°Ð½ÑıÑĤ Ñĭ
ĠÐº Ð¸Ð´
Ñħ ÐµÐ½Ð°
ĠÐ²ÐµÑī Ð°Ð¼Ð¸
Ð½ ÐµÐ»Ð°
ĠÐ¡ ÐµÐ½
ĠÐ³Ð¸Ð³ Ð°Ð½ÑĤ
ÑĤÐ¾Ñĩ ÐºÐ°
ĠÐ³Ð»Ð°Ð² Ðµ
ĠÑĥÑģÐ¼ÐµÑħ Ð½ÑĥÐ²ÑĪÐ¸ÑģÑĮ
Ð´Ð¸ Ñı
ÐĲÐĲ ÐĲÐĲ
ĠÑĥÑħÐ¼ÑĭÐ» ÐºÐ°
ĠÐ·Ð°Ð¿Ð°Ñħ Ð¾Ð¼
ĠÐ¿Ð¾Ð¼Ð¾Ð³ Ð°Ñı
ĠÐ² Ð¼Ð¸Ð³
ĠÑħ Ð¾ÑĢÐ¾Ð¼
ĠÐ´Ð¾ÑĤ Ñı
ĠÐ£Ñģ Ð°Ð³Ð¸
ĠÐĳÑĢÐ°Ð¹ Ð°Ð½
ĠÑĩÐµÑĢ Ð½ÑĥÑİ
ĠÑĢÐ°ÑģÑģÐºÐ°Ð¶ ÐµÑĪÑĮ
ĠÐ¸ÑģÐº ÑĢ
ĠÐ¿Ð¾Ðº Ð¸Ð½ÑĥÐ»Ð¸
Ð¼Ð¸ ÐºÐ¾Ð¼
ĠÐĶ ÑįÑĢ
ĠÐ»ÐµÐ³ ÐµÐ½
Ð°Ð³Ð¾ Ð½
ĠÑģÐµÑĢ ÐµÐ´
ĠÐł Ð¸Ð²
ĠÐºÑĢÐ¾Ð²Ð°ÑĤÑĮ Ñİ
ĠÐ½Ð°ÑģÑĤÑĢÐ¾ ÐµÐ½Ð¸Ñı
ĠÐ²ÑĭÐ¿Ð°Ð» Ð¸Ð»
ÐŁÐ¾ÑĤ Ð¾Ð¼Ñĥ
ĠÐ´ÐµÐ² Ð¾ÑĩÐµÐº
ĠÑĥÑĩÐµÐ½Ð¸ ÐºÐ¸
ĠÐ¿Ð¾Ð´Ð´ Ð°Ð²
ĠÐ¿ÑĢÐ¾Ð± ÑĥÐ¶Ð´
Ð°ÑĤ Ð°Ñı
ĠÐŁÑĢÐ¸ Ð´
ĠÐºÐ°ÑĢ ÑĤÑĥ
ĠÑģÐµÑĢÐµÐ± ÑĢÐ¸ÑģÑĤ
Ð¾Ð¶Ð´ ÑĮ
ÐºÐ¾Ñĩ Ð¸ÑĤÑĮ
ÑĥÑĢ ÑĪ
ÑĥÑĢ Ð¾Ð¹
ĠÐ½Ð¾Ð¶ Ð¾Ð¼
ĠÐ²ÑĭÐ¿Ð¾Ð» Ð½ÑıÑĤÑĮ
ÐĿ ÐĲ
ĠÐ¼ÑĥÐ¶ ÐµÐ¼
Ð¾Ð´ Ð¸Ð»Ð°
ĠÐ¼Ð¾ ÑģÑĤ
ĠÐ¿ÑĢÐ¾Ð²Ð¾ÑĢ ÑĩÐ°Ð»
ĠÐ¾Ð±Ñģ ÑĥÐ´Ð¸ÑĤÑĮ
ĠÐ¾ÑĤÐ¾ÑĢÐ² Ð°Ð»ÑģÑı
ĠÐ²ÑĭÐ¿ Ð°Ð´
ÐĳÑĭ Ð»Ð¾
ĠÐ¼Ð¸Ð» Ð¾Ð¹
ĠÐ±ÑĢ Ð¾Ð½
Ñı Ð¿
ĠÐ³Ð¾ÑĢ ÐµÐ»Ð¸
ĠÑģÐ¿Ð¾ÐºÐ¾Ð¹ Ð½ÐµÐµ
ÐĶ Ðĺ
ĠÐ´Ð¾Ð²Ð¾Ð»ÑĮ Ð½ÑĭÐ¹
ĠÐĵÐ¸Ð» Ð±ÐµÑĢÑĤ
?? ?
ĠÐºÐ°ÑĢÐ¼Ð° Ð½Ñĭ
ĠÐ·ÑĢÐµÐ»Ð¸ ÑīÐµ
ĠÑħ ÑĢÐ°
ĠÐ¢ Ð²
ĠÐļ Ð°Ñı
ĠÐ³Ð»Ð°Ð· Ð¾Ð¼
ĠÐ® Ð½Ð¾ÑĪÐ°
ĠÐļ ÑĢÑĥ
ĠÐ¿Ð¾Ð·Ð²Ð¾Ð» Ð¸ÑĤ
ĠÑħÐ²Ð¾ÑģÑĤ Ð¾Ð¼
ĠÐ½Ð°ÑĩÐ¸Ð½Ð° ÑĤÑĮ
ÐµÐ¼ Ð°
ĠÐ¿Ð¾Ðº Ð°Ð»
ĠÐ¿Ð»Ð° ÑģÑĤÐ¸
Ñģ ÑİÐ´Ð°
Ð°Ð²Ð»Ð¸Ð² Ð°Ñı
ĠÑī Ð¸ÑĤ
ĠÑĤÐµÐ¼ Ð½ÑĭÑħ
Ð¾Ð» Ð¾Ð¼
ĠÐļÐ¾ÑĢ Ð¾ÑĩÐµ
Ð¸ÑĤ ÐµÐ»Ñİ
ĠÐ¾ÑħÐ¾ÑĤ Ð½Ð¸Ðº
ĠÐĴ Ð°ÑĢ
ĠÑĤ ÑıÐ½ÐµÑĤÑģÑı
ĠÑĥÐ´Ð° ÑĩÐ½Ð¾
ĠÐĿÐ°Ð¹ Ð»Ð°
ĠÑĢÐ°Ñģ ÑģÑĤÑĢÐ°
ĠÑģÐ¾Ð± ÑĢÐ°ÑĤÑĮÑģÑı
ĠÐ¿ÑĢÐ¾Ñģ ÐºÐ¾Ð»ÑĮÐ·
Ġ1 9
ĠÐ¼Ð°ÑģÑģ Ð¸Ð²
ĠÐ¾ÑģÑĤÐ° ÑĳÑĤÑģÑı
ĠÐ¿Ð¾Ð¿ÑĢÐ°Ð² Ð»ÑıÑı
Ð°Ð´ Ð¸ÑĤÑĮ
ĠÐĲÐ½Ð´ ÑĢÐµ
ĠÐ¾Ð´ ÐµÑĢÐ¶
Ð¾ÑĤÑĢÑı Ñģ
ĠÐľ Ð¸ÐºÐ°
ĠÐ°Ð¼ ÐµÑĢÐ¸
ÑĤÑĥ ÑĢÑĥ
ĠÐ·Ð°ÑĪ Ð°Ð³
ĠÐ¿Ð¸ÑģÑĮ Ð¼Ð°
ĠÐ¿ÑĢÐ¾Ð¸Ñģ ÑĪÐµ
ĠÑģÐ¾Ð³ Ð»Ð°
ĠÐŁÐ¾Ð¶ Ð¸ÑĢÐ°ÑĤ
ĠÐ¢ÑĢÐ°Ð½ Ð´Ñĥ
ĠÑĥÑĤ Ð¾Ð¼
ĠÐ¼Ð¸ ÑģÑĤÐµÑĢÐ°
ĠÑģÐº Ð¾ÑĤ
ĠÐ¡Ðº Ð°ÑĢ
Ð½Ð¸Ð¼ Ð°Ñı
ĠÐ¿ÑĢÐ¸Ð¼ ÐµÑĤ
ĠÐ½Ð°Ñģ ÑĩÑĳÑĤ
Ð¸ÑĨ ÐµÐ¹
ĠÑĢÐµÐ¼ ÐµÐ½ÑĮ
ĠÐºÑĢÑĥÐ³ Ñĥ
ĠÐ´ ÐµÐ¿
k e
ĠÑĥÐ¿Ð¾Ð¼ Ð¸Ð½Ð°
ÐĶÐ°Ð² Ð°Ð¹
ÐµÑĢÑĮÐµÐ· Ð½Ð¾
ĠÑģÑĤ Ð°Ð½ÐµÑĪÑĮ
ĠÑĥÑģÑĤÑĢÐ¾ Ð¸Ð»ÑģÑı
ĠÐ¢Ðµ Ð¾
ĠÐľ Ð°Ð½
ÑĥÐ´ Ð¸Ð²
ĠÐ²ÑĭÐ´ ÐµÐ»Ñı
ĠÐ¿ Ð¸Ð²Ð°
ĠÑĢÑĭ Ð´Ð°
ĠÐ¸ÑģÐºÐ»ÑİÑĩ ÐµÐ½Ð¸ÐµÐ¼
Ð°Ð»ÐµÐº Ð°
ĠÐ¾ ÑĢÑĥ
Ð»ÑĥÐ± ÑĮ
ĠÑĢÐ°ÑģÑħ Ð¾ÑħÐ¾ÑĤ
ĠÐŁÐ¾Ð² ÐµÐ»
ĠÑĥÑħ Ð°Ð¶
ĠÐĶÐ¶Ð°ÑģÑĤÐ¸ Ð½Ð°
ĠÐ§ ÑĥÐ´
ĠÐ½Ð°Ñģ Ð»Ð°Ð´
ĠÐ²ÑĭÐ¿ Ð¾Ð»Ð½Ñı
ĠÐ½ÑĢÐ°Ð² Ð¸ÑĪÑĮÑģÑı
ĠÐ§ Ð¢Ðŀ
ÑĢÑĥ ÑģÑĤ
ĠÐ¼Ñı ÑģÐ°
ÐµÐ½ÑĮ Ñİ
ÑģÐºÐ°Ð· ÑĥÐµÐ¼
ĠÐ¶Ð¸Ð²Ð¾ÑĤ Ð½Ð¾Ðµ
ĠÐ¿Ð°Ð» Ð¾ÑĩÐºÐ¸
Ð¸Ð· Ð½
ĠÐ½ÐµÐ¿ÑĢÐ°Ð² Ð¸Ð»ÑĮ
ÐµÐ½ÑĮ ÐºÐ¾Ð¹
ĠÐ± Ð°ÑģÑģ
ĠÐ¾ÑĤÑĩ ÑĳÑĤ
ĠÐĳÐ»ÐµÐ¹ Ð½Ð°
Ð¿ Ð»Ð°
ĠÐĶ Ð¸Ðº
ÑĳÐ½ Ð½Ð°Ñı
ĠÐ¼Ð¾Ð»Ð¾Ð´ Ð°Ñı
ĠÐ± Ð»Ñı
ĠÐºÑĢÐ°Ñģ Ð½Ð¾Ð¹
ĠÑģÐ¼ Ñģ
ĠÐ½Ð°Ñħ Ð»Ñĭ
ĠÑĥÐ»Ð¸ ÑĨÐ°Ð¼
ĠÐĲÑĢ ÑĤ
Ðĳ ÑĢÑİ
Ð½ ÑĳÑĤ
Ð²Ð¸Ð´ Ñĥ
ĠÑĤÐµÐ¿ Ð»Ð¾Ð¹
ĠÐ¾Ð³Ð»ÑıÐ´ ÐµÐ»ÑģÑı
ĠÐ¿ÐµÑĢÐµÐ² Ð¾ÑĢÐ°ÑĩÐ¸Ð²
ĠÑģÐ¾Ð¾Ð±Ñī Ð¸Ð»Ð°
ĠÑģ ÑĥÐ¶Ð´
ĠÐ·Ð°Ð² Ð¾Ð¿
ĠÐ»ÐµÐ³ÐºÐ¾ ÑģÑĤÑĮÑİ
Ð· Ñİ
ĠÐ²Ð³ Ð»ÑĥÐ±ÑĮ
ĠÐ¿ÑĢÐ¾Ð±ÑĥÑĢ ÑĩÐ°Ð»
ĠÐ¾ÑĤÐ¼ÐµÑĤ Ð¸Ð»
ĠÐ¿Ð¸ÑĢ Ð¾Ð¶
ĠÐ½Ð°ÑĢÐ¾Ð´ Ð°
ĠÑĤÐµÑĢÐ¿ÐµÐ» Ð¸Ð²Ð¾
ĠÐ·Ð°Ñī Ð¸ÑĤÑĥ
ĠÐ³ ÐµÐ½
ÑĥÑĩ ÐºÐ°
ĠÐ²ÑĭÐ· ÑĭÐ²Ð°Ñı
ĠÐ¾Ð±ÐµÑĢ Ð½ÑĥÐ²ÑĪÐ¸ÑģÑĮ
ĠÐ¿ÑĢÐ¾ÑģÑĮ Ð±Ñĥ
ĠÐ¿Ð¾Ð»ÑĮÐ· Ð¾Ð²Ð°ÑĤÑĮÑģÑı
ĠÐ¼ÐµÐ½Ñı ÑĤÑĮ
ĠÐ¸Ð·ÑĢÑıÐ´ Ð½Ð¾
ÑĥÑĪ Ð°
ÑĤÐ¾Ñĩ ÐµÐº
ĠÑģÐ²Ð¾Ð±Ð¾Ð´ Ð½Ð¾
ĠÐ²ÑĩÐµÑĢÐ°ÑĪ Ð½ÐµÐ³Ð¾
ĠÐ»Ð¾ÑĪ Ð°Ð´
ÐĴ ÑĢÐµÐ¼Ñı
ÑĩÐ° ÑģÑĤÐ¸
ĠÐ¸Ñī ÐµÑĤ
ĠÐ¾ÑģÐºÐ¾Ð» ÐºÐ¸
Ð½Ñİ Ð´ÑĮ
ĠÐĶÐ¶ÐµÐº Ð°
ĠÑĤÐµÐº ÑģÑĤ
ĠÐ±ÐµÐ·ÑĢÐ°Ð· Ð»Ð¸ÑĩÐ½Ð¾
ĠÑģ ÐµÐ²ÐµÑĢ
ĠÐł ÑĥÐºÐ°
ĠÑģÐ½Ð¸Ð¼ Ð°Ñı
ĠÐĽ ÐµÐ½Ð°
ÐµÑĪ ÐºÑĥ
ĠÑģÑĤÐµÐ½ ÐºÐµ
ĠÐŀÑģÑĤ Ð°Ð»ÑĮÐ½ÑĭÐµ
ĠÐ½Ð°ÑĢÐ¾Ð´ Ñĥ
ÑģÑĤÑĢ ÐµÐ±
ĠÐ¿ÑĢÐ¾Ð¿ Ð°Ð»Ð°
ĠÐ¼ÐµÐ» ÐºÐ¸Ð¹
ĠÐŁÑĢÐ¸ ÑĩÐµÐ¼
ĠÐĿ ÐµÐ¼
ÑĢÐ¾ Ð½Ð°
ĠÐ²ÑĭÐ¿ ÑĥÑģÑĤÐ¸Ð»
ĠÑģÐ¿ Ð¾ÑĢÑĤ
Ð¿ Ð¾Ñģ
Ð¸Ð» Ð¾Ñģ
ĠÐ¼Ð°Ð³ Ð³
ĠÑģ ÐµÐ´ÑĮ
ÐŀÑĤ Ð²ÐµÑĤ
ĠÐ¾ ÑĪÐµÐ»Ð¾Ð¼
ĠÑĤÑĢ ÐµÑī
Ð»Ð°Ð´ ÑĭÐ²Ð°Ñı
ĠÑĪÑĥÑĤ ÐºÐ¸
ĠÐ¢Ð²Ð¾ Ñİ
ĠÐ·Ð°Ð¼Ð¾Ð» ÑĩÐ°Ð»Ð°
ĠÐĽ Ð°Ð¹
ĠÑĥ ÑĪÐ¸Ð±
ĠÐ¡ Ð¾Ñģ
ĠÐ¾Ð¼ ÐµÐ³Ñĥ
ĠÐº ÑĢÐµÐ¼
ĠÑģÐµÐºÑĥÐ½Ð´ Ð¾Ð¹
Ð°Ð½Ñĥ ÑģÑĮ
Ð»Ð¾ Ñĥ
ĠÐ¿ÑĢÑı Ð¼Ð¸ÐºÐ¾Ð¼
ÑģÐ¿ ÑĢÐ¾ÑģÐ¸Ð»Ð°
ĠÐ²Ð¾Ð· Ð³Ð»Ð°Ñģ
ÑĤ Ð°Ð½Ð¾Ð²
ĠÐ½Ð°Ðº ÑĢÑĭ
ĠÐ½ Ð°Ð³Ð¾
ĠÐ¡ ÑĤÐ°
ĠÑģÐ¸Ð´ ÑıÑīÐµÐ³Ð¾
ĠÑģÐ¿ ÑıÑĤ
ĠÐ´ÐµÐ¼Ð¾Ð½ ÑģÑĤÑĢÐ°ÑĤ
ĠÐ·Ð°Ð±Ð¾ÑĤ Ð»Ð¸Ð²Ð¾
ĠÐ¡ÑĤÐ¾ Ð¸Ð»Ð¾
Ð ©
Ðĵ Ð¾Ñģ
ÐĲ Ð´
ĠÐ¿Ð¾ÑĨÐµÐ»Ñĥ Ðµ
ĠÑĩÐ¸ÑģÑĤ Ð¾Ð¹
ĠÐ² Ð¸Ð±
i m
ĠÐ¾ÑģÑĤ Ð°Ð½ÑĥÑģÑĮ
ĠÐ» ÑĥÐ½
ĠÐ¾Ðº ÑĢÐ¾Ð²Ð°Ð²
ĠÐ¾ÑĤ Ð»ÐµÑĤ
ĠÐĴÐµÐ½ Ð´Ð¸
ĠÐ¿Ð¾Ð´ÑĢÐ¾Ð± Ð½Ð¾ÑģÑĤÐ¸
ĠÑģÑĤÐ¾Ð¹ ÐºÑĥ
ÐµÑģ ÑģÐµ
ĠÐ·Ð°Ð¿ Ð»Ð°
ĠÐ¿Ð¾ÑĤÑı Ð½ÑĥÐ»Ð°
ĠÐ¿Ð¾ ÑĤÐ¸
ĠÐ¿Ð» ÐµÐ´
ĠÐ° Ð½Ð¸Ð¼
ĠÑĤÐ¾Ð»ÑģÑĤ Ð¾Ð²
ĠÐ²ÑĭÐ± ÐµÐ¶Ð°Ð»
Ð» Ð¸Ð»Ð¾ÑģÑĮ
ĠÐĿÐ°ÑĤ Ð°ÑĪÐ°
ĠÐŁÐ¾Ð´ Ð¾Ð¹Ð´Ñı
ĠÑģÐ¿Ð°Ñģ Ð°ÑĤÑĮ
ĠÑģÑĬ ÐµÐ´
ĠÑĢ ÐµÑĦ
ĠÐ¿Ð¾Ð²ÐµÐ´ ÐµÐ½Ð¸Ñı
ĠÐ¥Ð¾ ÑĥÐº
ĠÐºÐ¾Ð½Ð²ÐµÑĢ ÑĤ
Ð¸Ð»Ð»Ð¸ Ð°Ð½
ĠÐ±ÐµÑģÑĪ ÑĥÐ¼Ð½Ð¾
Ð¸ÑģÐº Ðµ
ĠÐ½Ð°ÑĥÑĩ Ð¸Ð»ÑģÑı
ĠÐ¿Ð¾ÑĢÑıÐ´ ÐºÐ¾Ð¼
Ðŀ Ð¹
ÐµÐ´Ð¸ Ð½Ð¸ÑĤÑĮÑģÑı
ĠÐ¿ÐµÑĢ ÑģÐ¿ÐµÐºÑĤÐ¸Ð²
ĠÐ²ÑĭÐ± Ð¸ÑĢÐ°ÑĤÑĮ
ĠÐ²ÐºÐ»ÑİÑĩ Ð°Ñı
ĠÐ»ÑİÐ±Ð¸Ð¼ ÑĭÐµ
ĠÐ¸ ÑģÑĤÐ¸
ĠÐ±Ð¾Ðº Ñĥ
ĠÑĢÑĭ ÑĨÐ°ÑĢ
ĠÐ¼ Ð½Ð¾Ñİ
ÐµÑĢ Ð½Ð¾
Ð¿ ÑĥÐ»Ñı
ĠÐ¡ ÑĮÑİ
ĠÐĴÐ¸Ðº ÑĤÐ¾ÑĢ
ĠÐ¿ÐµÑĢÐµÐ¶ Ð¸ÑĤÑĮ
ĠÐĶ Ð¾Ð»Ð³Ð¾
ĠÐĵÐ¾ÑģÐ¿Ð¾Ð´ Ð¸Ð½
ĠÑģÐµÐ¼ÑĮ ÐµÐ¹
ĠÐ³Ð¾Ð²Ð¾ÑĢ Ð¸ÑĤÐµ
ÑīÐ¸Ð¹ ÑģÑı
ĠÐ¡Ð¿ ÑĢÐ¾ÑģÐ¸Ð»
ĠÐ± Ð°Ð½Ð´
ĠÑĢÐ°Ð·Ð´ ÐµÐ²Ð°Ð»
Ð°ÑİÑī ÐµÐ¼Ñĥ
ĠÐ·Ð²ÑĥÑĩ Ð°Ð»Ð¾
ĠÐĽ Ð¾Ð³
ĠÐ¾Ð± Ð¼ÐµÐ½
ĠÐ¿ÐµÑĢ Ñģ
ÐµÑģÑĤ ÑĮÑİ
Ð¾Ð¼Ñĥ Ñİ
ĠÐ¿Ð¾Ð´Ð½Ñı Ð»Ð¸ÑģÑĮ
ĠÑĢÐ°Ð·Ð±ÑĥÐ´ Ð¸Ð»
ĠÐ¿Ð°ÑĢÐ½Ñı Ð¼Ð¸
ĠÐ²ÑĭÐºÑĢÐ¸ ÐºÐ½ÑĥÐ»
ĠÐĿÐµÐºÐ¾ÑĤÐ¾ ÑĢÑĭÐµ
ĠÐ¼Ð°ÑĪÐ¸Ð½ Ð°Ð»ÑĮÐ½Ð¾
ÑİÑīÐ¸Ð¹ ÑģÑı
ĠÐ¡ Ð°ÑĤ
ĠÑĩÐµÑĢ Ð½Ð¾
ĠÐ¿Ð°Ð»ÑĮÑĨ Ð°Ñħ
ĠÑģÐ¸Ð» Ðµ
ĠÐºÑĢÐ¸ ÐºÐ¾Ð¼
ĠÑĩÑĳÑĢ Ð½ÑĭÐ¹
ĠÐ½Ð¾Ñģ Ð¸ÑĤÑĮ
ĠÐ·Ð°Ñģ Ð¾Ñģ
Ñĭ ÐºÐ°
ĠÐ¿Ð¾Ðº Ð¾Ð¸
ĠÑģÐ¿ Ð»Ð¾ÑĪ
ĠÐŀ ÑģÑĤÐ°Ð½Ð¾Ð²
ĠÐ³ ÑĢÐ¸
ĠÐ²Ñĭ Ð½Ñĥ
ÑĤ ÐµÐ½
ĠÐ¿Ð¾Ð´ ÑĤÐ¾Ð»
ÑĨÐµÐ» ÑĥÐ¹
ÑĦÐµÑģÑģ Ð¾ÑĢ
ĠÐ¡ ÑĥÑħ
Ð°ÑĢÐ´ ÐµÑĢ
ĠÐ¿Ð¾Ð´ÑĢÐ¾ÑģÑĤ Ð¾Ðº
ĠÑģÐºÑĢÐ¸Ð² Ð¸Ð»ÑģÑı
ĠÐµÐ´ ÐµÐ¼
ĠÐ¼ÐµÐ½ ÐµÐ´Ð¶
ĠÐ¾ÑģÑĤ ÑĢÐ¾
ĠÐ²Ð¾ Ð¾ÑĢÑĥÐ¶
ĠÐ±Ð¸ÑĤ Ð²Ñĭ
Ð¼ ÐµÐ½Ð°
?! "
Ð» Ð¸Ð»Ð¸ÑģÑĮ
ĠÐ´Ð¾Ð¿Ð¾Ð» Ð½Ð¸ÑĤÐµÐ»ÑĮ
ĠÐĿ Ð°Ð·
ĠÑģÐ¾Ð· Ð´Ð°ÑĤÑĮ
ĠÐĵÐ¾ÐºÑĥÐ´ ÐµÑĢÐ°
ÑİÑī Ð¸Ð¼Ð¸
Ð¸ÑĤ Ð°Ð¹
ĠÐ¿Ð¾Ð´ Ð¾Ð¿
ĠÐ³Ð»Ð°Ð² Ñĭ
ĠÐ¿Ð¾Ð´ ÑĤÑı
ĠÑħÐ¾ÑĢÐ¾ÑĪ ÐµÐ¹
ÑĢÐ¸ ÑĢÐ¾Ð²
ĠÐºÐ¸ Ð½ÑĥÐ»Ð°ÑģÑĮ
Ð¼Ð° Ð½Ð°
ĠÐ´Ð¾Ð± ÑĢÐ°Ð»ÑģÑı
ĠÐ¿ÐµÑĩ Ð°ÑĤÑĮ
ĠÐ²ÑģÑı ÐºÐ¾Ð¼
ĠÐĳÑĥÐ´ Ñĥ
Ð¾Ð² ÑĭÐ¼Ð¸
ĠÐ¾ Ð¹
ĠÑĢÐµÐ· ÐºÐ¸Ð¹
ĠÐ¿Ñĥ Ð·Ñĭ
ĠÑĦÐ¾ÑĤÐ¾Ð³ÑĢÐ°ÑĦÐ¸ Ñİ
Ð¸ÑĢÐ¾Ð² Ð°Ð»Ð¸
ĠÐ£ Ð´Ð°
ĠÐ·Ð°Ð²Ð¾ÑĢ Ð¾Ð¶
ĠÐĶÐ¶ÐµÐº ÑģÐ¾Ð½
ĠÐ½ÐµÐ» ÐµÐ³
ĠÐ¼ÑĭÑģÐ»ÑĮ Ñİ
ĠÐ±Ð¾Ð³ Ð°
ĠÐ·Ð°ÐºÑĢÑĭ Ð»Ð°ÑģÑĮ
Ð¡ Ð°ÐºÑĥÑĢÐ°
ĠÐ¿Ð¾Ð¹ Ð¼ÐµÑĤ
ĠÑĤÑĳÐ¼ Ð½Ð¾
ĠÐ½Ð°Ð¿Ð¾Ð¼ Ð¸Ð½Ð°Ð»
ĠÐ´Ð²Ð¸Ð¶ÐµÐ½Ð¸Ñı Ð¼Ð¸
ĠÐĲÐ½Ð³ ÐµÐ»
ĠÐ½ÐµÐ¶ Ð½Ð¾ÑģÑĤÐ¸
ĠÑĤÐ°ÑĢÐµÐ» ÐºÐ¸
ĠÐ¥ ÐµÐ»ÑĮ
ĠÐ¾ÑĤÐ¿ ÑĢÑı
ĠÐ·Ð°Ðº Ð°ÑĪ
ĠÑĢÐ°Ð·ÑĢÐµÑĪ ÐµÐ½Ð¸Ñı
ĠÐ¾Ð± Ð¾Ð¹ÑĤÐ¸
ĠÐ²ÐµÑĢ Ð¸ÑĪÑĮ
ĠÐ´Ð¾Ð± ÑĢÐ¾Ð²
ĠÐ¢ÐµÐ¼ Ð°ÑĢÐ¸
ĠÐ´ÑĢÑĥÐ¶ ÐµÑģ
Ðľ Ð¾Ð»
ĠÑĩÐ¸ÑĤ Ð°Ð»Ð°
ĠÑģÐ»Ð°Ð² Ð°
ĠÐ´ÐµÐ² ÑıÑĤ
ĠÐ±ÐµÑģ ÐµÐ´Ñĥ
ĠÐ¿ÑĢÐ¸ÐºÐ¾Ñģ Ð½ÑĥÑĤÑĮÑģÑı
ĠÐ¿ ÐµÐ»ÐµÐ½
ĠÑģÐ°Ð´ Ñĥ
ĠÐ¼ÐµÑĢ ÑĨ
Ð°Ð½ Ð¾Ð¹
ĠÑģÐ¾Ð± Ð°Ñĩ
ĠÐ± Ð°ÑĤ
ĠÐ¾ÑĤÑĢÐµÐ· Ð°Ð»
ĠÑĦÐ¸Ð³ ÑĥÑĢÑĭ
Ð¾Ð¶ Ð´Ð°
Ð³ ÑĥÐ¼
ĠÐ¾ÑĤÐ²ÐµÑĤ Ð¾Ð¼
ĠÐ½Ð°ÑĪ ÐµÐ¼Ñĥ
ĠÐ¼ÐµÑĩ Ð°
ĠÑĥÑģÐ¸Ð»Ð¸ Ð¹
ĠÑįÐº Ñģ
Ð¾Ð´ÑĥÑĪ ÐµÐ²
ĠÐ½ÐµÐ²Ð¾Ð·Ð¼ÑĥÑĤ Ð¸Ð¼Ð¾
ĠÐ¿Ð¾Ð» ÐºÐ¾Ð²
ĠÑĪÐ°Ð³ Ð°Ð¼Ð¸
ĠÐ¾ÑīÑĥÑī ÐµÐ½Ð¸Ð¹
.. -
ĠÐºÐ¾Ð¼Ð¿ Ð»ÐµÐº
ĠÐ´Ð¾Ð± ÑĢÐ¾Ð´
ĠÐ³Ð»ÑĥÐ¿ Ð¾ÑģÑĤÑĮ
ĠÑģÐº Ð¾Ð²
ĠÐ²ÑģÑĤÑĢÐµÑĤ Ð¸Ð¼ÑģÑı
ĠÐļÑĥÑĩ Ð¸ÐºÐ¸
Ð½ Ñģ
Ð°Ð´ ÑĥÑĤ
ĠÐ¸Ð· Ð¾Ð±ÑĢÐ°Ð·
ĠÐ²Ð¾Ð´ Ð¸ÑĤÐµÐ»ÑĮ
ĠÐ¿Ð»Ð°Ðº Ð°Ð»
ĠÑĥÑģÑĤÑĢÐ° Ð¸Ð²Ð°ÐµÑĤ
Ð¾ÑĤ Ð°Ð»Ð°
ĠÑĢÐ°Ð·Ð¾Ð± ÑĢÐ°ÑĤÑĮ
ĠÑĩÐµÑĢ Ð½Ð¾Ð³Ð¾
ĠÑģÐ»ÑĥÑĪ Ð°Ñİ
ĠÐ»Ð°Ð±Ð¾ÑĢÐ° ÑĤÐ¾ÑĢÐ¸Ð¸
ÑĪÐ¸Ð¼Ð¸ ÑģÑı
ĠÐ±ÐµÐ·Ð¶ Ð°Ð»Ð¾
ĠÐłÐµÐ±ÐµÐº ÐºÐ°
ĠÐ²Ð¾ÑĪ ÐµÐ´
ĠÐ¿ÑĢÐ¾ÑĨÐµÐ´ Ð¸Ð»
Ð°ÑĤ ÐµÐ»ÐµÐ¼
ĠÑĪÑĥÐ¼ Ð°
ĠÐľ ÑĥÐ¶
ĠÐ»Ð¸ÑĪ Ð½ÐµÐ³Ð¾
ĠÐĿÐ°ÑĢ ÑĨ
ĠÐ¾Ð±Ñĭ ÐºÐ½Ð¾Ð²
ĠÐ½Ð¾Ð³ Ðµ
ĠÐ¾ÑģÐ¼Ð°ÑĤÑĢÐ¸Ð² Ð°Ñı
ĠÑģÑĤÐ°Ð½Ð¾Ð² Ð¸Ð»Ð¸ÑģÑĮ
ĠÑģÐ¾ÑģÐµÐ´ Ð½ÐµÐ¹
Ð½ÑĥÑĤ ÑĭÐ¼
ĠÑĤÑĮ Ð¼Ð°
ĠÐ³Ð»Ð°Ð² Ð½Ð¾Ð¹
ÑĤ ÑĥÑİ
ĠÑģÐ² Ð¸Ð½
ĠÐ¿Ð°Ð¿ ÐºÑĥ
ĠÐºÐ¾ÑĢÐ¸Ð´Ð¾ÑĢ Ð°Ð¼
ĠÑģÐº Ð»Ð¾Ð½Ð¸Ð»ÑģÑı
ĠÑĥÑĤ Ð²ÐµÑĢÐ¶
Ð°Ñģ Ñĭ
ĠÐ¼Ð¸ÑĢ Ð¾Ð¼
ĠÐ¿ Ð»Ñĭ
ĠÐĳ Ð¾Ð³Ñĥ
ĠÑĥÑģ Ð»ÑĥÐ³
ĠÐ½Ð¾Ð² Ð¾Ð¼
ÑĤ ÑıÐ½
ĠÐĴ Ð°Ð½
ĠÑģÐº Ð°Ð»
ĠÐ² Ð°Ð»ÑĮ
ĠÐ¾ÑĤÐ· ÑĭÐ²
ĠÐĵ ÑĢÐ¾Ð¼
ĠÐ¿ÑĢÐ¾ÐºÑĢÐ¸ ÑĩÐ°Ð»
ĠÐ²ÑĭÑĤÐ°Ñī Ð¸Ð»Ð°
ĠÐł ÑĥÐ±
ÑĢÐ°ÑĤ Ð¸Ð»
ĠÐ¼Ð¾Ð»Ð¾Ð´ ÐµÑĨ
ĠÐ¸ÑģÐº Ð°Ð»Ð°
ĠÐ¾ÑĤÐ´ Ð°Ð»Ð°
ĠÐ½ÑĥÐ¶ Ð½ÑĥÑİ
ĠÐ¿ÑĢÐ¾ ÑģÑĤÑĥÐ¿
ÐµÑģ ÐµÐ»
ĠÐ²Ð»Ð° ÑģÑĤ
ĠÐ³ÑĢÐ¾ÑħÐ¾ÑĤ Ð¾Ð¼
ĠÐľÐ°Ðº ÑģÐ°
Ð³Ð¾ ÑĤ
ĠÑĤÐµÑĢ ÑıÑı
Ð½ ÐµÐ»Ð¸
ĠÐ²Ð´ ÑĭÑħÐ°Ñı
ĠÐ½Ð¾Ð³ ÑĤÑıÐ¼Ð¸
ĠÐ¼Ð¾ÑĤÐ¾ ÑĨÐ¸Ðº
ĠÐ¿ Ð¸Ñħ
ĠÑĩ ÑĢÐµÐ·
ĠÐ¼Ð°Ðº Ð¸Ñı
ÐĹÐ½Ð° ÑĩÐ¸ÑĤ
Ð¢ Ð°
Ð»Ð¾Ñħ Ð¾
ĠÐ¾ ÑĢÐ°ÑĤÑĮ
ĠÐķ ÑģÑĤÐµÑģÑĤÐ²ÐµÐ½Ð½Ð¾
ĠÑĩÐµÑĤÑĭÑĢ ÐµÑħ
ĠÑĢÐ°Ð·Ð´ÑĥÐ¼ Ð¸Ð¹
ĠÐľÐ¸ Ð½Ð¸
ĠÑĤÐµÐ¿ Ð»Ð¾Ð¼
ĠÐ¶ Ð¾Ð¿
ĠÐ¤ÑĢÑįÐ½ ÐºÐ°
ĠÐłÑĥÐºÐ¸ Ñı
ĠÐ¿ÑĢÐ¸Ð¾ÑĤÐº ÑĢÑĭÐ»
ĠÐ¡ ÐµÐ²
ĠÑĥÐ± ÑĮ
ĠÐĴÑģ Ñİ
ĠÐºÐ½Ð¸ Ð³Ð°
ĠÐ¼Ð°Ð»ÑĮÑĩÐ¸ ÐºÐ¸
ĠÐ¢Ð°Ðº Ð¶Ðµ
Ñĭ Ðº
ĠÑĢ ÑĥÐ¼
ĠÑģÑĤ ÐµÐ»
ÐĿ ÐµÑģÐºÐ¾Ð»ÑĮÐºÐ¾
Ð°Ð½ÑĤ Ð¾Ð¼
ĠÑģÐºÑĢÑĭ ÑĤÑĮÑģÑı
Ð²Ð° ÑĤÐ¾ÑĢÐµ
ĠÐļ ÑĢÐ¾Ð²ÑĮ
ĠÑģÐµÑģÑĤ ÑĢÐµÐ½
ĠÐµÑħ Ð°Ð»Ð¸
ĠÑħÑĥÐ´ Ð¾Ð¶
ĠÐĴÐ· ÑıÐ²
ĠÐº ÑĢÐ¾Ñģ
Ð»ÑıÑĤÑĮ Ðµ
ĠÐ¿Ð¾ÑĤÐµÑĢ Ñı
ĠÐ±ÐµÐ³ Ñĥ
ĠÐ¿ÑĢÐ¾Ð¿ ÑĥÑģÐºÐ°Ñı
ĠÐºÐ¾Ð» Ñİ
ĠÐ½ÐµÐ¾Ð¿ ÑĢÐµÐ´ÐµÐ»
ÐĲ Ð¹
ĠÑģÐ¶Ð¸Ð¼ Ð°Ð»
ĠÐ¼Ð¾Ð» Ð½Ð¸
ĠÐł Ð°Ð½
ĠÑĤÐµÐ¼ Ð½ÑĭÐ¹
Ð½ ÐºÑĥ
ÑĥÑģ Ð¾Ð²
ĠÐŁ Ð¾ÑĪ
ĠÐ½Ð°Ð¹ Ð´ÐµÑĤ
ÑĩÐ¸ ÐºÐ°Ð¼Ð¸
ĠÐ¿ÑĢÐµÐ´ÑĥÐ¿ÑĢÐµÐ´ Ð¸ÑĤÑĮ
ĠÐ¼ Ð°
ĠÑĤ Ð°ÑĢÐ°
ĠÑĨÐ¸ ÑĦ
ĠÐ²Ñĭ Ð´Ð°
ĠÐłÐµÐ¹ ÑĩÐµÐ»
ĠÑı Ð¿Ð¾Ð½
ĠÐ¡ Ð»ÐµÐ·
Ðļ ÑĢÐ¸Ñģ
Ð°Ð² ÑĤÑĢÐ°
ĠÐ½ÐµÐ´ Ð¾Ð²
ĠÐ·Ð°ÑĢ ÑıÐ´
ĠÐ¿Ð¾Ð²Ð¾ÑĢ Ð¾ÑĤ
ĠÐ» ÐµÑĤÐ¾
ÐµÑħ Ð°Ð²
ĠÐ½Ð°Ð» ÐµÑĤ
ĠÐ²ÑĭÐ· ÑĭÐ²Ð°ÐµÑĤ
ĠÐļ Ð¸Ð»Ð¸
ÑĳÐ½ Ð¾Ðº
ĠÐ± Ð°ÑĢÐ°
ÐĸÐµÐ½ ÑīÐ¸Ð½Ð°
ĠÑĥÐ±Ð»ÑİÐ´ Ð¾Ðº
ĠÐ±ÑĥÐ´ Ð¸ÑĤÑĮ
ÑģÑĤÐ² ÑĥÐµÑĤ
ĠÐĹ Ð°Ñħ
ĠÐ¶Ð¸Ð²Ð¾ÑĤ Ð½ÑĭÑħ
ĠÑĤÐµÑĢÐ¿ ÐµÐ½Ð¸Ðµ
ĠÐ¥ÑĮÑİ Ð³Ð°
ĠÐĿ Ð¾Ð²
ĠÑı ÑīÐ¸Ðº
ĠÐ±ÐµÐ» ÑĭÐ¼
Ð¡ ÑįÐ¼
ĠÐ´ Ñı
ĠÐľÐ°Ð¹ÐºÑĢÐ¾ÑĦ ÑĤ
ĠÑģÑĤ Ð¸Ð»Ðµ
ĠÐ½ÐµÐ± Ñĥ
ĠÑĢÐ°Ð·ÑĥÐ¼ Ð°
ĠÐ¿ÐµÑĢÐµÐ´ Ð²Ð¸Ð³
v e
ĠÐ¿Ð¾Ð· Ð²Ð°ÑĤÑĮ
ĠÐ¿Ð¾Ð´Ð½Ð¸Ð¼ Ð°ÑĤÑĮÑģÑı
ĠÐ¿ÐµÑĢÐµÑģÑĤ Ð°Ð»Ð¸
Ð¿ Ð¾Ð²
ĠÐ§Ð°Ð½ ÐµÐ»ÑĮ
ĠÐºÑĢÐ°ÑģÐ°Ð²Ð¸ ÑĨÐ°
ĠÐ¿ÐµÑĢÐµÐ² Ð¾Ð´Ñı
ĠÐ´Ð°Ð» ÐµÐµ
ĠÑģÐ¾Ñĩ ÐµÑĤ
ĠÑģÐ¿ Ð¸Ð½Ð°
ĠÐ±ÐµÑģÐ¿Ð¾ÐºÐ¾Ð¹ ÑģÑĤÐ²Ð¾
Ð¸Ñħ Ð¸Ðº
ĠÐ¿Ð¾Ð¿ Ð¾Ð»Ð·
ĠÐ¾Ð±ÑĢÐ°Ñī Ð°ÑıÑģÑĮ
ĠÐ² ÑģÑĤÐ°
ĠÐ·Ð°Ðº Ð»Ñı
ĠÐ¾ÑģÑĤÐ°Ð² Ð°Ð»Ð°ÑģÑĮ
................................ ................................
ĠÐ¾ÑĤÑĩÐ°Ñı Ð½Ð¸Ñı
ĠÐ¿Ð¾Ð´ Ð¾Ð¶Ð´Ð¸
ĠÐ½ÐµÐ²Ð¾Ð·Ð¼ Ð¾Ð¶
ĠÐ´ÐµÐ¼Ð¾Ð½ÑģÑĤÑĢÐ°ÑĤ Ð¸Ð²Ð½Ð¾
ĠÐ²Ð· ÑıÐ»ÑģÑı
ĠÐ´Ð¾Ð³Ð¾Ð²Ð¾ÑĢ Ð¸Ð»Ð¸ÑģÑĮ
ĠÐ¿Ð¾ÑıÐ² Ð»ÐµÐ½Ð¸Ñı
ÑĤ ÑĢÐ°ÑĪ
ĠÑĢÐ¾ ÑģÑĤÐ°
ĠÑĢÐµ Ð°Ð³Ð¸
ĠÐ³Ð¾ÑĢÑıÑĩ Ð¾
Ð¾Ðº ÑĢÐ¾Ð²
ĠÐ¼Ð¾Ð½ ÑģÑĤÑĢÐ°
ĠÑģÐ¾Ð² ÐµÑģÑĤÐ¸
ÑĢÐ°ÑĪ Ð¸Ð²Ð°ÑĤÑĮ
ĠÑį Ð¼
ÐµÑĢ ÑĤÐ°
ÐŃ ÑĤÐ°
ĠÐ½ Ð¸ÑĤ
ĠÐ²Ð¾Ð¹ Ð½Ñĥ
ĠÐ»ÐµÐ·Ð² Ð¸Ðµ
ĠÐ¿ ÑıÑĤÐ½Ð¾
ĠÐ¿ÑĢÐ¾ÑħÐ¾Ð´ Ð¸Ð»
ĠÑģÐ¾Ð± ÑĢÐ°Ð½
ĠÑĥÑģÐ¿Ð¾ÐºÐ¾ Ð¸Ð»Ð°ÑģÑĮ
ĠÐ¿Ð¾Ð´ Ð²ÐµÑĢÐ³
ĠÐĶÑĢ Ð°ÐºÐ¾Ð½
ĠÐ¸Ð·Ð¼ ÑĥÑĩ
ĠÐ¾ÑĤÐ¾ÑĢ Ð²Ð°ÑĤÑĮ
ĠÐ» Ð¾Ñħ
ĠÐ¾ÑģÑĤÐ°Ð½Ð¾Ð² Ð¸Ð»Ð°
ĠÐĿÐ° ÑĪÐ¸
Ð½Ð¾Ð² Ð°ÑĤÑĮ
ĠÑĢÐ°Ð·Ð± ÑĢÐ¾Ñģ
ĠÑĤÑĢÐµÐ¿ ÐµÑĤ
ĠÐ´ Ð¾Ð½
ĠÑĥÐ¿ Ð°Ð»Ð¸
ĠÐ³Ð¾ÑĢÑıÑĩ ÐµÐ¹
ĠÐ¿Ð¾Ð´ÑĤÐ²ÐµÑĢÐ´ Ð¸Ð»
ĠÑģÐ» ÐµÐ²Ð°
ĠÑĢÐ°ÑģÑĤÐµÑĢ ÑıÐ»ÑģÑı
ÑĢÑı Ñĩ
ĠÑģÐºÐ°Ð½ Ð´Ð°Ð»
ĠÑĤÐµÐ¼Ð½Ð¾ ÑĤÑĭ
ĠÐ¼Ð¾Ðº ÑĢÑĭÐµ
Ð¸Ð´ Ñĥ
ĠÐ¼Ð¾Ð· Ð³Ð°
ĠÐ¿Ð¾ÑģÑĤÐ°Ð² Ð¸Ð²
ĠÐ½Ð°Ñĩ Ð½ÐµÑĤ
ĠÐ¾Ð¿ÑĥÑģÑĤÐ¾ ÑĪ
ĠÐ³Ð¾Ð»Ð¾Ð² ÐºÑĥ
ĠÐ¿Ð¾Ð·Ð²Ð¾Ð» ÑıÐ»
ĠÐ±Ð»Ð¸Ð· ÐºÐ¸Ñħ
ĠÑĤÑĥÐ¼Ð± Ð¾ÑĩÐºÐµ
ÐĿ Ð°Ð¿
ĠÐ½ÑĥÐ¶ Ð½ÑĭÐµ
ĠÐ¿Ð¾ÑģÑĤÐ° ÑĢÐ°ÑİÑģÑĮ
ĠÐ²Ð³Ð»ÑıÐ´ ÑĭÐ²Ð°ÑıÑģÑĮ
Ð°Ð¶ ÐµÐ¼
ĠÐ¼Ð¾ Ð½Ð¸
Ð¸ ÐµÐ¹
ĠÐ½Ð¾Ð³ Ð°
ĠÐĶÐ¾Ð± ÑĢÑĭÐ¹
ĠÑĤÑĢÐ°Ð½ ÑģÐ¿
ĠÑħ Ð¸Ð¼Ð¸
ĠÐľ Ð½Ð¾Ð³Ð¸Ðµ
ĠÐ¼ÑıÑģ Ð¾
ĠÐ·Ð°Ð²Ð¾ÑĢ Ð°Ð¶
ÑĤ Ð°ÑĢ
Ð»Ñı Ð¹
ĠÐ¿ÑĢÐ¾Ð½ÐµÑģ Ð»Ð¾ÑģÑĮ
ĠÐĴÑĭ Ð±
ĠÐ¿Ð¾Ð´Ð¾Ð± ÑĢÐ°ÑĤÑĮ
ĠÐ¼ ÑĥÑĢ
ĠÑĨÐµÐ» Ð°Ñı
Ð· Ðµ
ÑĥÑģÑĤ Ð¸Ð»Ð¸
ĠÐ± Ð¾ÑĢÐ´
ĠÐ¾Ð±ÑĭÑĩ Ð½ÑĭÐ¼
ĠÐ¿Ð¾Ð¹Ð´ ÐµÑĪÑĮ
ĠÐ´Ð¾Ð» Ñİ
ĠÐ³Ð¾ÑģÑĥÐ´ Ð°ÑĢ
ĠÐ³ÑĢÑıÐ· ÑĮ
ĠÑĢÐµÐ±ÑıÑĤ Ð°Ð¼
ĠÐºÐ»Ñĭ ÐºÐ¸
ĠÐºÐ°Ð¿ÑİÑĪ Ð¾Ð½
ÑĢ Ð°Ð±Ð°ÑĤ
ĠÑģÐ¸Ð´ ÐµÐ½ÑĮÐµ
ĠÐ¿Ð¾Ð´Ð¾Ð·ÑĢ ÐµÐ²
ĠÐ¿ÑĢÐ¾Ð¼ Ð¾Ðº
ÑĦ ÑĢÐ¸
ĠÐ»ÑİÐ± ÑĭÐµ
Ð»Ñı Ð²
Ð°Ð³ Ð°Ð»Ð»
ĠÑĥÐ¿ Ð°ÐºÐ¾Ð²
ĠÐĶÐ¶ ÐµÐ½Ð½Ð¸
ĠÑģÐ¾Ð² ÐµÑģÑĤÑĮ
ĠÐ·Ð»Ð¾ ÑģÑĤÑĮÑİ
ĠÑģÐ°Ð» ÑĦ
ĠÐ¿Ð¾ÑĩÐµÑģ Ð°Ð»
ĠÐ¿ÑĢÐµÐ¿ ÑıÑĤ
Ð»Ð¾ Ñĩ
ĠÐĿÐ°Ð²ÐµÑĢ Ð½Ð¾
ÐµÑģÑĤÑĮ Ðµ
ĠÐ½ÐµÐ¾Ð±ÑħÐ¾Ð´Ð¸Ð¼Ð¾ ÑģÑĤÐ¸
ĠÑģÑĤÐµÐ½ Ð¾Ð¹
ĠÐ¾Ð³ÑĢÐ¾Ð¼ Ð½Ð¾Ð³Ð¾
ĠÐ¿ÑĢÐ¸ÑıÑĤ Ð½ÑĭÐ¼
ĠÐ¿Ð¾ ÐµÑħÐ°Ð»
ĠÐ½Ð°Ð¿ÑĢÑıÐ¶ ÐµÐ½Ð¸Ñı
ĠÐ·Ð°ÑĤ ÑıÐ³
ÐµÐ» ÐµÐ½Ð°
ĠÑģÑħÐ²Ð°ÑĤ Ð¸ÑĤÑĮ
ĠÐ¼Ð°Ð½Ð¸ Ð¿ÑĥÐ»Ñı
ĠÑĥ ÑĤÑĭÐºÐ°
ĠÐľ Ð°ÑĪÐ°
ĠÑģÐ¼ Ñĥ
ĠÐ¿ÑĢÐ¸Ð² ÐµÐ»
ĠÐ¼ÐµÑģÑĤ Ð¸
ĠÐ¼ÐµÐ½Ñı ÐµÑĤÑģÑı
ĠÐ»ÑİÐ± Ð¸Ð»Ð¸
ĠÐ½ÐµÐ¶ Ð½ÑĭÐµ
ĠÐ²Ñĭ ÑģÑĥ
ĠÐ²Ð¾Ñģ ÐµÐ¼
ĠÑģÑĤÐ¾Ñı Ð»Ð¾
ĠÐĳ Ð°ÐºÐ¸
ĠÐ¿ÑĢÐ¸Ð· ÑĢÐ°Ðº
ĠÐ²ÑĭÐº ÑĢÐ¸Ðº
ĠÑĩÑĥÐ´ Ð¾Ð²Ð¸ÑīÐµ
ĠÐ¾Ð± ÐµÑģÑģÐ¸Ð»
ĠÑģÐº Ð¾Ð¿
ĠÑĥÑģÑĤÑĢÐ¾ Ð¸Ð»
ÑĳÐ½ Ð½Ð¾Ðµ
ĠÑħÐ»Ð¾Ð¿ Ð½ÑĥÐ²
ĠÐ½Ð°ÑĢÑĥÑĪ Ð¸Ð»
ĠÐ¼ÑĭÑģÐ»Ñı Ð¼
ĠÐ¾ ÑĨÐµÐ¿
ĠÑģÐ½ ÐµÐ³Ð°
ĠÐľÑĭ ÑģÐ»Ð¸
ĠÑģÐ¼ ÑıÑĤ
ĠÑģÐ»Ð°Ð± ÑĭÐ¹
ĠÐ¿Ð¾Ð¿ÑĭÑĤ ÐºÐ°
ĠÑĥÑĤ Ð²ÐµÑĢÐ´
ÐĶ ÐĲ
ĠÐ¿ÐµÑĢÐµÐ´ ÑĥÐ¼
ĠÐ´ ÑĢÐµÐ¼
Ð¸Ð»ÑĮ ÑıÐ¼
Ð½ ÐµÐ³
ĠÐ¾ÑĢÐ³Ð°Ð½Ð¸Ð· Ð¼
ĠÐºÑĢÐ°ÑģÐ¸Ð² Ð¾Ðµ
ĠÐ±Ð»Ð¾Ð½Ð´Ð¸Ð½ ÐºÑĥ
ĠÐ¿Ð¾Ð»Ð¸ ÑĨÐ¸Ð¸
Ð°Ð» ÐºÐ¸
ĠÐ¸Ð½ÑĤÐµÑĢÐµÑģ ÑĥÐµÑĤ
ĠÐ¼ÐµÑĩ ÑĤÐ°
Ð³ Ð»Ð°
ĠÐ¥Ð°Ñı ÑĤÐ¾
ÑĭÐ² Ð°Ð½Ð¸Ðµ
ĠÐ¿Ð¾ÑıÐ² Ð»ÑıÑĤÑĮÑģÑı
ĠÐ·Ð²Ð¾ Ð½Ð¸ÑĤÑĮ
ĠÐ¾Ð± ÑīÐ¸Ð¹
ĠÑģÐ¿Ð¾ÑģÐ¾Ð± Ð½Ð¾ÑģÑĤÑĮ
ĠÑĢÐ°Ð´ ÑĥÐ¶
ĠÐľÐ°Ð´ Ð°ÑĢÐ°
ÑģÑĤÐ°Ð² Ð¸Ð²
ĠÐ·Ð°ÑĤÑĭÐ» ÐºÐµ
ĠÑĥÐ´ÐµÑĢÐ¶ Ð°Ð»ÑģÑı
ĠÐ¾ÑģÑĤÐ°Ð² Ð»Ñİ
ĠÐ¥Ð¾Ð³Ð²Ð°ÑĢÑĤ Ñģ
ĠÐĽ ÑĥÐº
ĠÐ¼ÐµÑĩÑĤ Ð°Ð»Ð°
ĠÐ¾Ð¿Ð¾Ð· Ð´Ð°
ĠÑĥÑģÐº Ð¾Ð»ÑĮÐ·
ÐĽ Ðĺ
ĠÐ½ÐµÐ¿Ð¾Ñģ Ð»ÑĥÑĪ
ĠÐĲÐ½ Ð¶
ĠÐ´Ð²Ð¸Ð³ Ð°Ð»ÑģÑı
ĠÐ¾ÑģÐ¾Ð·Ð½Ð°Ð² Ð°Ñı
ĠÐ® Ð»Ñı
ĠÐĿ Ð¾Ð³Ð¸
ĠÐ¿Ð¾Ñħ Ð²Ð°Ð»
ĠÐĳÐ» Ð°Ð³Ð¾
Ð°Ð·ÑĭÐ² Ð°ÐµÑĤÑģÑı
ĠÐŁ Ð°Ð½
Ð¾ÐºÐ¾ ÐµÐ½
ĠÐ¯ ÑĢ
Ð½Ð¸ÐºÐ° ÐµÑĤ
ĠÑģ Ð½Ð¸Ñģ
ÐµÐ´ ÐµÐ¼
ĠÐ¾ÑĤ ÑħÐ¾Ð´
ĠÐ²ÐµÐ´ÑĮ Ð¼
ĠÑĢÐµÑģ Ð½Ð¸ÑĨÑĭ
ĠÐ¿Ð°Ñĩ ÐºÑĥ
Ð¸Ðº Ð°Ð¼Ð¸
ĠÑĢÐ°Ð·Ð¼ ÐµÑĢÐ¾Ð²
ĠÑģÐ¾ ÑīÑĥÑĢ
ĠÑĢÐ°Ñģ ÐºÐ¸
ĠÐ½ÐµÐ¶ Ð½Ð¾ÑģÑĤÑĮÑİ
ĠÐ¿ÑĢÐ¸ÐºÐ¾ÑģÐ½Ð¾Ð² ÐµÐ½Ð¸Ð¹
ĠÐ´Ð¾Ð± ÑĢÐ°Ð»Ð¸ÑģÑĮ
ĠÐķÐ³Ð¾ ÑĢ
ÑĥÑİÑī ÐµÐ³Ð¾
ĠÐºÐ¾Ð¼Ð°Ð½Ð´ Ð¸ÑĢ
ĠÐ½ÐµÐ¸Ð¼ Ð¾Ð²ÐµÑĢ
ĠÐ·Ð²Ñĥ ÐºÐ¾Ð²
ĠÐ¼ ÑĢÐ°Ðº
ĠÑħÐ»Ð¾Ð¿ Ð½ÑĥÐ»Ð°
ĠÐ¿ÑĢÐµÐ´Ð¿Ð¾Ð»Ð¾Ð¶ Ð¸ÑĤÑĮ
ĠÑĩÐ°Ñģ Ð°Ñħ
ĠÐŀ ÑĢÐ¸Ñħ
ĠÑģÐ¾Ð³ ÑĢÐµÐ²
ĠÐµÐ´Ð¸Ð½ÑģÑĤÐ²ÐµÐ½ Ð½Ð¾Ð¹
Ð½Ñı Ð»Ð¸
ĠÑĥÐ¼ ÑĢÑĥ
ĠÐ¿Ð¾Ð´ Ð²Ð¾Ð´
ÑĤ ÑĭÑħ
ĠÐļÑĢÐ¸ÑģÑĤÐ¸ Ð°Ð½
ĠÑģÐµÑĢÐ´Ð¸ ÑĤÐ¾
ĠÐľ Ð¾ÑģÐº
ĠÐ½ÐµÐ² ÑĭÑģÐ¾Ðº
ĠÐ½Ð°Ðº Ð°ÑĤ
ĠÐĶÐ¶ÐµÐ¹ Ð¼ÑģÐ°
ĠÐ½ÐµÐ´Ð¾ÑĥÐ¼ ÐµÐ½Ð¸Ð¸
ĠÐ¿Ð¾Ð´Ð°ÑĢ ÐºÐ¸
ÑĦÐ¾ÑĢ Ð¼Ð¸
ĠÐľ Ð°ÑĤÑĮ
ĠÐ¿Ð¾Ð´Ð°ÑĢ Ð¸ÑĤÑĮ
ĠÐ³Ð¾Ð»Ð¾Ñģ Ñĥ
ĠÐ¾Ð±Ð½Ð¸Ð¼ Ð°ÑĤÑĮ
ĠÑģÑĤÐ°ÑĢÐ° ÑİÑģÑĮ
ĠÑĥÑħÐ¼ÑĭÐ»ÑĮ Ð½ÑĥÐ»Ð°ÑģÑĮ
ĠÑĢÐµÐ· ÐºÐ¸Ð¼
ĠÑĩ ÑĥÑĪÑĮ
ĠÑģÐ¼Ðµ ÑıÐ»Ð°ÑģÑĮ
ĠÐ¾Ð±ÑĢÐµÑĩ ÐµÐ½Ð½Ð¾
Ð¢ Ð°Ð¼
ÐĶ Ð¸
ĠÐ¿ÑĢÐ¸Ð»Ð¾Ð¶ Ð¸Ð»
ĠÐ»ÑĥÑĩ ÑĪÐµÐ¹
ĠÐĳ Ð¾Ð»ÑĮÐ½Ð¾
ĠÑĢÐ°ÑģÑģÐºÐ°Ð¶ ÐµÑĤ
ĠÐºÑĢÐ°ÑģÐ¸Ð² ÑĭÐ¼
ĠÐ¿Ð¾Ñī ÐµÑĩ
ĠÐ·Ð°Ð´ Ð½ÐµÐ¼
ĠÑĤÐ²Ð¾ÑĢ Ð¸ÑĪÑĮ
ĠÑĤÑĢÐ°Ð² Ñĭ
ĠÑĤ ÑĢÐ°ÑĤÐ¸ÑĤÑĮ
ĠÑģÑĤÐ°Ð½Ð¾Ð² ÑıÑĤÑģÑı
ĠÐ¿ÑĢÐµÐ´ Ð²Ð°ÑĢ
ĠÐ½ÐµÑĢ Ð¾Ð²
ĠÐ½ Ñı
ĠÐ¿Ð¾Ð´Ð¾Ð¿ ÐµÑĩ
ĠÐ°Ð´ Ð¼Ð¸
ĠÐ²Ð¿ Ð¸ÑĤ
ĠÑıÐ³Ð¾Ð´Ð¸ ÑĨÑĭ
ĠÐ¶ÑĥÑĢ Ð½Ð°Ð»Ð¸
? ",
ÑĥÐ» ÑģÑı
ĠÐ²ÑģÑĤÑĢ ÐµÐ¿
ĠÐ¿Ð¾Ð²ÑĤÐ¾ÑĢ Ð¸ÑĤÑĮ
ĠÐ³ÑĢÑĥÐ¿Ð¿ Ñĥ
ĠÐºÑĢÐ°Ñģ Ð½Ð¾Ð³Ð¾
ÑĳÐ½ ÐºÐ°
ÑĢÑĥ ÑİÑĤ
ÐŁ ÑĢ
ĠÐĽÐµ Ð¾Ð½Ð°
ĠÐºÐ°Ð¿ÐµÐ»ÑĮ ÐºÐ¸
ĠÐ¿Ð¾Ð½Ð¸Ð¼ Ð°Ð»Ð¸
Ðļ Ð»Ð°
ĠÐĲÐ´ ÐµÐ»ÑĮ
ĠÑģÑĤÐ¾Ð»Ð¾Ð² ÑĥÑİ
ĠÑĦÐ¾ÑĢ Ð¼Ñĭ
ĠÑģÐ¾Ð³Ð»Ð°Ñģ Ð¸ÑĤÑĮÑģÑı
Ð¸Ð² ÑĪÐ¸Ñħ
ĠÐ±ÑĢ ÐµÐ·
ĠÑĥ ÐµÑħÐ°Ð»Ð°
ĠÐ¾ ÐºÐ¸Ð½ÑĥÐ»
ĠÐ¿ÑĢÐ¸Ñĩ ÑĳÐ¼
ĠÑĨÐµÐ»Ð¸ ÐºÐ¾Ð¼
ĠÐ´ÐµÐ» Ð°ÐµÑĤÐµ
ÑıÐ· Ð°ÑĤÐµÐ»ÑĮÐ½Ð¾
ĠÐ²Ð¾Ð» Ðµ
ĠÐ¡ Ð»ÑĥÑĪ
ĠÐ¿ÐµÑĢÐµÐ´ Ð°Ð»
ĠÐ² Ð¸Ñħ
ĠÐ´ ÑĢÐ°ÑĤÑĮÑģÑı
ĠÐ¿ÑĢÐ¸ÑģÑĥÑĤÑģÑĤÐ² Ð¸Ð¸
ĠÐµÐ´Ð¸ Ð½Ð¾ÑĢ
ĠÐ° ÑĢÐµÐ½
ĠÑĤÐµ Ð¾ÑĢ
ĠÐ¿ ÑĥÑĩ
ĠÐ¾Ð¿ ÑĥÑģÐº
ĠÐ¡ÐºÐ°ÑĢ Ð»ÐµÑĤ
ĠÐ·Ð²ÐµÑĢ Ñı
ĠÑĥÑģÑĤÐ°Ð»Ð¾ ÑģÑĤÐ¸
Ðº Ð°Ð»ÑĮÐ·
ĠÑĥÐ¼Ð¸ ÑĢÐ°
Ð¸Ñģ ÐºÐ¸
ĠÐ´Ð¾Ð³Ð°Ð´ Ð°ÑĤÑĮÑģÑı
ĠÐ¾Ð· ÐµÑĢÐ°
ĠÐ¾ÑĤÐ¿ ÑĥÑģÑĤÐ¸
Ð°Ð± Ð¾Ñĩ
Ð½Ð° ÑĢ
ĠÐ¾Ð±ÑģÑĥÐ¶Ð´ Ð°ÑĤÑĮ
Ð¡ Ð¾Ð±
ĠÐ¾Ð±ÑĢÐ°ÑĤ Ð¸Ð»Ð°
ĠÐ¥ Ð¾ÑĢÐ¾
Ðĵ Ð¾Ð»Ð¾Ñģ
Ð¾Ñĩ Ñĥ
ĠÐ·Ð°Ð² ÑĤÑĢÐ°ÑĪ
ĠÐ´ÑĢ Ð¾Ð¶Ð°Ð»
ĠÐĿ Ð°ÑģÐºÐ¾Ð»ÑĮÐºÐ¾
ĠÑģÐºÐ¾Ð¼ Ð°Ð½Ð´
Ð°Ð»Ð¸ ÑģÑĤ
Ð°Ð»Ð¸ Ñı
ÑĦ Ð¾ÑĢÐ¼
ĠÐ¿ÑĢÐ¸Ð¶ Ð°Ð»Ð°
ĠÑģÑĤÑĢÐ° ÑģÑĤÑĮ
ĠÐ¿Ð¾Ð¶ Ð°ÑĢ
ĠÐ¿ÐµÑĢÐµÐ² ÐµÑģÑĤÐ¸
ĠÐ³ Ð¾Ð±
ĠÐ¿ÑĢÐµÐ´ÑģÑĤÐ°Ð²Ð»Ñı Ñİ
ĠÑĥÑħÐ¾Ð´ Ð¸Ð»
Ð¾Ð· Ð¸
ĠÐ²ÐµÑģ Ñĳ
Ð» Ð¾ÑĢÐ¾Ð´
ÐºÐ¾Ð» Ð¾
ĠÑģÐ²Ð¾Ðµ Ð¾Ð±ÑĢÐ°Ð·
ÑĢÑĭÐ² Ð½Ð¾
ĠÐ²ÑĭÑħÐ¾Ð´ Ð½Ð¾Ð¹
ĠÑģÐ² Ð¾Ð´Ñı
ÑĪ ÐºÐ¾Ð¹
ĠÑĤÐµÐ»ÐµÑĦ Ð¾Ð½Ðµ
ĠÐ¢ ÐµÐ¹Ð»
ĠÐĴÐ¼ ÐµÑģÑĤÐµ
Ġ 9
Ñĩ Ð½ÑĭÐ¼Ð¸
ĠÐŁÐ¾ÑģÐ»ÐµÐ´ Ð½Ð¸Ð¹
ĠÐĳ Ð¾Ð³Ð°
ĠÐ¿Ð¾Ñĩ ÑĤ
ĠÐŁÑĢÐ¾ ÑĪÐ»Ð¾
ĠÑĤÐµÐ°ÑĤ ÑĢ
ĠÑĪ Ð°Ñħ
ĠÐ¾ÑģÑĤÐ°Ð² Ð°Ð»Ð¸ÑģÑĮ
ĠÐ¿ÑĢÐµÐ´ÑģÑĤÐ°Ð²Ð»Ñı Ð»Ð°
ĠÐ½Ð°Ð¿Ð°ÑĢ Ð½Ð¸ÐºÐ°
ĠÐķ Ð´Ð²Ð°
ĠÑģ ÐµÐ½ÑĤ
ĠÐº ÑĢÐ¾ÑħÐ¾ÑĤ
ÑĦ Ð¸Ðº
ĠÑĪ Ð°Ð½ÑģÐ°
ĠÐ¿ÑĢÐ¾ÑħÐ¾Ð´ Ð¸Ð»Ð¸
ĠÐ¿Ð¾ÑħÐ¾Ð¶Ðµ Ðµ
ĠÐ·Ð°Ð¹ Ð¼
ĠÐ·Ð°Ðº ÑĥÑĤ
ÑĢÐ¾Ð² Ð°Ð»Ð¸
ÑīÐ¸ Ð½Ñĭ
ĠÐ¿Ð¾ÑģÐ»ÐµÐ´ Ð¾Ð²Ð°Ð»Ð°
ĠÐĲÐ»ÐµÐºÑģ Ð°Ð½Ð´ÑĢ
ĠÐ± ÐµÑĢÑĥ
ĠÐ¿ÑĢÐ¸Ð½ ÑıÐ»Ð¸
ĠÑĤÑĢÐ°Ð² Ðµ
ĠÑĢÐ°Ð·Ð´ÑĢÐ°Ð¶ ÐµÐ½Ð¸Ðµ
ĠÐĶÑį Ð²Ð¸Ð´
ĠÐ¼ÐµÑĪ Ð°Ð»Ð¾
ĠÑĥÐ¼ÑĥÐ´ÑĢ Ð¸Ð»ÑģÑı
ĠÐ¢ Ð«
ĠÐ¿ ÑıÐ»Ð¸
ĠÐ° ÑĤÐ°ÐºÐ¸
ĠÐĵÐµÑĢÐ¼Ð¸ Ð¾Ð½Ñĥ
ĠÑģÐ¾Ð± ÑĢÐ°Ð»
ĠÑģÐµÐº ÑģÐ¾Ð¼
ĠÑħÐ¾ÑĤ Ð¸Ð¼
ĠÐºÑĥ ÑģÐºÐ¸
ĠÑģÑĥÑĤ Ð¾Ðº
ĠÐ²ÑĭÐ³Ð»ÑıÐ´ ÐµÐ»Ð¸
ĠÐ¿Ð»Ð¾Ñī Ð°Ð´Ð¸
ĠÐĴÐ¸Ð´ Ð¸ÑĪÑĮ
ĠÐ»Ð°Ñģ ÐºÐ¸
ĠÐ¤ ÐµÐ½
ĠÑĤ ÑĥÐ³
ÐµÐº Ð¾Ð¼
Ñģ Ð°Ð¼
ĠÐ·Ð°Ð´ÑĥÐ¼ ÑĭÐ²Ð°ÑıÑģÑĮ
ĠÐ²ÑĭÑģÐº Ð¾Ð»ÑĮÐ·
ĠÐ½ÐµÐ´Ð¾ÑģÑĤ Ð°ÑĤ
ĠÐ¿ÑĢÐ¸Ð²Ñĭ ÑĩÐºÐµ
ĠÐ¾Ð´Ð¸Ð½ Ð¾ÐºÐ¾
ĠÐ± ÑĮÑİ
ĠÐ½Ð°Ð¿Ð¸ÑĤ Ð¾Ðº
ĠÐŁÐ¾Ñģ Ð»ÑĥÑĪÐ°Ð¹
ĠÐ¿ÑĢÐ¾Ð¿ Ð¸ÑĤ
ÑĥÐ² Ð¸Ñı
ĠÐ²ÑĭÐ»ÐµÑĤ ÐµÐ»
ĠÑĪ Ð°Ð¼
ĠÐ¾Ð±Ð¾ÑĢÐ¾ÑĤ ÐµÐ½ÑĮ
ĠÐ·Ð°Ð¼ ÐµÐ½
ĠÐ±Ð¾Ð³ Ñĥ
ĠÐ½Ð°Ð±Ð»Ñİ Ð´Ð°ÐµÑĤ
ĠÐ½ÐµÐ±Ð¾Ð»ÑĮ ÑĪÐ¸Ðµ
ĠÑģÐ¿ Ð¾ÐºÐ¾ÐµÐ½
ĠÐ¿ÑĢÐµÐºÑĢÐ°Ñģ Ð½Ð°Ñı
ĠÐ°Ð±ÑģÐ¾Ð» ÑİÑĤ
ĠÑĥÐ±Ð¸Ð¹ ÑģÑĤÐ²Ð°
ĠÐ¾ÑĤÐºÑĢÑĭÑĤ ÑĭÐ¼
ĠÐ¾Ð·Ð½Ð°Ñĩ Ð°ÐµÑĤ
ĠÑĥÐ·Ð½Ð° ÐµÑĪÑĮ
ĠÐ¿ÑĢÐ¾Ð¸Ð· Ð²Ð¾Ð´
ĠÐ¡Ð°Ð»ÑĮ Ð²Ð°ÑĤÐ¾ÑĢÐµ
ÐĴ ÐĲ
ĠÐ³Ð¾ÑĢÑı ÑĩÐ¸Ðµ
Ð°ÑĤ ÑĥÑĢÐ°
ÑĢÐ¾ ÑģÑĤÑĮ
ÐĲ Ð²
ĠÐ¿Ð¾Ð¸Ð³ ÑĢÐ°ÑĤÑĮ
Ð°ÐºÐ¾Ð½ ÑĩÐ¸Ð²
ĠÐ¸ÑģÐ¿Ð¾Ð»ÑĮÐ· Ð¾Ð²Ð°Ð»
ÑĩÐµÑģ ÐºÐ¾Ðµ
ĠÐĲÐ» Ð»Ð¾
Ð¡ÐµÑĢ Ð´ÑĨÐµ
ĠÐĶ ÑĥÑĢ
ĠÐ¾Ð±Ñī ÐµÐ½Ð¸Ñı
ĠÑģÑĤÐ°ÑĢ ÑĭÑħ
ĠÐ¾ÑĤ Ð½ÑİÐ´ÑĮ
ĠÐļÐ¸Ð± Ð°
ĠÐ¾ÑĤÐ¿ ÐµÑĩÐ°ÑĤ
ĠÑģÑĤÑĢÐ° Ð½Ðµ
ĠÐ·Ð» Ð¸Ð»ÑģÑı
ĠÑģÐ¾Ð·Ð´Ð° Ð½Ð¸Ðµ
ĠÐºÐ»Ñı ÑĤ
ĠÑĥÐ± ÐµÐ¶Ð°Ð»
ÑĩÐµÑģÐºÐ¸ Ð¼Ð¸
ĠÐºÐ¾ÑĢ Ð¸ÑĩÐ½ÐµÐ²
ĠÐ¿Ð¾Ð·Ð½Ð°ÐºÐ¾Ð¼ Ð¸Ð»Ð¸ÑģÑĮ
ĠÐ¥ Ð°Ð³
ĠÐ¿ÑĢÐ¾ÑĨ ÐµÐ½ÑĤÐ¾Ð²
ĠÑįÐ»ÑĮÑĦ Ð¾Ð²
ĠÐ²Ñģ Ð»ÑĥÑĪ
ĠÐ½ÐµÐ±Ð¾Ð»ÑĮÑĪ Ð¾Ð³Ð¾
ĠÐ´ ÑĭÑĢ
ĠÐµ ÑģÑĤÐµ
ĠÑĥÐ´ ÐµÐ»
ĠÐ²ÑģÐ¿Ð¾Ð¼ Ð¸Ð½Ð°Ð»
ÑĢÐ¸ Ð¸
ÑĥÑİ ÑģÑĮ
ĠÐ·Ð°ÑģÑĤÐ°Ð²Ð»Ñı Ð»
ĠÐ²ÑģÑĤÑĢÐµÑĤ Ð¸Ð»ÑģÑı
ÐµÐ½ÑĮ ÑĪ
Ñı Ð¹
ĠÐ¾Ð´Ð¸Ð½Ð¾ ÑĩÐºÑĥ
ĠÐ¿ÐµÑĩ Ð°Ð»ÑĮ
ĠÑħ Ð»Ñĭ
ÑĤÑĥ ÑĢÑĭ
ĠÐ·Ð°Ð± ÑĭÑĤ
ĠÐľ Ð°Ñģ
Ġ P
ĠÐ²Ð¾Ð·Ð²ÑĢÐ°Ñī ÐµÐ½Ð¸Ñı
ĠÐ·Ð°Ð´ ÑĢÐ¾Ð¶
ĠÑĥÐ± ÐµÑĢ
Ð²Ð¸ Ð½ÑĥÐ»ÑģÑı
ĠÐ¿Ð¾Ð»ÐµÑĤ ÐµÐ»
ĠÐ¸ÑģÐ¿ Ð¾ÑĢ
ĠÐ½Ð°ÑģÑĤÐ¾Ñı ÑīÐµÐ¹
ĠÑĥÑģ ÐµÑĢ
Ñĩ Ð°Ð»Ð°ÑģÑĮ
ĠÐ³ÑĢÑı Ð·Ð¸
Ð¸ÑĤÐµÐ»ÑĮÐ½Ð¾ ÑģÑĤÑĮ
ĠÐ£Ð¶ Ð°Ñģ
ĠÐ¿ÐµÑĢÐµÑħÐ²Ð°ÑĤ Ð¸Ð»
Ð»Ð¸Ð² ÑĭÑħ
ĠÐ¿Ð¾Ð²ÐµÑģ ÐµÐ»
ĠÑĢÐ°Ð·Ð³Ð¾Ð²Ð¾ÑĢ Ð¾Ð²
ĠÐĶÐ¶ÐµÑĢ ÐµÐ¼Ð¸
Ðļ Ð°Ð¶
ĠÑĢÐµÑĪ Ð¸Ð»Ð°ÑģÑĮ
ĠÐ½ÐµÑģÐ¿ ÐµÑĪÐ½Ð¾
ĠÐ²Ð¾Ð·ÑĮ Ð¼Ñĥ
ĠÐº Ð¸ÑĢ
ÑĩÐµ ÑģÑĤÐ²Ð¾Ð¼
ĠÐ¿ÑĢÐ¸Ð¶Ð¸Ð¼ Ð°ÐµÑĤ
ĠÑģÐ»Ð¸Ð· ÐµÑĢÐ¸Ð½
ĠÐ¾ÐºÐ»Ð¸ ÐºÐ½ÑĥÐ»
ĠÑį Ð¹
ĠÐ±Ð¾Ðº Ð¾Ð¼
ĠÐ²Ð·Ð´ ÑĥÐ¼
ĠÐ¡Ð¿Ð¾ÐºÐ¾Ð¹ Ð½Ð¾Ð¹
ÑĮÑı Ð¼Ð¸
ĠÐ½Ð°Ð¿ÑĢÐ°Ð² Ð»ÐµÐ½Ð¸Ñİ
ĠÑĥÐ²Ð¸Ð´ Ð¸Ð¼ÑģÑı
ĠÑĪÐ°Ð³ Ð°
ĠÐ¿Ð¾ÐºÐ°Ð· Ð°ÑĤÑĮÑģÑı
ĠÑģ Ð¾ÑĤÑĢÑıÑģ
ĠÐ¾ÐºÐ°Ð· Ð°Ð²ÑĪÐ¸ÑģÑĮ
ĠÐ¿Ð¾ÑħÐ¾Ð¶ Ð¸Ð¹
ĠÐ¸Ð³Ð½Ð¾ÑĢÐ¸ ÑĢÑĥÑı
ĠÑĢÑĥÐ¼ ÑıÐ½
ĠÐ´ÐµÐ² Ð¾ÑĩÐºÐµ
ĠÐ½Ð°Ðº Ð¾Ð¿
ĠÐĻ Ð¾
Ð´ ÐµÐ½Ð¸Ñı
ÐµÑģÐ¿ Ð¾ÐºÐ¾
ĠÐ¿ÑĢÐ¾Ð¸Ð· Ð¾Ð¹Ð´ÐµÑĤ
Ð½ÐµÑģ ÑģÐ°
ĠÐ¿ÑĢÐ¾Ð² Ð¾Ð¶Ñĥ
Ð¾Ð» Ð¾Ðº
ĠÐ»ÑĮ Ð´Ð°
ĠÐĹÐ½Ð° ÐµÑĤÐµ
ĠÐĳ Ð¸Ð»Ð»Ð¸
ĠÐ¾ÑīÑĥÑī Ð°Ð»Ð°
ĠÐ¶ Ð¸ÑĤÐµÐ»ÐµÐ¹
ĠÐ²ÑĭÑħÐ¾Ð´ Ð¸Ð»
ĠÐ¸Ð· Ð»Ð¸ÑĪ
ĠÐ¿Ð¾Ð³ Ð»Ð¾ÑĤ
ĠÐ¿ÑĢÐ¾ ÑıÑģ
ĠÐ·Ð°Ð¿Ð°Ñħ Ð°
ĠÐ¿ Ð»Ðµ
ĠÑĪ ÐµÑĦ
ĠÐ½Ð°ÑģÑĤÐ¾Ñı ÑīÐµÐ³Ð¾
ĠÐ° Ð¹
Ð°Ð½Ð¸ Ð½
ĠÑĤÑĢÐ¾ Ð¸Ñħ
ĠÐ² Ð²Ð¸Ð´Ñĥ
ĠÑĢÑĥÐº Ð¾Ð¿
ĠÑĢÐ°ÑģÐ¿Ð°Ñħ Ð½ÑĥÐ»Ð°ÑģÑĮ
ĠÐ¾Ð³Ð»ÑıÐ´ ÑĭÐ²Ð°Ñı
Ð¾Ð»Ð¾Ñģ Ð¾Ð³Ð¾
ĠÐ´Ð¾ ÑģÑĤÐ¸
ĠÐ¿ÑĢÐ¸Ð·Ð½ Ð°Ð»Ð°ÑģÑĮ
ĠÑĥÐ´Ð¾Ð± Ð½ÐµÐµ
Ñĭ Ð»Ð¸
Ð¾Ð»Ð¾Ñģ Ð¾Ð¹
ĠÑģÑĤÑĭ Ð´Ð°
ĠÐļ Ð¾ÑĪ
ĠÑģÑĤÑĢÑĥ Ð¹
ĠÐ½ÐµÐº ÑĢÐ¾Ð¼
ĠÐ¼Ð°Ñħ Ð½ÑĥÐ»Ð°
ĠÐ¼Ð½Ð¾Ð³ Ð¾Ð·Ð½Ð°Ñĩ
ĠÐ²Ð°Ð¶ Ð½ÐµÐµ
ĠÐ¡ÑĤÐ¾ Ð¸ÑĤ
ĠÑģÐ¼ ÑıÐ³
ĠÐ¿ÑĥÑģÑĤ ÑĥÑİ
ĠÑģÑĤÑĢÐ°ÑĪ Ð½Ð¾Ðµ
ĠÐ¸Ð¼ ÐµÑı
Ð¸Ð½ ÐºÐ¾Ð¹
ĠÑĢÐ°Ð· Ð¾Ð³
Ð¾ ÑĨÐµÐ½
Ð¢ Ð¸Ñħ
ĠÐ¾ÑĤÐºÐ¸ Ð½ÑĥÐ»
Ñģ Ð¾ÑĢ
Ð¸Ð² ÑĪÐ°ÑıÑģÑı
Ð¾Ð¼ Ð¾Ð½
Ð°Ð»ÑĮ Ð½Ð¾ÑģÑĤÑĮ
ĠÐ¿ÑĢÐ¸ÑĩÐ¸ Ð½Ð¸ÑĤÑĮ
ĠÑģÐ¸Ð´ ÑıÑĤ
ĠÐ¿ÑĢÐ¾ÑħÑĢÐ¸Ð¿ ÐµÐ»
ĠÐº Ð»Ð°Ð²
Ð¾Ñĩ ÐµÐ½ÑĮ
ĠÐŁÐ¾Ñģ Ð¼Ð¾ÑĤÑĢÐ¸
ĠÐ½Ð° ÐµÐ¼
ĠÐ¿ ÐµÐ¹Ð·
ĠÐ¾ÑĤ ÑĤÐ¾Ð³Ð¾
Ð´Ð°ÑĤ ÐµÐ»ÑĮ
ĠÐ¿ÑĢÐ¸Ð¿Ð¾Ð´Ð½Ñı Ð»ÑģÑı
ĠÐ¿ÐµÑĢÑĩÐ°ÑĤ ÐºÐ¸
ĠÐ´ Ð¸ÑĤÑı
ĠÐ· Ð¸Ð¼
ĠÐ½ÐµÐ¶ Ð½ÑĭÐ¼
ĠÑıÑĢ ÐºÐ¸Ð¼
ĠÐ²ÑĭÐ´ Ð°ÑĤÑĮ
ĠÐ¼Ð°Ð»ÐµÐ¹ ÑĪÐµÐ³Ð¾
ĠÐľÐ°Ð» ÑĭÑĪ
ĠÐ²Ð¾Ð¿ÑĢÐ¾Ñģ Ð°Ð¼Ð¸
ĠÐºÐ°Ð¼ ÐµÑĢ
ĠÑĢÐ°ÑģÑģÐ»Ð°Ð± Ð¸Ð»ÑģÑı
ĠÑģÑĤÑĢÐ°Ð´ Ð°Ð½Ð¸Ñı
ĠÐ¾Ð³Ð¾ÑĢ Ñĩ
ĠÑĪÑĤÐ° Ð½Ð°Ñħ
ĠÐ´Ð¾Ð± ÑĢÑĭÐ¼
ĠÐĵ Ð¾ÑĤ
ĠÐ¿Ð¾Ð·Ð²Ð¾Ð½ Ð¸Ð»Ð°
ÐµÐ»Ð° ÐµÑĪÑĮ
ĠÐ¿ÑĥÑģÑĤÐ¾ ÑĤÐ°
ĠÐ»ÑĥÑĩ ÑĪÐµÐ¼Ñĥ
Ðļ ÑĢÐ¸
Ð¾ÑĤÑĢ ÐµÐ±
ĠÐ¡Ð¾ ÑĦÐ¸
ĠÑħÐ¸ÑħÐ¸Ðº Ð½ÑĥÐ»
ĠÐ¾Ð±ÑĥÐ² ÑĮ
ĠÐ¿Ð°ÑĢÐ½Ñı Ð¼
ĠÐ½Ð°ÑĥÑĪ Ð½Ð¸ÐºÐ¸
ĠÐ·Ð½Ð°ÐºÐ¾Ð¼ Ð¾Ð³Ð¾
Ð°Ð·ÑĭÐ² Ð°Ñı
ĠÐ¼Ð¾ÑĢ Ð´Ð°
ĠÐ¾Ñģ ÐµÐ´
ĠÐľÐ°Ð»Ð¸ Ðº
ĠÑīÑĳ ÐºÑĥ
ĠÑģÐ¼ÐµÑĢÑĤ ÐµÐ»ÑĮ
ÑĢÐ°ÑĤ Ð½Ð¾
ĠÑģÐ¾Ð² Ð¿Ð°Ð´
ĠÐ¿ÑĢÐ¸ÑĤ ÑıÐ³Ð¸Ð²Ð°Ñı
ĠÐ´ÑĢÑĥÐ¶ Ð½Ð¾
ÐµÐ»Ð¸ Ð½Ð°
Ðľ Ð¾Ð¸
ĠÐ·Ð°Ð³ Ð¾Ð²Ð¾ÑĢÐ¸Ð»Ð°
ĠÐ²Ð·Ð² Ð¸Ð·Ð³
Ð£ Ð±
ĠÐµ Ð´Ð°
ĠÐĿ ÐĲ
ĠÐ£ ÑįÐ¹
Ðŀ Ð´Ð¸Ð½
ĠÐľÐ°ÑĢ Ð³Ð°ÑĢ
ĠÐ¿ÑĢÐ¾Ð¼ ÐµÐ¶
Ð¸Ð· Ð¼
ĠÐ¾ÑĤÐ¿ ÑĥÑģÑĤÐ¸Ð»Ð°
ĠÑģÐ»ÑĥÑĪ Ð°Ð¹
ĠÑĤÐ¾Ð½ ÐºÐ¸Ð¹
ĠÐ¾ÑĤ Ð½ÐµÑģ
ĠÐ·ÑĥÐ± Ð¾Ð²
ĠÐ»Ð¸ ÑĩÐ¸
Ð¸ÑĤ Ð°Ñı
ĠÐĶÐ°Ð½ ÑĤÐµ
ĠÐ¿ÑĢÐµÐºÑĢÐ°Ñģ Ð½Ð¾Ðµ
ĠÐ½Ð°ÑģÑĤÐ¾ÑĢÐ¾Ð¶ ÐµÐ½Ð½Ð¾
Ðĺ Ñħ
ĠÐ·Ð°Ð¶Ð¼ÑĥÑĢ Ð¸Ð»ÑģÑı
Ð½ Ð´
ĠÐŁ Ð°ÑĢÑĥ
ĠÑĪÐµÐ» ÐµÑģÑĤ
Ð¾ÑĢ ÐµÑĩ
ĠÐ»Ð¸ÑĩÐ½Ð¾ ÑģÑĤÑĮ
Ð¸Ð» Ð¾Ð¹
ĠÐºÑĢ Ð¸Ð²Ð¾
ĠÐ² Ð¾Ð¶
ĠÐ´ÐµÑĢÐµÐ² Ð½Ñİ
ĠÐ·Ð°Ð¿ ÑĥÑģÑĤÐ¸Ð»
ĠÑĩ Ðµ
Ð¸Ð² ÑĪÐµÐ¹
ĠÐ»ÐµÑĤ Ð¸ÑĤ
ÐµÐ³Ð¾ ÑĢ
ĠÐ¿ÑĢÐµÐ´ÑģÑĤÐ°Ð²Ð»Ñı Ñı
Ð°ÑĢÐ´ÐµÑĢ Ð¾Ð±
Ñħ Ñĳ
ĠÐ¼ÑĥÐ·Ñĭ ÐºÐ¸
ĠÑģÐ¿Ð°Ñģ ÐµÐ½Ð¸Ðµ
ĠÐ¾Ð±Ð» Ð°ÐºÐ°
Ðľ Ð°Ð¼Ð°
ÐŁ ÑĢÐ¸Ð½
1 0
ĠÐ´Ð¾Ð± ÑĢÐ¾ÑĤ
ĠÐ·Ð°Ð³Ð»Ñı Ð½ÑĥÐ»Ð°
Ð½Ñı ÑĤÑĮÑģÑı
ĠÐ¿Ð¾Ð¿ Ð°Ð²
ĠÐ¾Ñģ Ð¾Ð±Ð¾Ð¹
ĠÐ¢Ð¸ ÑĪÐµ
ĠÐĶÐ¶ÐµÑĢ Ð°ÑĢÐ´Ð°
ĠÐĶÐ¶Ð¾Ð½ Ð½Ð¸
ÑħÑĥ ÑĪÐ¸
ĠÑģÐ¿ ÑıÑīÐµÐ³Ð¾
ĠÐ¿ÐµÑĢÐµÐ¾Ð´ ÐµÑĤÑĮÑģÑı
ĠÐ¾Ð¿ÑĢÐµÐ´ ÐµÐ»ÐµÐ½
ĠÑģÐ²ÑıÐ·Ð° Ð½Ð¾
ĠÐ¿ÑĢÐ°Ð² Ð¸Ð»Ð¾
ĠÐ¾ÑĤÐ²ÐµÑĤ Ð¸Ð»Ð¸
Ð» ÐµÐ»
ĠÐļ Ñģ
ĠÐ°Ð²ÑĤÐ¾Ð¼ Ð¾Ð±Ð¸Ð»ÑĮ
ĠÐ¿ÑĢÐ¾ÑĩÐ¸ÑĤ Ð°ÑĤÑĮ
ĠÐ²ÑĭÑĢÑĥÐ³ Ð°Ð»ÑģÑı
ĠÐ´Ð² Ð°Ð¶Ð´Ñĭ
ĠÐºÑĢÐ¾Ð² Ð°ÑĤ
Ð£ Ð»ÑĭÐ±
Ġ 8
Ð°ÑĢ ÑĤÐ¸
ĠÐ²Ñĭ ÑĥÑĩ
Ñħ Ð¾Ð²
ÑģÑĤÐ²ÐµÐ½Ð½Ð¾ ÑģÑĤÐ¸
ĠÑĥÑĢÐ¾Ð² Ð½Ñı
ĠÑĢÐ°ÑģÑģ ÑĥÐ´
ĠÑĥÐ´ Ð°Ð»Ð¸Ð»ÑģÑı
Ð¼ Ð¾Ð»
ĠÐºÐ¾Ð» Ð»ÐµÐ´
Ð¸Ð² Ð°Ð¹ÑģÑı
ĠÐ¿Ð¾Ð»ÑĥÑĩ Ð¸ÑĤ
ĠÐ²Ð´Ð¾Ñħ Ð½ÑĥÐ»
ĠÑĢÐ¾Ð² Ð½ÑĭÐ¼
ĠÐ¾Ð´ ÐµÐ²Ð°ÑĤÑĮÑģÑı
ĠÐ·Ð½Ð°Ñĩ ÐµÐ½Ð¸Ðµ
ÑĤÐ¸Ð² Ð½Ð¾
ĠÐĴ Ð¾ÑĢ
ĠÐ³ÑĢÑĥÐ¿Ð¿ Ðµ
ĠÐ¿Ð¾Ð±ÐµÐ´ Ñĥ
ĠÐĶÐ°Ð¹ ÐºÐ¸
ĠÐŁÐµÑĢ ÐµÑģÑĤ
ĠÑģÐºÐ°Ð¶ ÐµÐ¼
ĠÑĤÐµÑĢÑĢÐ¸ ÑĤÐ¾ÑĢÐ¸Ñİ
ĠÐ¿Ð¾Ð´Ð¿ ÑĢÑĭÐ³
ĠÐ½ÑĢÐ°Ð² Ð¸ÑĤÑĮÑģÑı
ĠÐ·Ð° ÑħÐ¾Ð´Ð¸ÑĤ
ĠÐ´Ð¾Ð´ ÑĥÐ¼
ĠÐ¸Ð¼ ÐµÑİÑĤ
ĠÐļÑĢÐ¸ ÑģÑĤ
Ð»ÑĮ Ð·Ð°
ĠÐ¿ÑĢÐ¸Ð² ÐºÑĥÑģ
ĠÐĶÐµÐ½Ð¸ Ñģ
ĠÐ¾Ð± Ð»Ð¸
ÑĨ Ð°ÑĢÑĮ
ĠÑĤÐµÐ¼Ð½Ð¾ ÑĤÐ°
ĠÐ·Ð¾Ð»Ð¾ÑĤ Ð¾Ð¹
ĠÐ·Ð²ÑĳÐ· Ð´
ĠÑĢÐµÐ¿ ÑĥÑĤÐ°
ĠÐ²Ð»ÑİÐ± Ð»ÑĳÐ½
ĠÑĩÐ°Ðº ÑĢÑĭ
ĠÐ¿ÑĢÐµÐ´Ð»Ð¾Ð¶ ÐµÐ½Ð¸Ñı
Ð± ÑĥÐ´
ĠÐ½ÐµÑģ Ð¾Ð¼Ð½ÐµÐ½Ð½Ð¾
ĠÐ²ÑĭÑģ Ð¾ÐºÐ¾Ð¹
ĠÐ¿ÑĢÐ¸Ð¾ÑĤÐº ÑĢÑĭÐ²
ĠÐ¼ÑĥÐ·Ñĭ Ðº
ĠÐ» ÑıÐ³
ÑİÑīÐµÐ³Ð¾ ÑģÑı
ĠÐ¼Ð¸Ð¼ Ð¾Ð»ÐµÑĤ
ĠÐ¿Ð¾Ñģ Ð¼ÐµÐ»
ĠÐ¢Ð°Ðº Ð¾Ð³Ð¾
Ð½Ð¾ÑĪ Ñĥ
ĠÐĺÑģ Ð¸Ð½
ĠÑģÑĩÐ°ÑģÑĤÐ»Ð¸Ð² Ñĭ
ĠÑģÑĤÐ¾ Ð½Ð¾Ð¼
Ð¸ ÑĨÐµ
ĠÐ¿ÑıÑĤ Ð½Ð°
ĠÑģÐ± Ð¸Ð²
ĠÑĤ ÑĥÑĩÐ¸
ĠÐ½Ðµ ÐµÑģÑĤÐµ
ĠÐ¿Ð¾Ð´ Ð°Ð»Ð°
ĠÐ¿Ð¾Ñģ Ð»Ð°
ĠÐ½ÐµÐ½Ð°Ð²Ð¸ ÑģÑĤÑĮÑİ
ĠÐ³Ð¾ÑĢ Ð¸ÑĤ
ÐºÐ° Ñİ
ĠÐ¿Ð¾Ð» ÑĥÐº
ĠÐ±Ð¾Ñģ ÑģÐ°
ĠÑģÐ°Ð¼ Ð¾Ð»ÐµÑĤ
ĠÐł Ñİ
ĠÐ»ÐµÐ³ ÐºÐ¸Ñħ
Ð¾Ð¼ Ð±Ð¸
ĠÐ·Ð°Ð½ÑıÑĤÐ¸ Ð¹
ĠÐ¿Ð¾Ð´Ñģ Ð»ÑĥÑĪ
ĠÐ»ÐµÐ³ ÐºÐ¾Ðµ
ĠÐºÐ¾Ð» ÐµÑģ
ĠÐ³ÐµÑĢ ÑĨ
ÐĶ Ð¾Ðº
ĠÐľ ÐµÑĤ
ĠÐ»Ð°Ð´ Ð¾ÑĪÐ¸
ĠÐŀ Ð»Ð¸Ð²
Ð¾Ñĩ ÐµÑģÑĤÐ²Ð¾
ÑģÐ° Ð½Ð°
ĠÐ¸Ð´ ÑĳÐ¼
ÑĭÐ» ÑģÑı
ĠÐ¥ ÑĢÐ°Ð½Ð¸ÑĤ
ĠÐĿ Ð¾Ð²ÑĭÐ¹
ĠÐ¡Ð¼ÐµÑĢ ÑĤÐ¸
ĠÑģÐ¼Ð¸ÑĢ Ð¸ÑĤÑĮÑģÑı
ĠÐ²ÑĭÑģ ÐºÐ¾ÑĩÐ¸Ð»
ÐµÐ² Ð½Ð¾Ð²
ÑĨÐ¸Ñı Ñħ
ĠÐ½ÐµÐ·Ð½Ð°ÐºÐ¾Ð¼ ÑĨÐ°
Ñģ Ð¾ÑĤ
ÑĨ ÐµÐ»Ð¾Ð²
ĠÐ²ÑĭÐ¿ÑĢÑıÐ¼ Ð¸Ð»ÑģÑı
ĠÐ²Ð´ Ð°Ð»ÑĮ
ĠÐ¿Ð¾ÑıÐ² Ð»ÐµÐ½Ð¸Ðµ
ĠÑĩ ÑĥÑĤ
ĠÐ¿Ð°Ð»Ð° ÑĤÐµ
Ð°Ð´ Ð¾Ð¹
ĠÐ³ÑĥÐ± ÐºÐ¸
ÐµÐ· Ð°ÑĢ
ĠÐ¿Ð¾ÑĤÐµÑĢ Ð¿
ĠÐ½ÐµÑĤÐ¾ÑĢÐ¾Ð¿ Ð»Ð¸Ð²Ð¾
ĠÐ¿ÑĢÐ¸Ð¾Ð± ÑĢÐµÑĤ
ĠÐ¿ÑĢÐ¾Ñģ Ð½ÑĥÑĤÑĮÑģÑı
ĠÐ¾ÑĤÐº Ð°Ð·Ð°ÑĤÑĮ
ĠÐ´ÐµÑĢÐ¶ Ð°Ð»ÑģÑı
ĠÑģÑĥÐ¿ÑĢÑĥÐ³ Ð°
ÐĲ Ð»ÐµÐºÑģ
ĠÐ²Ð¾Ð·Ð±ÑĥÐ¶Ð´ ÐµÐ½Ð¸Ðµ
Ð°Ð½Ð´ Ð°ÑĢÑĤ
ĠÐ¿ÑĢÐ°Ð² Ð¸ÑĤÐµÐ»ÑĮ
ĠÑĢÐ¾Ð´ Ð¸Ð»ÑģÑı
ÐµÐ² ÑĪÐ¸Ñħ
ĠÐ²ÑĭÐ¿ ÑĥÑģÐºÐ°Ñı
ÐĺÐ½ ÑĤÐµÑĢÐµÑģÐ½Ð¾
ĠÐĳ Ð¸Ð»Ð»Ð°
ĠÐ¥Ð° Ð¾
ĠÐ¿Ð¾Ð» Ð½ÑĭÐµ
ĠÐ¡ÐµÑĢÐ³ ÐµÐ¹
ĠÑĥÑĤ ÐºÐ½ÑĥÐ»Ð°ÑģÑĮ
ĠÐ»Ð¸ÑħÐ¾ÑĢÐ°Ð´ Ð¾ÑĩÐ½Ð¾
ĠÐ¿Ð¾Ð» Ð¾Ð¼
ÑĨÑĥ ÐºÐ¸
ĠÐĵÐ°Ð±ÑĢÐ¸ ÑįÐ»ÑĮ
ÐĽ Ð¬
ĠÑĥÐ´Ð° ÑĩÐ¸
ĠÐ¸Ð· Ð´Ð°Ð»
ÑĪÐ¸ ÑĢÐ¾
ĠÐ¾ÑĤÑĤÐ¾Ð» ÐºÐ½ÑĥÐ»
Ð²ÐµÑĤ ÑģÑı
ĠÐ¾Ñĩ Ð½ÑĥÐ»Ð°ÑģÑĮ
ĠÑħÐ¾Ð»Ð¾Ð´ Ð½ÑĥÑİ
ÑĢÐ¸ Ð½Ð°
ĠÐ¾Ð±ÑĬÑıÐ² Ð¸Ð»
ĠÐ½ÑĥÐ¶ Ð½ÑĭÐ¼
Ġ POV
ĠÐ²ÑĭÑħÐ¾Ð´ Ð½ÑĭÐµ
ĠÐ½Ð°ÑħÐ¾Ð´ ÑıÑĤÑģÑı
ĠÐºÐ¸Ñģ Ð»Ð¾ÑĢÐ¾Ð´
ÑĥÑģ Ð¾Ð¼
ĠÑĥÑģ ÑĭÐ¿
ĠÐºÐ¾Ð½ÐºÑĢÐµÑĤ Ð½Ð¾
ĠÐ´ÐµÐ²ÑĩÐ¾Ð½ ÐºÑĥ
ĠÐ·Ð°Ð» Ñĥ
Ðľ Ð¾Ñı
ĠÐĵ Ð¾Ð´
Ð¾Ð² Ð°Ð½
ĠÐ¸Ð· Ð¾Ð±
ÑĩÐ°Ð¹ Ð½Ð¾
ĠÐĽ Ð°
ĠÐºÐ°ÑĤ Ð°ÑģÑĤ
ĠÐ²ÐµÐ» ÐµÐ»
ĠÑī ÐµÐ´
ĠÐ»Ð°Ð³ ÐµÑĢÑĮ
ĠÑĢÐ°Ð·Ð´ÑĥÐ¼ ÑĭÐ²Ð°Ñı
ĠÐ´ÑĳÑĢ Ð³
ĠÐ¾ ÑĩÐ¸
ĠÐ» ÑĥÐ½Ð°
ĠÐ²Ð·Ð³Ð»ÑıÐ´ Ð¾Ð²
ĠÐŀ Ð»ÑĮ
ĠÐ½ÐµÐ¿Ð¾Ñģ ÑĢÐµÐ´
ĠÐ³ Ð°ÑĢÐ´ÐµÑĢÐ¾Ð±
Ðļ Ð¾Ð¼
ĠÐ¿ÑĥÐ³ Ð°ÐµÑĤ
ĠÐ³ ÑĢÐ¾Ñħ
ĠÐ·Ð´Ð¾ÑĢÐ¾Ð² ÑĮÐµ
ĠÐ¿Ð¾Ð² ÐµÐ»Ð°
ĠÑĥÐ³Ð¾ Ð»Ð¾Ðº
ĠÐ¾Ð¿Ð¸Ñģ Ð°ÑĤÑĮ
ĠÐ¿ÑĢÐ¾Ð¸Ð· Ð²
ÑĢÐ°Ð½ÑĮ ÑĪÐµ
ĠÐ²ÐµÑĢ Ð½ÐµÐµ
ĠÐļ ÑĢÑĥÐ³
ĠÐ¿ÐµÑĢÐµÐ½ ÐµÑģ
ÑĢÐµÐ´ Ð¸ÑĤÑĮ
ĠÐ·Ð°Ð´ÑĥÐ¼ ÑĩÐ¸Ð²
ÑĪ ÐµÐ¼ÑģÑı
ĠÐĴ ÑĤÐ¾
ĠÐ´ÐµÑĤ ÑıÐ¼
Ð¸Ñĩ Ð½ÑĭÐ¹
ĠÐ¾Ð±Ð»ÐµÐ³Ñĩ ÐµÐ½Ð¸Ðµ
ĠÐ¿Ð¾Ð¶ Ð¸Ð¼Ð°ÐµÑĤ
Ġ1 8
Ð¡ÑĤ Ð°Ð¹Ð»Ð·
ĠÐ»Ð¸ÑĦ ÑĤÐ°
ĠÐ²Ñĭ ÑħÐ²Ð°ÑĤ
ÐµÐ±Ñı ÑĤ
ĠÐ¿ÐµÑĢÐµÐ² ÑĳÐ»
ĠÐºÐ¾Ñģ Ð½ÑĥÑĤÑĮÑģÑı
ĠÐ´Ð¾Ð²ÐµÑĢ Ð¸Ðµ
ĠÑĦÑĥÑĤÐ±Ð¾Ð» ÐºÐ¸
Ð¸ ÐºÐµ
ĠÑĢÐ°Ð´ Ð¾Ð²Ð°ÑĤÑĮÑģÑı
ĠÑģÑĤÐ¾Ð¹ ÐºÐµ
ĠÑĥÐ¹ Ð´ÐµÑĤ
ÑĳÑĢ Ð·
Ðľ Ð°Ð¹Ðº
ĠÐĺ ÑĦ
ĠÐ½Ð¾ÑĢÐ¼ Ð°Ð»ÑĮÐ½ÑĭÐ¹
ĠÐ¿ÑĢÐ¾Ð» ÐµÐ¿ÐµÑĤ
Ð³ Ð°Ð½Ð°
ĠÐ´ÑĥÑħ Ðµ
ĠÐ´ÐµÐ² Ð¾ÑĩÐºÐ¾Ð¹
ĠÐ¿Ð¾Ð² ÑģÑİÐ´Ñĥ
ÑģÑĤÐ²ÐµÐ½ Ð½ÑĭÑħ
Ð¸Ð² ÑĪÐ°Ñı
ĠÐ¿Ð¾Ð´ÑħÐ¾Ð´ Ð¸Ð»
ĠÑĥÐ³ Ð¾Ð²Ð°ÑĢ
ĠÐ¿Ð¾Ð¹Ð´ ÑĳÑĤ
ĠÐ¿Ð¾Ð´ ÑħÐ¾Ð´Ð¸ÑĤÑĮ
Ðł ÐµÐ±ÑıÑĤÐ°
ĠÐ´ÐµÐ¼ Ð¾Ð½Ñĭ
ĠÑģÐ°Ð¼ ÑĭÐ¼Ð¸
ĠÐ¡ Ð¾Ð·
ĠÐ½Ð°ÑĤ ÐºÐ½ÑĥÐ»ÑģÑı
ĠÑģÑĥÐ¶Ð´ ÐµÐ½Ð¾
ĠÐļ ÐµÐ²
ĠÐ²ÑģÑĤÑĢÐµÑĩ Ð°Ð»Ð¸ÑģÑĮ
Ð½ Ð¾Ð·
ĠÐĶ Ð²
ĠÐ²Ð¾Ð» ÐºÐ°
Ð½ÐµÐ¼ ÑģÑı
ĠÐ¿Ð¾Ð½Ð¸Ð¼Ð°Ñİ ÑīÐµ
ĠÑĥ Ð½Ð¸Ð¼
ĠÐ±ÐµÑģÐ¿Ð¾ÐºÐ¾ Ð¸ÑĤÑĮÑģÑı
ĠÐ»Ð¸ÑĩÐ½Ð¾ ÑģÑĤÐ¸
ÐĿÐµ Ð¾Ð¶Ð¸Ð´Ð°Ð½Ð½Ð¾
ĠÐ´Ð¾Ð»Ð³ Ð¸Ñħ
ĠÐ»ÑİÐ´Ñı Ñħ
ĠÑģÐ² Ð¸ÑĤÐµÑĢ
ĠÐ¾Ð±ÑĭÑĩ Ð½ÑĭÐµ
ĠÐ¿Ð»Ð°Ð½ÐµÑĤ Ñĭ
ĠÐ´Ð°Ð² Ð°Ð»Ð¾
ĠÐ²ÑģÑĤ ÑĢÑıÑħ
ĠÐľ ÐµÑĩ
ĠÐ·Ð°Ñģ Ð½ÑĥÐ»
ÐºÐ° ÑİÑĤ
Ð¸ÑĤÐµÐ»ÑĮ Ð½ÑĭÐ¼Ð¸
ĠÐ·Ð°Ð¿Ð¾Ð¼ Ð½Ð¸ÑĤÑĮ
ÐµÐ¹ Ð´
ĠÐ·Ð°ÑĢÑĭ ÑĩÐ°Ð»
ĠÐ´ÐµÑĢÐµÐ² Ð½Ðµ
ĠÐ»ÑİÐ±Ð¸Ð¼ ÑĭÑħ
ĠÐºÐ°ÑĪ ÑĤÐ°Ð½Ð¾Ð²
ĠÐĲ ÑĤ
Ġ F
ĠÑħÑĢÐ¸Ð¿ Ð»ÑĭÐ¹
ĠÐ¾ÑĤ Ð¾Ð¹ÑĤÐ¸
ĠÐŁ Ð°Ð»ÑĮÑĨÑĭ
ĠÐ±Ð°ÑĢ Ð½Ð¾Ð¹
ĠÑĥÑĩ ÐµÐ½
ĠÐ¾ÑģÐ¾Ð· Ð½Ð°Ð½Ð¸Ðµ
Ð°Ñģ Ð¸
ĠÑģÑĤÑĢÐ°ÑĪ Ð½ÑĭÐ¹
ĠÐ´ÑĥÐ¼ Ð°ÑİÑĤ
ĠÑģÐ¿ ÐµÐº
ĠÐ¾ÑĤÐ½Ð¾Ñģ Ð¸ÑĤÑģÑı
ĠÑģÐ¼ÑĥÑĤ Ð¸Ð»ÑģÑı
ĠÑīÑĳ ÐºÐ¸
ĠÐ²Ð¾ Ð¾Ð´ÑĥÑĪÐµÐ²
ĠÐºÑĥÑħ Ð¾Ð½
Ð°Ð»Ð¸ Ð¸
ĠÑĤÐ¸Ñħ Ð¾Ðµ
ĠÐĳÑĥÐ´ ÐµÑĪÑĮ
Ð¾ÑĢ Ð°Ð¶
ĠÑģÐ¾ÑĪ Ð»Ð°
ĠÐ¿Ð¾Ð·Ð²Ð¾ Ð½Ð¾Ñĩ
ĠÐ¼ÐµÐ»ÑĮ ÐºÐ¾Ð¼
ĠÐ¿ÐµÐ¿ ÐµÐ»ÑĮ
ĠÑģÐ¸Ð»ÑĮ Ð½Ð¾Ð³Ð¾
ĠÐ²ÑĭÐ¿Ð¾Ð» Ð½Ð¸ÑĤÑĮ
ÐŁ Ð¾Ð½
ÐŁÐ°ÑĢ Ð½Ð¸
ĠÐ¿Ñĭ ÑĤÐ°
ĠÑĤÐ°Ð±Ð»ÐµÑĤ ÐºÐ¸
ĠÐ¾Ð±ÑĢÐ°Ñī Ð°Ð»
ĠÑĦÑĢÐ°Ð½ÑĨÑĥ Ð·
Ð°ÑĪÐ¸ Ð½Ð°
ĠÐ»Ð¾Ðº ÑĤ
ĠÐ¾ÑĤÐ²ÐµÑĤ ÑģÑĤÐ²ÐµÐ½Ð½Ð¾ÑģÑĤÑĮ
ĠÐºÑĢ Ð¾Ð»
ĠÐ¾ÑĤÐ²ÐµÑĩ Ð°Ð»Ð°
ĠÑģÐ¾ÑĪ ÐµÐ»
ÐĶ Ð¾ÑĢ
ĠÐ¿ÑĢÐ¾ÑĤÐ¸Ð² Ð¾Ñģ
Ð°Ð° Ð°
ĠÐ¿Ð¾Ð¿ÑĢÐ°Ð² Ð¸Ð»Ð°
Ð°Ð½ÑĮ Ðµ
Ð»Ð°Ð½ Ð´
Ð°Ð» ÐºÐ°
ĠÐ¾ÑīÑĥÑī Ð°ÑĤÑĮ
ĠÐ½Ð°Ð· ÑĭÐ²Ð°ÑİÑĤ
ĠÐºÐ°Ð¿ ÑĢÐ¸Ð·
Ð°Ð² Ð°Ð»
ĠÑģÑĥÐ± Ð±
ĠÐ ¹
Ġ in
ĠÐ¼ÐµÑģÑĤ Ð°Ð¼Ð¸
ĠÐ¿Ð¾Ñģ Ð»Ð°Ð»
ĠÐ¿ÑĢÐ¸Ð¶ Ð°Ð²ÑĪÐ¸ÑģÑĮ
ĠÐļÐ°Ð¶ Ð´
ĠÐ¢Ð¾Ð¼Ð»Ð¸Ð½ ÑģÐ¾Ð½
ĠÐł Ð°Ð±Ð¾ÑĤ
ÐµÐ´ ÐµÐ»ÑĮ
ĠÑģÐµÐ³Ð¾Ð´Ð½ÑıÑĪ Ð½Ð¸Ð¹
ĠÐ°Ðº ÑĤÐµÑĢ
ĠÐ·Ð°ÑīÐ¸ÑĤ Ñĭ
Ð´ Ð»
ĠÐĽÐ¾ÑĢ Ð´Ð°
ĠÑģÐ¶ Ð°Ð»Ð¾ÑģÑĮ
ĠÑģÑĥ ÐºÐ°
ĠÐŀÑģÑĤ Ð°Ð»Ð¾ÑģÑĮ
ĠÐ¿ÐµÑĪ ÐºÐ¾Ð¼
ÐĶ Ð¾Ð¼
ĠÐ¿Ð¾Ð´Ð¾Ð± Ð¸Ðµ
ĠÐ´Ð¾ÑĢÐ¾Ð³ Ð¸Ðµ
ĠÐ´Ð²ÐµÐ½ Ð°Ð´ÑĨÐ°ÑĤÑĮ
ĠÐ½ÐµÐ² ÐµÐ´Ð¾Ð¼
ĠÐ±ÐµÑģ Ð¸ÑĤ
ĠÐ¶ÐµÐ» ÑĥÐ´Ð¾Ðº
ĠÐ¿Ð¾Ð²ÐµÑĢ Ð¸Ð»Ð°
ĠÐĸ Ð¸Ð·Ð½ÑĮ
ĠÑĤÐ¾ ÑģÐº
ĠÑĢÐ°ÑģÐ¿ÑĢÐ¾ÑģÑĤ ÑĢÐ°
ĠÐ±ÑĢÐ° ÑĤÐ¸
ĠÐ½Ð°Ð¿ÑĢÑıÐ¶ ÐµÐ½Ð½Ð¾
Ð² Ð°ÑģÑĤ
ĠÐ´ Ð¾Ð¹ÑĤÐ¸
ÑĤ ÑĭÐ¼
ĠÐ¿Ð¾Ð´Ð´ÐµÑĢÐ¶ Ð°ÑĤÑĮ
ĠÐĶÐ¸Ð¿Ð¿ ÐµÑĢ
ĠÐ¿ÑĢÐ¸Ð¾ÑĤÐº ÑĢÑĭÑĤ
ĠÐ¿Ð¾Ð²ÑĤÐ¾ÑĢÑı ÑĤÑĮ
ĠÐ¿ÑĢÐ¸ ÑĳÐ¼
ĠÐ¼Ð¾Ð»Ð¾Ð´ ÑĭÑħ
ĠÐ¾ÑĤÑģÑĤÑĥÐ¿ Ð¸Ð»
ĠÐ·Ð°ÐºÐ¾Ð½Ñĩ Ð¸Ð»Ð¸
ĠÐŁÑĢÐ°Ð² Ð¸Ð»ÑĮÐ½Ð¾
ĠÐ·Ð°Ð¿Ð¸Ñģ Ð¸
ĠÐ¶ÐµÐ» Ð°Ñİ
ĠÑĪÐ¸ Ð½Ð¸Ð³Ð°Ð¼Ð¸
ĠÐ¸Ð½ ÑĤÑĥ
ĠÐ°ÑĤÐ°Ðº Ñĥ
ĠÐł Ð¾Ð¶Ð´
ÑĢÐ°Ñģ ÑĭÐ²Ð°Ñı
ĠÐ¿Ð¾Ð¼ ÐµÑģÑĤÑĮÐµ
ÐĴ Ð¾Ð»
ĠÐ´ÑĢÐ¾Ð¶ Ð°Ð»Ð¸
ĠÐ±ÐµÑĢ Ñı
ĠÐ¸Ð³ ÑĢÐµ
ĠÐ£ÑĩÐ¸Ñħ Ð¸
ĠÐºÐ°Ñĩ Ð°ÐµÑĤ
ĠÐ±Ð»Ð°Ð³Ð¾Ð¿Ð¾Ð»ÑĥÑĩ Ð½Ð¾
ĠÑģÐ²Ð°Ð´ÑĮ Ð±Ñĥ
ĠÐ±ÑĢÐ°ÑĤ ÐµÑĨ
ĠÑĦÑĥÑĤÐ±Ð¾Ð» ÐºÐ°
ĠÐ²ÑĭÑģÐ¾Ðº Ð¾Ð³Ð¾
ĠÐ¿Ð¾ÑģÑĤÑĥÐ¿ Ð¾Ðº
ĠÐ¸Ð·Ð´ Ð°Ð»ÐµÐºÐ°
Ñĳ ÑĤÐ°
ĠÐº Ð½Ñı
ĠÐ¾Ð±ÑĢÐ°Ñī Ð°ÑĤÑĮÑģÑı
ĠÐĴ Ð°Ð»ÑĮ
ĠÐ²Ð¸Ð· Ð¸ÑĤ
ĠÐ²ÐµÑĩÐµÑĢ Ð¸Ð½ÐºÑĥ
ĠÐĺÐ³Ð¾ ÑĢÑĮ
ĠÐ¾Ð¿ÑĢÐµÐ´ÐµÐ» Ð¸ÑĤÑĮ
ĠÑī ÑĥÐ¿
ĠÑĪÑĤÑĥ ÐºÐ°
ĠÐ²Ñĭ ÑĢÐ°ÑģÑĤ
ĠÐ·Ð½Ð°Ñĩ Ð¸ÑĤÐµÐ»ÑĮÐ½Ð¾
ĠÐ²Ð¾ÑģÑĤÐ¾ÑĢ Ð³Ðµ
ĠÐ²Ñģ ÐµÑĢÑĮÐµÐ·
ĠÐ¥ Ð°Ð¹
Ðĳ ÐµÐ»
ĠÑĤÐ² Ð°ÑĢÐ¸
ĠÐŀ ÑħÐ¾ÑĤ
ĠÐ½Ð¾ÑĥÑĤ Ð±Ñĥ
ĠÐ´ Ð°ÑİÑĤ
Ð»Ñı Ð¿
ĠÑģ ÐµÑĤÐ¸
ĠÐ·Ð°Ðº ÑĢÐµÐ¿
ĠÐ²ÑħÐ¾Ð´ Ð½Ð¾Ð¹
ĠÐ²Ð·Ð²Ð¾Ð»Ð½Ð¾Ð² Ð°Ð½Ð½Ð¾
Ðº Ð¾Ð±Ñĭ
ĠÐ¿ÑĢÑı Ñĩ
ĠÐĶÐµÐ² ÑĥÑĪÐºÐ¸
ÐĵÐ¾Ñģ Ð¿Ð¾Ð´
ĠÐŀÑĤ Ð´
ĠÑĢÐ°ÑģÑģÐº Ð°Ð¶Ð¸
ĠÐł Ð¾Ð½Ð°
ĠÐĶÐ¶ ÐµÑģÑģ
ÐĴ ÐµÑģÑĮ
ĠÐ·Ð°Ð´ Ð¾Ñħ
ĠÐ¿Ð¾ÑĢ ÑĨÐ¸Ñİ
ĠÐ¿ÑĢ Ð¸Ð»ÑĮ
Ðĳ Ð¾Ð¶Ðµ
ĠÐ¿ÑĢÐ°Ð² Ð´Ð¾Ð¹
ĠÐ¿ÐµÑĢÐµÐ¶ Ð¸Ð²Ð°ÑĤÑĮ
ĠÐ¸Ð¼ ÐµÐ»Ð¸
ĠÐŀÐ±ÐµÑī Ð°Ñİ
ĠÐ²ÑĭÐ¿ Ð»Ñİ
ĠÐ¼Ð°Ð»ÑĮÑĩÐ¸ ÐºÑĥ
ĠÐ½Ð¾Ð² Ð¾
ĠÐ¸Ð·ÑĥÐ¼ ÑĢÑĥÐ´
ĠÐ¿Ð¾ÑĤÐµÑĢ ÑıÐ»Ð¸
ÐµÐ± Ð¸
ĠÑĨÐµÐ» ÑĭÑħ
Ð¸Ð´ ÐµÐ½ÑĤ
ĠÐ´Ð²ÐµÑĢ ÑĨÑĥ
Ð¾ÑĤ Ð¸
ĠÑģÐ± ÐµÐ¶Ð°Ð»Ð°
ĠÐ¾Ð´ Ð½Ð¸Ð¼Ð¸
ĠÐĽ Ð°Ð¹ÑĤ
ĠÑĢÐµÐ¿ Ð»Ð¸
ĠÐºÐ¾Ð½ ÑģÑĤÐ°ÑĤÐ¸
ĠÐ±Ð¸Ð±Ð»Ð¸Ð¾ÑĤ ÐµÐºÑĥ
ĠÑĥÐ¶Ð°Ñģ Ð½Ð¾Ðµ
ĠÐ¶ ÑĳÐ»
ĠÐ½ÐµÐ¼ Ð½Ð¾Ð¶
ĠÐ¡Ð°Ð¼ Ð¾Ðµ
Ð¾ÑĢ Ð¾Ð·
ĠÐ¶ ÑĳÑģÑĤ
ĠÑĤÐµÑģ Ð½Ð¾
ĠÐ½ÐµÐ¿ÑĢÐ¸ Ð½ÑĥÐ¶Ð´
ĠÐľÐ¸Ð»Ð» Ñģ
ĠÐ¾Ð±Ð½Ð¸Ð¼ Ð°Ð»
ĠÐ·Ð°Ð± ÑĢÐ°Ð»Ð°
ÑĢ ÑĢ
ĠÐ²Ñĭ Ð²Ð°Ð»
ĠÐ½Ð°Ð· Ð»Ð¾
ĠÐ¾Ð¿ ÑĥÑģÐºÐ°ÐµÑĤ
Ð¾ÑĢ ÐºÐ¸
ĠÐ±ÐµÐ·ÑĢÐ°Ð· Ð»Ð¸
ĠÐºÐ°ÑĢ ÑĤÐ¾
Ð§ ÐµÑĢ
ĠÐ°Ð¿Ð¿ Ð°ÑĢÐ°ÑĤ
ĠÐ±Ð¾ÑĤ Ð¸Ð½ÐºÐ¸
ĠÑĪ Ð¼ÑĭÐ³
ĠÑĥÐ¼ Ð¸Ð»
Ð´ Ð¾ÑĢÐ°
ĠÑģÐ°Ð¼Ð¾ ÑĥÐ±Ð¸Ð¹
ĠÐ¥ ÐµÐ¹Ð»
Ð°ÑĤÐµÐ»ÑĮ Ð½Ð¾Ðµ
Ð°Ð½ Ð¸Ð»
ĠÐĶÐ¸ Ð°Ð½Ð°
ĠÐ´ÐµÑģÑıÑĤ Ð¾Ðº
ĠÐ±ÑĢÐµÐ· Ð³
ĠÑĤÐ¾Ð» Ð¿
ĠÐ·Ð°ÑĤ ÑĥÐ¼Ð°Ð½
ĠÑĢÐµÑĪ Ð°ÐµÑĤ
Ð½Ðµ ÑģÑı
ĠÐŁÐ¾Ð¹Ð´ ÑĳÐ¼
Ð²Ð° Ñĩ
ĠÐ¾ÑĤ Ð¾Ð³
ĠÐ·Ð° ÑĤÐ°Ñī
ĠÐ¿Ð»Ð°Ð¼ ÐµÐ½ÐµÐ¼
ÐºÐ¾ Ð½Ð¾Ð¼
ĠÐĳ ÐµÑĤ
ÑĢÐ°Ð² ÐµÐ´Ð»Ð¸Ð²Ð¾
ĠÑģÐºÐµÐ¿ÑĤÐ¸ ÑĩÐµÑģÐºÐ¸
ĠÐ²Ð¾Ð· Ð½
ĠÐ½ÐµÐ¿ÑĢÐ¸ÑıÑĤ Ð½Ð¾ÑģÑĤÐ¸
ĠÐľÐ¸Ñģ Ð°ÐºÐ¸
ĠÑģÐ¿ÑĢÐ°Ð² Ð¸ÑĤÑģÑı
ĠÐ³Ð½ÐµÐ² Ð½Ð¾
ĠÐ¾ÑĤÐºÐ°Ð· Ð°Ð»Ð°ÑģÑĮ
ĠÑģÐ¼ÑĥÑĤ Ð½Ð¾
ĠÐ¿ÑĢÐ¾ÑĤÐ¸Ð² Ð¾ÑĢÐµÑĩ
ĠÐ¾ÑĤÐ² Ð¾ÑĢ
ĠÐĳ Ð¸
ĠÑģÐ¸Ð»ÑĮ Ð½ÑĭÑħ
ĠÐ¿Ð¾Ð¶Ð°Ð» ÐµÐ»
ĠÑĢÐ°ÑģÑģ Ð»ÐµÐ´
Ð¾Ð³ Ð°Ñı
ĠÐ²Ð¾Ð»Ð½Ð¾Ð² Ð°Ð»ÑģÑı
ĠÐ¿Ð¾Ð´ ÐµÐ¹ÑģÑĤÐ²
ĠÐ¿ÑĢÐ¸ Ð½ÐµÑģÐ»Ð¸
ĠÐĳÐ¾Ð± Ð±Ð¸
ĠÑĥÑĪ ÐºÐ¾
Ð°ÐµÐ¼ ÑĭÐ¼
ÑĢÑĭ Ñģ
ĠÑĢÑĥÐºÐ°Ð² Ð°
Ñĩ Ð°Ñı
ĠÐ¾ Ð²Ð¾
ĠÐ¿Ð¾Ð´ÑĢÐ¾ÑģÑĤ ÐºÐ°
ĠÐºÐ¾ÑĢÐ¾ÑĤ ÐºÐ¾Ðµ
ĠÐ½ÐµÐ¿ÑĢ Ð¸Ð»Ð¸
ÐµÑĢ ÐµÐ¶
ĠÐ¸ÑģÑĤÐ¾Ñĩ Ð½Ð¸Ðº
ĠÐ´Ð¾Ð¶Ð´ Ð°ÑĤÑĮÑģÑı
ĠÐ¿ Ð¸Ð·
ĠÐ²Ð·ÑĢÐ¾Ñģ Ð»ÑĭÐ¹
Ð¼ÐµÐ½ ÐµÐµ
Ð¶ Ð°Ð²
Ð¸Ð´ Ð¸
ĠÐ·Ð°Ðº Ð¸Ð¿
ĠÐ¿Ð°ÑģÑģ Ð°Ð¶
Ð½Ð¾ÑģÑĤ ÑıÐ¼Ð¸
ĠÐ¿Ð¾Ð¿ÑĭÑĤ Ð¾Ðº
ÐĳÑĢÑİ Ð½ÐµÑĤ
ĠÐ¡Ð¾Ð² ÐµÑĤ
ĠÐ§ ÐµÑĤ
ĠÐ¾Ð±ÑĭÑĩ Ð½Ð°Ñı
ĠÐ½Ð°Ñħ Ð¾Ð¶ÑĥÑģÑĮ
ĠÑģÐ¾Ð± Ð°Ðº
Ð¾ÑģÑĤ Ð¾Ð²ÐµÑĢ
ĠÐ± ÐµÐ»ÑĮ
ĠÐºÐ¾Ð»ÑĮ ÑĨÐ°
ĠÐ¿ÐµÑģ ÐµÐ½
ĠÐ¸Ð´Ðµ Ñİ
! )
ÑįÐ¼ Ð¸Ð½
ĠÑģÐ»ÐµÐ´ÑĥÑİ ÑīÐµÐ³Ð¾
ĠÐ¾ÑīÑĥÑĤ Ð¸ÑĤÑĮ
ĠÐ·Ð°Ðº ÑĥÑĢ
ĠÐ¼Ð¸ Ð½Ñĥ
ĠÐ¿Ð¾ÑģÐ² ÑıÑī
ĠÐ¾ÑĤ ÑĢÑıÑħ
ÐĿ Ð°Ð¼
ĠÐ±ÑĭÑģÑĤ ÑĢÑĭÐ¹
ĠÐĵ ÑĥÐ±Ñĭ
ĠÐ²Ð¾Ð»ÑĪÐµÐ± Ð½Ð¸Ðº
ĠÐ·Ð°Ð³Ð°Ð´ Ð¾Ñĩ
ĠÐ¿Ð»Ð° ÑģÑĤ
ĠÐ¿ÑĢÐ¸Ð¼ ÐµÐ½
Ð¢ Ð¸
ĠÐ¼Ð¾ÑĤ Ð¸Ð²
Ðľ Ð°Ðº
ĠÐ¿ÑĢÐ¸ ÐµÐ´ÐµÑĤ
ĠÐ½Ð¸Ð· ÐºÐ¾
ĠÑĢÐ°Ð·Ð¾Ð· Ð»Ð¸Ð»ÑģÑı
ĠÐ¿Ð¾Ð» ÑĥÐ´
ĠÐºÑĢÐ°Ñģ Ð½Ð°Ñı
ĠÑĢÐ¾Ñģ ÐºÐ¾ÑĪ
Ð°Ð½Ð¸ ÑĤÑĮ
ĠÐ¥ ÑĳÐ½
Ðº Ð¾Ð³Ð´Ð°
ĠÐ¾ÐºÐ¾Ð½Ñĩ Ð°Ð½Ð¸Ñı
ĠÐ²Ð»Ð°Ð´ ÐµÐ»ÑĮ
Ð°Ð¿ Ð°
ĠÑģÑĤÐµÐ½ ÐºÑĥ
ĠÐ·Ð°Ð½Ð¸Ð¼ Ð°Ð»Ð¸ÑģÑĮ
ĠÐ¿ÑĢÐµÐ²ÑĢÐ°ÑĤ Ð¸Ð»Ð°ÑģÑĮ
ĠÐ¿Ð¾Ð´ ÑĩÐµÑĢÐº
ĠÐ¥Ð¾Ð³Ð²Ð°ÑĢÑĤ ÑģÐ°
Ð»Ð¾Ð¶ Ð¸Ð²
Ðº ÑĢÐ¸
ĠÐ¿Ð¾ÑĨÐµÐ»Ð¾Ð² Ð°Ð²
ĠÐ¿ÑĢÐ¸Ð½ÑĨÐµÑģÑģ Ñĭ
ĠÐ½ÐµÐ¿ÑĢÐ¸Ð² Ñĭ
ÑģÑĤÑĮ ÑģÑı
ĠÐ¿ÑĢÐ¸Ð¾Ð± Ð½ÑıÐ»
ĠÑĥÐ½Ð¸Ð²ÐµÑĢÑģÐ¸ÑĤ ÐµÑĤ
Ð°Ð» ÐµÐ½
ĠÐ¾ÑĤÑģÑĤÑĢÐ°Ð½ Ð¸Ð»Ð°ÑģÑĮ
Ð¼Ñĭ ÑģÐ»Ð¸
ĠÐ¿ÐµÑĢÐµÐ» Ð¾Ð¼
ĠÐºÐ¾Ñģ Ð½ÑĥÐ»Ð¸ÑģÑĮ
ĠÐ¿Ð¾ ÐµÐ¶
ĠÐº ÑĢÐ¾Ð¼
ĠÑĩÐ°ÑĪ ÐºÐ¸
ĠÐ²Ð»ÑİÐ± Ð¸Ð»Ð°ÑģÑĮ
ĠÐĳ Ñį
ĠÐ¶Ð¸Ð² ÑĳÑĤ
ĠÑģÐ¿ÑĢÑıÑĤ Ð°ÑĤÑĮ
ĠÐ¾Ð±Ñī ÐµÐ³Ð¾
ĠÐ¿ÑĢÐµÐ·ÑĢ Ð¸ÑĤÐµÐ»ÑĮÐ½Ð¾
ĠÐ²Ð°ÑĪ Ð¸Ð¼
ĠÐĺ Ð»ÑĮÑı
Ð½ÐµÑģ Ð»Ð¾
ÐĴÐ¿ ÑĢÐ¾ÑĩÐµÐ¼
ĠÐ±ÑĥÑĢ ÐºÐ½ÑĥÐ»Ð°
ĠÐ¢Ñį ÑħÑĳÐ½
ĠÐ²ÑģÐ¿ Ð»Ñĭ
Ð»Ð¸Ð· Ð¾ÑģÑĤÐ¸
ĠÐ¿Ð»Ð° Ð½Ð¸ÑĢÐ¾Ð²
Ð¸Ð² Ð°ÑİÑīÐ¸Ð¼
ĠÐ²Ð¾Ð¹ Ð½Ðµ
Ðļ Ð¾Ð»
Ðļ Ðŀ
ĠÐ±Ð»Ð¸Ð¶Ð°Ð¹ ÑĪÐµÐµ
ĠÐ¾Ð´ÐµÐ¶ Ð´Ð¾Ð¹
ĠÐºÑĢÑĥÐ³ Ð¾Ð¼
ĠÐ´Ð½ÐµÐ² Ð½Ð¸Ðº
ĠÐ½Ð° ÑħÐ¾Ð´Ð¸ÑĤ
ÐµÐ»Ð° Ð½Ð¸Ðµ
ĠÐ±Ð¾Ð» ÐµÐ»Ð°
ĠÐºÑĢÐ¾ÑĪ ÐµÑĩ
ĠÐľ ÑĥÐ½
ĠÑĥ Ð»ÑĥÑĩ
ĠÐ½ÐµÐ´Ð¾Ð²Ð¾Ð»ÑĮ Ð½ÑĭÐ¹
ĠÐ·Ð°Ð´Ð°Ð² Ð°ÑĤÑĮ
ĠÐºÑĢÐ°Ñģ Ð¾ÑĤÑĭ
ĠÐ¿Ð¾Ð»ÐµÑĤ ÐµÐ»Ð°
ĠÐ±ÑĭÐ² Ð°ÑİÑĤ
ĠÐ¿Ð¾ÑģÑĤÑĥÑĩ Ð°Ð»
ĠÐ¥Ð¾ÑĤ ÐµÐ»
Ð½Ð°ÑĩÐ°Ð» Ðµ
ĠÐºÑĥÑģ Ð¾ÑĩÐºÐ¸
ĠÐ±Ð°Ð³ Ð°Ð¶
ĠÐ¿Ð»ÐµÑĩ Ð°Ð¼
ĠÑħ Ð»Ð°Ð´
ĠÐľ Ð°ÐºÐ¾
ĠÐ£ Ð¸Ð»
ĠÐ½ÐµÐ¾Ñģ Ð¾Ð·Ð½Ð°
ÐĴ Ðŀ
ĠÐ·Ð°Ð²ÑĤÑĢ Ð°ÐºÐ°
ĠÐ¢Ð°Ð¹Ð» ÐµÑĢ
ĠÐ®Ð½ ÑħÐ¾
ĠÐĶ Ð¾Ð¼Ð°
ÐµÑĪ Ð°
ĠÐ¼ÐµÐ» Ð¾ÑĩÐ¸
ĠÐ»Ð¸ÑĩÐ½Ð¾ Ðµ
ĠÑĤÐ¾Ð²Ð°ÑĢÐ¸ Ñī
ĠÐ¿Ð¾Ð»Ð¾ÑĤÐµÐ½ ÑĨÐµÐ¼
ÐµÑĢÐ± ÑĢÐ¾Ð´
ĠÐ¾ÑĤÑĭÑģÐº Ð°ÑĤÑĮ
ĠÑģÐºÐ¾Ð»ÑĮÐ· Ð½ÑĥÐ»Ð°
ĠÐ»Ð¸Ð´ ÐµÑĢÐ°
ĠÐ·Ð½Ð°ÐºÐ¾Ð¼ Ð¾Ðµ
ĠÐĵÐ¾Ñģ Ð¿
ĠÐ½Ð°ÑĥÑĩ Ð¸ÑĤÑĮÑģÑı
ĠÐļÐ¸Ñģ Ðµ
ĠÐ±ÐµÐ´ ÑĢÐ¾
ĠÐĵ Ð¾ÑĤÐ¾Ð²
ĠÐ¾ÑģÐ½Ð¾Ð² Ð°Ð½Ð¸Ñı
ĠÑĤÑĢÐµÐ± ÑĥÐµÑĤÑģÑı
ĠÐ³Ð»ÑĥÐ¿ ÑĭÐµ
ĠÑģÐºÑĥ ÑĩÐ°Ð»Ð°
ĠÐ½ÐµÐ¿Ð¾Ð´Ð²Ð¸Ð¶ Ð½Ð¾
ĠÐ¸Ð½ÑĤÐµÑĢÐµÑģ Ð½Ð¾Ð³Ð¾
Ðķ Ð¢
ĠÐķ Ð»ÐµÐ½
ĠÐĹ Ð°Ð¼ÐµÑĤÐ¸Ð²
ĠÐ²ÑģÑı ÐºÐ¾Ð¹
ĠÑĪÑĳÐ¿ Ð¾ÑĤÐ¾Ð¼
ĠÐ»Ð¸ Ð½Ð¸Ñİ
ĠÐ´Ð¾Ð¼ Ð¸Ðº
ĠÐ¿ÑĢÐ¸Ð· ÑĭÐ²
Ð¸Ð½Ñģ ÐºÐ¸Ð¹
ĠÐ²ÑĨÐµÐ¿ Ð¸Ð»Ð°ÑģÑĮ
ĠÐ´Ð¾Ð»Ð³ Ð¸Ðµ
ÐĴ Ð¾Ð·
ĠÐ¿Ð¾ÑģÐ»ÐµÐ´ Ð¾Ð²Ð°Ð»Ð¾
ĠÐ¢ÑģÑĥÐ½Ð° ÐµÑĪÐ¸
ĠÐ³ ÑĢÐ°Ð¶
ĠÐ·Ð°Ð¼ÐµÑĩ Ð°Ð»Ð°
ĠÐ¿ÑĥÐ³ Ð°Ð»Ð¾
Ð¾ÑĢ Ð¾Ð¶
ĠÐ´ÐµÐ¹ÑģÑĤÐ²Ð¸Ñı Ð¼Ð¸
ĠÑĢ Ð°Ð½Ð°
ĠÐ¿ÑĢÐµÐ´Ð¿ ÑĢÐ¸Ð½
ĠÐļÐ°Ð» Ð»ÐµÐ½
ĠÐ¸Ð³ ÑĢ
ĠÐ¿Ð¾ÐºÐ°Ð·ÑĭÐ² Ð°Ð»
ĠÐ¿ÑĥÐ³Ð¾Ð²Ð¸ ÑĨÑĭ
ĠÐ½ÐµÐ¶ Ð½Ð¾ÑģÑĤÑĮ
Ðĳ Ð¾Ð»ÑĮ
ĠÑįÐºÐ· Ð°Ð¼
ĠÐ¿ Ð¸Ðº
Ð¸Ð· Ð½ÐµÐ½Ð½Ð¾
ĠÑĤÑĮ Ð¼Ñĭ
ĠÐ¿Ð¾ ÑĢÐ°Ð½ÑĮÑĪÐµ
Ðł ÐµÐ·
ĠÐ¿ÑĢÐ¸ÑĢÐ¾Ð´ Ñĭ
ĠÐĿ Ð¾Ñĩ
ĠÐĽ Ð¸Ð»
ĠÐ´ÐµÐ¹ÑģÑĤÐ² ÑĥÐµÑĤ
ĠÑģÐ¸Ð´ ÐµÐ½Ð¸Ðµ
ĠÐ¼ÐµÐ± ÐµÐ»ÑĮ
ĠÐ³ ÑĢÐ°Ð½
ĠÑĢÐ°ÑģÑģ Ð»ÑĭÑĪ
ĠÐ¿ÑĢÐ¸ÐºÐ¾Ñģ Ð½ÑĥÐ»ÑģÑı
Ð¾Ð¿ Ð°Ð´
ĠÐ¤ ÑįÑĪ
Ñĭ ÑĢÑı
ĠÐ¿Ñĭ Ð»Ð°
ĠÐ¾ÑĤ Ð³
ĠÐ½Ðµ ÑģÑĤÐ¸
ĠÑģÐº Ð»Ð¾Ð½Ñı
ĠÐ¾Ð±ÑĢÐ°Ð´ Ð¾Ð²Ð°Ð»ÑģÑı
ĠÐ³Ð¾ÑĢÑı ÑĩÐµÐ³Ð¾
ĠÐ¿Ð¸Ñģ Ð°Ð»
Ð¸Ð¼ Ð¾Ð¼Ñĥ
ĠÐ¿Ð¸Ð¶ Ð°Ð¼
ĠÐ¿Ð¾ÑģÐ»ÐµÐ´ Ð½ÐµÐ¼
ĠÑģÐºÐ»Ð¾Ð½ Ð¸Ð»
ĠÑĥÐ¼ Ð½ÑĭÐ¹
ĠÐ² ÑĬ
Ð¶ Ð°Ð»Ð°
ÑĢÑĥ ÐµÐ¼
ĠÐ²ÐµÑģ Ð¾Ð¼
ÐŁ ÑĢÐµÐ´
ĠÐľÐ¸Ðº ÐºÐ¸
ÐµÐ² ÑĭÐµ
ÐµÐ² ÑĪÐµÐ¹
ĠÐ²Ð·Ð´ÑĢÐ°Ð³ Ð¸Ð²Ð°ÐµÑĤ
ÑĥÑģ Ñĥ
Ðķ Ð¹
ĠÑĥÐ³ÑĢÐ¾Ð¶ Ð°ÑİÑīÐµ
ĠÑģÑĤÑĥÐ´ ÐµÐ½ÑĤ
ĠÐ¿ÐµÑĢÐµÑĪ ÐµÐ»
Ðķ Ñĳ
ĠÐ½ÐµÐ½Ð°Ð²Ð¸Ð´ ÐµÑĤÑĮ
ĠÐľ ÐµÐ½
ĠÐ±Ð» ÐµÑģÐº
ĠÐĹ ÑĥÐºÐ¾
ĠÐºÐ¾ ÑģÑĤÑĢÐ°
ÐµÐ² ÑĪÐ°Ñı
ĠÐ¼ÐµÑĢ Ð¾Ð¿ÑĢÐ¸
ĠÐ¿Ð»Ð° ÑĩÑĮ
Ð¸Ð½ Ð°Ð¼
ĠÐ·Ð°Ð¿ Ð»ÐµÑĤ
ĠÑģÐº Ð»Ð¾Ð½Ð¸Ð²
ĠÐŁ Ð°Ð²
ĠÐ¿ÐµÑĢÐµÐ² ÑıÐ·
Ð¿ ÐµÐ»ÑĮ
ĠÑģ ÑĢÐµÐ°Ð³
ĠÐ³Ð¾ÑĤÐ¾Ð² ÑıÑģÑĮ
ĠÐ´ÑĭÑħ Ð°Ð½Ð¸Ñı
ĠÑĤÐ¾ÑĢ Ð¼Ð¾Ð·
Ð³ ÑĥÑģÑĤ
ĠÐ·Ð°Ð¼ ÑıÐ»ÑģÑı
ĠÐ½ÐµÐ¿ ÑĢÐµÐ´
ĠÐ±ÐµÐ·Ð¼ Ð¾Ð»Ð²
ĠÐĹ Ð°Ñģ
ĠÑģÐ¾Ð· Ð´Ð°Ð½
Ñĳ ÐºÑĥ
ĠÐºÑĢÐ¸ ÐºÐ°Ð¼Ð¸
ĠÐ°ÑĢ Ð³ÑĥÐ¼
ĠÐ´ÑĢÐ¾Ð¶ Ð¸ÑĤ
Ð´ Ð¾Ð±
Ñĥ Ð³Ð¾Ð»ÑĮ
ĠÑĩÐ°Ð¹ Ð½Ð¸Ðº
ĠÐ± Ð¾ÐºÐ°
Ð§ ÐµÐ³Ð¾
ÑĤ ÐµÐ»ÑĮÐ½Ð¾
ĠÐ¼ÐµÐ» Ð¾Ñĩ
ĠÐ¾Ð±Ð¾ÑĢÐ¾ÑĤ Ð½Ñı
ĠÐŃÐ»Ð°Ð¹ Ð´Ð¶Ð°
Ð¢ Ð²Ð¾
ĠÐ¿ÑĢÐ¸ÑħÐ¾Ð´ Ð¸Ð»Ð°
ĠÐ°ÑģÑĦÐ°Ð»ÑĮ ÑĤ
ÑģÑĤÐ² Ð°Ð¼Ð¸
Ðº Ð°Ð»ÑģÑı
ĠÑģÐ³Ð»Ð¾ÑĤ Ð½ÑĥÐ»Ð°
ĠÐ¿Ð¾ÐµÐ´ ÐµÐ¼
ĠÐ¿Ð¾ÑģÑĤÐ°ÑĢ Ð°Ð»Ð°ÑģÑĮ
ĠÐ·Ð°ÑĪÐ¸ Ð¿ÐµÐ»
ĠÐĲÐ´ ÑĢÐ¸
ĠÑģÑĤÐ°ÑĢÐ° Ñı
ĠÑıÐ´ Ð¾Ð²
v er
ĠÐ¸Ð½ ÑĤÑĢÐ¸
Ð¡ Ð½Ð°ÑĩÐ°Ð»Ð°
ÐµÑĢÐµÐ´ Ð¸Ð½Ðµ
ĠÐ¾ÑģÑĤÐ°Ð½Ð°Ð²Ð»Ð¸Ð² Ð°ÑıÑģÑĮ
ĠÐĽÐ¾ÑĢ ÐµÐ½
Ð¸ÑĤ Ð¸Ð²
ÐĿ Ð°Ñģ
ĠÐ¨ Ñĥ
ĠÐ³Ð°Ð»ÑģÑĤ ÑĥÐº
ĠÐ³Ð¾ÑĤÐ¾Ð² ÑĭÐ¹
ĠÐ¿Ð¾Ð² Ð»Ð¸
Ð¾ÑĢ Ð´Ð¸Ð½Ð°
ĠÐ¿ÑĢÐµÑĢÐ² Ð°Ð»Ð°
ĠÐ¶Ð¸Ð² Ñĭ
ĠÐľÐ°ÑĢ ÑĤÐ¸Ð½
ĠÐ¿ÑĢÐ¾Ð·Ð²ÑĥÑĩ Ð°Ð»Ð¾
ĠÐ¿Ð»Ð° Ð½Ð°
ĠÐ¿ÑĢÐ¸Ð½ ÑıÐ»Ð¸ÑģÑĮ
ĠÐ·Ð°Ð± ÐµÑĢ
ĠÐ¿ÑĤÐ¸ ÑĨÑĭ
Ð² ÑĮÑİ
ĠÑģÐ¼ÑĥÑī ÐµÐ½Ð¸Ñı
ĠÐ´ Ð¸ÑģÑĤ
Ð¼Ð¾ÑĤÑĢ ÐµÐ²
ĠÑģÐ¾Ð¾Ð±Ñī ÐµÐ½Ð¸Ñı
ĠÐ¿ ÑĥÐ±Ð»Ð¸
ĠÑģ Ð³Ð¾ÑĢ
ĠÐ´Ð¾Ð±Ð°Ð² Ð¸ÑĤÑĮ
ĠÐ¿ÑĢÐ¾ÑĩÐ¸ÑĤ Ð°Ð»
ĠÐ± ÐµÐ»Ð¾Ðµ
ĠÐ¼ÑĥÐ¶ Ñĥ
ĠÐ²ÐµÑĤÐµÑĢ Ð¾Ðº
ĠÐ¿ÑĢÐ¸Ð² Ð»ÐµÑĩÑĮ
Ð± ÑĥÐ´ÑĮ
Ð¾Ñģ Ð¿
ĠÐ¿Ð¾ÑĢ Ð¾Ð³Ð°
ĠÑĥÐ¿ÑĢÐ°Ð² Ð»ÑıÑĤÑĮ
ĠÑģÐ»ÑĥÑĪ Ð°ÐµÑĤ
ĠÐ·Ð°Ð² Ð¾Ð´
ĠÐ¡ÐºÐ¾ÑĢ Ð¿Ð¸
Ñĭ ÑĤÑĮ
ĠÐ»Ð¸ ÑĩÐ½Ð¾Ð¹
ĠÐļÐ¾ÑĢÐ¾Ð»ÐµÐ² Ð°
Ð¾Ñĩ ÐºÐ°Ñħ
ĠÐ¼Ð¾Ð» Ð¸ÑĤ
ĠÑħÐ¾Ð»Ð¾Ð´Ð¸Ð»ÑĮ Ð½Ð¸Ðº
ĠÐ´ÑĥÑħ Ð¾Ð¼
ĠÐĶÐ¶ÐµÐ¹ Ñģ
ĠÐ²Ð·Ð± ÐµÑģ
ĠÐ´ÐµÑĢÐ¶ Ð°Ð»Ð¸
ĠÑĤÐµÐ¿Ð»Ð¾ Ðµ
ĠÑĢÐµÐ±ÑıÑĤ Ð°Ð¼Ð¸
Ð½Ð°ÑĩÐ°Ð» Ñĥ
ĠÐ¿ÑĢÐ¸ÑĤ Ð¸Ñħ
ĠÑıÑĢ ÑĩÐµ
ĠÐ¾ÑĤÐ´ÑĭÑħ Ð°
Ð½Ð¾ Ð»Ð¾Ð³
ĠÐ·Ð°ÐºÑĢÑĭ ÑĤÑĭÐ¼Ð¸
Ð°Ð» Ð¸Ð½
ÑīÐ¸ ÐºÐ°
ĠÑįÐº ÑģÑĤ
ĠÐ¿Ð°ÑĢ ÐºÐ¾Ð²
ĠÐŁ Ð¾Ð·Ð²
ĠÐ¿ÐµÑĢÐµÐ¿ Ð¾Ð»Ð½Ñı
ÐĶ ÑĥÐ¼
ĠÐ´Ð¾Ð³ Ð¾Ð²Ð°ÑĢ
ĠÐºÑĢÐ¸ ÑĩÐ°
ĠÑģÐ²Ð¸Ð´ÐµÑĤ ÐµÐ»ÑĮ
Ñı ÑİÑĤ
ĠÐ·Ð°ÐºÐ¾Ð½Ñĩ Ð¸Ð»Ð¸ÑģÑĮ
ĠÐ¿ÑĢÐµÐ´Ð»Ð°Ð³ Ð°Ñİ
ĠÐłÐ¾Ð± ÐµÑĢÑĤ
Ð¸Ñĩ ÐºÐ¸
ĠÑĤÐµÑħ Ð½Ð¸ÐºÐ¸
ĠÑĢÐ°Ð· ÑĭÐ³
ĠÐ¿ÑĢÐµÐ´ÑģÑĤÐ°Ð² Ð¸Ð»
ÐµÐ½ÑĮ ÑĪÐµ
ĠÐ¡ ÑĤÐ¾Ð»ÑĮÐºÐ¾
ĠÐ´Ð¾Ð±ÑĢÐ¾Ð´ ÑĥÑĪ
Ð¸Ð½Ð´ Ð·Ñı
ĠÐ¿ ÑıÐ»
ĠÐ¿Ð¾ÑĤ ÐµÐ½ÑĨÐ¸
Ðº ÐµÑĤ
ĠÑħÐ¾Ð»Ð¾Ð´ Ð½Ð¾Ð³Ð¾
ĠÐºÑĢÐ¾Ñģ ÑģÐ¾Ð²
ĠÐ¿Ð°ÑĢ ÑĤÑĥ
ĠÐ¿Ð°ÑĢÐµÐ½ÑĮ ÐºÐ°
ĠÑĢÐ°Ð·Ð´ ÐµÐ»Ñı
ĠÐ¾Ð±Ð»Ð° Ñĩ
Ñı Ð½ÑĥÑĤÑĮ
ĠÐ¿ÑĢ ÐµÐ½
ĠÐ¸Ð· Ð³Ð¾
ÑĢ ÐµÐ»Ð°
ĠÐĴ Ð¾Ð¿ÑĢÐ¾Ñģ
ĠÐ¸Ð· Ð½Ð°ÑĩÐ°Ð»ÑĮÐ½Ð¾
ĠÑģÐ¾Ð³Ð»Ð°Ñģ Ð¸Ñı
ĠÐºÐ¾Ð½ÑĦ Ð»Ð¸Ðº
ĠÐ²ÑħÐ¾Ð´ Ñĥ
ĠÐ½ÐµÐ¸Ð· Ð±
ÑĳÐ¼ ÑģÑı
ĠÐ¿ÐµÑĢÐµÐ³ Ð¾Ð²Ð¾ÑĢ
Ð½ÑĥÑĤ ÑĭÑħ
ĠÐĶ Ð¾Ð»
ĠÐ¾ÑģÑĥ ÑīÐµÑģÑĤÐ²
ĠÐ²ÐµÑī Ð°Ñħ
ĠÐ¼Ð¸Ñģ ÑģÐ¸Ð¸
ĠÑĥÑĪ Ð°Ð¼
ĠÐ¿Ð¾Ð´ÑĢÐ¾ÑģÑĤ ÐºÐ¾Ð²
ĠÐ¿ÑĢÐ¾Ð´ ÐµÑĢÐ¶
Ġ G
ĠÑģÑĤ Ð°Ñī
ĠÐ²ÑĭÑģÐ¾Ðº Ð¾Ð¼ÐµÑĢ
ĠÑĢÐµÐ·ÑĥÐ»ÑĮÑĤÐ°ÑĤ Ðµ
ĠÐ±ÑĢÐ¾Ñģ Ð°Ñı
ĠÑĩÐµÑĢ Ð½Ð¾Ð¼
Ð¾ÑĤ ÑĤ
ĠÐłÐµÐ± Ð¾ÑĢÐ½
ĠÐĴÐ¸Ðº ÑĤÐ¾ÑĢÐ¸Ñı
ĠÐ±Ð¾Ð»ÑĮÑĪ Ð¸Ð½
ĠÐļ Ð°Ð¼Ð¸
ĠÑĢÑĭ ÐºÐ½ÑĥÐ»
ĠÐ±ÐµÐ» ÑĭÐ¼Ð¸
ĠÐ²Ð¾Ð·Ð²ÑĢÐ°Ñī Ð°ÑıÑģÑĮ
ĠÐ¿ÐµÑĢÐµÐ¶ Ð¸Ð²Ð°Ð»
Ð°ÐµÐ¼ Ð¾Ð¹
ĠÐ¼Ð¸Ð» ÑĭÐ¼
' s
ÐĶ ÐµÐ½ÑĮ
ĠÐ´Ð¶Ð¸Ð½Ñģ Ð°Ñħ
ĠÑĥÐ¼ ÑĢÐµÑĤ
ĠÐ½Ð°Ñģ ÑĭÑī
ĠÐ¿Ð¾Ð´ÑĥÐ¼ Ð°Ð¹
ĠÑħÑĢÐ¸Ð¿ Ð»ÑĭÐ¼
ĠÐ¿Ð°Ð½Ð¸ ÐºÐ°
Ð´Ð¸ Ðº
ĠÐ¿Ð¾Ð¼ Ð½Ð¸ÑĤÑĮ
ĠÐ±ÑĢ Ð°Ðº
ĠÐ²Ð¸Ð´ Ð¸ÑĤÐµ
ĠÑĩÐµÑĢ ÑĤÑı
ĠÐ½Ð°Ð· ÑĭÐ²Ð°Ð»
ĠÐ¿ÐµÑĢÐµÑģÑĤÐ°Ð² Ð°Ñı
ĠÑĨÐ²ÐµÑĤ Ð¾Ðº
Ðº Ð°Ð´
ĠÐ·Ð°Ð¼ÐµÑĩ Ð°ÑĤÑĮ
Ð½ Ð°Ð¿
Ð¾ÑĢ Ð°Ð·
ĠÐ¿Ð¾Ð¿ ÑıÑĤ
ĠÑĤÑĳÐ¼ Ð½ÑĭÐµ
ĠÐ¿ÑĥÑģÑĤ ÑĭÐµ
ĠÑħÐ¼ÑĥÑĢ Ð¸ÑĤÑģÑı
ĠÐ·Ð°ÑģÐ»ÑĥÐ¶ Ð¸Ð»
ĠÐł Ð°Ð¼
ĠÐ½Ð°Ð² ÐµÑģÑĤÐ¸ÑĤÑĮ
ĠÐ½Ð°Ð· ÑĭÐ²Ð°ÐµÐ¼
ĠÐ²ÐµÑĢ Ð½ÑĳÑĤÑģÑı
ĠÐ¼ÑĥÑĩ Ð¸ÑĤÐµÐ»ÑĮÐ½Ð¾
ĠÑģÐ¼ ÐµÐ½Ð¸ÑĤÑĮ
ĠÐ¼Ð°Ð»ÑĮÑĩÐ¸ ÐºÐ¾Ð¼
ÐµÑĢ Ð°ÑĢ
ĠÐŀÐ´ Ð½Ð°Ð¶Ð´Ñĭ
ĠÐ±ÑĥÑĤ ÐµÑĢÐ±ÑĢÐ¾Ð´
o s
Ð´ Ð°ÑĢ
ÑĮÑı Ð½
ĠÐ±ÐµÑĢÐµÐ¼ ÐµÐ½Ð½Ð°
ĠÐ±ÐµÐ·ÑĥÐ¼ Ð¸Ñı
Ð°Ð½Ð¸ Ð²
ĠÐŀ Ñī
ĠÐ²Ð¾ÑģÑģÑĤÐ°Ð½Ð¾Ð² Ð¸ÑĤÑĮ
ĠÑģÑĤ Ð°ÑĤÑĥ
ĠÐ¼Ð°ÐºÑģÐ¸Ð¼ Ð°Ð»ÑĮÐ½Ð¾
ĠÐ²ÑĭÐ´ ÑĥÐ¼
Ð¾Ð¼ ÑĦÐ¾ÑĢ
ĠÐ¿Ð¾Ð»Ð¾Ð¶ ÐµÐ½Ð¾
ĠÐ¼ÐµÑģÑĤ Ð¾Ð¼
ĠÐ¿ Ð¸Ð»Ð¸
ĠÑĥ ÑģÑĤÑĢÐ¾Ð¹
ĠÑĨÐ²ÐµÑĤ Ð¾Ð¼
ĠÐ½Ð¾Ð² ÐµÐ½ÑĮ
ĠÑģÑĤÑĢÐ°Ð´ Ð°ÑĤÑĮ
ĠÐĴ ÑĢÐµÐ¼
ĠÐ²ÑĭÐ´Ð¾Ñħ Ð½ÑĥÐ²
Ð¸ÑĩÐµÑģ ÐºÐ¸Ð¹
ĠÑģÐ¿ÑĢÑı ÑĤÐ°Ð»
ĠÐ°Ð¼ÐµÑĢÐ¸ ÐºÐ°Ð½
ĠÐ²ÐºÐ»ÑİÑĩ Ð¸Ð»Ð°
ĠÐ¾ÑĤÑĢÐµÐ°Ð³ Ð¸ÑĢÐ¾Ð²Ð°Ð»
ĠÐ±ÑĢÑİ Ðº
ĠÐ¾Ð¿ÑĢÐµÐ´ÐµÐ» ÑĳÐ½Ð½Ð¾
Ð¸ÑĢ Ð°Ð»Ð°ÑģÑĮ
ĠÐ¸Ð³ÑĢÐ¸Ð² Ð¾
Ð°Ð¹ ÐºÐ¸
Ð½ÑĥÑĤ ÑĭÐ¼Ð¸
Ñģ Ð»Ð¾Ð²
ĠÐ°Ð¿Ð¿ÐµÑĤ Ð¸ÑĤ
ĠÐ¿Ð°ÑĢ ÐºÐ°
ĠÑĥÐºÑĥ ÑĤ
ĠÐ´Ð¾ ÑĪÐ»Ð°
Ð» ÐµÐ¼Ñĥ
ĠÐ¼Ð°Ð»ÐµÐ½ÑĮ ÐºÐ¸Ð¼Ð¸
ĠÐ¿ÑĥÑģÐº Ð°Ð¹
ĠÐĵ ÑĢÐ¸
ĠÐ±Ð¾Ð»ÑĮ Ð½Ð¾Ð¹
ĠÐ¿Ð¾Ð· Ñĥ
ĠÐ¸Ð½Ð¸ÑĨÐ¸ Ð°ÑĤÐ¸Ð²
ĠÐ³Ð¾Ð²Ð¾ÑĢ Ð¸ÑĤÑģÑı
ĠÑĥÐ±Ð¸Ð¹ ÑģÑĤÐ²Ð¾
ĠÑĥÐ²ÐµÑĢÐµÐ½Ð½Ð¾ ÑģÑĤÐ¸
Ð¸Ð¼ ÑĭÑħ
ĠÐ²Ð¾ÑĢÐ² Ð°Ð»ÑģÑı
ĠÐºÐ°ÑĪ Ð»Ñı
ĠÐ¶ ÐµÑĢ
ĠÐ¿Ð°Ð¿ Ð¾Ð¹
ĠÐ³ Ð°ÑĢÐ°Ð½
ĠÐļÐ¸ÑĢ Ð¸Ð»Ð»
ĠÐ·Ð°ÐºÐ¸ Ð½ÑĥÐ»
ĠÐ·Ð°Ðº Ð¸Ð´
Ð¸ÑĢ Ð°Ð¹ÑģÑı
ĠÐ·Ð°Ð´ Ð½Ð¸ÑĨÐµ
ĠÐ²Ð¾Ð² ÑģÑİ
ĠÐ¾ÑĤÑĤÐ¾Ð» ÐºÐ½ÑĥÑĤÑĮ
ÐµÐ² Ð°Ð»Ð¸
ĠÐ¡Ð°Ðº ÑĥÑĢÑĭ
ĠÑĢ ÐµÐºÐ¸
ĠÐŁÑĢÐ¸ ÑıÑĤÐ½Ð¾
ĠÐķ Ð²Ð°
ĠÐ½Ð° Ð½ÐµÑģ
ĠÐĽÑİÑĨÐ¸ ÑĦÐµÑĢ
ÐµÑĩ Ð½Ð¾
ĠÐ½Ð°Ð¿Ð¸Ñģ Ð°Ð»Ð°
ĠÑĥÐ´Ð¸Ð² Ð¸Ð»Ð¾
Ðļ ÐĲ
ĠÑı ÐºÐ¾Ð±Ñĭ
ĠÐĶÐ¶ ÑĥÐ²Ð¸Ñı
ĠÐłÐ¾Ð¶Ð´ ÐµÑģÑĤÐ²Ð¾
ĠÐŃÐ² Ð°Ð½Ñģ
ĠÐ¿Ð¾ Ð½Ð°ÑĩÐ°Ð»Ñĥ
ĠÐ¿Ð¾Ð± Ð»Ð¸Ð·Ð¾ÑģÑĤÐ¸
Ð½ Ð¾Ð³Ñĥ
ĠÐ£Ð²ÐµÑĢ ÐµÐ½
ĠÑĤÑĮ Ð¼Ñĥ
ÑĦÐ¸ ÐºÐ°
ĠÑĤÑĢÑı ÑģÑĤÐ¸
Ñĭ ÑģÐ»Ð¸
ĠÐĺ Ð²
i r
ĠÑĢÐ°Ð· Ð½ÑĭÐ¼Ð¸
ĠÐ´ÐµÐ²ÑĥÑĪ ÐºÐ°Ð¼Ð¸
ÑģÐ»Ð¸ ÑģÑĮ
Ġ R
ĠÐĲ ÑıÑĤÐ¾
Ð° ÑĨÐ¸Ð¸
ĠÐ¿Ð¾ÑħÐ¾Ð´ ÐºÐ¾Ð¹
ĠÐ»Ð¸ Ð·
ĠÑĢÐ¸ÑģÑĥÐ½ Ð¾Ðº
ĠÐ¢Ð°Ðº Ð¸Ð¼
ĠÑĥÑģ ÐµÐ»Ð°ÑģÑĮ
ĠÐ´Ð¸Ð°Ð» Ð¾Ð³
ĠÑĤÑī ÐµÑĤÐ½Ð¾
ĠÐ¿ÑĢÐ¸Ñģ Ð¼Ð°ÑĤÑĢÐ¸Ð²
ĠÐºÐ¾ÑĢÐ¾Ð± Ð¾ÑĩÐºÑĥ
ĠÐ¥ ÑįÐ¹
ÑĨÐµÑĢ ÐµÐ¼Ð¾Ð½
ĠÑĥÐ´Ð¸Ð² Ð»ÐµÐ½Ð°
ĠÐ½Ð°Ð± Ð¾Ðº
ĠÐ½Ð¸ ÑģÐºÐ¾Ð»ÑĮÐºÐ¾
ÑĤÐ¾ ÑıÐ»
Ð£ÑĤ ÑĢÐ¾Ð¼
ĠÐ¸ÑģÑĩÐµÐ· Ð°ÐµÑĤ
ĠÐ¿Ð°Ð´ Ð°ÑĤÑĮ
ĠÐ¿Ð¾Ñģ ÑĥÐ´
ĠÐłÐµÐ· ÐºÐ¾
ĠÐ¾Ð± Ð»Ð¾Ð¶
ÑĥÑģ Ð»Ð¾Ð²Ð½Ð¾
ĠÐĽ Ð°Ð²Ð¸
Ðº Ð°ÑĤÑĮÑģÑı
ĠÐ¥ Ð¾ÑĢÐ¾ÑĪ
i d
Ð°ÑģÐº ÐµÑĤ
ĠÐ¿Ð¾Ð» ÐºÐ¸
ĠÐºÑĥ ÑģÑĤ
ÐĶ Ð°Ð»ÑĮÑĪÐµ
ĠÐ¶ Ð¸ÑĢ
ĠÐ½Ð¾Ñģ Ð¸ÑĤ
ÐĿ Ðĺ
ĠÐ·Ð°Ð¿ Ð¾Ð»Ð½Ñı
ĠÐ¿Ð¾Ñĩ Ð¸ÑĤ
ĠÐ½ÐµÐ¿ÑĢÐ¸ ÑıÐ·
ĠÐ¿Ð¾ÑıÐ² Ð¸ÑĤÑĮÑģÑı
ĠÐ¾ÑĤÑĤ ÐµÐ½Ð¾Ðº
ĠÐ¿Ð¾Ð¼ ÐµÐ´
ĠÑĥÐ¼ ÐµÐ½ÑĮÑĪ
ĠÑĢÐµÐ°Ðº ÑĨÐ¸ÐµÐ¹
ĠÑĥÑħ Ð¾Ð¶Ñĥ
ĠÐ¿Ð¾ Ð»ÑĭÑħ
ĠÐ¿Ð¾Ð´Ð´ÐµÑĢÐ¶ ÐºÐ¸
ĠÑģÐ°Ð¼Ð¾ ÑĥÐ²ÐµÑĢ
Ð¾Ñħ Ð²Ð°ÑĤ
ĠÐ·Ð°Ð¿Ð»Ð°Ðº Ð°Ð»Ð°
ĠÐºÐ°Ðº Ð¾Ð²Ð¾
ÑĢÑĭ Ð¶
ĠÐ²ÐµÑĤ ÑĢÑĥ
. )
ÑĭÐ² Ð°ÑİÑīÐ¸Ð¹
ĠÐ± Ð¸Ð»ÐµÑĤ
ĠÐĶ Ð¸Ð¼
ĠÑĪ ÐµÑĢÐ¸
ĠÑĤÑĭÑģÑı ÑĩÑĥ
ĠÐºÐ¾Ð½ Ñı
ĠÐ²Ð¾Ñģ ÑģÑĤÐ°Ð½
ĠÐŁÐ¾Ð¿ ÑĢÐ¾Ð±
ĠÑİ Ð½ÑĭÐ¹
ĠÐ¡ ÐµÑĢÑĮÐµÐ·Ð½Ð¾
Ð°Ð´ Ð°ÑĤÑĮ
ĠÑĢÐ°Ð·Ð³Ð»ÑıÐ´ ÑĭÐ²Ð°Ð»
ĠÐ²ÑĭÐ± ÐµÑĢ
ĠÐ·Ð°Ð½ ÑıÐ»
ÑĭÑĢ ÑĮ
ĠÐ´Ð¾Ð¿ ÑĥÑģÑĤÐ¸ÑĤÑĮ
ĠÐ»Ð¸ÑĦ ÑĤ
Ð¸ÑĢ Ñģ
ĠÐ «
ĠÑģÐ½Ð¸Ñģ ÑħÐ¾Ð´
ĠÑĢÐ°ÑģÐº ÑĢÐ°Ñģ
ĠÐ¾ÑĤÑĩÐ°Ñı Ð½Ð¸Ðµ
ĠÐ½Ð°ÑģÐ»Ð°Ð´ Ð¸ÑĤÑĮÑģÑı
ĠÐ¿Ð¾Ð´ Ð°Ð»ÑģÑı
ÑĢÐ¾ ÑĩÑĮ
ÐµÐ»Ñı Ñħ
ĠÐ´ÐµÑĤ ÑģÐºÐ¸Ð¹
ĠÐ·Ð°Ñģ Ð¼ÐµÑıÐ»Ð¸ÑģÑĮ
ĠÐ¡ÐµÑħ ÑĥÐ½Ð°
ĠÑģÐ´ÐµÐ»Ð° Ð½Ð¾
ĠÐ³Ð»Ð°Ð² Ð½ÑĭÐ¼
ĠÐ¼Ð°Ð³Ð°Ð· Ð¸Ð½Ðµ
ĠÐļ Ð²
ÑģÑĤÐ² ÑĥÑİ
ĠÐ³Ð¾ÑģÐ¿Ð¾Ð´ Ð¸Ð½Ð°
ĠÐ¿ÐµÑĢÐµÐ² Ð°ÑĢ
ĠÑģÐ»ÐµÐ´ Ð¾Ð²Ð°ÑĤÑĮ
ĠÐ¿ÐµÑĢÐµÐº ÑĥÑģ
ĠÐĽÐ¸ Ð°Ð¼Ð°
ĠÑĢÐ°ÑģÑĤ ÐµÐº
ĠÑĨÐµÐ¿ Ð¸
ÑĥÑİÑī ÐµÐ¹
ĠÐ¿Ð¾Ð¼Ð¾Ð³ Ð»Ð¾
ĠÑģÐ¿Ð¾ÑģÐ¾Ð± Ð½Ñĭ
ĠÑħÐ¾Ð·ÑıÐ¹ ÐºÐ°
ĠÐ¿ÑĥÑģÑĤ ÑĭÐ¼
Ð°Ðº Ð¸Ð²Ð°ÐµÑĤ
ĠÐ¿ÑĢÐ¸ÑħÐ¾Ð¶ ÐµÐ¹
ĠÐ°Ð´ ÐµÐºÐ²Ð°ÑĤ
ĠÐ»ÐµÐ¿ ÐµÑģÑĤ
ĠÑĥÐ± ÐµÐ³
ĠÐ³ÑĢÐ° Ð½Ð¸ÑĨÑĭ
ĠÐºÐ¾ÑĦ ÑĤÑĥ
ĠÑĥ Ð»ÐµÐ³
Ð½ Ñį
ĠÐ·Ð°Ñħ Ð»ÐµÐ±
ĠÑģÐ¾Ð» Ð½ÑĭÑĪÐºÐ¾
ĠÐ¾Ð±Ñī ÐµÐ½Ð¸Ðµ
ĠÑģÐºÑĥÑĩ Ð°Ñİ
ĠÐ¾ÑģÐ¾Ð· Ð½Ð°ÑĤÑĮ
ÑīÐµ ÐµÑģÑı
ĠÐŀ Ð·
ĠÐĲ Ð´Ð°
ĠÐ¿Ð¾Ð»ÑĥÐ¼ ÑĢÐ°Ðº
ĠÐ¾Ð±Ð»Ð¾ÐºÐ¾ÑĤ Ð¸Ð²ÑĪÐ¸ÑģÑĮ
ĠÐ½Ð°ÑģÐ»Ð°Ð¶Ð´ Ð°ÑĤÑĮÑģÑı
ÑĤÐ¸ Ñģ
ĠÐ½ÐµÐ·Ð°Ð¼ ÐµÐ´
Ð°Ð½ ÐºÐ¸
Ñĭ ÑĪÐµ
ĠÐºÐ»ÐµÑĤ ÐºÐµ
ĠÐ¾Ð±Ð»Ð° ÑģÑĤÐ¸
Ð± ÑĢÐ¸
ÑĩÐ¸ Ð½Ñĭ
ĠÑĢÐ¸ÑģÐº Ð¾Ð²Ð°ÑĤÑĮ
ĠÐ¶Ð³ ÑĥÑĩ
ÐĿ ÐµÑģ
ĠÐ»ÐµÐ³ ÐºÐ°Ñı
Ð² Ð°Ð»ÑĮÐ½Ð¾
ĠÐ¾ÑĤÐ¿ ÑĥÑģÐºÐ°Ñı
ĠÑģÐºÐ°Ð· ÐºÐ¸
ĠÐĶÐ¶ Ð¾ÑĪ
Ðĳ ÑĥÐ´
ĠÐ²Ð½ÐµÑĪ Ð½Ðµ
ĠÐ£ Ðº
ĠÐ¢ ÐµÐ»
ĠÐ¿ÑĢÐ¸Ð² ÐµÐ´
ĠÑģ ÑħÐ¾Ð¶Ñĥ
ĠÐ¡ÑĤ ÑĢÐ°Ñħ
ÑĢÐ° Ð½Ð¸
ÐµÐ¿ÑĤ Ð°Ð»
ĠÐ´Ð° ÑĳÑĤ
ĠÐľÐ¸ ÑĪ
ĠÑĤÑĢÐµÐ± ÑĥÐµÑĤ
ĠÑģÐ»Ð°Ð± Ð¾ÑģÑĤÐ¸
ĠÑĤÑıÐ¶ÐµÐ» ÑĭÐµ
ĠÐ¿ÑĢÐ°Ð² Ð´Ñĭ
ac k
ĠÐ¿ÑĢÐ¸Ð½ ÑıÐ²
ĠÐ¿ÑĢÐ¸Ñĩ ÑĥÐ´
ĠÐ°Ð³ ÑĢÐµÑģÑģ
ÑĥÑģÑĤ Ð¸Ð¼
ĠÐ²Ð°ÑĪ ÐµÐ¼
ĠÐ¶ÐµÐ» Ð°Ð»Ð°
ĠÐ¿Ð»Ð¾ÑīÐ°Ð´ ÐºÐµ
ĠÐ¸Ð´ ÐµÑĪÑĮ
ĠÐµ Ð»Ð¸
ĠÑģ ÐºÐ¸Ð½ÑĥÐ»
u t
ĠÐ¢ ÐµÐ¿
ĠÑĢ ÐµÑĩ
ĠÐ¸ÑģÐ¿ Ð°Ñĩ
ĠÑĢÐµÐ± ÑĢÐ°
ĠÐ¾Ð±Ð¾ÑĢÐ°ÑĩÐ¸Ð² Ð°ÐµÑĤÑģÑı
Ð¾Ð» ÑİÐ±
ĠÐ¿ÑĢÐ¸Ð¿Ð¾Ð´Ð½Ñı Ð²
ĠÐ¿ÑĢÐµÐ´ÑģÑĤÐ¾Ñı Ð»Ð¾
ĠÐ¾Ð³ÑĢÐ¾Ð¼ Ð½ÑĭÐ¼Ð¸
ĠÑĪ ÑĤÑĥÑĢ
ĠÐĳÐ»ÐµÐ¹ Ð·
ĠÐ´ÑĢÐ¾Ð³ Ð½ÑĥÐ»
ĠÐ¶Ð°Ð» ÐµÑĤÑĮ
ĠÐ´ÑĢÐ¾Ð¶Ð° ÑīÐ¸Ð¼
ÐŃ ÑĤÐ¸
ĠÐ¿Ð¾Ð¼Ð¾Ð³ Ð»Ð¸
ÐµÑģ ÐºÑĥ
ĠÐĿ Ð¸Ð½Ð°
ĠÐºÐ°Ð¼Ð¸ Ð½Ð°
ÑģÑĤ ÑĢÑĥÐº
ĠÐł Ð¾Ð´Ð¸ÑĤÐµÐ»Ð¸
ÐµÐ² Ð¾Ð³Ð¾
ĠÐ¿ÑĢÐµÐºÑĢÐ°Ñģ Ð½Ð¾Ð¹
ĠÑģÐ´ÐµÐ»Ð° ÐµÐ¼
Ð¸Ñħ Ð°
Ġ1 2
Ð¾Ðº Ð¸Ð¹
ĠÐ³Ð¾Ð»ÑĥÐ± ÑĭÐ¼Ð¸
ĠÑĤÑĢÐµÐ· Ð²
ĠÐ½ÐµÐ¾ÑħÐ¾ÑĤ Ð½Ð¾
ĠÐ¿Ð¾Ð³Ð»Ð°Ð´ Ð¸Ð»Ð°
ĠÐĿ ÐµÑĩ
ĠÐŁ Ð¸
ĠÐĽ Ñĳ
ĠÐ¿Ð¾Ð» Ð½Ð¾Ð³Ð¾
ĠÑģÐ¿Ð¾ÐºÐ¾Ð¹ ÑģÑĤÐ²Ð¸Ñı
ĠÐ² ÑıÐ»Ð¾
Ðľ ÐµÑĢ
ĠÑĦ Ð¸Ð»Ð¾Ñģ
ĠÐ½ÐµÑģÐºÐ¾Ð»ÑĮ ÐºÐ¸Ð¼Ð¸
ĠÑģÐ² ÐµÑĩÐ¸
ĠÐºÐ²Ð°ÑĢÑĤÐ¸ ÑĢÐ°
ĠÐ¿Ð°ÑĢÐ½Ð¸ ÑĪÐºÐ°
Ð¡ Ð¾Ð½
ĠÑĩÐ°ÑģÑĤ ÐµÐ½ÑĮÐºÐ¾
ĠÐĵ ÑĢÐµÑı
ĠÐ°Ð²ÑĤÐ¾Ð¼Ð¾Ð± Ð¸Ð»Ñı
ĠÐ½Ð°Ñĩ Ð°Ð²
ĠÐ½Ð° Ð¸Ð·
ĠÐ¾Ñĩ ÐºÐ¾Ð²
ĠÐ½Ð°Ñħ Ð¼ÑĥÑĢÐ¸Ð²ÑĪÐ¸ÑģÑĮ
ĠÐ¾ÑĤÐ´ Ð°Ð¼
ĠÑģÐ¿ÑĢÐ°Ð² Ð»ÑİÑģÑĮ
ĠÐ¿Ð»Ð°Ð½ÐµÑĤ Ðµ
ĠÐ´Ð²Ð¸ Ð½ÑĥÐ»Ð°ÑģÑĮ
ĠÑıÐ² Ð»Ñı
ĠÐ½Ð°Ð·Ð² Ð°Ð½Ð¸ÐµÐ¼
Ð¼ Ð¾Ð²
ĠÐ¼Ð¾Ð¼ÐµÐ½ÑĤ Ð¾Ð¼
ĠÐ¿Ð¾ÐºÐ°Ð·ÑĭÐ² Ð°ÐµÑĤ
ĠÐ¾ÑģÑĤ Ð°Ð½Ðµ
ĠÑģÑĩÐ¸ÑĤ Ð°ÑİÑĤ
ĠÐ¿Ð¾Ð¼ÐµÑĪ Ð°ÐµÑĤ
ĠÐ¼ ÑĢÐ°Ð¼
Ð¥ Ð¼
ĠÐ½ÐµÑĢÐ² Ð½Ð¸Ñĩ
ĠÑĨ ÑĭÐ¿
ÐĽ Ð¾ÐºÐ¸
... ?
ĠÐ¾Ñĩ ÑĥÑĤ
ĠÐľ Ð´Ð°
ĠÐĴÑĭ Ð³Ð»ÑıÐ´
ĠÐ¥ Ð¸Ð´Ð°Ð½
ĠÑģÑĤÐ¾Ð»Ð¸ ÐºÑĥ
ĠÐ·Ð²Ð¾Ð½ ÐºÐ¾
ĠÐ±Ð°ÑĢ Ðµ
ĠÐ·Ð°Ð¼ÐµÑĢ Ð»Ð¸
ĠÑģ Ð°Ð»Ð¾
ĠÐŁÐ¸ÑĤ ÐµÑĢÐ°
ÑĥÐ¶ Ð´Ð°Ñı
ĠÐ¿Ð¾ÑĢ Ð²
ĠÑĦÐ¸Ð·Ð¸ Ð¾Ð½Ð¾Ð¼
ĠÐ»ÑĥÐºÐ°Ð² Ð¾
ÑĥÑĪ Ð¸Ð»
ĠÐ¿Ð¾ÑĤÐµÐº Ð»Ð¸
ĠÐĴ Ð¸Ð¶Ñĥ
Ð»Ð¸ÑĤ ÐµÐ»ÑĮÐ½Ð¾
ĠÐ¡ ÐµÑģÑĤ
ĠÐ³Ð»Ñı Ð´ÐµÐ»
ĠÐ½Ð°ÑĩÐ¸Ð½ Ð°Ð»Ð¾
ĠÐ¿ÑĢÐ°Ð² Ñĭ
ĠÑģÐ¼ Ð¾ÑĢÑī
Ð» Ð¾Ð¼Ñĥ
ÑĢÐµÐ¿ ÑĩÐµ
ÐµÐ½ÑĮ ÐºÐ¸
ĠÐºÐ¸Ð² Ð¾Ðº
ĠÐ¿Ð¾Ð»Ð¾Ð² Ð¸Ð½Ñĭ
ĠÐ³ÑĢÑĥ ÑģÑĤÑĮÑİ
ĠÑĢÐ°Ð·Ð´ Ð°Ð»Ð¾ÑģÑĮ
ĠÐ½Ð° ÑģÑĤÐ¸Ð³
ĠÐ½ÐµÐ¶ Ð½Ð¾Ð¹
Ð°Ð»ÑĮ ÑĦ
ĠÐ¾ÑĩÐµÑĢÐµÐ´ Ð½Ð°Ñı
ĠÐ²Ð· Ð°Ð¼ÐµÐ½
ĠÑģÐ»ÑĭÑĪ Ð°
ĠÐ± Ð¸Ð»Ð¾ÑģÑĮ
ĠÐ¿ ÑĮ
ĠÐ¾ÑĦÐ¸ÑĨÐ¸ Ð°Ð»ÑĮÐ½Ð¾
ĠÐ¾ÑģÑĤÐ°Ð½Ðµ ÑĪÑĮÑģÑı
ĠÐ±ÑĢ Ð°Ð»
ĠÐ¿ÑĢÐ¸Ð»Ð¸ Ð¿
ÐĹ Ð°Ð±
ĠÐ¾ÑĤÐ¾ÑĢÐ² Ð°ÑĤÑĮÑģÑı
ÐµÐ´ Ð½ÐµÐ²
ĠÐ¸Ð½ ÑĤÐ¸Ð¼
ÑħÐ¾Ð´ Ð¸ÑĤÐµ
Ð¡Ðº Ð¾Ð»ÑĮÐºÐ¾
ĠÐ²ÑĭÑıÑģ Ð½Ð¸Ð»Ð¾ÑģÑĮ
ĠÑħÐ° Ð¾Ñģ
Ð´Ð¾ÑĢ Ð¾Ð²Ð°Ð»ÑģÑı
ĠÐ°Ð² ÑĤÐ¾ÑĢÐ°
ÐµÐ½ Ð¾Ð¹
ĠÐ¼ÑĥÐ·Ñĭ ÐºÐ°Ð½
ĠÐ½Ð° Ð¸Ð±
ĠÐĲÐ»ÐµÐº ÑģÐ°
ĠÐ¿Ð°Ð´ Ð°Ñı
ĠÐ¿ÑĭÑĤ Ð°ÑİÑĤÑģÑı
ĠÑĩÑĥÐ²ÑģÑĤÐ² Ð°Ð¼Ð¸
ĠÐĳÐ» Ñį
ĠÑĪ Ñĥ
ÐĲ Ðł
ĠÐĵ ÑĢÐ°Ð½
ĠÐ¼Ð°Ñģ ÐºÐ°
ÐĿÐ° ÑĨÑĥ
ĠÐĳÐ¸Ð± ÐµÑĢ
ĠÐ½ÐµÐ´ Ð¾Ð±
ĠÐ¿Ð¾Ð´ Ð¾Ð»
Ġ H
ĠÐĳ ÑĢÐ°
Ð°Ð· Ð°ÑĢ
ĠÐ¾ÑģÐ¾Ð±Ð½Ñı Ðº
ÐŃ Ð½
ĠÑģÐ² Ð°Ð»Ð¸Ð»ÑģÑı
ĠÑģÑĤÐ¾Ð» ÐµÑĪ
ĠÐ½ ÑĭÑĢ
ĠÐĽ ÐµÐ²
ĠÐ¸ÑĤ Ð°Ð»ÑĮ
ĠÐ¾Ð¿ ÑĢÐ¾ÐºÐ¸
ĠÐ±Ð»Ð°Ð³Ð¾Ð´Ð°ÑĢ Ð½Ð°
ĠÑģÐ»ÐµÐ´ Ð°
ĠÑĤÐ¸Ñħ Ð¸Ðµ
ĠÐ·Ð°Ð±Ð» ÑĥÐ´
Ð½Ñĭ ÑĢ
ĠÐĿ Ð°Ð²
ĠÐĶ Ð°Ð»
ÐĴ Ð¼
ĠÐ¾ÑĤÐ¾Ð´ Ð²Ð¸Ð³
ÑĥÑĩ Ñĥ
ĠÐ¿Ð¾Ñģ Ð»ÑĥÐ¶
ĠÐ²ÐµÑĤ ÑĢÐ¾Ð¼
ĠÐ²Ð´ Ð°Ð»ÐµÐºÐµ
ĠÐĴÐµÑĢ Ð½ÐµÐµ
ĠÐ¿Ð¾Ð½Ð¸Ð¼ Ð°Ð½Ð¸Ðµ
ĠÐ¾ÑĤÐºÑĢÑĭÐ² Ð°ÐµÑĤÑģÑı
ĠÑģÐ¼Ðµ ÑĳÑĤÑģÑı
ĠÐ¼Ð°Ð½ ÑĤÐ¸Ð¸
ĠÑģÐ¾Ð±ÐµÑģÐµÐ´ Ð½Ð¸Ðº
ĠÐ¿ÑĢÐ¾ÑĪ ÐµÐ»ÑģÑı
ĠÐ¾Ð±ÑīÐµ ÑģÑĤÐ²Ðµ
ĠÐ¸ÑģÐ¿ÑĭÑĤ ÑĭÐ²Ð°ÑĤÑĮ
ĠÐ¿Ð¾Ðº ÑĢÐ¾Ð²
ĠÑĤÐ°Ðº ÑĤÐ¸
ĠÐ» Ð¸Ð²
ĠÐ²Ð¸Ñģ Ð¾Ðº
ĠÐ·Ð°ÐºÐ»ÑİÑĩ Ð¸Ð»
ĠÐ¾Ð´ ÐµÑĤÐ°
ĠÑģÐ¼Ðµ ÑģÑĮ
ĠÑģÐµÐ³Ð¾Ð´Ð½ÑıÑĪ Ð½ÐµÐ³Ð¾
ĠÐ»Ñĥ Ð½Ñĭ
ĠÐ² ÑĢ
Ðĵ Ð¾Ð»
ÐºÐ² Ð¸Ð·Ð¸
ĠÑĥÐ¿ ÑĢÐµÐº
ĠÐ¾Ð¿Ð°Ñģ ÐºÐ¾Ð¹
ĠÐ´Ð¾Ð»Ð³ Ð¸Ð¹
ĠÐĵ Ð°Ð½
ĠÐĳ Ð¾ÑĢ
ĠÑģÐ¾ÑĤ Ð²Ð¾ÑĢ
ĠÐ²Ð·Ð´ÑĢÐ¾Ð³ Ð½ÑĥÑĤÑĮ
ĠÐ¾ÑģÐ¾Ð· Ð½Ð°Ð»Ð°
ĠÐļÐ»Ð° ÑĥÑģÐ°
ĠÐľÑĭ Ñģ
ÐµÐ½Ð¸ ÑĤÑĮÑģÑı
ĠÐ¿Ð¾Ð¼Ð°Ñħ Ð°Ð»
ĠÐŁÑĢ Ð°Ð¹
Ð´Ð¶ ÑĥÐ½
ĠÐºÐ°ÑĢÑĤ Ð¸Ð½ÐºÐ¸
ĠÐ¼ÐµÑĤ ÑĢÐ°Ñħ
ĠÑĩÐ¸ÑĤ Ð°ÐµÑĤ
ĠÐ¿Ð¾Ð± ÐµÐ³
ĠÐĶ ÑĮÑıÐ²
ĠÐ¿Ð¾Ð³ÑĢÑĥÐ· Ð¸Ð»ÑģÑı
ĠÑĢ ÐµÐ¼Ð¾Ð½
ĠÐ¾ÑĤÐºÑĢÑĭÐ² Ð°Ñİ
ĠÑĤÑĢÐµÐ± Ð¾Ð²Ð°Ð»Ð¾ÑģÑĮ
ĠÑħÐ¾Ð»Ð¾Ð´ Ð½Ð°Ñı
ĠÑģÑĤÑĢÐ¾ Ð¸ÑĤÑĮ
ĠÐ¾Ð±Ð½Ð¸Ð¼ ÐºÑĥ
ÑĢÐ¾ ÑģÑĤÐ¸
ĠÐ¿ÑģÐ¸Ñħ Ð¸
ĠÑĤÑĢÑĥ ÑģÑĭ
Ð´ÐµÑĤ ÑģÐºÐ¸
ĠÐŁ Ð¾Ð¹
ĠÐ·Ð°Ð´ Ð°Ð»Ð°
ĠÑĩÐµÑĢÑĤÑı Ð¼
ĠÐ¾Ð±Ð¸Ð´ Ñĥ
ĠÐ½Ð°Ð±Ð»ÑİÐ´ Ð°Ð»Ð¸
ĠÐ±ÐµÑģÑģÐ¼ÑĭÑģ Ð»ÐµÐ½Ð½Ð¾
ĠÑģÐ²Ð¾Ð±Ð¾Ð´ Ñĭ
ĠÐ¾ÑģÑĤÐ°Ð² ÑĪÐ¸ÐµÑģÑı
ĠÐ°Ð² ÑĤÐ¾
ĠÑĥÐ³Ð¾Ð» ÐºÐ¸
ĠÑģÑĤÐ¾Ð»Ð¸ ÐºÐ¾Ð¼
ĠÐĲÐ½Ð´ÐµÑĢ ÑģÐ¾Ð½
ĠÑĢÑĥÐ¼ÑıÐ½ ÑĨÐµÐ¼
ĠÐ¿Ð¾Ð¼Ð¾ÑĢÑī Ð¸Ð»Ð°ÑģÑĮ
ĠÐ¾Ð² Ð»Ð°Ð´
ĠÐľÐ°Ð³ Ð½ÑĥÑģ
ĠÑģÑĤÑĥÐ´ ÐµÐ½ÑĤÐ¾Ð²
ĠÑĤ ÐºÐ½ÑĥÐ»
ĠÐ²Ð¸Ð½ ÑĤÐ¾Ð²
ĠÑģÑĥÑīÐµÑģÑĤÐ² Ð¾Ð²Ð°Ð½Ð¸Ðµ
ĠÐ¾ÑĦÐ¸ ÑĨ
ĠÐ¾Ð·Ð½Ð°Ñĩ Ð°Ð»Ð¾
ĠÐ½Ð°ÑħÐ¾Ð´ Ð¸Ð»Ð¾ÑģÑĮ
ĠÐ¸Ð½ ÑĨ
ĠÐ¾ ÑĢÐ°Ð»
ĠÐ§ÑĥÐ²ÑģÑĤÐ² ÑĥÑİ
ĠÐ· Ð¾Ð¼Ð±Ð¸
ĠÐ½Ð°Ñĩ Ð½ÐµÑĤÑģÑı
ĠÐ¿ÑĢÐµÐ½ ÐµÐ±
ĠÑģÐ¸Ð»ÑĮ Ð½Ð¾Ðµ
ĠÐ·Ð°Ð´ÑĥÐ¼ Ð°Ð»
ĠÐ·Ð°Ð¿ ÑĢÐ¾ÐºÐ¸
ĠÑģÐº Ð¾Ð²Ð¾ÑĢ
Ð½Ðµ ÑĤÑĮ
ĠÐ¼Ð¸Ðº ÑĢÐ¾ÑĦ
Ð¸Ð¼Ð¸ Ð½Ð°
ĠÐ½Ð°Ð¼ÐµÑĢ ÐµÐ½
ĠÑĢÐ°Ð· Ð»Ð¾Ð¶
ĠÐ§Ð¾Ð½ Ð³Ñĥ
ĠÑİÐ± ÐºÑĥ
ĠÐ¾ÑĤÐ´ÑĭÑħ Ð°ÑĤÑĮ
ĠÐĵ ÐµÐ¹
ĠÐ¿Ð¾Ð´Ñģ ÐºÐ¾ÑĩÐ¸Ð»Ð°
ĠÐ³Ð»Ð°Ð´ Ð¸Ð»
ĠÐ¿Ð¾Ð·Ð°Ð² ÑĤÑĢÐ°Ðº
ĠÐ¤ ÑĥÐ»
ÑĢÐ¸ Ð¶
ĠÐºÐ¾ÑĪÐ¼ Ð°ÑĢÑĭ
ĠÑģÐ°Ð½ÑĤÐ¸Ð¼ÐµÑĤ ÑĢÐ¾Ð²
ĠÐ½ÐµÐ±Ð¾Ð»ÑĮ ÑĪÐ¸Ð¼
ĠÑĤÐ¾Ð½ ÐºÐ¸Ð¼Ð¸
Ð¼Ð¸ ÑĢ
ĠÐ²ÑĭÐ² ÐµÑģÑĤÐ¸
ÐŀÑĤÐº ÑĢÑĭÐ²
ĠÐ¾ÑĩÐµÑĢÑĤ Ð°Ð½Ð¸Ñı
ĠÐ¼Ð¾Ð´ ÐµÐ»ÑĮ
ĠÐ» Ð¸ÑĤÐµÑĢ
ÑĢÐ¸ Ð³
ĠÐ¾ÑĦ Ð¸Ð³
ĠÐ½Ð°ÑģÑĤÐ¾Ñı ÑīÐ¸Ðµ
ĠÐ² ÐµÐºÐ°
ĠÐ±ÐµÑģ ÑĨÐµÑĢÐµÐ¼Ð¾Ð½
ĠÐ¾ÑĨÐµÐ¿ ÐµÐ½
ĠÐĹ Ð°ÑħÐ°ÑĢ
ĠÐ¿Ð»ÑİÑħ Ð½ÑĥÐ»ÑģÑı
Ð»Ð¸ ÑĢ
ĠÐŁ ÑıÑĤ
ĠÐ£ Ð»ÑĮ
ÐŃ Ð»
ĠÑīÐµÐº Ð¾Ð¹
ÑĭÑħ Ð°Ð½Ð¸Ðµ
ĠÐ· ÐµÐ»ÑĮÑı
ĠÐ¼Ð°ÐºÐ¸Ñı Ð¶
ĠÐ±ÐµÐ· Ð¾Ð±
ĠÑģÑĤÑĥÐ¿ Ð¾ÑĢ
ĠÐ·Ð°Ð³Ð°Ð´ Ð¾ÑĩÐ½Ð¾
ĠÐ´Ð»Ð¸Ð½ Ð½Ð¾Ð¹
ĠÐ¿Ð¾Ð´ÐµÐ» Ð¸ÑĤÑĮÑģÑı
ÐµÑĤ Ð¾Ð²
ĠÑģÑĤ ÐµÐ½Ð°
ĠÐ¸Ð½ÑĤÐµÑĢÐµÑģ Ð°
ĠÐŃ Ñģ
ĠÑģÐ¾ÑĢ ÐµÐ²Ð½Ð¾Ð²
ĠÐĵÐµÑĢ Ð¼
ĠÐ²Ñĭ Ð»Ð¾Ð¶
ĠÑĤÐ¾Ð» ÐºÐ½ÑĥÐ»Ð°
ĠÐ·Ð² Ð°Ð»
ĠÐ¾ÑĪÐ¸Ð± ÐºÐ°
ĠÑĥÐ²ÐµÑĢÐµÐ½Ð½Ð¾ ÑģÑĤÑĮÑİ
ĠÐ¿ÑĢÐµÐ¿Ð¾Ð´Ð°Ð² Ð°ÑĤÐµÐ»ÑĮ
ĠÐĴ ÐµÑģ
Ðł Ð°Ð·Ð´
ĠÐĽÑİÐ± Ð¾Ð²ÑĮ
ĠÐĽÐ¾Ð½ Ð´Ð¾Ð½
ĠÑĢÐ¾Ð´ Ð½ÑĭÑħ
ĠÑĥÐ¼ ÑĥÐ´ÑĢÑı
ĠÑģÐ¸Ð³Ð°ÑĢ ÐµÑĤÑĭ
Ð½Ð¾ Ð¸ÑĩÐ¸
ĠÐłÐ°ÑģÑģÐº Ð°Ð¶Ð¸
ĠÐĶ Ð¸Ð½Ð¾
ĠÐ´Ð¾Ð² Ð¾Ð´
Ð´Ð¸ Ð¸
ĠÐ¿ÑĢÐµÐ´Ð²Ð°ÑĢ Ð¸ÑĤÐµÐ»ÑĮÐ½Ð¾
Ð°Ð¹ Ð¿ÐµÑĢ
ĠÐļ Ð»Ð¸
ÐĹ Ð°Ð¿
ĠÐ¿ÑĢÐ¸Ð²Ñĭ ÐºÐ»Ð¸
ÐĹÐ°ÑĤ ÐµÐ¼
ĠÐºÑĥ ÑĢÐ¸
ĠÐ¿ÑĢÐ¾Ðº ÑĢÑĥÑĩÐ¸Ð²
ĠÑģÑĥÐ´ Ð¸ÑĤÑĮ
ĠÐ¿ÐµÑĢÐµÑģÑĤ Ð°Ð½ÑĮ
ĠÐ¿Ð¾Ð¼Ð¾Ð³ Ð¸
ĠÐ²Ð»Ð°Ð¶ Ð½ÑĭÐµ
ĠÑĢÐµÑģÐ½Ð¸ÑĨ Ð°Ð¼Ð¸
Ð¸Ð´ ÐµÑģÑı
ĠÐ´Ð¾ÑĢÐ¾Ð¶ ÐºÑĥ
ĠÐ¿ÑĢÐ¾Ð²Ð¾Ð´ Ð¸Ð»Ð¸
ĠÑĥÑĩ Ð¸ÑĤÑĮ
ĠÐ¼Ñĥ Ð¶Ðµ
ĠÑĥÐ´ÐµÑĢÐ¶ Ð°ÑĤÑĮÑģÑı
ÐµÐ»Ñı Ð¼Ð¸
ĠÑĢÐ°Ð·Ð² ÐµÐ»
ĠÑĤÑĥÐ¿ Ð¾Ð¹
ĠÐ²Ð¾ÑĢ Ð¾Ð½
1 1
ĠÐ¾ ÑĢÐ°Ð½Ð¶ÐµÐ²
Ð¼ ÑĳÐ½
ĠÐĹ Ð°Ð»
ĠÐľ Ð¾Ð¼
ĠÐ¿Ð» Ð¾Ñģ
ĠÐ¿ÑĢÐ¸ ÐºÐ¾Ð½
ĠÐ°Ð»ÑĮ Ð±Ð¾Ð¼
ĠÐ·Ð°Ð´Ð° ÑĩÐ°
ĠÐ²Ð°Ð¼Ð¿Ð¸ ÑĢÑĭ
ĠÐ²ÑĭÑģ Ð²Ð¾Ð±Ð¾Ð´
ĠÑĥÐ´ Ð¾ÑģÑĤÐ¾Ð²ÐµÑĢ
Ðļ ÑĢÐ°Ñģ
Ðł ÑĥÐºÐ¸
ĠÐ¿Ð¾ ÐµÐ´Ñĥ
ĠÐ½ÑĥÐ¶ Ð½Ð¾Ðµ
ĠÐĳÑĭ Ð»Ð°
Ð½Ð°Ð´ÑĨ Ð°ÑĤÐ¸Ð»ÐµÑĤ
ĠÐ¿ÑĢÐ¸Ð² ÐµÐ»Ð°
ĠÐ½Ð¾Ñģ Ð¸Ð»
ĠÑģÐºÑĥ Ð»Ñĭ
ĠÐ¿Ð¾Ñĩ ÐµÑĢ
ĠÐ¿ÑĥÐ»ÑĮ Ñģ
ĠÑĢÐ°ÑģÐ¿ Ð¾Ð»Ð·
ĠÐłÐ°Ñģ Ð¿
ĠÐ·Ð°Ð½Ð¸Ð¼ Ð°ÐµÑĤÑģÑı
ĠÑĨ Ð¾Ðº
ĠÐ§ÐµÑĢ ÑĤÐ¾Ð²
ĠÐ·ÐµÑĢÐº Ð°Ð»Ñĥ
ĠÐ²Ð¾ÑĢÐ¾ÑĤ Ð½Ð¸Ðº
ĠÑģÐµÑĢ Ð¸
ĠÐ¿ÑĢÐ¾Ð¿ ÑĥÑģÑĤÐ¸ÑĤÑĮ
ĠÐ½Ðµ ÑĩÐµÐ¼
ÐºÑĥÑĢÐ°ÑĤ Ð½Ð¾
Ð°ÑĤ ÑĥÑİ
ÐµÐ½ÑĤÐ¸ ÑĢÐ¾Ð²
ĠÐ¯ Ð¿
u n
ĠÐ² Ð°ÑĤ
Ð¾Ð·Ð½Ð° ÑĩÐ½Ð¾
ÑĢÐ°Ñģ ÑģÑĥÐ´
ĠÐ¿ÑĢÐ¸Ð½Ð¸Ð¼ Ð°ÐµÑĤ
ĠÐ¡Ð¼ÐµÑĢ ÑĤÑĮ
ĠÐ¾ÑĤÑģÑĤÑĥÐ¿ Ð°ÑĤÑĮ
ĠÑģÑĥ Ð½ÑĥÐ»
ĠÐ²ÐµÐ´ÑĮ Ð¼Ñĭ
Ðľ Ð°Ð³
ĠÐºÐ°ÑĢÐ°Ð½Ð´Ð° ÑĪ
ĠÐ·Ð½Ð°ÐºÐ¾Ð¼ Ð¾Ð¹
Ð°Ð½Ð´ ÐµÑĢ
Ð»Ð¾ ÑģÑĤÑĮ
ĠÐ´Ð¾Ð± ÑĢÐ°Ñı
ĠÐ´ÐµÑĢÑĮ Ð¼Ð¾
ĠÐľ Ð¸Ð´
Ð½ ÐµÐ´
ĠÐ¿ÑıÑĤÑĮ Ð´ÐµÑģÑıÑĤ
ĠÐ¿Ð¾Ð² ÑĳÐ»
ĠÐļ Ð¾Ñģ
ĠÑĥÐ· Ð¾ÑĢ
ĠÐ±Ð» ÑĥÐ·
ĠÐ¿Ð¾Ð¼ Ð¾Ð¶ÐµÑĪÑĮ
ĠÑģÐ¿ÑĥÑģÑĤ Ð¸Ð»Ð¸ÑģÑĮ
ĠÑģÐ²Ð¾Ð±Ð¾Ð´ ÐµÐ½
ÐµÑĤ ÐºÐ¾Ð¹
ĠÐ²Ñĭ Ð½ÐµÑģ
ĠÐł Ð¸ÑĤÐ°
ĠÐ¾Ð±ÑĬÑıÑĤÑĮ ÑıÑħ
ĠÐ°Ð²ÑĤÐ¾Ð¼ Ð°ÑĤÐ¸
ÐµÐ½Ð°Ð² Ð¸Ð´
ĠÐ±ÐµÐ³ Ð¾Ð¼
Ġm y
ĠÑĨ ÐµÑĢ
ĠÐ¸ÑģÐº Ð°Ð¶
Ð¾ ÐµÐ²
ĠÐ¿Ð¾Ð·Ð²Ð¾ Ð½Ñİ
ÑĩÐ° ÑģÑĤÑĮ
ĠÑĪ ÑĤÐ¾ÑĢÑĭ
ĠÐĶÐ¶ ÐµÐ½
ĠÐ³Ð¾Ð»ÑĥÐ± ÑĭÑħ
ĠÑĤÐµÐº Ð»Ð¸
ĠÑģÑĥ Ð·
ĠÐ²Ð°ÑĢÐ¸Ð°Ð½ ÑĤÑĭ
ĠÐ¾Ð± ÑĢÐµÑĤ
ĠÑģÐº Ð²Ð¾Ð·
ĠÐ¿ÑĢÐ¾Ð²Ð¾Ð´ Ð¸Ð»Ð°
ĠÐ²Ð»ÑİÐ± Ð»ÐµÐ½
ĠÑĪÐ°Ð½Ñģ Ð¾Ð²
ĠÐ²ÑĭÑģÐ¾Ðº Ð¸Ðµ
ĠÐŁÐ¾ ÑģÑĤ
ĠÐ²ÑĭÑħÐ¾Ð´ Ð¸Ð»Ð¾
Ð² Ð·
Ð¿ Ð°Ð¹
ĠÐ¿Ð¾Ð´Ð¾Ð± Ð½ÑĭÐ¼
ĠÑĢÑı Ð´Ð°
ĠÑĢÐ¾Ð´ Ð½Ð¾Ð³Ð¾
ĠÐ½Ð°Ð± ÑĢÐ°Ð»Ð°
ĠÑħÐ²Ð°ÑĤ ÐºÐ¸
ĠÐ¼Ð°ÐºÑģÐ¸Ð¼ ÑĥÐ¼
ĠÐ¾ÑģÐ¾Ð· Ð½Ð°Ð½Ð¸Ñı
ÐµÐ»Ð¸ Ð¹
ĠÐĵÑĢÐ¸Ð¼ Ð¼
ĠÐ»Ð¾Ðº ÑĤÐµÐ¼
ĠÐ½ÐµÐ¾ÑģÐ¾Ð·Ð½Ð° Ð½Ð½Ð¾
Ġ !
ĠÐ½Ð¸ Ð±ÑĥÐ´ÑĮ
ĠÐ¿ÑĢÐ¸Ð³Ð»Ð°Ñģ Ð¸ÑĤÑĮ
ÑĢÐ¸ ÐºÐ¸
ĠÐ´ÐµÑĤ ÑģÐºÐ¾Ð¹
ĠÐ²ÑĭÐ¹ Ð´Ñı
ĠÐŁ ÐµÑģ
3 0
Ð°ÑĤÑĭ Ð»ÑĮ
ĠÐ½ Ð¾ÑĢÐ¾Ð²
ÐļÐ°Ðº Ð¾Ð¹
ĠÑģÐ»Ð¾Ð¼ Ð°ÑĤÑĮ
Ñĩ Ð¸Ð»Ð°
ĠÐĳÐµÐ»ÑĮ ÑĦ
ÑħÐ¾Ð´Ñı ÑīÐ¸Ð¹
ĠÐ·Ð½Ð°Ðº Ð¾Ð¼ÑĥÑİ
ĠÐ¾ÑģÑĤÐ°Ð½Ð¾Ð² Ð¸Ð²ÑĪÐ¸ÑģÑĮ
ĠÐŁ Ð°Ð»
ĠÑĢÐ°Ð· Ð½Ð¾Ñģ
ĠÐ¾ÑĤÐ»Ð¸Ñĩ Ð½ÑĭÐ¹
ĠÑĪ ÐµÑģÑĤÐ¸
ĠÐ±ÐµÐ· ÑĥÑģÐ¿
ĠÐ½ÐµÐ¼Ð½Ð¾Ð¶ ÐºÐ¾
ĠÐ¾Ð±ÐµÑĢ Ð½ÑĥÑĤÑĮÑģÑı
ĠÐ¿Ð°Ñĥ Ð·Ð°
ĠÑĢÐ°Ð·Ð¾ÑĢÐ² Ð°ÑĤÑĮ
ĠÐ¢Ðµ ÑĨÑĥ
ĠÐ·Ð°Ð· Ð²Ð¾Ð½Ð¸Ð»
ĠÐ¿ÑĢÐ¸ Ð³Ð»ÑıÐ´
ĠÐľ ÐµÐ»ÑĮ
ĠÑģÐ¾Ð± Ð°ÐºÐ°
ÐĿ ÐµÐ´
ĠÐŃ ÑĤ
ĠÐ½Ð¸Ð· ÐºÐ¸Ð¹
ĠÑĨÐµÐ»Ð¾Ð² Ð°ÑĤÑĮÑģÑı
ĠÐºÐ»ÐµÑĤ ÐºÐ¸
ĠÑĤÑĢ Ð°Ð¿
ĠÐĴ Ð°ÑĪÐ°
ĠÐºÑĢÑĭÐ»ÑĮ ÑıÐ¼Ð¸
ĠÑĢÐ°Ð·Ð»Ð¸Ñĩ Ð½ÑĭÐµ
ĠÐ°Ð² ÑĤ
ĠÐĲÐ»ÑĮÐ± ÑĥÑģ
Ñĩ ÐºÐ°Ð¼Ð¸
ĠÐ¸ÑģÐ¿ÑĭÑĤ ÑĭÐ²Ð°Ð»Ð°
ĠÑĩ Ð°ÑĢÑĭ
ÐºÐ¸Ð´ ÑĭÐ²Ð°ÐµÑĤ
ÑĢ Ð°Ð´Ð¸
Ð»Ð°Ð´ ÑĭÐ²Ð°ÑĤÑĮ
ĠÐ»Ð¸ÑģÑĤÑĮ Ñı
Ġb e
ĠÑģÐºÐ¾ÑĢ Ð¾Ð¼
ĠÑģÐ¾ÑĢÐ² Ð°ÑĤÑĮÑģÑı
Ð»ÑĮ Ð½Ð¾Ð¹
ĠÐ± Ð¸Ð½
ĠÐ¿Ð¾ Ð½ÐµÐ¼
ĠÐ´ Ð°Ð½Ð½ÑĭÐµ
Ð¾Ð·Ð² ÑĢÐ°Ñī
ĠÐ¿Ð¾Ð¿ÑĢÐ¾Ð± Ð¾Ð²Ð°Ð»
ĠÐ´ÐµÐ¼ Ð¾Ð½Ð¸
Ð°Ð±Ð¾ÑĤ Ð°ÑĤÑĮ
ĠÐ¿ÑĢÐ¾Ð± Ð»ÐµÐ¼Ñĥ
ĠÐ¿ÑĢÐµÐ´Ð¼ÐµÑĤ Ñĭ
ĠÐ¼Ð¾ÑĢ Ð´Ñĥ
ĠÑĥÑĩÐ°ÑģÑĤÐ¸ Ðµ
ÐµÐ¼ ÑĭÐ¹
ĠÐ¢ Ð°ÑĢ
ĠÐ°ÑĤÐ¼Ð¾ÑģÑĦ ÐµÑĢÐ°
ĠÐ»ÐµÐ³ Ð»Ð¸
ĠÐºÑĢÐ°Ñģ ÐºÐ¸
ĠÑģÑĤÐ°Ð½Ð¾Ð² Ð¸ÑĤÑĮÑģÑı
ĠÐŀÐ³ ÑĢÐ¾Ð¼
ĠÐ¿Ð¾Ð´Ð· Ð°ÑĤÑĭÐ»ÑĮ
ĠÐ²Ñģ ÐµÐ²
ĠÑĤÑĢ ÐµÐ½
Ð´ ÐµÑĪÑĮ
ĠÑĦ Ð¾ÐºÑĥÑģ
Ð²Ð°ÑĤ Ð¸Ð²
ĠÑģÐ»Ð°Ð´ Ð¾ÑģÑĤ
ĠÐĴ Ñĥ
ĠÐ¾ÑĤÐºÑĢÑĭÑĤ ÑĥÑİ
ĠÐ²Ð¾Ð·Ð²ÑĢÐ°Ñī Ð°Ð»ÑģÑı
ĠÐ½Ð°Ð» ÐµÐ²Ð¾
ĠÐ¿Ð¾ÑĤ ÑĳÑĢ
ĠÑģÐ³ Ð»Ð°ÑĤ
ĠÐ¼ÐµÑĪ Ð¾Ðº
ĠÑĩÐ¸ÑģÑĤ Ð¾ÐºÑĢÐ¾Ð²
ĠÑĨ Ð¸ÑĢ
ĠÑĦÐ¾ÑĤÐ¾Ð³ÑĢÐ°ÑĦ Ð¸Ñı
ÐĳÑĭ ÑģÑĤÑĢÐ¾
ĠÐ¼Ð¾Ð±Ð¸Ð»ÑĮ Ð½ÑĭÐ¹
ĠÐ·Ð°Ð± ÑĢÐ°Ð»Ð¸
ĠÐ±Ð¾Ð»ÑĮÑĪ Ð¾Ð¼
ĠÐ²Ð½ÐµÑĪ Ð½Ð¾ÑģÑĤÐ¸
ĠÐ´Ð¸ ÐºÐ¸Ð¹
ĠÐ²Ð¾Ð·Ð´ ÐµÐ¹ÑģÑĤÐ²
ĠÐ§Ð¾Ð½ Ð´Ñį
ĠÑĪ Ð²
ĠÑĤ ÑĳÑĤ
ÐµÐ² ÑĪÑĥÑİ
ĠÑģÐ¾Ð± ÑĢÐ°Ð»Ð°
Ð¸Ð² ÑĭÐµ
ĠÐ»Ð¸ÑĩÐ¸ ÐºÐ¾
ĠÐĶ Ð¾Ð²Ð¾Ð»ÑĮÐ½Ð¾
ĠÐ¾ÑĤÐ¿ÑĢÐ°Ð² Ð¸Ð»Ð¸
ĠÐĶÐ¶Ð°ÑĢ ÐµÐ´Ð°
Ð¸ÑĩÐµÑģ ÐºÐ¾Ð¹
ĠÐ¿ÐµÑĢÐµÑģÐ¿ ÑĢÐ¾ÑģÐ¸Ð»Ð°
Ð¢ Ð¾ÑĢ
ĠÐķ Ð½
ĠÐŁÑĢÐ¸Ð½ÑĨ ÐµÑģÑģÐ°
ÑĢ Ð¾Ð³Ð¾
ĠÐ¸ÑģÐ¿ Ð¾Ð´
Ð½Ð¸ Ð½Ð°
ĠÑģÐºÑĥ ÑĩÐ°ÑĤÑĮ
ĠÐ¸Ð½ÑģÑĤ ÑĢÑĥÐº
ĠÐº Ð°Ñİ
ĠÐ²ÑĭÐ¿Ð°Ð» Ð¸Ð»Ð°
ĠÐ¿ÐµÑĢÐ¸ Ð¾Ð´
ÑĢÑĭÐ² Ð°ÑĤÑĮ
ĠÑģÐµÑĢ ÑĭÐ¹
ĠÐ¸Ð¼ ÐµÐ»Ð¾
ĠÐ¿Ð¾Ð´Ð¾Ð± Ð½Ð¾Ð¹
ĠÑĥÐ¶Ð°Ñģ Ð½ÑĭÐ¹
ÐĶÐ¶ ÐµÐº
ĠÐĹ ÐµÑĢÐ¾
ĠÑįÐ»ÐµÐ¼ ÐµÐ½ÑĤ
ĠÑĢÐµÑĪ Ð¸ÑĤ
1 2
ĠÐ³Ð¾ÑĢÐ¸Ð· Ð¾Ð½ÑĤ
ĠÐ½Ð¾Ð³ ÑĤÐ¸
ĠÐºÐ»Ð°Ñģ ÑģÐ¸
Ð¾ÑĢÐ¾ Ð½Ñĭ
ÑĨÐ¸ Ð½Ð°
ĠÐºÐ¾ÑĦ ÐµÐ¹
ĠÐ¾ÑĤ Ð»Ð¾Ð¶Ð¸Ð»
ĠÐ¿ÑĢÐ¾Ð¸Ð· Ð²ÐµÐ´
ĠÐ²ÐµÐ´ ÑĳÑĤ
ĠÑģÐ¿ ÐµÑĢÐ²Ð°
ĠÐ¿Ð¾Ð²ÐµÑĢ Ð½ÑĥÐ²
ĠÐ¿ÑĤÐ¸ ÑĨ
Ð¾Ð³Ð»Ð°Ð· Ð°Ñı
ÑĢÐ¸Ñģ Ð¾Ð²
ĠÐ£ Ð¿
ĠÐºÐ¾Ð» Ð¾Ðº
ĠÐ¿Ð» Ð¾Ð´
ĠÐł Ñĭ
ĠÑģÐ¿ÑĥÑģÑĤ Ð¸ÑĤÑĮÑģÑı
Ð°ÑĤÐµÐ»ÑĮ Ð½ÑĭÑħ
ĠÑĥÐ»ÑĥÑĩ ÑĪ
ĠÑĥÐ¼ ÐµÐ»Ð¾
ÑĪ ÐºÐ°Ð¼Ð¸
ĠÐ¿Ð¾Ð±Ñĭ ÑģÑĤÑĢÐµÐµ
Ñĩ ÐºÐ¾Ð²
ÑĦ Ð¸Ð»
ĠÑħ ÐµÑĢ
ĠÐ²Ð¾ Ð¸Ð½Ð¾Ð²
ĠÐĴ Ð¾Ð¹
ĠÑģÐ»Ð¾Ð² Ðµ
ĠÐ·Ð¾Ð» Ð¾ÑĤÐ¾
ĠÑĥÑĩ Ð¸Ð»
ĠÐľ Ð¸ÑĤ
ĠÐ¡ ÑĥÐ¼
Ðļ ÑģÑĤÐ°ÑĤÐ¸
ĠÐ·Ð½Ð°ÐºÐ¾Ð¼ Ð°Ñı
ĠÐ¾Ð¿ ÑĥÑī
ĠÐ·Ð°Ð¿Ð¾Ð¼ Ð½Ð¸Ð»
ĠÐ± Ð°ÑģÐºÐµÑĤ
ÑĢÑĥÑĤ Ð¸Ð»
Ð² Ñģ
ĠÐº Ð¾Ð¿ÑĭÑĤ
ĠÐĽ Ð¸Ð½Ð°
ĠÐ²Ð¸Ð´ ÑıÑĤ
ĠÐ¿ÐµÑĢÐµÐ± Ð¸ÑĢÐ°Ñı
ĠÐ¿Ð¾Ð´ Ð¾Ð´
ĠÐ¢ Ð¾ÑĢÐ°
ĠÐ°Ðº ÑĤ
ĠÐ¿ÑĢÐ¸Ð²ÐµÑĤ ÑģÑĤÐ²Ð¸Ñı
ĠÐ°Ðº Ð°Ð´ÐµÐ¼Ð¸Ð¸
ĠÑģÐ¼ ÑĥÐ³
ĠÑĢÐ°Ð·Ð± Ð¸ÑĢÐ°ÑĤÑĮÑģÑı
ĠÐ¿Ð¾Ð¿ÐµÑĢ Ñħ
ĠÑĩÐµÑĢ Ð½ÑĭÐ¼
ĠÐŁÐ¾ÑģÐ¼Ð¾ÑĤÑĢ ÐµÐ²
ĠÐ¼Ð°ÑģÑĤ ÐµÑĢÐ°
ĠÐ¿Ð¾Ñħ Ð¾ÑĢÐ¾Ð½
ĠÐ² ÑĤÑı
Ð¼ Ð½Ðµ
ĠÑģÑĢÑĭÐ² Ð°ÐµÑĤÑģÑı
ĠÐºÐ¾Ð½ ÑĤ
ĠÑĤÐ°Ð¹ Ð½Ñĭ
Ð¶ ÐµÐ»
ĠÐ¥ Ð°Ðº
ĠÐľÐ¾ÑĢÐ¸ Ð°ÑĢÑĤÐ¸
ĠÑģÐ¼Ð¾Ð¶ÐµÑĤ Ðµ
ĠÑģÐ²Ð¾Ð» Ð¾ÑĩÑĮ
ĠÑħÐ²Ð°ÑĤ ÐºÑĥ
ĠÑĥÑģÐ»ÑĭÑĪ Ð¸ÑĤ
ĠÑģÐ»Ð°Ð± ÑĭÐ¼
ĠÐ¶ÐµÑĢÑĤ Ð²Ð°
ĠÐĽ Ð¸Ð±Ð¾
ĠÑĥÐ³ Ð»Ð¾Ð¼
ĠÑģÐ¾Ð·Ð´Ð° Ð½Ð¸Ñı
ĠÐ°ÑĢÐ¼Ð¸ Ð¸
ÑĤ ÐµÐ»
ĠÐ´Ð²ÐµÑĢ Ð½Ð¾Ð¹
ĠÐĶÐ¶Ð¾Ð½ Ñģ
ĠÐ¾Ðº ÑĢÐ°
ĠÐ±Ð¾Ð»ÐµÐ· Ð½Ð¸
ĠÐĺÐ´Ð¸ Ð¾ÑĤ
ĠÐ¼ÐµÐ»Ð¾Ð´ Ð¸Ñİ
ĠÐĿÐ¸ ÐºÐ¾
ĠÑģÐ¸ Ð½Ð¸Ð¹
ĠÐ½Ð°ÑģÑĤÐ¾Ð¹ ÑĩÐ¸Ð²
ĠÐ¿Ð¾Ð¹ Ð¼Ð¸
ÐµÐ¶ Ð´Ð°
ĠÐ·Ð°Ð± Ð¸Ð»Ð¾ÑģÑĮ
Ðļ Ð°Ð¹
ĠÐĹ ÐµÐ¹
ĠÑĢÐ° ÑģÑĤÐ¸
ĠÐ³Ð»ÑĥÐ¿ Ð¾Ð¹
ĠÐ¨ÐµÐ½Ð½Ð¾ Ð½
ĠÑĤÐ²ÑĳÑĢ Ð´Ð¾
ĠÑĥÐ²ÐµÑĢ ÐµÐ½Ð½ÑĭÐ¼
ĠÐ¿ÑĢÐ°Ð² Ð´Ðµ
ĠÐ´ ÑĢÐ¾
Ð¾ÑĢ Ð¸ÑĤ
ĠÐ¿ÐµÑī ÐµÑĢÑĭ
ĠÐ¾Ð± Ð»Ð¸Ðº
ĠÐŃ Ð»ÑĮÐ·
ĠÐ¿ÑĢÐ¸Ð¼ Ð¸ÑĢ
ĠÑģÐ¿ÐµÑĪ Ð½Ð¾
ĠÐ¤ÐµÐ»Ð¸ ÐºÑģ
ĠÐ¼Ð¾ÑĢÐ³ Ð½ÑĥÐ»
ÑģÑĤÐ² Ð¸ÐµÐ¼
ĠÐ¾Ð±ÑħÐ²Ð°ÑĤ Ð¸Ð»Ð°
ĠÐ¡ Ð¾Ð¼
ĠÐŃ Ð¢Ðŀ
ĠÑħÐ»Ð°Ð´ Ð½Ð¾ÐºÑĢÐ¾Ð²
ĠÑģÐ´ÐµÐ» Ð°Ð¹
ĠÐ½Ð°Ð²ÐµÑĢ ÑħÑĥ
ĠÐ¶Ð°Ð¶ Ð´Ñĥ
ĠÑģÑĤÐ°ÑĢ Ð°Ð»Ð¸ÑģÑĮ
ĠÐ³ÐµÐ½ÐµÑĢ Ð°Ð»
ĠÐ¿ÐµÑĢÐµÐº Ð¸
ĠÑģÑĭ Ð½Ð¾Ð²
ĠÐ¼Ð¸Ð»Ð»Ð¸ Ð¼ÐµÑĤ
ĠÐ¢ Ñĥ
ĠÐĺ Ð»ÑĮ
ĠÑģÑĤÐ°Ð½Ð¾Ð² Ð¸Ð»Ð°ÑģÑĮ
ĠÐĶÐ¾Ð¼ Ð¸
ĠÐ· Ð»Ð¸ÑĤÑģÑı
ĠÐº Ð¾Ð±Ñĭ
Ñĳ Ð¼Ð°
ĠÐĶ Ð²Ðµ
ĠÑĥÐ³ÑĢÐ¾Ð· Ñĭ
Ð½Ð¾ÑĤ Ð²Ð¾ÑĢ
ĠÑģÐ¾ Ð¸Ð·
ĠÐ·Ð°Ð¿ ÑĭÑħ
o l
ĠÐ¶ÐµÐ½ Ðµ
ĠÐ¾ÑħÐ¾ÑĤ Ð½Ð¸ÐºÐ°
ĠÐ±ÑĮ ÐµÑĤÑģÑı
ĠÑģÐ¿ Ð°Ð´
ĠÑįÐ½ÐµÑĢÐ³Ð¸ Ñİ
Ġ it
ÑĢ Ð°Ð±
ÐµÑĢ ÐºÐ¸
ĠÐļÐ°Ñģ Ð°
ÑĢ Ð°Ð¿
ĠÐ¸ÑģÐ¿Ð¾ÑĢÑĤ Ð¸ÑĤÑĮ
ĠÐ´ÐµÐ² Ñĩ
Ð¸ ÐºÐ¾
ĠÐ± Ñİ
Ð°ÑİÑīÐ°Ñı ÑģÑı
Ðľ Ð¸Ð½
ĠÑĪÐ°ÑĤ ÐµÐ½Ð°
ĠÐ¸ÑģÐº ÑĢÑĭ
ĠÐºÐ¾Ð³ ÑĤÑıÐ¼Ð¸
ĠÑĤ Ð°Ñı
ĠÑī ÑĳÐ»
ĠÐĽ Ð°Ð¼
ĠÐ²Ð¿ ÑĢÑıÐ¼
ĠÐĽÐµÐº ÑģÐ°
ĠÐºÑĢÑĭ ÑĪÐºÑĥ
ĠÐĶ Ð»Ð¸Ð½
ĠÐľÐ¸Ð½Ñģ Ð¾Ðº
ĠÐŁ ÐµÐ¹Ð½
ĠÑĤ Ð°ÑģÐº
ĠÐŁÐµÑĢÐ² ÑĭÐ¼
ĠÐł Ð¸Ð¼
ĠÐ±ÐµÐ·Ð·Ð²ÑĥÑĩ Ð½Ð¾
ĠÑĢÐ°ÑģÐº ÑĢÑĭÐ»
ĠÐĽÐµÐºÑģ ÑĥÑģ
ĠÑĤÐµÑĤÑĢÐ°Ð´ ÑĮ
ĠÐ²Ð¾Ð·Ð½Ð¸Ðº Ð»Ð°
ĠÑĩÐµÑĢ Ð½Ð¾Ðµ
ĠÐºÑĢÐ¸ ÑģÑĤ
ĠÐ»ÑİÐ±Ð¸Ð¼ Ð¾Ðµ
Ð¸ ÑĢÐ¾
ÐĴ Ð¾Ð·Ð¼Ð¾Ð¶Ð½Ð¾
ÑĭÑģ ÑħÐ¾Ð´
ĠÐ½ÐµÐ·Ð°Ð¼ÐµÐ´ Ð»Ð¸ÑĤÐµÐ»ÑĮÐ½Ð¾
ĠÐ¾Ð± ÑĤ
ĠÐ¡Ð°Ð¹ Ð¼Ð¾Ð½
ĠÐº Ð°ÑĢÐ°
ĠÑĪ Ð½Ñĥ
ĠÐļ ÐµÐ»
Ðĺ ÑĤÐ°Ðº
ĠÐ¾ÑĤÐºÑĢÑĭ ÑĤÐ¾Ð¹
ĠÐŁÐ¾Ð¼ Ð½Ñİ
ĠÑģÐ¾Ð² ÑĢÐµÐ¼
ĠÐŁÑĢÐ¾ ÑĦÐµÑģÑģÐ¾ÑĢ
ĠÑģÐ´Ð°Ð² Ð°ÑĤÑĮÑģÑı
ĠÐĴ ÐµÑĤÐµÑĢ
Ð½Ð¾ÑģÑĤ ÑıÑħ
ĠÐ» Ð¶
ĠÐ¿ÑĢÐ¸Ð²Ð»ÐµÐº Ð°Ñı
ĠÐ²Ñĭ Ð³Ð¾
ĠÐĸ Ð°Ð´Ð¸
ĠÐ·Ð°ÑĢ Ð¾Ñģ
ĠÑĥÑĩÐµÐ½Ð¸ ÐºÐ°
Ð°Ð¹Ð» Ð°Ð¹ÑĤ
ÑģÐµ Ñı
ĠÐ¿Ð¾Ð³ ÑĥÐ»ÑıÑĤÑĮ
ĠÐ¿Ð¾Ð´Ð¼Ð¸Ð³ Ð½ÑĥÐ»Ð°
ĠÐ£ Ð¸Ð»ÑĮÑıÐ¼
ĠÐ¸Ð½ÑģÑĤÑĢÑĥ Ð¼ÐµÐ½ÑĤ
ĠÐ½ÑĥÐ¶ Ð´Ð°
ĠÐľ Ðŀ
ĠÑĥÐ³ Ð¾Ð²Ð¾ÑĢ
ĠÐ³ ÐµÐ½Ð¸Ð¹
ÑıÐ³ Ð¸Ð²Ð°Ñİ
ĠÐ·Ð°Ð² ÐµÑģÑĤÐ¸
ĠÑģ ÐµÐ³Ð¾
ĠÐ¡Ð² ÑıÑĤ
ĠÐ¿Ð¾Ð´Ð¾ÐºÐ¾Ð½ Ð½Ð¸Ðº
ĠÐ° Ð±Ñģ
ÐĽ Ðŀ
ĠÐ§ ÑĥÐ²
ĠÐ¿ÑĢÐ¾Ð² ÐµÐ´Ñı
ĠÐ±ÐµÐ´ Ð½Ñı
ĠÑģÐ¾Ð±ÑģÑĤÐ²ÐµÐ½ Ð½ÑĭÐ¼Ð¸
Ðº ÑģÐ°
Ð¾Ð² Ð°Ð½Ð¸ÐµÐ¼
ĠÐ¿Ð¾Ñģ ÑĭÐ¿
ĠÑģÑĤÐ°Ð² Ð¸ÑĤ
Ðļ Ð¾Ð½
ĠÐ¿Ð¾Ð»Ð¾Ð¶ Ð¸ÑĤÑĮ
ĠÑģÐ²Ð°Ð´ÑĮ Ð±Ð°
' t
ĠÑģÑĥÑī Ð½Ð¾ÑģÑĤÑĮ
ĠÐ¿Ð°ÑĤ ÑĢÑĥ
ĠÑĥÑħÐ¼Ñĭ Ð»ÑıÐµÑĤÑģÑı
ĠÑĥÐ¿ Ð°Ð»Ð¾
ĠÐ¾Ð±Ðµ Ð¸Ñħ
Ð¸Ð»Ð¸ Ð¸
ÐµÐ² ÑĭÑħ
ĠÐ¿Ð¾Ð»Ð¸ ÑĤÐ¸
ĠÐ¿ÑĢÐ¸ÑģÐ»ÑĥÑĪ Ð¸Ð²Ð°ÑıÑģÑĮ
ĠÐ±Ð¾Ðº Ð°Ð¼
Ð¾ÐºÐ¾Ð¹ Ð½Ð¾
ĠÐ¿ Ð¸Ð²Ð¾
ĠÐ» ÐµÐ½ÑĮ
Ð¾Ð¿ Ð¾Ð¼
ĠÑģÑĤÐ¾ Ð¸ÑĪÑĮ
ĠÐ²Ð· Ð¾ÑĢÐ¾Ð¼
ĠÐ´Ð¶ Ð¸Ð½
ĠÐ·Ð°ÑħÐ¾ÑĤ ÐµÐ»Ð°
ĠÐ¼ÑĥÑĢ Ð»Ñĭ
ĠÐ¿ÑĢÐ¾ÑģÑĤ ÑĭÐ¼
ĠÐ¿Ð°Ð½Ð¸ ÐºÐµ
ĠÑĢ ÐµÑĨ
ÑĦ Ð¾Ð½
ĠÐ¶ Ð¸ÑĤÐµÐ»Ð¸
ĠÐ±Ð»Ð°Ð³Ð¾Ð´Ð°ÑĢ Ð½Ð¾ÑģÑĤÑĮ
Ġ k
ĠÐ¿Ð¾ÑĤÐ¾Ð» ÐºÐ°
ĠÐ±ÐµÑģ ÑģÐ¾Ð½
ĠÐ²ÑĭÑģÐº Ð°Ð·
Ð± Ð°Ð»
ĠÐ¿Ð°ÑĢ Ð°Ð´
ÐĶÐµÐ² Ð¾ÑĩÐºÐ°
ĠÐ²Ð¿ÑĢÑıÐ¼ ÑĮ
ĠÐ¿ÑĢÐµÐºÑĢÐ°Ñģ Ð½Ð°
ĠÐ·Ð°Ð½ÑıÑĤ Ð°
ĠÐ²ÑģÐ¿ÑĭÑĪ ÐºÐ°
ĠÑıÐ± Ð»Ð¾Ðº
ÐļÑĥÑĢ ÑĤ
ĠÐºÑĥÐ»Ð°Ðº Ð°Ð¼Ð¸
ĠÐ± Ð»ÑİÐ´
ĠÐł Ð¸ÑĨ
ĠÐ¿Ð¾Ð´Ð¾Ð·ÑĢ ÐµÐ²Ð°Ð»
ĠÐ± Ðµ
ĠÑģÐ¾Ð¼Ð½ÐµÐ² Ð°ÑĤÑĮÑģÑı
ĠÐ¿ÑĢÑıÐ¼ Ð¾Ð¼
ĠÐºÐ¾ÑĢÐ°Ð± Ð»Ðµ
ĠÐ²Ñĭ ÑģÑĤÑĢ
ĠÐ¿Ð¾Ñı ÑģÐ°
Ð¸ÑĩÐµÑģ ÐºÐ¸Ðµ
Ð¾Ð³ ÑĢÐ°Ð¼
ĠÐ¥ Ð¸Ñĩ
ĠÐ´Ðµ ÑıÑĤÐµÐ»ÑĮ
Ñĩ ÑĳÐ¼
ĠÐ½Ð°ÑĤ ÑıÐ½ÑĥÐ»
Ð°ÑĤ Ð¸Ñı
ĠÐ¿Ð¾ÑģÐ¸Ð´ ÐµÑĤÑĮ
ĠÑĥ Ð½ÑıÑĤÑĮ
ÐºÐ¾Ð² Ð°Ð»
ĠÑģÐ¸Ð½ Ñħ
ĠÐ²Ð·Ð´Ð¾Ñħ Ð½ÑĥÑĤÑĮ
ĠÐ¿ÑĢÐ¾ÑģÑĭÐ¿ Ð°ÑĤÑĮÑģÑı
Ð°Ð»ÑĮ Ð½Ð¾Ð¼Ñĥ
ĠÐ¸Ð½ÑĤÐµÑĢ Ð²ÑĮÑİ
ĠÐ¿Ð¾Ð´ÑĤ Ð²ÐµÑĢÐ¶
ĠÑĥ ÑĢÐ°Ð³
ĠÐ´Ð²Ð¾ÑĢ ÑĨÐ°
Ð»Ð¸Ð² ÑĥÑİ
ĠÐºÐ°ÑĢÑĤ Ð¸Ð½
ĠÐ¿ Ð»Ð¸ÑĤ
ĠÐĵ Ð»Ñı
ĠÐ´ÐµÐ² Ð¸Ñĩ
ĠÐ²Ð¾ ÑĨÐ°ÑĢ
ĠÑģÑĤÑĢÐ°Ð½ Ð½ÑĥÑİ
ĠÐľÐ°Ð¹ÐºÐ» ÑģÐ¾Ð½
Ð³ Ð»Ð°Ð²
ĠÐ½Ð°Ðº Ð¸Ð´
ĠÐ²Ñĭ ÑħÐ¾Ð¶Ñĥ
ĠÑģ ÐµÐ½
ĠÐ³ÑĥÑģÑĤ Ð¾Ð¹
ĠÐ¾ÑīÑĥÑĤ Ð¸Ð¼Ð¾
ĠÐ½ÐµÐ² ÐµÑĢ
ĠÐŀÐ± Ñĭ
ĠÐ²ÐµÑģ ÐµÐ»ÑĮÐµ
ĠÐ¾ÑĤÐ¿ ÑĥÑīÑĥ
ÑģÑĤ ÑıÑħ
ĠÐ¾Ð¿ÐµÑĢÐ° ÑĨÐ¸Ð¸
ĠÐºÐ¾ ÐµÐ¼
Ð§ ÑĤÐ¾Ð±Ñĭ
ĠÐ½Ð°ÑħÐ¾Ð´ Ð¸Ð»
Ðĺ Ð»Ð¸
ĠÐ½ÐµÐ´ Ð¾Ð»Ð³
ĠÐºÑĢ Ñİ
Ð¸Ð² Ð°Ð»Ð¾ÑģÑĮ
ĠÐĳ Ð»ÑıÑĤÑĮ
Ð¾Ð² Ð¾Ð¼
ĠÑģÐ¼ÐµÐ»Ð¾ ÑģÑĤÐ¸
ĠÐ¿Ð¾ ÐµÑħÐ°Ð»Ð°
ÐŃÐ¼ Ð¼Ð°
ĠÑĢÑĥÑħ Ð½ÑĥÐ»Ð°
ĠÐ¿ÑĢÐµÐ´ÐµÐ» Ñĭ
ĠÐ¸Ð³Ð½Ð¾ÑĢÐ¸ ÑĢÐ¾Ð²Ð°ÑĤÑĮ
Ð½Ðµ ÑģÐ¸
ĠÐ½Ð°Ð¸Ð³ ÑĢÐ°Ð½Ð½Ð¾
ĠÐ¿Ð¾Ðº Ð»Ñı
ĠÐ²Ð¾ÑģÑĤÐ¾ÑĢ Ð³
ÑĢ Ð¾Ð»
ĠÐĴ Ð°Ð½Ñı
ĠÐŁÑĢÐ¾ Ñī
ĠÐ½Ð°ÐºÐ»Ð¾Ð½ Ð¸Ð»Ð°ÑģÑĮ
ĠÑĥ ÐµÑħÐ°Ð»Ð¸
Ðľ Ð¾Ð»Ð¾Ð´
ĠÑģÐ°Ð¼Ð¾ Ð¾Ð±
ĠÐ¼Ð½ ÐµÐ½Ð¸Ñı
ĠÐ·ÑĢ ÐµÐ½Ð¸Ðµ
ĠÐ²ÑĤ ÑĢÐ¾
Ð´Ñĥ Ð²
Ð¸ÑĢ Ð°Ð»Ð¸ÑģÑĮ
ĠÐ½Ð¾Ð¼ ÐµÑĢÐµ
Ð½ ÐºÐ¸
ÐĿ ÐµÐ¼Ð½Ð¾Ð³Ð¾
ĠÐ¾ÑĢÐ¸ Ð³
Ð°Ð»Ð¸ Ð·Ð°
ÐµÑĤÑĭ ÑĢÐµ
ĠÐ¥ Ð»Ð¾
ĠÐ²ÑĭÑĤ ÑıÐ½ÑĥÐ»
ĠÐ¸Ð·ÑĥÑĩ Ð°ÑĤÑĮ
ĠÐ¿ÑĢÐµÐºÑĢÐ°Ñģ Ð½ÑĭÐ¼
ĠÐĽÑİ Ð´
ĠÐ¼Ð¾Ð» Ð½Ð¸Ñı
ĠÐ½Ð°Ðº ÑĢÑĭÐ»Ð°
Ð³ ÐµÑĢ
ĠÐ¿Ð¾Ð½Ð°Ð´Ð¾Ð± Ð¸Ð»Ð¾ÑģÑĮ
ĠÐŁÐ¾Ð½ ÑıÐ»
Ð¾ÑĢÐ¼ Ð¸ÑĤÑĮ
ĠÐ¾Ð³Ð»Ñı Ð½ÑĥÐ»Ð°ÑģÑĮ
Ð³ Ð»Ð¸
ĠÐ²Ð¾Ð¿ ÑĢÐµÐºÐ¸
ĠÑģÑĤÐ° Ð½ÑĥÑĤ
ĠÐ¿Ð°Ð´ ÐµÐ½Ð¸Ñı
ĠÐ³Ð¾ÑĢÑıÑĩ ÑĥÑİ
ĠÐ¾Ð±Ð¾Ð´ ÑĢÑı
ĠÑħÐ¸Ñħ Ð¸ÐºÐ°
ĠÐºÐ¸Ð² Ð°Ñİ
ĠÑģ ÑİÐ¶
ĠÐ¾ÑģÑĤÐ°Ð² Ð»ÑıÐµÑĤ
ĠÐ¼ÐµÑĤÐ°Ð» Ð»Ð°
ĠÐ½ Ð¸ÑĤÑĮ
Ñģ ÐºÑĥ
ĠÐ¿ÑĢ Ð¾ÑĢÐ²
ĠÐĿÐµÐ± Ð¾
ĠÑĢÐ°Ð·Ð¼ÑĭÑĪ Ð»ÑıÐ»
Ð°Ð´ Ð¾ÑģÑĤ
ĠÐ±ÐµÐ·Ð¼ ÑıÑĤ
ĠÐº Ð»Ð°Ð½
ÑĢÐ¸Ð¼ ÐµÑĤ
ĠÐ¿ÑĢÑıÑĤ Ð°ÑĤÑĮÑģÑı
Ð¸Ð½ ÑĮ
ĠÐ¸Ð³ÑĢÑĥÑĪ ÐºÑĥ
ĠÐº Ð¸ÑĤÐ°Ð¹
ÑĪ ÐºÐµ
ĠÐ±Ð»Ð¾Ðº Ð½Ð¾ÑĤ
ĠÑģÐ¼ ÐµÑİ
ĠÑģÑĬ ÑıÐ·Ð²
ĠÐ¸ÑģÐ¿ ÐµÐ¿
ĠÐ½Ð°Ð¼ÐµÑĢÐµÐ² Ð°ÑıÑģÑĮ
ĠÐł Ð¸Ð´
Ð¸Ð¶ Ð°
ÑıÐ³ Ð¸Ð²Ð°Ð»
ĠÑģÑĤÐµÐ» Ð»Ð°Ð¶
ĠÑĥ Ð½Ð¸Ð·
ĠÐºÐ¸Ð² Ð½ÑĥÐ»Ð¸
ÐµÐ¼ Ð°ÑĤÐ¸
ĠÐº Ð°Ð¹
ĠÐĶ ÐµÑĤÐ¸
ÐµÐ¼Ð¾Ð½ ÑģÑĤÑĢÐ¸
ĠÐ¿Ð¾Ð±ÐµÐ´ Ñĭ
ĠÐ¿Ð¾Ð´ ÐºÐ»ÑİÑĩ
Ðŀ Ðŀ
ĠÑģÐ¾Ð»Ð½ ÑĨÐµÐ¼
ĠÑģÑĤÑĢ ÐµÐ»Ñı
Ð± Ð¸Ð½
ĠÑģÐ¿ÑĢÐ°Ð² Ð¸Ð»ÑģÑı
ĠÐ¿ÑĢÐ¾ ÑģÑı
ĠÑģÐ¿ Ð¾ÑħÐ²Ð°ÑĤ
ĠÐ¿ÑĢÐ¸ÑģÑĥÑĤÑģÑĤÐ² Ð¸Ñı
ĠÐºÐ¾Ð½ÑĤÑĢÐ°Ðº ÑĤ
ĠÐ¿Ð¾ÑĤ ÑĥÑħ
ĠÐ½ÐµÐ· Ð°Ð²Ð¸Ñģ
ĠÐ½Ð¾Ð² ÑĭÐ¼Ð¸
ĠÑģÐ¾ÑģÐºÑĥÑĩ Ð¸Ð»ÑģÑı
ĠÐºÐ¾Ð½ÑĩÐ¸ ÐºÐ¾Ð¼
ĠÐĳÑĥÐ´ ÐµÐ¼
ĠÑĥÑģ Ð°Ð´Ð¸Ð»
ĠÐ¿Ð¾Ð½ÐµÐ¼ Ð½Ð¾Ð³Ñĥ
ĠÐ¿Ð»Ð° Ð½Ñĥ
ĠÐ¡ÐµÐ²ÐµÑĢ ÑĥÑģÐ°
ÐºÐ° ÐµÑĤÑģÑı
ĠÑĤÑĢ Ð°Ð³
ĠÐ´Ð¾Ð»Ð³ Ð¾Ð³Ð¾
ĠÐºÐ¾ÑĢÐ¾Ð»ÐµÐ² Ñĭ
ĠÐ¾ÑģÐ¼Ð¾ÑĤÑĢ ÐµÐ»Ð°
ĠÑĤÑı Ð½ÑĥÑĤÑĮ
ĠÐ¸Ð· Ð»ÑĥÑĩ
Ð°Ð³Ð¾ ÑĢ
ĠÐ½Ð°Ð¿ÑĢÐ°Ð² Ð¸Ð»
Ð¾ Ð¾Ð±ÑĢÐ°Ð·
ĠÐ¿Ð¾Ñģ Ð¾Ñħ
ĠÐ¿Ð»Ð¾Ñħ Ð°Ñı
ĠÐ¾ÑĤÐ²ÐµÑĩ Ð°Ñı
ĠÐºÐ°Ð¼ Ð¸Ð½
ĠÐ´Ð¾Ð± ÑĢÐ°
ĠÐ¸ÑģÑĩÐµÐ· Ð½ÑĥÑĤÑĮ
ĠÐ± Ð°Ñģ
[...]
