{"<s>":0,"<pad>":1,"</s>":2,"<unk>":3,"<mask>":4,"!":5,"\"":6,"#":7,"$":8,"%":9,"&":10,"'":11,"(":12,")":13,"*":14,"+":15,",":16,"-":17,".":18,"/":19,"0":20,"1":21,"2":22,"3":23,"4":24,"5":25,"6":26,"7":27,"8":28,"9":29,":":30,";":31,"<":32,"=":33,">":34,"?":35,"@":36,"A":37,"B":38,"C":39,"D":40,"E":41,"F":42,"G":43,"H":44,"I":45,"J":46,"K":47,"L":48,"M":49,"N":50,"O":51,"P":52,"Q":53,"R":54,"S":55,"T":56,"U":57,"V":58,"W":59,"X":60,"Y":61,"Z":62,"[":63,"\\":64,"]":65,"^":66,"_":67,"`":68,"a":69,"b":70,"c":71,"d":72,"e":73,"f":74,"g":75,"h":76,"i":77,"j":78,"k":79,"l":80,"m":81,"n":82,"o":83,"p":84,"q":85,"r":86,"s":87,"t":88,"u":89,"v":90,"w":91,"x":92,"y":93,"z":94,"{":95,"|":96,"}":97,"~":98,"¡":99,"¢":100,"£":101,"¤":102,"¥":103,"¦":104,"§":105,"¨":106,"©":107,"ª":108,"«":109,"¬":110,"®":111,"¯":112,"°":113,"±":114,"²":115,"³":116,"´":117,"µ":118,"¶":119,"·":120,"¸":121,"¹":122,"º":123,"»":124,"¼":125,"½":126,"¾":127,"¿":128,"À":129,"Á":130,"Â":131,"Ã":132,"Ä":133,"Å":134,"Æ":135,"Ç":136,"È":137,"É":138,"Ê":139,"Ë":140,"Ì":141,"Í":142,"Î":143,"Ï":144,"Ð":145,"Ñ":146,"Ò":147,"Ó":148,"Ô":149,"Õ":150,"Ö":151,"×":152,"Ø":153,"Ù":154,"Ú":155,"Û":156,"Ü":157,"Ý":158,"Þ":159,"ß":160,"à":161,"á":162,"â":163,"ã":164,"ä":165,"å":166,"æ":167,"ç":168,"è":169,"é":170,"ê":171,"ë":172,"ì":173,"í":174,"î":175,"ï":176,"ð":177,"ñ":178,"ò":179,"ó":180,"ô":181,"õ":182,"ö":183,"÷":184,"ø":185,"ù":186,"ú":187,"û":188,"ü":189,"ý":190,"þ":191,"ÿ":192,"Ā":193,"ā":194,"Ă":195,"ă":196,"Ą":197,"ą":198,"Ć":199,"ć":200,"Ĉ":201,"ĉ":202,"Ċ":203,"ċ":204,"Č":205,"č":206,"Ď":207,"ď":208,"Đ":209,"đ":210,"Ē":211,"ē":212,"Ĕ":213,"ĕ":214,"Ė":215,"ė":216,"Ę":217,"ę":218,"Ě":219,"ě":220,"Ĝ":221,"ĝ":222,"Ğ":223,"ğ":224,"Ġ":225,"ġ":226,"Ģ":227,"ģ":228,"Ĥ":229,"ĥ":230,"Ħ":231,"ħ":232,"Ĩ":233,"ĩ":234,"Ī":235,"ī":236,"Ĭ":237,"ĭ":238,"Į":239,"į":240,"İ":241,"ı":242,"Ĳ":243,"ĳ":244,"Ĵ":245,"ĵ":246,"Ķ":247,"ķ":248,"ĸ":249,"Ĺ":250,"ĺ":251,"Ļ":252,"ļ":253,"Ľ":254,"ľ":255,"Ŀ":256,"ŀ":257,"Ł":258,"ł":259,"Ń":260,"ĠÐ":261,"Ð¾":262,"Ð°":263,"Ðµ":264,"ÑĤ":265,"Ð¸":266,"Ñģ":267,"Ð»":268,"Ð½":269,"ÑĢ":270,"Ð¾Ð":271,"Ñĥ":272,"Ð°Ð":273,"Ñı":274,"ÑĮ":275,"ÐµÐ":276,"ĠÐ¿":277,"Ñĭ":278,"ĠÐ½":279,"ĠÑģ":280,"ĠÐ²":281,"Ðº":282,"Ñĩ":283,"Ð²":284,"Ð´":285,"ÑĤÐ¾":286,"ĠÐ¾":287,"Ð¼":288,"ĠÐ¸":289,"ÑĪ":290,"Ð°Ð»":291,"ĠÐº":292,"Ñħ":293,"ÑģÑĤ":294,"ÐµÐ½":295,"ĠÐ¼":296,"ĠÑĤ":297,"ĠÐ´":298,"Ð¾Ð²":299,"ÐµÑĢ":300,"³Ð¾":301,"ÑĤÑĮ":302,"ĠÐ±":303,"Ð½Ð¾":304,"ÐµÐ»":305,"Ñİ":306,"Ð¾Ð¼":307,"ĠÐ¿ÑĢ":308,"Ð¸Ð»":309,"ÐµÑĤ":310,"Ð°Ðº":311,"ĠÑĩ":312,"ĠÐ·":313,"ĠÐ½Ðµ":314,"ÑģÑı":315,"ĠÑĥ":316,"Ð¿":317,"ĠÐ¿Ð¾":318,"Ġ-":319,"Ð±":320,"ĠÐ½Ð°":321,"ĠÑĢ":322,"Ð·":323,"Ð¾Ð»":324,"Ð¾Ð´":325,"Ð½Ð¸":326,"ÑģÑĮ":327,"Ð¶":328,"Ð¾Ð¹":329,"ĠÐµ":330,"Ð½Ð°":331,"ÐµÐ¼":332,"Ð½Ñĥ":333,"Ð°Ð·":334,"Ð³":335,"Ð°Ð¼":336,"ĠÑ":337,"Ð°Ð²":338,"Ð¹":339,"Ñī":340,"..":341,"ÑĢÐ°":342,"Ð»Ð¸":343,"Ð¾ÑĤ":344,"ĠÑĩÑĤÐ¾":345,"Ð½Ñĭ":346,"Ð¾ÑĢ":347,"ÑĨ":348,"Ð¸Ð²":349,"ÐµÐ´":350,"ĠÐ¾ÑĤ":351,"Ð¾Ð³":352,"ĠÐ»":353,"ĠÐ±Ñĭ":354,"Ð»Ð°":355,"ĠÑı":356,"Ð¾Ñģ":357,"Ð°ÑĢ":358,"Ð¸ÑĤ":359,"Ð°ÑĤÑĮ":360,"ĠÑį":361,"Ð¾Ð±":362,"ĠÐ³":363,"ÐµÐ¹":364,"Ñĳ":365,"Ð¾Ð¶":366,"Ð¾Ðº":367,"Ð°Ð´":368,"ÐºÐ¸":369,"Ð´Ð°":370,"Ð½Ðµ":371,"ĠÐĿ":372,"Ð°Ñģ":373,"Ð¾Ð³Ð¾":374,"ĠÐ²Ñģ":375,"Ð°Ð»Ð°":376,"ÐºÐ°":377,"ĠÐ¶":378,"ÐµÐ±":379,"ÑĢÑĥ":380,"ÐµÐ²":381,"Ð¸Ð¼":382,"Ð³Ð¾":383,"Ð°Ð½":384,"Ð¸Ð½":385,"Ð°Ñı":386,"Ð»Ð¾":387,"ÐºÐ¾":388,"Ð»Ñı":389,"ĠÐ²Ñĭ":390,"ĠÐºÐ°Ðº":391,"Ð²Ð¾":392,"ĠÐ·Ð°":393,"ĠÑħ":394,"ÐµÐ½Ð¸":395,"ĠÐ¡":396,"ĠÑĤÐ¾":397,"ĠÐĶ":398,"ĠÐ¾Ð½":399,"ĠÐ¿Ð¾Ð´":400,"ÐºÑĥ":401,"ĠÐ¿ÑĢÐ¸":402,"ÐµÐ³Ð¾":403,"ĠÐ¾Ð±":404,"Ð¸ÑĤÑĮ":405,"ĠÐ°":406,"ĠÑģÑĤ":407,"ĠÐ¢":408,"ĠÐŁ":409,"ĠÐļ":410,"ĠÐŀ":411,"ĠÑĤÐ°Ðº":412,"ĠÐĴ":413,"...":414,"Ð°Ð¶":415,"Ð°ÑĤ":416,"Ð¸Ð»Ð°":417,"Ð¾Ð·":418,"Ð¾Ð»ÑĮ":419,"ĠÐµÐ³Ð¾":420,"ÑĢÐ¸":421,"ÐµÐº":422,"ÑĢÑĭ":423,"ÐµÑģ":424,"ÐµÐ·":425,"Ð¾Ð½":426,"ĠÐľ":427,"ÐµÑĪ":428,"ĠÑįÑĤÐ¾":429,"ĠÑģÐ»":430,"ĠÐ³Ð¾":431,"ĠÐ½Ð¾":432,"ĠÑĢÐ°Ð·":433,"ÑĪÐ¸":434,"Ð¸Ð´":435,"ĠÐ¸Ð·":436,"ÑģÑĤÐ²":437,"ÑĥÐ´":438,"ĠÐĲ":439,"ÑĢÐ¾":440,"ÑĤÐ¸":441,"ĠÑģÐ¿":442,"ĠÐ¯":443,"Ð°Ð»Ð¸":444,"ÐµÐ½Ñı":445,"Ð½Ñı":446,"Ð½ÑĥÐ»":447,"ÐµÐ¿":448,"ĠÐºÐ¾":449,"Ð°ÐµÑĤ":450,"Ð»ÑĮ":451,"ĠÐ½Ð¸":452,"Ð¾Ð¿":453,"Ð°Ð¹":454,"ÐµÐ»ÑĮ":455,"Ð°Ð¿":456,"ĠÑģÐº":457,"ÐµÑģÑĤ":458,"Ð¾Ñĩ":459,"ĠÐĺ":460,"ÑĥÐ¼":461,"ĠÑĤÑĭ":462,"ĠÐ¼ÐµÐ½Ñı":463,"Ð°Ñİ":464,"Ð°Ð±":465,"ĠÐ²ÑģÐµ":466,"Ð°Ð»ÑĮ":467,"Ð°Ð¼Ð¸":468,"ÐµÑĩ":469,"ĠÐ¿ÐµÑĢ":470,"ÑĥÑĪ":471,"ÑĦ":472,"Ð¾Ð³Ð´Ð°":473,"ÐµÐ½ÑĮ":474,"ĠÐ¿ÑĢÐ¾":475,"ĠÑģÐ²Ð¾":476,"ÑģÑĤÑĮ":477,"ÐµÐ±Ñı":478,"ĠÐ»Ð¸":479,"ÑĥÑĤ":480,"ĠÐ¶Ðµ":481,"ĠÑģÐ¼":482,"ĠÐ¿Ð¾Ñģ":483,"ĠÑĪ":484,"ÐµÐ³":485,"Ð½Ð¾Ð¹":486,"ĠÑįÑĤ":487,"ĠÑĢÑĥ":488,"Ð¶Ðµ":489,"ĠÐ³Ð»":490,"ÐµÐ¶":491,"ÑĭÐ²":492,"Ð½ÑĭÐ¹":493,"ĠÐ¾Ð½Ð°":494,"ĠÑģÑĤÐ¾":495,"ÑĥÑĩ":496,"ÑģÐº":497,"ÑīÐµ":498,"Ð»Ñĭ":499,"Ð¼Ð¸":500,"ÐµÐ½Ð½Ð¾":501,"ĠÐ²Ð·":502,"Ð½Ð¾Ð³Ð¾":503,"ĠÐ¾Ð´":504,"ÑĢÑĥÐ³":505,"Ð°Ð»Ð¾":506,"ÐµÐ»Ð°":507,"Ð¸Ñħ":508,"ĠÐ±ÑĭÐ»Ð¾":509,"Ð°Ð³":510,"ĠÐ¼Ð½Ðµ":511,"Ð¾Ð¼Ñĥ":512,"Ð¸Ð»Ð¸":513,"ÑĥÐ¶":514,"Ñį":515,"Ð°Ð»ÑģÑı":516,"ÑĢÐ¾Ñģ":517,"ÑĪÐµ":518,"ĠÐºÐ¾ÑĤÐ¾":519,"ĠÐ³Ð¾Ð»":520,"Ð²ÐµÑĢ":521,"ĠÐĽ":522,"ÑħÐ¾Ð´":523,"ÑĢÐ¾Ð²":524,"ĠÐŃ":525,"ÐµÑĪÑĮ":526,"ĠÐ¿Ð¾Ð»":527,"ÑĩÐ¸":528,"ÑģÑĤÐ¸":529,"ÑĢÐ°Ð²":530,"Ð½Ð¸Ð¼":531,"Ð½ÑĥÐ»Ð°":532,"ĠÐĳ":533,"ÑĥÑİ":534,"ĠÐ±ÑĥÐ´":535,"ÐµÐ±Ðµ":536,"ÑģÑĤÐ°Ð²":537,"Ð¸Ð»ÑģÑı":538,"Ð´Ðµ":539,"ÑĢÑı":540,"ĠÐĵ":541,"Ð¸Ð·":542,"ĠÑģÐ°Ð¼":543,"Ð²ÐµÑĤ":544,"Ð½ÑĭÐµ":545,"ĠÐł":546,"Ð¼Ñĥ":547,"ĠÑĥÐ¶Ðµ":548,"Ð»ÑĮÐºÐ¾":549,"ĠÐ§":550,"ĠÐ³Ð»Ð°Ð·":551,"ĠÑĢÐ°Ñģ":552,"Ð¾Ð²Ð¾ÑĢ":553,"Ð¸Ñģ":554,"Ð°Ð½Ð¸":555,"ĠÐ¼Ð¾":556,"ĠÐ´Ð¾":557,"ĠÐ¥":558,"Ð½Ð¾Ð²":559,"ĠÐ¼Ñĭ":560,"ÐµÐ¼Ñĥ":561,"ĠÐ¿Ð¾ÑĤ":562,"ÑĭÐ¹":563,"ĠÐ¿Ð°ÑĢ":564,"ĠÐ»Ñİ":565,"ĠÐ¿Ð¾Ðº":566,"ÑģÐ»Ð¸":567,"Ð³Ð»Ñı":568,"ÑĪÑĮ":569,"ĠÐ´ÐµÐ²":570,"ĠÐ¿ÑĢÐ¾Ñģ":571,"Ð¾ÑĪ":572,"ÑģÐ¿":573,"Ð»Ñİ":574,"ÐºÐµ":575,"ÑĥÐ±":576,"ÑıÑĤ":577,"Ð½ÑĭÐ¼":578,"Ð°Ñħ":579,"ÑĩÐ½Ð¾":580,"Ð¾Ð±Ñĭ":581,"ÐµÐ½Ð¸Ðµ":582,"ĠÑĤÐ¾Ð»ÑĮÐºÐ¾":583,"ĠÐ±Ð¾Ð»ÑĮ":584,"Ð¾ÑĤÑĢ":585,"ÑĢÐµÐ¼":586,"ÐµÐ»Ð¸":587,"Ð°ÑĤÑĮÑģÑı":588,"ĠÑģÐºÐ°Ð·":589,"ÑīÐ¸":590,"ĠÐŀÐ½":591,"ĠÐ±ÑĭÐ»":592,"ĠÐĹ":593,"ÐĿ":594,"Ġ\"":595,"ÐµÐ½Ð¸Ñı":596,"Ð»Ðµ":597,"ÑĤÐ°":598,"ĠÐ·Ð½Ð°":599,"ĠÐºÐ¾Ð³Ð´Ð°":600,"ĠÐ£":601,"Ð¸Ð»Ð¾":602,"ĠÐ¼Ð¾Ð³":603,"ĠÐĿÐ¾":604,"ĠÑĤÐµÐ±Ñı":605,"ÑĥÐ¿":606,"ÑĨÐ¸":607,"ÐµÐ»Ð¾":608,"ĠÑĦ":609,"ĠÐ´ÑĢÑĥÐ³":610,"Ðŀ":611,"Ð°Ð¶Ðµ":612,"ĠÐµÐµ":613,"Ð»ÑĭÐ±":614,"Ð´Ñĥ":615,"ÐºÐ¾Ð¹":616,"Ð½Ð°Ñı":617,"ĠÑĩÑĤ":618,"ĠÐ¼Ð¾Ð¶":619,"ÐµÑĤÑģÑı":620,"ĠÐķ":621,"Ð½ÑĥÐ»ÑģÑı":622,"Ð½Ð¾Ðµ":623,"ĠÐ²Ð¾Ð·":624,"ĠÑĥÐ»ÑĭÐ±":625,"Ð³Ð»ÑıÐ´":626,"ĠÐ³Ð¾Ð»Ð¾Ð²":627,"ĠÑģÐ¾":628,"Ð°Ð»Ð°ÑģÑĮ":629,"ĠÑĥÐ´":630,"ĠÐ½Ð°Ð¿":631,"ĠÐ½Ð°Ð´":632,"ĠÑĩÑĤÐ¾Ð±Ñĭ":633,"ĠÐ¿Ð¾Ð¼":634,"Ð¸Ð»Ð°ÑģÑĮ":635,"ĠÐ²Ð¸Ð´":636,"ĠÐ¾Ñĩ":637,"ĠÑĩÑĥ":638,"ĠÐ»ÑİÐ±":639,"ĠÑħÐ¾ÑĤ":640,"ÐŁ":641,"ĠÐµÐ¼Ñĥ":642,"ÐĴ":643,"ÐºÐ¾Ð¼":644,"ĠÐ·Ð°Ðº":645,"ĠÐ¢Ñĭ":646,"ĠÐ´ÐµÐ²ÑĥÑĪ":647,"ĠÑģÐµÐ±Ñı":648,"ĠÐµÑīÐµ":649,"ÐµÑħ":650,"ĠÐ½Ð°Ñģ":651,"Ð¸ÑĢ":652,"Ð¸ÑĤÐµÐ»ÑĮ":653,"ĠÐ·Ð°Ð¼":654,"ĠÑģÐ¾Ð±":655,"ĠÐ¾Ð¿":656,"ĠÐ¿ÑĢÐ¾ÑģÑĤÐ¾":657,"ĠÑģÐ²":658,"ĠÐ¾ÑģÑĤ":659,"ĠÐĶÐ¶":660,"ÑĭÑĤ":661,"Ð¸Ð»ÑĮ":662,"ĠÐ¿ÑĢÐµÐ´":663,"ĠÐ¿Ð¾Ð²":664,"ĠÐĿÐµ":665,"ÑĩÐ°Ñģ":666,"Ð½ÑĭÑħ":667,"ĠÐ´Ð°Ð¶Ðµ":668,"ĠÐºÐ¾ÑĤÐ¾ÑĢÑĭ":669,"Ð¡":670,"ÑĤÐ¾ÑĢ":671,"ĠÐ¿Ð¾Ñĩ":672,"ĠÐºÐ¾Ð¼":673,"ĠÐ¾Ð½Ð¸":674,"ÑĤÑĮÑģÑı":675,"ĠÐ¸Ð¼":676,"Ð½ÑĥÑİ":677,"ĠÐ²ÑĢÐµÐ¼":678,"ÐµÑĢÑĮ":679,"Ð´Ð¸":680,"ÑĢÐ°Ñģ":681,"ĠÑģÐ´":682,"ĠÐºÑĥ":683,"ĠÐ³Ð»Ð°Ð·Ð°":684,"ÐµÐ¹ÑĩÐ°Ñģ":685,"Ð¾Ð»Ð¶":686,"ĠÐ¾Ñģ":687,"ĠÐ½Ð¸Ðº":688,"ĠÑģÐ»Ð¾Ð²":689,"ÑĪÐ¸ÑģÑĮ":690,"ĠÐ²ÑģÑĳ":691,"ĠÐ½ÐµÐ³Ð¾":692,"ÑĨÐ°":693,"ÑĢÐ°Ð·":694,"ĠÑĨ":695,"ĠÐµÑĳ":696,"ĠÐ´Ð²":697,"ĠÐ¸Ñħ":698,"Ð¾Ðµ":699,"ÑĢÐ°ÑĤ":700,"ĠÐ½Ð°Ñĩ":701,"ÑĢÐ¾Ð¼":702,"ĠÐ¿Ð»":703,"ÐµÑĤÑĮ":704,"ĠÐ¿Ð¾Ð¿":705,"Ð°Ð»Ð¾ÑģÑĮ":706,"ĠÐ¾Ðº":707,"Ð²ÑģÑĤÐ²":708,"Ð½ÑĥÑĤ":709,"ÑĭÑħ":710,"ÐĶ":711,"Ð¸Ðµ":712,"ĠÐ±ÐµÐ·":713,"ĠÐĶÐ°":714,"Ð¾Ð»ÑĮÐºÐ¾":715,"Ð¸ÑĤÑĮÑģÑı":716,"Ð°ÐµÑĤÑģÑı":717,"ÑĢÐ°Ð½":718,"Ðļ":719,"ĠÐ²Ð¾":720,"ÑĭÐµ":721,"ÑĩÐµÐ³Ð¾":722,"Ð½ÑĥÐ²":723,"ÑĢÑĭÐ²":724,"Ð»ÐµÐ´":725,"ĠÑĤÐµÐ±Ðµ":726,"ĠÐ±ÑĭÐ»Ð°":727,"ÐµÐ»Ð¾Ð²":728,"ĠÐ´Ð»Ñı":729,"ÐµÑĢÐ¶":730,"ĠÐ³Ð¾Ð²Ð¾ÑĢ":731,"ÑĥÑģ":732,"ÑĥÑģÑĤ":733,"Ð¾Ð¶Ðµ":734,"ÑĭÐ¼":735,"ĠÐ¾ÑĤÐ²ÐµÑĤ":736,"ÑĨÐµ":737,"Ð¯":738,"Ð°ÑıÑģÑĮ":739,"ĠÐ²Ð¾Ð»":740,"Ð¢":741,"Ð¸Ðº":742,"ÐµÐµ":743,"ÑĤÐµ":744,"ÑģÑĤÑĢ":745,"Ð¾Ñħ":746,"ĠÐŃÑĤÐ¾":747,"ĠÐ²ÐµÑĢ":748,"ĠÑĩÐµÑĢ":749,"ÑĤÐµÑĢ":750,"ĠÑģÐµÐ¹ÑĩÐ°Ñģ":751,"ÑıÐ»":752,"ĠÐµÑģÐ»Ð¸":753,"Ð¸ÑĤÑģÑı":754,"ÑĤÑĥ":755,"Ð½Ð¸Ðº":756,"Ð½Ð¾Ð¼":757,"ĠÑĥÑģ":758,"ĠÐ´ÐµÐ»":759,"Ð²Ð°ÑĤ":760,"ĠÐ¿Ð¾Ð·":761,"ÐµÐ½ÑĤ":762,"ĠÑĩÐµÐ¼":763,"Ðľ":764,"ĠÐ·Ð°Ð¿":765,"Ð¸Ð³":766,"Ð°Ð»Ð¸ÑģÑĮ":767,"ĠÐ´Ð¾Ð¼":768,"ĠÐ²Ð·Ð³Ð»ÑıÐ´":769,"Ð°ÑģÑĤ":770,"ÐĲ":771,"ĠÐļÐ°Ðº":772,"ĠÑģÐµÐ±Ðµ":773,"Ð¸Ð¼Ð¸":774,"ĠÐ§ÑĤÐ¾":775,"ÑīÑĳ":776,"ĠÑģÐ¾Ð²":777,"ĠÐ·Ð°Ð±":778,"ÑĭÑĪ":779,"ÐµÐ´ÑĮ":780,"Ð°ÑĪ":781,"ĠÐ±ÑĥÐ´ÐµÑĤ":782,"Ð¼Ð¾ÑĤÑĢ":783,"Ð½ÑĥÐ»Ð°ÑģÑĮ":784,"ĠÐ¾ÑĤÐº":785,"ĠÐ¾ÑĩÐµÐ½ÑĮ":786,"Ð»ÐµÐ½":787,"ĠÑħÐ¾Ñĩ":788,"ĠÐºÐ¾Ð½":789,"ĠÑĤÑĥÑĤ":790,"ĠÑįÑĤÐ¾Ð³Ð¾":791,"ĠÐ´ÑĥÐ¼":792,"ÑıÑĤÑĮ":793,"ÑĥÑĢ":794,"ĠÑĥÐ²":795,"ĠÐ·Ð½":796,"ĠÑĥÐ±":797,"ÑģÐµ":798,"Ð¸Ð½Ð°":799,"ĠÐ·Ð°Ð´":800,"ĠÑĤÐµÐ¿":801,"ÑĩÐ¸ÑĤ":802,"ÑĤÐ¾Ð²":803,"ĠÐ´Ð²ÐµÑĢ":804,"ĠÑĢÐµÑĪ":805,"ĠÑĤÐµÐ¼":806,"ĠÐºÐ¾ÑĢ":807,"ĠÐ²ÑĢÐµÐ¼Ñı":808,"Ð¸Ð»Ð¾ÑģÑĮ":809,"ĠÐŀÐ½Ð°":810,"ĠÐ½ÑĥÐ¶":811,"Ð½ÐµÐµ":812,"ĠÐ½ÐµÐ¼":813,"ÑģÑĤÑĢÐ¾":814,"ĠÐ±Ð¾Ð»ÑĮÑĪÐµ":815,"Ðĺ":816,"ĠÑģÐ´ÐµÐ»":817,"ÑĮÑİ":818,"Ð»Ð°Ð´":819,"Ð°ÐºÐ¾":820,"ĠÐ½ÐµÑĤ":821,"ÑĢÐµÐ´":822,"ĠÐ¿ÑĢÐ°Ð²":823,"ĠÐ³Ð¾Ð»Ð¾Ñģ":824,"Ð¾ÑĢÐ¾ÑĪ":825,"ĠÐĿÑĥ":826,"ĠÐºÑĢÐ¾Ð²":827,"ĠÐ½Ð¸ÑĩÐµÐ³Ð¾":828,"Ð¸Ð»Ð¸ÑģÑĮ":829,"ĠÐºÐ°Ð¶":830,"Ð¸Ñı":831,"ĠÐµÑīÑĳ":832,"Ð¼Ð°":833,"Ð°ÑĤÐµÐ»ÑĮ":834,"ÑıÐ²":835,"ĠÐ¿Ð¾Ð½Ñı":836,"ĠÐ¸Ð½":837,"ÐºÐ¸Ð¹":838,"ĠÐºÑĤÐ¾":839,"ĠÐ¸Ð»Ð¸":840,"ÑıÐ´":841,"ĠÑģÐ¿ÑĢÐ¾Ñģ":842,"ÑĥÐ½":843,"Ð¾Ð¶Ð½Ð¾":844,"ĠÐ²Ð¿":845,"Ð¸ÑĢÐ°":846,"ÑĩÐ¸Ð²":847,"ĠÑĤÐ¾Ð³Ð¾":848,"ĠÑĩÑĥÐ²ÑģÑĤÐ²":849,"Ð°ÑİÑĤ":850,"ĠÑĤÑĢ":851,"ĠÑģÐ¼Ð¾ÑĤÑĢ":852,"ĠÐ±Ð¾Ð»":853,"Ð°Ð½Ð¾Ð²":854,"ÑĨÑĥ":855,"ĠÐ³ÑĥÐ±":856,"ĠÐµÐ¹":857,"ÑĬ":858,"ĠÐ±ÑĭÐ»Ð¸":859,"ĠÐ¤":860,"ĠÐ¼Ð¾Ð¶ÐµÑĤ":861,"ĠÐºÐ¾Ð¼Ð½Ð°":862,"ÑĢÐ¾Ð´":863,"ĠÑģÐºÐ°Ð·Ð°Ð»":864,"Ð½Ð¾Ð²Ð°":865,"ĠÐ·Ð°Ð²":866,"Ð·Ð°":867,"ĠÐ½ÐµÐ´":868,"ÑĢÑĥÐ¶":869,"ĠÑģÑĤÐ¾ÑĢÐ¾":870,"ÑĢÐ°Ð¶":871,"ĠÐ²Ð¾ÑĤ":872,"ĠÑĢÑĥÐºÐ¸":873,"ĠÐ½ÐµÐ¿":874,"ĠÐ¢Ð°Ðº":875,"Ð¸ÑĤÐµÐ»ÑĮÐ½Ð¾":876,"ĠÑįÑĤÐ¾ÑĤ":877,"ĠÐĿÐ°":878,"ÑĥÑħ":879,"ĠÐ¿ÐµÑĢÐµÐ´":880,"ĠÐ³ÑĢÑĥ":881,"ĠÐ¿ÑĢÐ¾ÑĤ":882,"ĠÐ¼Ð¸":883,"ĠÐ¶Ð¸Ð·":884,"ĠÐºÑĢ":885,"ĠÐ»Ð¸ÑĪÑĮ":886,"Ð°Ð½Ð¸Ðµ":887,"ĠÐ³Ð´Ðµ":888,"ÑĤÑĭ":889,"Ð½ÐµÐ¹":890,"ĠÐ¼Ð¾Ð»":891,"ĠÐ¿Ð¾Ð½Ð¸Ð¼":892,"ĠÐ¿ÑĢÐ¾Ð´":893,"Ð»Ð¸Ð²":894,"ĠÐ½Ð¸Ð¼":895,"ÐºÐ°Ð¼Ð¸":896,"Ð½Ð¸Ðµ":897,"Ð°Ð²Ð½Ð¾":898,"ĠÐ¿ÑĢÐ¾ÑĪ":899,"ĠÑĤÐ¾Ð¶Ðµ":900,"ĠÐ¿Ð¾ÑģÐ¼Ð¾ÑĤÑĢ":901,"ĠÑĥÑģÐ¿":902,"ÑģÐ¸":903,"ĠÐ¿ÑĢÐ¾Ð¸Ð·":904,"Ð´Ð¾Ñħ":905,"ĠÑįÑĤÐ¾Ð¼":906,"ÑıÑģÑĮ":907,"ĠÐ´ÐµÐ²ÑĥÑĪÐºÐ°":908,"ĠÐ¿Ð¾ÐºÐ°":909,"Ð½Ð¾ÑģÑĤÑĮ":910,"Ð¸Ð±":911,"ÑģÐ°":912,"ÐºÐ¾Ð²":913,"ĠÑĤÐ²Ð¾":914,"ĠÐ¿ÑĢÐ¸Ð²":915,"ĠÐ²ÐµÐ´ÑĮ":916,"ÐµÑī":917,"Ð½ÑĭÐ¼Ð¸":918,"ÑĨÑĭ":919,"ÑĥÑī":920,"ÑĩÐµÑģ":921,"ĠÐ½Ð¾Ð³":922,"ĠÑģÐ½Ð¾Ð²Ð°":923,"ĠÐ±ÑĭÑĤÑĮ":924,"Ð½ÑĥÑĤÑĮ":925,"ĠÑĥÐ¶":926,"ĠÐ¨":927,"ĠÐ´Ð°":928,"ĠÐ½ÐµÐ¹":929,"ĠÐ´Ð¾Ð»Ð¶":930,"ÑĳÐ½":931,"ĠÐ¿ÑĭÑĤ":932,"ĠÐ½Ð°Ð·":933,"ĠÐ½Ð°ÑĪ":934,"ÑĪÐ¸Ð¹":935,"ĠÑĩÐµÐ»Ð¾Ð²":936,"ĠÐµÑģÑĤÑĮ":937,"ĠÐ¿Ð¾ÑģÐ»Ðµ":938,"Ð¼Ð¾":939,"ÑĳÐ¼":940,"ĠÐ¿Ð»ÐµÑĩ":941,"ĠÐ¼ÑĥÐ¶":942,"ÐµÑĢÐ°":943,"ĠÐ¿ÑĢÐ¾Ð²":944,"ĠÑĤÐ¾ÑĤ":945,"ĠÑģÐ¸Ð»ÑĮ":946,"ĠÑĤÐµÐ¿ÐµÑĢÑĮ":947,"ĠÑĥÐ²Ð¸Ð´":948,"Ð¾ÑĢÐ¾ÑĪÐ¾":949,"ĠÐºÐ¾ÑĤÐ¾ÑĢÑĭÐ¹":950,"Ð½Ñİ":951,"ĠÑĢÑĥÐºÑĥ":952,"ĠÐ½ÐµÐ²":953,"Ð´ÐµÑģÑĮ":954,"ĠÑĤÐ°Ð¼":955,"ÑĳÑĤ":956,"ÑĮÑı":957,"Ð¸ÑĪÑĮ":958,"Ð¸Ð¹":959,"ĠÐ¿Ð¾ÑĤÐ¾Ð¼":960,"Ð°ÑĤÐ¸":961,"ÑĢÐ°ÑĪ":962,"ĠÑģÐµÑĢ":963,"ĠÐ²Ð¾Ñģ":964,"ÑĤÐ¾Ñı":965,"ÑĥÐº":966,"ĠÐ¡ÑĤ":967,"ĠÑģÐ¸Ð´":968,"ĠÐ±ÐµÑģ":969,"Ð»ÐµÐ½Ð½Ð¾":970,"ĠÐºÑĢÐ°Ñģ":971,"Ð°Ð»ÑĮÐ½Ð¾":972,"ÑīÐ¸Ð¹":973,"ĠÐ¸ÑģÐ¿":974,"ĠÐ»ÑĥÑĩ":975,"ÐµÑģÑĤÐµ":976,"ÐµÐ³Ð´Ð°":977,"ÑĥÐ³":978,"Ð½ÐµÑģ":979,"ĠÐ¿Ð»Ð°":980,"ÑįÑĤ":981,"ÑİÑĤ":982,"ĠÐ¿Ð¾Ð³":983,"ĠÐ¿Ð¾ÑģÐ»ÐµÐ´":984,"ĠÑĩÐµÐ³Ð¾":985,"ĠÐºÐ¾Ð»":986,"Ð¸Ð¶":987,"Ð°Ð±Ð¾ÑĤ":988,"Ð¾Ð´Ð½Ñı":989,"Ð¸Ð´Ð°":990,"ĠÑĥÐ¿":991,"ĠÐ½Ð°Ð²":992,"ÑıÐ´Ð¾Ð¼":993,"ĠÐ¾ÑģÑĤÐ°Ð²":994,"ÑģÑĤÐ²ÐµÐ½":995,"ÑıÐ»Ð°":996,"ĠÐ½Ð°Ð¼":997,"ÑĩÐ°":998,"ÐµÑĢÐ²":999,"ĠÑĥÐ¼":1000,"Ð¾Ð²Ð¾Ð»ÑĮ":1001,"ĠÐ»Ð¸ÑĨ":1002,"ĠÐ¾Ð´Ð¸Ð½":1003,"ĠÑģÐ»ÑĥÑĩ":1004,"ĠÐ¾ÑĤÐ¿":1005,"ĠÐ³Ð¾Ð»Ð¾Ð²Ñĥ":1006,"Ð¾ÐºÐ¾":1007,"ÑģÑĤÐ°":1008,"ÐµÑģÑı":1009,"ĠÑĢÐ°Ð´":1010,"ÑģÐºÐ¾Ð»ÑĮÐºÐ¾":1011,"Ð½ÐµÑĨ":1012,"Ð»Ð°Ñģ":1013,"ĠÑĩÐµÐ»Ð¾Ð²ÐµÐº":1014,"ÑıÐ·":1015,"ĠÑĥÐ´Ð¸Ð²":1016,"Ð½ÑĮ":1017,"ĠÑĤÐ¾Ð¼":1018,"ÑĤÐµÑĢÐµÑģ":1019,"ĠÑģÐ²Ð¾Ñİ":1020,"ĠÑĢÐ°ÑģÑģ":1021,"Ð´Ð¸Ð½":1022,"Ð°ÐµÑĪÑĮ":1023,"ÑģÑĤÑĥÐ¿":1024,"Ð»ÐµÑĤ":1025,"Ð°ÐºÐ¸":1026,"Ð°Ð½Ð¸Ñı":1027,"ĠÐ¿ÑĢÐ¸Ð½":1028,"ĠÐ½ÐµÐ¼Ð½Ð¾Ð³Ð¾":1029,"Ð¾ÐºÐ¾Ð¹":1030,"\".":1031,"ÐµÐ½Ð°":1032,"ĠÐ¿ÑĢÐ¾Ð±":1033,"ÑĥÐ´ÑĮ":1034,"ĠÐ·Ð´ÐµÑģÑĮ":1035,"ÑĢÐ¸Ð²":1036,"ĠÐ¿ÐµÑĢÐ²":1037,"ĠÑĢÑıÐ´Ð¾Ð¼":1038,"ĠÐ¿Ð°ÑĢÐµÐ½ÑĮ":1039,"ĠÐ·Ð°Ð¼ÐµÑĤ":1040,"Ð»Ð¾Ð½":1041,"?!":1042,"ĠÐ¿Ð°Ð»ÑĮ":1043,"Ð¾Ð½Ð°":1044,"ĠÐ¼Ð¾Ð¶Ð½Ð¾":1045,"ÑĳÐ»":1046,"ÑĪÐµÐ»":1047,"ĠÑģÑĤÐ°ÑĢ":1048,"Ð°ÑĢÐ°":1049,"Ð°ÑİÑī":1050,"Ð¸Ð¼Ð¾":1051,"Ð½ÐµÑĩÐ½Ð¾":1052,"Ð°ÑĢÑĢÐ¸":1053,"ĠÐ¾ÑĤÐ²":1054,"ĠÐĿÐµÑĤ":1055,"ÑħÐ²Ð°ÑĤ":1056,"ĠÑĤÐµÐ»":1057,"ĠÑģÐ»ÐµÐ´":1058,"ĠÑģÐ²Ð¾ÐµÐ¹":1059,"ĠÐ½Ð¾Ð²":1060,"ÑĩÐ¸Ð½Ð°":1061,"Ð¸ÑĤÐµ":1062,"ĠÑģÐ²ÐµÑĤ":1063,"ÑĩÐµÐ¼":1064,"Ð°ÐºÐ¾Ð¼":1065,"ÑıÐ³":1066,"ĠÐ²ÑģÑĤÑĢ":1067,"ĠÐ¿Ð¾ÑĢ":1068,"ÐºÐ°Ñħ":1069,"Ð¼Ñĭ":1070,"ĠÐ¿ÑĢÐ¾Ð´Ð¾Ð»Ð¶":1071,"ĠÑĩÐ°Ñģ":1072,"ĠÐ²Ð¾Ð¿":1073,"ÑģÐµÐ¼":1074,"ĠÐ²ÑĭÐ¿":1075,"Ð»ÑĭÑĪ":1076,"ĠÐ¶Ð¸Ð²":1077,"ÐµÑĢÐµÐ´":1078,"ĠÐ²ÑģÐµÐ³Ð´Ð°":1079,"Ð°Ð·ÑĭÐ²":1080,"ĠÐ¼Ð°Ð»":1081,"ĠÐ·Ð½Ð°Ñİ":1082,"Ð¿Ð¾Ð¼":1083,"ĠÐ½Ð¸Ñħ":1084,"ĠÐ¸Ñģ":1085,"ĠÐ½Ð°Ð´Ð¾":1086,"ÐºÐ°Ñı":1087,"Ðł":1088,"ÑĥÐ¹":1089,"ĠÐ²Ð¾Ð»Ð¾Ñģ":1090,"Ð²Ð°":1091,"ĠÐ¿Ð¾Ð±":1092,"ĠÑģÐµÐº":1093,"Ð½ÐµÑĤ":1094,"ĠÑī":1095,"ĠÐºÐ°Ð¶Ð´":1096,"ĠÑįÑĤÐ¸":1097,"ĠÐ²Ð¼":1098,"Ð»Ð¸ÑģÑĮ":1099,"Ð¾ÑĢÐ°":1100,"ÑĢÐ°Ñī":1101,"ĠÐ±Ð»Ð¸":1102,"ÐµÐ¹ÑģÑĤÐ²":1103,"ĠÐŀÑĤ":1104,"ĠÑĥÑĤ":1105,"Ð»ÐµÐº":1106,"ĠÐºÐ¾ÑĤÐ¾ÑĢ":1107,"ĠÑģÐ¸Ð»":1108,"ĠÐ¿ÑĢÐ¸Ðº":1109,"ĠÑĤÐ¸Ñħ":1110,"ÑĩÐµ":1111,"Ð´Ñı":1112,"ÐºÐ¸Ðµ":1113,"ÑĪÐ»Ð°":1114,"ĠÐ¿Ð¾Ð¶":1115,"ĠÐ½ÑĥÐ¶Ð½Ð¾":1116,"ĠÐ´ÐµÐ½ÑĮ":1117,"ÑĢÐ°Ð·Ñĥ":1118,"ÐµÑĢÑĤ":1119,"Ð¸Ð²Ð°Ñı":1120,"ÑĢÐ°Ñı":1121,"ĠÐ¿Ð¾Ð»ÑĥÑĩ":1122,"ĠÐ¿Ð¾Ð´Ð½Ñı":1123,"Ðķ":1124,"ÑĳÑĢ":1125,"ÐµÑĨ":1126,"ĠÐľÑĭ":1127,"ĠÐĴÑĭ":1128,"Ð»Ð¸ÑĪ":1129,"ĠÐ´Ð¾Ð»":1130,"Ð·Ñĭ":1131,"Ð¾Ð²Ð°Ð»":1132,"ĠÐ»Ð°Ð´":1133,"ĠÑĤÐ°ÐºÐ¾Ð¹":1134,"ĠÐ½ÐµÑģÐºÐ¾Ð»ÑĮÐºÐ¾":1135,"Ð½Ð¸Ñı":1136,"ĠÐ´Ð¾Ð±":1137,"Ð§":1138,"ĠÐ²Ð´":1139,"ĠÐ²ÑģÐµÐ³Ð¾":1140,"ĠÐ·Ð°Ñģ":1141,"ÐĽ":1142,"Ðĳ":1143,"ÐµÐ½Ð¸ÐµÐ¼":1144,"ĠÑĢÐµÐ·":1145,"ĠÐ¼Ð¸Ð½ÑĥÑĤ":1146,"ÐµÐ³Ð¾Ð´Ð½Ñı":1147,"ĠÐ¿Ð¾ÑĩÐµÐ¼Ñĥ":1148,"ÑĢÐµ":1149,"Ð¾ÑĢÐ¾":1150,"ĠÐ±ÑĭÑģÑĤÑĢÐ¾":1151,"ĠÐ²Ðµ":1152,"Ð»Ð¸ÑĪÐºÐ¾Ð¼":1153,"Ð¾Ð±ÑīÐµ":1154,"ÐºÐ½ÑĥÐ»":1155,"ĠÐ¼Ð¾Ð¼":1156,"ÑıÐ¶":1157,"ĠÑģÐ¾Ñģ":1158,"Ðĵ":1159,"ĠÐ¼ÐµÐ´":1160,"Ð¼Ðµ":1161,"ĠÑĥÐ·":1162,"ĠÐ½Ð¸ÐºÐ¾Ð³Ð´Ð°":1163,"ĠÐ¿Ñĥ":1164,"ĠÑĢÐ¾Ð´":1165,"ĠÑĩÑĥÑĤÑĮ":1166,"ĠÐ´Ð²ÐµÑĢÑĮ":1167,"ĠÑĢÐ°Ð·Ð´":1168,"Ð¾Ð»Ð¾Ð´":1169,"ÑģÑĤÐ²Ð¾":1170,"ĠÐ¿Ð¾ÑĩÑĤÐ¸":1171,"ĠÐĵÐ°ÑĢÑĢÐ¸":1172,"ĠÐ²Ð¾Ð¿ÑĢÐ¾Ñģ":1173,"Ð½Ð¾ÑģÑĤÐ¸":1174,"ÐµÑģÑĤÐ¾":1175,"ĠÐ»ÐµÐ³":1176,"Ð²Ð¸":1177,"ĠÑĢÐ°ÑģÐ¿":1178,"ĠÐľÐ½Ðµ":1179,"ĠÐŁÐ¾":1180,"ĠÑĩÐµÑĢÐµÐ·":1181,"ĠÑģÐ¾Ð²ÑģÐµÐ¼":1182,"ĠÐ¿Ð¾Ð²ÐµÑĢ":1183,"ĠÐ¿Ð¾ÑĤÐ¾Ð¼Ñĥ":1184,"ĠÑģÐ»Ð¾Ð²Ð½Ð¾":1185,"Ð¾Ð¶ÐµÑĤ":1186,"ĠÐ¿Ð¾ÑĨ":1187,"ĠÐ´ÑĢ":1188,"ĠÑĢÐ°Ð±Ð¾ÑĤ":1189,"ĠÑģÑĤÐ¾ÑĢÐ¾Ð½Ñĥ":1190,"ĠÐ³Ð¾ÑĢ":1191,"ĠÐ¾Ð³":1192,"Ð°ÑĢÑĥ":1193,"Ð½Ð¸Ð¹":1194,"ĠÐ²ÑģÐµÑħ":1195,"ÑĩÐ°Ð»":1196,"ÐµÑİ":1197,"ĠÐ¼Ð½Ð¾Ð¹":1198,"Ð£":1199,"ĠÐ·Ð²":1200,"ĠÐ¼Ð¾Ð³Ñĥ":1201,"ĠÐ±ÑĥÐ´ÑĤÐ¾":1202,"ĠÐºÐ°ÑĢ":1203,"ÑįÑĤÐ¾Ð¼Ñĥ":1204,"ĠÐ¿Ð¾Ñħ":1205,"ĠÐºÑĢÐ¸":1206,"ĠÑģÐ¿ÑĢÐ¾ÑģÐ¸Ð»":1207,"ĠÐ¿ÑĢÑı":1208,"Ð°Ð½Ð°":1209,"ÐµÑĢÐ¸":1210,"Ð°Ð·Ð°Ð»Ð¾ÑģÑĮ":1211,"Ð»Ð¾Ð²":1212,"ĠÑģÑĢÐ°Ð·Ñĥ":1213,"ÑıÑģ":1214,"ĠÐ¶ÐµÐ½":1215,"ĠÐ¿ÑĢÐ¸Ð´":1216,"Ð¾ÑĤÑĮ":1217,"ÑĨÐ¸Ð¸":1218,"ĠÐ¿Ð¾Ð¹":1219,"ĠÐºÐ¸Ð²":1220,"ĠÐ¼Ð¾Ð¹":1221,"ĠÐ¿ÑĢÐ¸Ñģ":1222,"ÑĭÐ²Ð°Ñı":1223,"ĠÐ·Ð°ÑĤ":1224,"ĠÐ»Ð¸ÑĨÐ¾":1225,"ĠÐĴÑģÐµ":1226,"ĠÑħÐ¾ÑĤÐµÐ»":1227,"Ð¼Ð¾Ð¶Ð½Ð¾":1228,"ĠÐ±Ð»":1229,"ĠÐ´ÐµÐ¹ÑģÑĤÐ²":1230,"Ð»Ð¸Ð½":1231,"ĠÑģÐºÐ°Ð·Ð°Ð»Ð°":1232,"ĠÐ¸Ð³":1233,"ĠÐ¾Ð±ÑĬ":1234,"Ð¾Ð²Ð°ÑĤÑĮ":1235,"ÐµÐ»Ñı":1236,"ÑĢÑıÐ´":1237,"ĠÑģÐ²Ð¾Ð¸":1238,"ĠÐķÑģÐ»Ð¸":1239,"ĠÐ³Ð¾ÑĤÐ¾Ð²":1240,"ĠÑģÐ»Ð¸ÑĪÐºÐ¾Ð¼":1241,"Ð°ÑĪÐ¸":1242,"ÑĢÐ°ÑĤÑĮ":1243,"ÑĪÐµÐ³Ð¾":1244,"\",":1245,"ĠÑĥÑĩ":1246,"ĠÐ»ÐµÑĤ":1247,"ĠÐ²ÐµÑĩ":1248,"ÑģÑĥ":1249,"ÑĢÐµÐ½":1250,"ĠÐ½ÐµÐ±":1251,"ĠÑħÐ¾ÑĩÑĥ":1252,"ĠÑĤÑĢÑĥ":1253,"Ð¾ÐºÐ°":1254,"ĠÐ¾ÑĤÐºÑĢÑĭ":1255,"Ð»ÑİÑĩ":1256,"ÑıÑī":1257,"ĠÑħÐ¾ÑĢÐ¾ÑĪÐ¾":1258,"ĠÐ²Ð¾Ð¾Ð±ÑīÐµ":1259,"Ð°ÑĢÐ¸":1260,"ĠÐ¼Ð°Ð³":1261,"ĠÐ½Ð°Ð±":1262,"ĠÐ²Ð½Ð¸Ð¼":1263,"ĠÑĢÐ°ÑģÑģÐº":1264,"ĠÑģÐ¼Ð¾Ð³":1265,"ĠÑĤÑĥ":1266,"ĠÐ¼Ð½Ð¾Ð³Ð¾":1267,"ĠÑĢÐ°Ð·Ð³":1268,"ĠÑģÐ²Ð¾ÐµÐ³Ð¾":1269,"Ð¾ÑĢÐ¼":1270,"ĠÐ²ÑĭÐ±":1271,"ĠÐ²Ð¾Ð´":1272,"ĠÑģÐ»ÑĭÑĪ":1273,"Ð²Ð¾Ð»":1274,"ÐĹ":1275,"Ð½Ð¸Ð±":1276,"Ð¸Ð½Ñĥ":1277,"Ð°ÑĤÐµÐ»ÑĮÐ½Ð¾":1278,"ĠÐĴÐ¾ÑĤ":1279,"Ð½Ð¸ÐºÐ°":1280,"ÐŃ":1281,"Ð¸ÑģÑĤ":1282,"ÑģÑĤÐ°Ð²Ð»Ñı":1283,"ĠÐ´ÐµÑĤ":1284,"ĠÑģÐºÐ°Ð·Ð°ÑĤÑĮ":1285,"Ð´Ñĭ":1286,"ĠÐºÐ¾ÑĤÐ¾ÑĢÑĭÐµ":1287,"ĠÐ²Ð°Ð¼":1288,"ĠÐ±Ð¾":1289,"ÐŀÐ½":1290,"ĠÐ¼Ð¾Ð¼ÐµÐ½ÑĤ":1291,"Ð½Ð¸Ð±ÑĥÐ´ÑĮ":1292,"ÑħÐ¾Ð´Ð¸ÑĤ":1293,"ĠÐ½Ð°ÑĩÐ°Ð»":1294,"Ð»ÑĥÑĪ":1295,"ĠÐºÑĥÐ´Ð°":1296,"Ð½Ð½Ð¾":1297,"ĠÐ¿Ð¾ÑıÐ²":1298,"ÑĩÐ°Ð»Ð°":1299,"Ð¸Ð²Ð°ÐµÑĤ":1300,"ĠÐ²Ð°Ñģ":1301,"ÐºÐ¸Ñħ":1302,"ĠÐĽÑİ":1303,"Ð¾Ð¶Ð´":1304,"ÐµÐ»Ð¾ÑģÑĮ":1305,"ÐµÐ¶Ð´Ñĥ":1306,"ÑģÑĤÐ²Ð°":1307,"ÐµÐ½Ð¸Ð¸":1308,"ĠÐ´Ð¾ÑĢ":1309,"ĠÐ¡Ð¿":1310,",-":1311,"ĠÐ½Ð°Ð¿ÑĢÐ°Ð²":1312,"ĠÑģÐµÑĢÐ´":1313,"ĠÑģÑĤÐ°Ð»":1314,"ĠÐ¼ÐµÑģÑĤ":1315,"ĠÐ½ÐµÐµ":1316,"ĠÑĤÐ¾Ð³Ð´Ð°":1317,"ĠÐ´Ð°Ð²":1318,"ĠÐ±Ð¾Ð»ÐµÐµ":1319,"ÑĥÐ²ÑģÑĤÐ²":1320,"ĠÐºÐ°ÐºÐ¾Ð¹":1321,"ĠÐ¿Ð°ÑĢÐ½Ñı":1322,"ÑıÐ»ÑģÑı":1323,"Ð¸Ð½Ð¾Ð¹":1324,"ĠÐ²ÑģÐµÐ¼":1325,"ĠÑĥÐº":1326,"ĠÑģÐ²Ð¾Ð¹":1327,"ĠÑģÐ¾Ð±Ð¾Ð¹":1328,"ĠÐ´ÐµÑĢ":1329,"ĠÑĥÐ³":1330,"ĠÐ¡Ðº":1331,"ĠÑģÑĤÐµÐ½":1332,"Ð°Ð»ÑĮÑĩÐ¸":1333,"ĠÑģÐµÐ³Ð¾Ð´Ð½Ñı":1334,"ĠÐŀÐ½Ð¸":1335,"ĠÑģÑĤÑĢÐ°Ð½":1336,"ĠÐ¶Ð´":1337,"ĠÐĹÐ°":1338,"ÐµÑĢÑĪ":1339,"Ð½ÑĥÐ²ÑĪÐ¸ÑģÑĮ":1340,"ĠÐ²Ð·Ð´Ð¾Ñħ":1341,"ĠÐ½Ð°Ðº":1342,"Ð°ÐºÐ¾Ð½ÐµÑĨ":1343,"Ð¸Ð²Ð°ÑĤÑĮ":1344,"ĠÐ²ÑĭÑģ":1345,"Ð¾ÑĤÐ¾":1346,"Ð¸Ð¸":1347,"ĠÑħÐ¾Ð»Ð¾Ð´":1348,"ĠÐ¾ÑĤÐ´":1349,"!!":1350,"ĠÐ²ÑĭÐ´":1351,"ĠÐ´ÑĥÑĪ":1352,"Ð½Ð¾Ñģ":1353,"ĠÐ¿ÑĢÐµÐº":1354,"ĠÑįÑĤÐ¾Ð¹":1355,"ĠÑģÐ¿Ð¾ÐºÐ¾Ð¹":1356,"Ð¾Ð±Ð¾Ð¹":1357,"ĠÐ¸ÑģÐº":1358,"ĠÑģÐ¶":1359,"ĠÑĥÐ²ÐµÑĢ":1360,"ĠÐ¸Ð´":1361,"Ð°Ð½ÑĮ":1362,"ĠÑĥÐ»ÑĭÐ±Ð½ÑĥÐ»ÑģÑı":1363,"Ð»Ð¾Ð¶":1364,"ĠÐ±Ð¾Ð»ÑĮÑĪ":1365,"ÑģÑĤÑĮÑİ":1366,"ĠÑħÐ¾ÑĤÑĮ":1367,"ĠÑĥÑģÑĤ":1368,"ĠÐ¿Ð¾Ð´ÑĥÐ¼":1369,"Ð²Ð°ÑĢ":1370,"ĠÐ²Ð¼ÐµÑģÑĤÐµ":1371,"ĠÐŁÐ¾ÑĤ":1372,"ĠÑĥÑħ":1373,"ĠÐ½Ð¾Ñĩ":1374,"ÑĪÐ»Ð¾":1375,".-":1376,"ĠÐ²ÑģÑĤ":1377,"ĠÐ»ÑĥÑĩÑĪÐµ":1378,"ÐµÐ½Ð½ÑĭÐ¹":1379,"ĠÐ¿Ð¾Ð´Ð¾ÑĪ":1380,"ÐºÐ¸Ð¼":1381,"ĠÐ¿ÑĢÐ¾ÑĤÐ¸Ð²":1382,"Ð½Ð¸ÑĤÑĮ":1383,"ÑĥÑĪÐºÐ°":1384,"Ð»Ð¾Ñħ":1385,"ĠÑģÑĤÑĢÐ°":1386,"ĠÐ¾ÑĤÐ²ÐµÑĤÐ¸Ð»":1387,"ĠÑıÐ²":1388,"Ð±Ð¾":1389,"ĠÑģÑĤÐ¾Ð»":1390,"ĠÐ¾ÑģÑĤÐ°Ð½Ð¾Ð²":1391,"ÑĥÐµÑĤ":1392,"ĠÐ½Ð¾Ñģ":1393,"Ð¥":1394,"ĠÑĤÐ¸ÑħÐ¾":1395,"ĠÑĢÐ°Ð·Ð²":1396,"ĠÐ¼ÑĭÑģ":1397,"ÐºÐ¾Ð»":1398,"ĠÐ³Ð¾Ð»Ð¾Ð²Ð¾Ð¹":1399,"Ð½Ð¾Ð¼Ñĥ":1400,"Ð½Ð¸Ð»":1401,"ĠÐ³ÑĥÐ±Ñĭ":1402,"....":1403,"ĠÑħÐ¾ÑĤÑı":1404,"ĠÑģÐ»Ð¾Ð²Ð°":1405,"ÑĭÐ»":1406,"ĠÑĪÐ°Ð³":1407,"Ð¸ÑĢÐ¾Ð²":1408,"ĠÑģÐµÐºÑĥÐ½":1409,"ĠÑĤÐ¾Ð±Ð¾Ð¹":1410,"ĠÐ¶Ð¸Ð·Ð½Ð¸":1411,"ĠÐ¾Ñī":1412,"ĠÐ¾ÐºÐ°Ð·":1413,"ĠÑģÐµÐ¼":1414,"Ð»Ð°ÑģÑĮ":1415,"ĠÑĤÐµÑĢ":1416,"ĠÐ±ÑĢÐ¾Ñģ":1417,"ÑĢÑĥÐ·":1418,"ĠÐ¼Ð°Ð»ÐµÐ½ÑĮ":1419,"Ð½ÐµÐ²":1420,"ĠÐ¿ÑĢÐ¾Ð³":1421,"Ð¸Ð²ÑĪÐ¸ÑģÑĮ":1422,"ĠÐ¾Ð¶":1423,"Ð¾ÑĩÐµÐ¼Ñĥ":1424,"ĠÐ±ÑĢ":1425,"ĠÐ¾Ð±ÑĢÐ°ÑĤ":1426,"ÐµÑģÑĤÐ¸":1427,"ÐµÑĦ":1428,"ĠÑħÐ²Ð°ÑĤ":1429,"ĠÑĤÑıÐ¶":1430,"ĠÐĸ":1431,"Ð¾ÑĤÑĢÑı":1432,"ĠÐ´Ð¾Ð¼Ð°":1433,"Ð´Ð¶":1434,"ÑĢÐ¾Ðº":1435,"ĠÐ·Ð½Ð°Ð»":1436,"ÑĪÐ¸Ñħ":1437,"ĠÐ¸Ð¼ÐµÐ½Ð½Ð¾":1438,"ĠÐ½Ð°Ð·Ð°Ð´":1439,"ĠÐ¸Ð½ÑĤÐµÑĢÐµÑģ":1440,"Ð½Ð¾ÑĪ":1441,"ĠÐ¿ÑĢÐ¸Ð·":1442,"Ð¾Ð»ÑĮÐ·":1443,"Ð¾ÑģÑĤ":1444,"ĠÐ´ÐµÑĢÐ¶":1445,"ĠÐ·Ð°Ð³":1446,"Ð°Ð¼Ð°":1447,"ĠÐŁÑĢÐ¾":1448,"ĠÐ¿Ð¾ÑįÑĤÐ¾Ð¼Ñĥ":1449,"ĠÑĤÐ¾ÑĩÐ½Ð¾":1450,"ĠÐ¼Ð¸ÑĢ":1451,"ĠÑģÐ¾Ð³":1452,"ÑĪÐ»Ð¸":1453,"Ð²Ð¾ÑĢ":1454,"Ð¾Ð½Ð¸":1455,"ĠÐ½Ð¸ÐºÐ°Ðº":1456,"Ð°Ð»ÑĮÑĪÐµ":1457,"ĠÐĲÐ½":1458,"ÑĭÐ¼Ð¸":1459,"ĠÐ½ÐµÐº":1460,"ÐµÐ½Ð¸Ð¹":1461,"ÑĥÐ»":1462,"Ð°ÐµÐ¼":1463,"ĠÐ¼Ð°Ð»ÑĮÑĩÐ¸":1464,"ÑĢÐ¾Ðµ":1465,"ĠÑĥÑģÐ»ÑĭÑĪ":1466,"ĠÑĤÐ¾Ð»":1467,"ĠÐ²Ð·Ð³Ð»ÑıÐ´Ð¾Ð¼":1468,"ĠÐ¿Ð¾ÑģÑĤ":1469,"ÑĤÑĢ":1470,"ÑīÐ¸Ðµ":1471,"ĠÐ²ÑĭÑħÐ¾Ð´":1472,"ĠÐ´ÐµÐ»Ð°ÑĤÑĮ":1473,"Ð¾ÑĩÑĮ":1474,"ĠÐ¶Ð¸Ð·Ð½ÑĮ":1475,"ĠÐ´ÑĢÑĥÐ³Ð°":1476,"ĠÐºÐ¾ÑĤÐ¾ÑĢÐ°Ñı":1477,"Ð¼ÐµÐ½":1478,"ĠÑĢÑĭ":1479,"ÑıÑĤÐ¸":1480,"ĠÐ±ÑĥÐ´Ñĥ":1481,"ĠÐ²ÑģÐ¿Ð¾Ð¼":1482,"ĠÐºÐ¾Ð½ÐµÑĩÐ½Ð¾":1483,"ĠÐ¼Ð¾ÐµÐ¹":1484,"ĠÐ¿Ð°Ð»ÑĮÑĨ":1485,"ĠÐ²Ð½ÑĥÑĤ":1486,"Ð½ÑĥÑĤÑĮÑģÑı":1487,"ĠÐ½ÐµÐ¼Ñĥ":1488,"ĠÐºÐ°Ð¿":1489,"ÑĪÐµÐ¹":1490,"Ð¾Ð²Ð¾Ð»ÑĮÐ½Ð¾":1491,"Ð¸Ð½Ðµ":1492,"ĠÐºÐ¾Ð¼Ð½Ð°ÑĤÑĥ":1493,"ĠÐ¿Ð¾Ð¿ÑĭÑĤ":1494,"ĠÐķÐ³Ð¾":1495,"ĠÐ½ÑĢÐ°Ð²":1496,"ĠÑģÐ²Ð¾Ð¸Ñħ":1497,"Ð°ÑİÑģÑĮ":1498,"ĠÐ½Ð°ÑħÐ¾Ð´":1499,"ĠÐ²Ð´ÑĢÑĥÐ³":1500,"ĠÑĥÐ´Ð°ÑĢ":1501,"ĠÐ²Ð¾Ð»Ð¾ÑģÑĭ":1502,"ĠÐŁÑĢÐ¸":1503,"ĠÐ²ÐµÑģÑĮ":1504,"ÐºÑĥÑģ":1505,"ÐµÑĤÐµ":1506,"ÑĪÐ¸Ðµ":1507,"ĠÐ¿Ð¾ÑģÐ¼Ð¾ÑĤÑĢÐµÐ»":1508,"ĠÑĢÐ°Ð·Ð±":1509,"ĠÑģÐ´ÐµÐ»Ð°ÑĤÑĮ":1510,"ÑĢÑĥÑİ":1511,"Ġ(":1512,"ĠÑĥÑģÐ¼":1513,"ĠÑģÐ²Ð¾Ð¸Ð¼":1514,"ĠÐ¿ÑĢÐ¸Ð¶":1515,"ĠÑĪÐ¸":1516,"ĠÑĢÑĥÐºÐ¾Ð¹":1517,"ĠÐ»ÐµÐ¶":1518,"Ð¸Ñĩ":1519,"Ð»ÐµÐ¼":1520,"ĠÐ¾ÑģÐ¾Ð±":1521,"ĠÐ´Ð¾ÑĢÐ¾Ð³":1522,"ĠÑģÐ¾Ð·":1523,"ĠÐ²ÑģÑĤÑĢÐµÑĩ":1524,"ĠÑģÑĥ":1525,"ĠÐ·Ð°Ð»":1526,"ĠÐ¿Ð°ÑĢÑĥ":1527,"Ð»Ð¸Ð²Ð¾":1528,"ĠÐ½Ð°Ð²ÐµÑĢ":1529,"ĠÐ³Ð¾Ð»Ð¾Ð²Ðµ":1530,"ĠÐ®":1531,"Ð½Ð¾Ð²ÑĮ":1532,"ĠÑĤÐ°ÐºÐ¾Ðµ":1533,"ĠÐ¼ÐµÐ´Ð»ÐµÐ½Ð½Ð¾":1534,"ĠÐ¿Ð¾Ð»Ð¾Ð¶":1535,"ÐµÑı":1536,"ĠÐ½Ð°Ð¹":1537,"ĠÐ¿ÑĢÐ¾Ð¸Ð·Ð½ÐµÑģ":1538,"ĠÐŁÐ¾Ñģ":1539,"ĠÐ¶ÐµÐ»":1540,"ĠÐ¿Ð¾Ð½ÑıÐ»":1541,"Ð¾Ð²Ð°Ð»Ð°":1542,"ĠÐ¾Ð±Ñĭ":1543,"Ð³Ð¸":1544,"Ð¾Ð»Ð½":1545,"ĠÐ½Ð°ÑĩÐ°Ð»Ð°":1546,"ÑıÑĤÐ½Ð¾":1547,"ÑħÐ¾ÑĤ":1548,"Ð½Ð¸Ð·":1549,"ĠÑģÐ¾Ð²ÐµÑĢÑĪ":1550,"ĠÐ¼Ð¾Ð³Ð»Ð°":1551,"ĠÐĿÐ¸Ðº":1552,"ĠÑĢÐµÐ·ÐºÐ¾":1553,"ĠÑģÐ±":1554,"ĠÐ½ÐµÑģ":1555,"ĠÐ¿ÑĢÑıÐ¼Ð¾":1556,"ÑİÑģÑĮ":1557,"ĠÐ½ÐµÐ½":1558,"ÐºÐ½ÑĥÐ»Ð°":1559,"Ð¸Ð±Ð¾":1560,"Ð½Ð¸ÑĤ":1561,"ĠÐ¼Ð¾ÑĢ":1562,"ĠÐ¿Ð¾Ð¶Ð°Ð»":1563,"ĠÐµÐ´":1564,"ĠÑģÑĭ":1565,"ĠÐļÐ¾Ð³Ð´Ð°":1566,"ĠÐºÐ°Ð¶ÐµÑĤÑģÑı":1567,"ĠÐ»ÑİÐ´":1568,"ĠÐ½ÐµÐ¶":1569,"ĠÐ½Ð°ÐºÐ¾Ð½ÐµÑĨ":1570,"ĠÐ¿ÑĢÐ¸Ð±":1571,"ÑİÐ´Ð°":1572,"Ð³Ð°":1573,"ÑĤÐ¾Ñĩ":1574,"ĠÐ³Ð»Ð°Ð·Ð°Ð¼Ð¸":1575,"ĠÐ³ÑĢÐ¾Ð¼":1576,"ĠÑĩÐ°":1577,"ĠÑĤÐµÐ»Ð¾":1578,"ĠÐ²Ð½Ð¾Ð²ÑĮ":1579,"ĠÐ³Ð¾Ð´":1580,"ĠÐ½ÐµÑĳ":1581,"ĠÐ´Ð²Ð°":1582,"ÑģÑĤÐ²ÐµÐ½Ð½Ð¾":1583,"ÑĢÐ¾ÑĤ":1584,"ĠÑįÑĤÑĥ":1585,"ĠÑįÑĤÐ¸Ð¼":1586,"ĠÐ´Ð¾Ð»Ð³Ð¾":1587,"ĠÐ·Ð°ÐºÐ¾Ð½":1588,"ÐĿÐ¾":1589,"Ð»ÑģÑı":1590,"ÐµÐ¹Ð½":1591,"ÐµÐ½Ð¸Ñİ":1592,"ĠÐ½Ð¸ÐºÑĤÐ¾":1593,"ĠÑİ":1594,"ÑĢÐ°Ð»":1595,"ĠÐ¿ÑĢÐ¾ÑģÑĤ":1596,"ÑĤÐ¾ÑĢÐ¸":1597,"ĠÐ¼Ð¾Ð¸":1598,"ĠÐŁÐ¾ÑĩÐµÐ¼Ñĥ":1599,"ÑĪÐ°Ñı":1600,"ÐºÐ¾Ð³Ð¾":1601,"ĠÑĢÐ°Ð²Ð½Ð¾":1602,"Ð°Ð´Ð¸":1603,"Ð»ÑĮÑĦ":1604,"ĠÐ´Ð¾Ð»Ð¶ÐµÐ½":1605,"ĠÑĨÐµÐ»":1606,"Ð°Ð¹Ð»":1607,"Ð°ÑģÐ¸Ð±Ð¾":1608,"ĠÐ¢Ð¾Ð»ÑĮÐºÐ¾":1609,"ĠÑħÐ¾ÑĤÐµÐ»Ð¾ÑģÑĮ":1610,"ĠÑĨÐ²ÐµÑĤ":1611,"ĠÐ½Ð¾Ð³Ð¸":1612,"ÑĩÐ°ÑģÑĤ":1613,"ĠÐ±ÐµÐ»":1614,"Ð½Ð¾ÑģÑĤÑĮÑİ":1615,"ĠÐ·ÐµÐ¼":1616,"Ð´ÑĢ":1617,"ĠÑĥÐ¶Ð°Ñģ":1618,"ÐºÑĥÑİ":1619,"ÑıÐ½":1620,"ĠÐĺÐ·":1621,"ĠÐ¿ÑĢÐ¾Ð¿":1622,"ĠÑģÐ¿ÑĢÐ¾ÑģÐ¸Ð»Ð°":1623,"Ð»Ð¾Ðº":1624,"ĠÑĤÐ°":1625,"ĠÐºÐ¾Ð³Ð¾":1626,"ĠÐ¾Ð±Ñī":1627,"ÐºÐ¾Ðµ":1628,"ĠÐ²Ð·Ð³Ð»Ñı":1629,"ÑĭÐ²Ð°ÐµÑĤ":1630,"ÑĭÑģ":1631,"ĠÐ¾ÑĤÐ¿ÑĢÐ°Ð²":1632,"ĠÐĿÐ¸":1633,"ĠÐ¼ÐµÑģÑĤÐ¾":1634,"ÑıÐ¼Ð¸":1635,"ĠÑģÐ¸Ð»ÑĮÐ½Ð¾":1636,"ĠÐ½ÐµÐ·":1637,"Ð½ÐµÐ¼":1638,"Ð²Ð°Ð»":1639,"ĠÐ¿ÑĢÐµÐºÑĢÐ°Ñģ":1640,"ĠÐºÑĢÐ¾Ð²Ð°ÑĤÐ¸":1641,"ĠÐ´Ð°Ð²Ð½Ð¾":1642,"ÑĥÑĢÐ°":1643,"ÑĭÐ²Ð°ÑĤÑĮ":1644,"ĠÐ¼ÑĭÑģÐ»Ð¸":1645,"ĠÐ²ÑĢÐµÐ¼ÐµÐ½Ð¸":1646,"Ð»Ð¸Ð·":1647,"ĠÐ¼Ð°ÑĪÐ¸":1648,"ÐµÐ¿ÑĤ":1649,"ĠÐ¿Ð¾ÑĤÐµÑĢ":1650,"ĠÐ´ÐµÐ²ÑĥÑĪÐºÐ¸":1651,"ĠÐ°Ðº":1652,"ÑıÐ½ÑĥÐ»":1653,"ĠÐ¿Ð¾ÑĨÐµÐ»":1654,"ĠÐľÐ°ÑĢ":1655,"ÑĤÐ°ÐºÐ¸":1656,"ĠÐ±Ð»Ð¾Ð½":1657,"ÑĩÐµÑģÐºÐ¸":1658,"ĠÐ¼ÐµÐ¶Ð´Ñĥ":1659,"ĠÐ¥Ð¾ÑĤ":1660,"ÑĢÐ¾ÑģÑĤÐ¾":1661,"ÐµÐ²ÑĥÑĪÐºÐ°":1662,"ÑĢÐ°Ð´":1663,"ĠÐĴÑģ":1664,"Ð´Ð¾ÑĢ":1665,"Ð°Ð´ÑĨ":1666,"Ð»Ð°Ð¶":1667,"ĠÐ¿ÑĢÐ¾Ð¸Ñģ":1668,"ĠÐ´ÐµÐ»Ð¾":1669,"ĠÐ³Ð»Ñı":1670,"ĠÐ²ÐµÑģ":1671,"ĠÐ¿Ð¾Ð·Ð²Ð¾Ð»":1672,"ĠÑīÐµÐº":1673,"ĠÐ·Ð½Ð°ÐºÐ¾Ð¼":1674,"ĠÑĤÑĢÐ¸":1675,"ĠÑĥÑģÐ¼ÐµÑħ":1676,"ĠÐ¼Ð¾Ñı":1677,"ĠÑĢÐ°":1678,"Ð¾ÑĩÐºÐ°":1679,"ĠÑģÑĥÐ¼":1680,"ĠÑĤÐ¸":1681,"ĠÑģÐµÑģÑĤ":1682,"ĠÑĥÐ»ÑĭÐ±Ð½ÑĥÐ»Ð°ÑģÑĮ":1683,"ĠÐ²ÑģÑı":1684,"Ð°ÑİÑĤÑģÑı":1685,"ĠÐ¿Ð¾ÑĩÑĥÐ²ÑģÑĤÐ²":1686,"ĠÐļÐ¾":1687,"Ð½Ð°Ð»":1688,"Ð´ÑĥÑħ":1689,"ĠÑĢÐµ":1690,"ĠÐ¿Ð¾Ð¼Ð¾Ð³":1691,"ĠÐ½Ñĥ":1692,"ĠÐ³Ð¾ÑĢÐ¾Ð´":1693,"ĠÐ¿ÐµÑĢÐµÐ²":1694,"ĠÐŀÐ±":1695,"ĠÐ¼ÐµÑĩ":1696,"ĠÑĢÐµÑĪÐ¸Ð»":1697,"ĠÐºÐ°Ð¼":1698,"ĠÐ²ÐµÑĩÐµÑĢ":1699,"ĠÑģÑĤÐ¾Ð¸ÑĤ":1700,"ĠÐ³Ð»ÑĥÐ±":1701,"ĠÐ»ÑİÐ±Ð¸Ð¼":1702,"ĠÐľÐ¾Ð¶ÐµÑĤ":1703,"Ð´Ð¾":1704,"ĠÐ²ÑģÑİ":1705,"ĠÐ²Ð¾Ð·Ð¼Ð¾Ð¶Ð½Ð¾":1706,"ÐĿÐµ":1707,"Ð¾Ð»Ð¾Ñģ":1708,"ĠÐ±ÐµÑģÐ¿":1709,"Ð°Ð½ÑĤ":1710,"ÐºÑĥÐ´Ð°":1711,"ÑīÐµÐµ":1712,"Ð´Ð½Ð¾":1713,"ĠÐ´ÑĢÑĥÐ·":1714,"ĠÐ·Ð°Ð´ÑĥÐ¼":1715,"ĠÐ·Ð°ÐºÑĢÑĭ":1716,"ĠÐ³Ð»Ð°Ð²":1717,"Ð¾Ð¶Ð¸Ð´Ð°":1718,"Ð¾ÑĢÐ¾ÑĤ":1719,"Ð°Ð³Ð¾":1720,"ĠÑģÐ°Ð¼Ð°":1721,"Ð°Ñĩ":1722,"ĠÐ´ÐµÑĢÐµÐ²":1723,"ÐµÐ½Ð¾":1724,"ĠÐ·Ð°Ð½":1725,"ÑĢÐ¾Ð±":1726,"Ð½Ð¸Ñĩ":1727,"ĠÐĽÑĥ":1728,"ÑĦÐ¸":1729,"ĠÐ¿Ð¾Ð´Ð¾Ð±":1730,"ÑĭÑĢ":1731,"ĠÐ½Ð°Ð±Ð»Ñİ":1732,"Ð°Ð´Ð½Ð¾":1733,"Ð¼Ð°ÑĤ":1734,"ĠÑģÑĤÐ°Ð»Ð¾":1735,"ÑĩÑĤÐ¾":1736,"ĠÐ²Ð¾Ð·Ð´ÑĥÑħ":1737,"ĠÐºÐ¾ÑĤÐ¾ÑĢÐ¾Ð¹":1738,"ĠÑģÐµÑĢÐ´ÑĨÐµ":1739,"ÑģÐ¾Ð½":1740,"Ð°Ð·Ð°Ð»":1741,"ĠÐ´ÐµÐ¹ÑģÑĤÐ²Ð¸ÑĤÐµÐ»ÑĮÐ½Ð¾":1742,"ĠÐ¼ÐµÑĤ":1743,"Ð¾Ð¶Ñĥ":1744,"Ð½Ð¸Ð¸":1745,"ÑĨÐ¸Ñı":1746,"ĠÐĲÑĢ":1747,"ĠÑĪÐºÐ¾Ð»":1748,"Ð¸Ð²Ð°Ð»":1749,"Ð°Ð²ÑĪÐ¸ÑģÑĮ":1750,"ÑĥÑı":1751,"ĠÑĥÐ»Ð¸":1752,"Ð¾ÐºÑĢÑĥÐ³":1753,"ÑĨÐ¸Ñİ":1754,"ĠÐ·Ð½Ð°ÐµÑĪÑĮ":1755,"ĠÐ¼Ð½":1756,"ÑĩÐµÑĤ":1757,"Ð¾ÑģÐ¾Ð±":1758,"ĠÐºÑĢÐµÐ¿":1759,"ĠÐ´Ð²ÐµÑĢÐ¸":1760,"?-":1761,"ĠÐ¿ÑĢÐ¸Ð²Ñĭ":1762,"ĠÐ¾ÑīÑĥÑī":1763,"ĠÑħÐ¾ÑĤÐµÐ»Ð°":1764,"ÑıÐ»Ð°ÑģÑĮ":1765,"ĠÑĢÐ°ÑģÑĤ":1766,"ĠÑģÐ»ÐµÐ·":1767,"ĠÑĢÑĥÐºÐ°Ð¼Ð¸":1768,"Ð°Ð»ÐµÐº":1769,"Ð²Ð¾Ð¹":1770,"ĠÐ¶ÐµÐ½ÑīÐ¸":1771,"ĠÑģÑĤÐ¾ÑĢÐ¾Ð½Ñĭ":1772,"ÐµÑģÑģ":1773,"ĠÐ³Ð»Ð°Ð·Ð°Ñħ":1774,"ĠÐ´Ð¾Ð¼Ð¾Ð¹":1775,"ĠÐ¿Ð»Ð¾Ñħ":1776,"ĠÑģÐ´ÐµÐ»Ð°Ð»":1777,"ĠÐºÐ°Ð±":1778,"ĠÐ¸Ð·Ð²":1779,"ÐµÐ¿ÐµÑĢÑĮ":1780,"ĠÑģÑĩÐ¸ÑĤ":1781,"ĠÑįÑĤÐ°":1782,"ÐµÐ»ÐµÐ½":1783,"Ð°Ð½ÑĮÑĪÐµ":1784,"ĠÐ¾Ð´Ð½Ð¾Ð¹":1785,"ĠÐ»ÑİÐ´ÐµÐ¹":1786,"Ð¾Ð²Ð°ÑĢ":1787,"ĠÑĤÐµÐ»ÐµÑĦ":1788,"ĠÑħÐ¾Ð´":1789,"ÑİÑī":1790,"ĠÐ´Ð¾ÑģÑĤ":1791,"ĠÐĶÑĢ":1792,"Ð¾Ð±Ð¾Ð´":1793,"ĠÐ·Ð°ÐºÐ¾Ð½Ñĩ":1794,"Ð°ÑĢÑĥÑĤÐ¾":1795,"Ð¾Ñī":1796,"ĠÐ¼ÑĥÐ¶ÑĩÐ¸Ð½Ð°":1797,"ĠÐ¶ÐµÐ»Ð°":1798,"ĠÐ³ÑĢÑĥÐ´Ð¸":1799,"ÑįÐ½":1800,"ĠÐ´Ð¾Ð³":1801,"ĠÐ·Ð°ÑģÑĤÐ°Ð²":1802,"ÐµÑĢÐ¾":1803,"ĠÐ²Ð¸Ð´ÐµÐ»":1804,"ĠÑĢÑĥÐºÐ°Ñħ":1805,"ĠÐ²ÑĭÐ·":1806,"ĠÑĢÐµÐ±":1807,"ĠÐ±ÑĢÐ°ÑĤ":1808,"Ð»ÐµÐ½Ð¸Ðµ":1809,"ĠÑĤÐµÑħ":1810,"ĠÐ¿ÑĢÐ°Ð²Ð´Ð°":1811,"ĠÑģÐ¼Ð¾ÑĤÑĢÐµÐ»":1812,"Ð¸Ð¶Ñĥ":1813,"ĠÐ¿Ð¸":1814,"ĠÐ´Ð°Ð»ÑĮÑĪÐµ":1815,"ÑĢÐ¸Ñģ":1816,"ĠÐ´ÐµÐ²ÑĥÑĪÐºÑĥ":1817,"ÐĿÐ°":1818,"ĠÑıÐ·Ñĭ":1819,"ÑĢÑĥÑĪ":1820,"ÐºÐ¾Ð½":1821,"Ð¸ÑĤÑĥ":1822,"Ð¸Ð½Ð¾Ð²":1823,"ĠÐ²ÑĤÐ¾ÑĢ":1824,"ÐµÐ³ÐºÐ°":1825,"ĠÐºÑĥÑħ":1826,"ÑĢÐµÑĤ":1827,"ĠÐ´ÑĢÑĥÐ³Ð¾Ð¹":1828,"Ð»Ð¾Ð¿":1829,"ÑĪÑĥÑİ":1830,"ĠÑģÐ¾Ð²ÐµÑĢÑĪÐµÐ½Ð½Ð¾":1831,"ĠÑģÐ¾Ð³Ð»Ð°Ñģ":1832,"Ð½Ð¸ÑĨÐ°":1833,"Ð°ÑģÐºÐµ":1834,"ĠÑħÐ¾ÑĩÐµÑĪÑĮ":1835,"Ð³Ð½Ð¾Ð²":1836,"ĠÐ¼ÑıÐ³":1837,"ĠÐ¿Ð¾Ð´ÑĢÑĥÐ³":1838,"ĠÐ·Ð°ÑĤÐµÐ¼":1839,"ÑĤÐ¾Ð¼":1840,"ĠÐ¼Ð¸Ð»":1841,"ĠÑģÐºÐ°Ð¶":1842,"ĠÑĤÐ¾Ð¼Ñĥ":1843,"ĠÑĤÐ°ÐºÐ¸Ð¼":1844,"ĠÐ²ÑĭÐ³Ð»ÑıÐ´":1845,"ĠÐµÐ´Ð²Ð°":1846,"ÐµÑģÑĤÐ²Ð¾":1847,"Ð½Ð°ÐºÐ¾":1848,"Ð¾ÑĢÐµ":1849,"Ð¾Ð²ÐµÑĢ":1850,"ĠÐĹÐ½Ð°":1851,"ĠÐłÐ°Ð·":1852,"ĠÑĤÐ°ÐºÐ¾Ð³Ð¾":1853,"ĠÐ¾Ð¿ÑĥÑģÑĤ":1854,"Ð²Ð¾Ð·":1855,"ĠÑģÑĤÐ°Ð»Ð°":1856,"ĠÐ¼Ñĥ":1857,"ĠÐºÑĢÑĭ":1858,"ĠÐ¿Ð¾ÑĢÑıÐ´":1859,"ĠÑģÑħÐ²Ð°ÑĤ":1860,"ĠÑģÐµÑĢÑĮ":1861,"ĠÐŁÐ¾Ð´":1862,"Ð²Ð¾Ð½":1863,"ÐµÐ½Ñĭ":1864,"Ð¿Ð¿":1865,"ĠÑģÐ¾Ð±ÑģÑĤÐ²ÐµÐ½":1866,"ĠÐŁÑĢ":1867,"ĠÑģÐ²ÐµÑĢ":1868,"ĠÑĤÐ¾ÑĢ":1869,"Ð¾ÑĢÐ²":1870,"ĠÐ±Ð»Ð¸Ð·":1871,"ĠÐ´ÑĥÐ¼Ð°Ð»":1872,"ĠÐ»Ð°Ð´Ð¾Ð½":1873,"ĠÐ»Ð¸ÑĨÐ°":1874,"ĠÑģÐ»ÑĥÑĪ":1875,"ĠÑĢÐ°Ð·Ð¼":1876,"ĠÐ¾ÑĤÐ²ÐµÑĤÐ¸Ð»Ð°":1877,"ĠÐ¼Ð¾Ñİ":1878,"ÐµÑĢÐµ":1879,"ĠÐ´ÐµÐ»Ð°":1880,"ĠÑģÐ»ÐµÐ³ÐºÐ°":1881,"ĠÐ·Ð½Ð°ÐµÑĤ":1882,"ÐµÑģÑĤÐ½Ð¾":1883,"ÐµÐ»Ñİ":1884,"ĠÐ¿ÐµÑĢÐµÑģÑĤ":1885,"ĠÐ³Ð¾Ð²Ð¾ÑĢÐ¸Ð»":1886,"ĠÐ¼Ð³Ð½Ð¾Ð²":1887,"ĠÐ´Ð¾Ðº":1888,"ĠÐºÐ¾ÑĤÐ¾ÑĢÐ¾Ð³Ð¾":1889,"ÐµÐ½Ð½ÑĭÐµ":1890,"ÑĤÑĢÐ°":1891,"Ð½Ð¸ÐºÐ¸":1892,"ĠÐ¿ÑĭÑĤÐ°ÑıÑģÑĮ":1893,"Ð½Ð°ÑĤÑĮ":1894,"ĠÐ²Ð¾ÐºÑĢÑĥÐ³":1895,"ĠÐŁÑĢÐ¾ÑģÑĤÐ¾":1896,"ÐµÑģÑĤÑĮ":1897,"ĠÐ´Ð¾Ð²Ð¾Ð»ÑĮÐ½Ð¾":1898,"Ð½ÑĥÐ»Ð¸":1899,"ĠÑģÐ¿Ð¾ÐºÐ¾Ð¹Ð½Ð¾":1900,"ÑĭÐ²Ð°Ð»":1901,"ĠÐ²Ð½Ð¸Ð·":1902,"Ð°Ð½Ð´":1903,"ĠÑģÐºÐ¾ÑĢÐ¾":1904,"Ð¾Ð¶Ð°":1905,"ĠÐ·Ð½Ð°ÑĩÐ¸ÑĤ":1906,"Ð½ÑĥÐ»Ð¸ÑģÑĮ":1907,"Ð»Ð¸Ñĩ":1908,"ĠÑģÐ¿Ð¾ÑģÐ¾Ð±":1909,"ĠÐ±ÑĢÑİ":1910,"Ð»ÐµÐ¹":1911,"Ð¿Ð¾Ð´":1912,"ĠÐ³ÑĢ":1913,"ĠÐºÐ¾Ð¼Ð¿":1914,"Ð»ÐµÐ½Ð¸Ñı":1915,"ĠÐ³Ð¾Ð²Ð¾ÑĢÐ¸ÑĤÑĮ":1916,"ĠÐ¶Ð¸Ð²Ð¾ÑĤ":1917,"ÑĭÐ¿":1918,"ĠÐ·Ð°Ð¼ÐµÑĤÐ¸Ð»":1919,"ĠÐ¾ÑĤÑģ":1920,"ÑĢÐ°Ñĩ":1921,"ĠÐ¼ÐµÑģÑĤÐµ":1922,"ÑĤÐ¸Ð²":1923,"Ð°Ð¹ÑĤÐµ":1924,"Ð¼ÐµÑĤ":1925,"ÑĢÐ¾Ð½":1926,"ĠÐ¼Ð°ÑĤ":1927,"ĠÐ¥Ð¾ÑĤÑı":1928,"ĠÐ¾ÑģÑĤÐ°Ð»ÑĮ":1929,"Ð·Ñı":1930,"ĠÑģÑĤÑĢÐ°ÑĪ":1931,"ĠÐ³Ð»ÑĥÐ¿":1932,"ĠÑĩÐµÑĤ":1933,"ĠÐ²ÑģÑĤÑĢÐµÑĤ":1934,"ĠÐ¾Ð³ÑĢÐ¾Ð¼":1935,"ÐŀÐ½Ð°":1936,"ĠÐºÐ¸Ð²Ð½ÑĥÐ»":1937,"ÐĶÐ°":1938,"ĠÐ´Ð¸Ð²":1939,"ĠÑĢÑĥÐº":1940,"ÐµÑĢÑĥ":1941,"ĠÐ½ÐµÐ±Ð¾Ð»ÑĮ":1942,"ĠÑģÐ¾Ð±Ð¸ÑĢÐ°":1943,"Ð½Ð°ÐºÐ¾Ð¼":1944,"ĠÐ»ÑİÐ±Ð¾Ð²":1945,"ĠÐľÐ°Ðº":1946,"ĠÐºÐ½Ð¸":1947,"ĠÑıÐ²Ð½Ð¾":1948,"ÑįÑĢ":1949,"ĠÐĿÐ°ÑĢÑĥÑĤÐ¾":1950,"Ð°Ð³Ð¾Ð´":1951,"ĠÑĤÐ¾Ð½":1952,"ĠÐ¿Ð¾ÑģÐ¼Ð¾ÑĤÑĢÐµÐ»Ð°":1953,"ĠÑģÐ¼ÐµÑĢ":1954,"ĠÑĢÐ°Ð½ÑĮÑĪÐµ":1955,"Ð¼Ð°ÑĤÑĢÐ¸Ð²":1956,"ĠÑģÑĤÐ°Ð½Ð¾Ð²":1957,"ĠÐºÐ°Ð·Ð°Ð»Ð¾ÑģÑĮ":1958,"ĠÑģÐ¾Ð¾Ð±":1959,"ĠÑģÐºÐ¾ÑĢ":1960,"Ð½Ð¸ÐºÐ¾Ð²":1961,"ĠÑĢÐ°Ð·Ð³Ð¾Ð²Ð¾ÑĢ":1962,"ÑĦÐ¾ÑĢ":1963,"ÐļÐ°Ðº":1964,"ĠÐĵÐµÑĢ":1965,"ĠÐŀÐ´":1966,"ÑĤÐ¾Ð»ÑĮÐºÐ¾":1967,"ĠÐ¿Ð¾Ð½":1968,"ĠÐĿÐ°Ð´":1969,"ĠÑģÐ²Ð¾Ðµ":1970,"ĠÐ´ÐµÐ¼":1971,"ÑĢÐ¸Ð¿":1972,"ĠÐ·Ð°Ð¼ÐµÑĩ":1973,"ĠÑģÑĤÐ¾ÑıÐ»":1974,"ĠÑģÐºÑĥ":1975,"ĠÑģÐ°Ð¼Ð¾Ð¼":1976,"Ð°Ð·Ð°ÑĤÑĮ":1977,"ĠÐ¾Ð±ÑĬÑıÑģ":1978,"ÑĢÐ¾ÑĤÐ¸Ð²":1979,"ĠÐ¾Ð´Ð½Ð°":1980,"ĠÐĵÑĢ":1981,"ĠÐ¾ÑĩÐµÑĢÐµÐ´":1982,"ĠÐºÐ¾Ð¼Ð½Ð°ÑĤÐµ":1983,"ĠÑģÐ¼Ð¾ÑĤÑĢÑı":1984,"ĠÐ¿ÑĢÐ¸ÑħÐ¾Ð´":1985,"ĠÐºÐ°Ð¶Ð´ÑĭÐ¹":1986,"ĠÐ¿ÑĢÐ¸Ð¼":1987,"ĠÐ¿ÑĢÐ¸ÑĪÐ»Ð¾":1988,"ĠÑĩÐµÐ»Ð¾Ð²ÐµÐºÐ°":1989,"ĠÐ²Ð°Ð¶":1990,"ĠÐ»ÑİÐ±Ð»Ñİ":1991,"ĠÐµÐ´Ð¸Ð½":1992,"ĠÐ°Ð²":1993,"Ð»Ð¾Ð¼":1994,"ÑıÑħ":1995,"ĠÐ½Ð°ÑĩÐ¸Ð½Ð°":1996,"ÐµÑĤÐ°":1997,"Ð¹ÑĤÐ¸":1998,"ĠÐ¾Ð±Ð½Ñı":1999,"ÐµÑĩÑĮ":2000,"Ð»Ñĥ":2001,"ĠÐ²Ð¾Ð·Ð²":2002,"ĠÐ¼Ð¾Ð»Ð¾Ð´":2003,"Ð¾ÑģÑĤÐ¸":2004,"ÑĥÑģÐº":2005,"ĠÐ¿Ð¾Ð´Ð½Ð¸Ð¼":2006,"ĠÐ½Ð¸Ð¼Ð¸":2007,"ÐµÐ»ÐµÐ¹":2008,"Ð¾Ð¶Ð°Ð»":2009,"ĠÑĢÐ¾ÑĤ":2010,"ĠÐºÑĢÐ°ÑģÐ¸Ð²":2011,"Ð°Ð³Ð¾Ð´Ð°ÑĢ":2012,"ÑĥÐ¶Ð´":2013,"ĠÐ·Ð°ÑĢ":2014,"ĠÐ¿ÑĢÐ¾Ð±Ð»ÐµÐ¼":2015,"ĠÑģÑĤÑĢ":2016,"ĠÐ½ÐµÐ¾Ð¶Ð¸Ð´Ð°":2017,"ĠÐºÐ¾Ñģ":2018,"Ð½Ð¸Ð²":2019,"ĠÐ¿ÑĢÐ¾Ðº":2020,"ĠÐ¿ÑĥÑģÑĤ":2021,"Ð°Ð½Ð½ÑĭÐ¹":2022,"ĠÑģÐ°Ð¼Ð¾Ð³Ð¾":2023,"ĠÐ±Ð»Ð¾Ð½Ð´Ð¸Ð½":2024,"ĠÐ´Ð²Ð¸Ð¶":2025,"Ð½ÐµÐ³Ð¾":2026,"ĠÐ¾Ð¿ÑıÑĤÑĮ":2027,"ĠÐ½ÐµÑĢÐ²":2028,"ĠÐºÐ¾ÑĢÐ¸Ð´":2029,"Ð¸Ð²Ð°Ñİ":2030,"Ð»ÑİÐ±":2031,"ĠÐĶÐ°Ð¶Ðµ":2032,"ĠÐ±ÑĭÐ²":2033,"ĠÑģÐ´ÐµÑĢÐ¶":2034,"ĠÐ¢ÐµÐ¿ÐµÑĢÑĮ":2035,"ÐµÐ½Ð½ÑĭÐ¼":2036,"ÑĪÐ¸Ð¼":2037,"ĠÐ¿Ð¾Ð½ÑıÑĤÑĮ":2038,"ĠÐºÐ¾ÑĤÐ¾ÑĢÑĥÑİ":2039,"Ð»Ð°Ð·":2040,"ĠÑģÐ¾Ð¿":2041,"Ð¾Ð¹Ð´":2042,"ĠÐ¼ÐµÑģÑĤÐ°":2043,"ÑĦÐµ":2044,"ÑįÐ¹":2045,"ĠÐºÐ°Ð±Ð¸Ð½":2046,"ĠÐ¡Ð°ÑģÐºÐµ":2047,"ĠÑģÐ»Ð°Ð±":2048,"Ð½ÐµÐ·":2049,"Ð¸ÐºÐ°":2050,"ÑĢÐ¸Ðº":2051,"ÑģÐºÐ¾Ð¹":2052,"Ð¢Ñĭ":2053,"ĠÐ¿ÑĢÐ¾ÑĪÐµÐ¿ÑĤ":2054,"ĠÐ½ÐµÐ½Ð°Ð²":2055,"ÑĩÑĥ":2056,"Ð¸Ð½ÑĤÐµÑĢÐµÑģ":2057,"ĠÐ¸Ð´Ðµ":2058,"Ð»ÑĥÐ±":2059,"ÑģÑĤÐ²Ðµ":2060,"Ð»ÑıÑĤÑĮ":2061,"ĠÐ´Ð½Ñı":2062,"ĠÐ¼Ð¾ÐµÐ³Ð¾":2063,"ĠÑĤÐµ":2064,"ĠÐ³Ð¾ÑĢÑı":2065,"ĠÐ²ÐµÑĤ":2066,"ĠÑĤÐ°ÐºÐ¸Ðµ":2067,"ĠÐ½Ð°Ð¿ÑĢÑı":2068,"Ð½Ð¸ÑĨÑĭ":2069,"ĠÑģÑĩÐ°ÑģÑĤ":2070,"ĠÑĥÐ²Ð¸Ð´ÐµÐ»":2071,"Ð¸Ð½Ñģ":2072,"ĠÐ·Ð°ÑģÑĤ":2073,"ĠÐ¾Ð¿Ð°Ñģ":2074,"ĠÐ¾Ð´Ð½Ð¾Ð³Ð¾":2075,"ĠÐ±ÑĢÐ°":2076,"ĠÐ¿ÑĢÐµÐ´Ð¿":2077,"ĠÐ¿Ð¾Ð½Ð¸Ð¼Ð°Ñİ":2078,"ĠÐ»Ð¸ÑĨÐµ":2079,"ĠÐ²Ð¾Ð²":2080,"ĠÐ¢Ð¾Ð¼":2081,"ĠÐ¿Ð¾ÑĨÐµÐ»Ð¾Ð²":2082,"ĠÐ¿ÑĢÐ¸Ð³":2083,"ĠÐ±ÐµÐ´":2084,"ĠÑģÐ»ÐµÐ´ÑĥÑİ":2085,"Ð§ÑĤÐ¾":2086,"ĠÑģÑİÐ´Ð°":2087,"ĠÐ¿ÑĢÐ¸ÑĤ":2088,"ÐµÐ»ÑĮÐ·Ñı":2089,"ĠÐ±Ð¾Ðº":2090,"ĠÐºÑĥÑĢ":2091,"ĠÐºÐ¸":2092,"ĠÑįÑĤÐ¸Ñħ":2093,"ÐµÐ½Ð½Ð¾Ð¹":2094,"ĠÐºÐ¾Ð¼Ð½Ð°ÑĤÑĭ":2095,"ĠÐ¾Ð±ÑĢÐ°Ð·":2096,"ĠÐ¿Ð¾Ð´Ð±":2097,"ĠÐ¿ÑĢÐµÐ´Ð»Ð¾Ð¶":2098,"ÐĶÐ¶":2099,"ĠÐ²Ð·ÑıÐ»":2100,"ĠÐ»ÑİÐ´Ð¸":2101,"ÑĢÐµÐ·":2102,"Ð¾Ð¹ÑĤÐ¸":2103,"ÑĢÐ¾Ð¼Ðµ":2104,"Ð²Ð¾Ð·ÑĮ":2105,"Ð¾ÑĩÐºÐ¸":2106,"ĠÑįÐº":2107,"ĠÐ½Ð°Ñħ":2108,"ĠÑģÐ½Ð°":2109,"ĠÐ¾ÑĤÐºÑĢÑĭÐ²":2110,"ĠÐ¾Ð·":2111,"ÑħÐ°":2112,"ĠÐ¢Ð¾Ð³Ð´Ð°":2113,"Ġ,":2114,"ĠÑģÐ»ÑĥÑĩÐ¸Ð»Ð¾ÑģÑĮ":2115,"Ð¾Ð·Ð¼Ð¾Ð¶Ð½Ð¾":2116,"ĠÐ¿Ð¾Ð»Ñĥ":2117,"ÑĤÐ°Ðº":2118,"Ð»ÐµÐ³":2119,"ÑĢÐ¾ÑģÑĤ":2120,"ĠÐ³Ð¾Ð²Ð¾ÑĢÐ¸ÑĤ":2121,"ĠÑģÐ¸Ð»ÑĮÐ½ÐµÐµ":2122,"Ð°ÑĢÐ´":2123,"ĠÐĺÐ»Ð¸":2124,"ÑĦÑĦ":2125,"Ð»Ð°Ð²":2126,"ÑĪÐ¸Ð±":2127,"ÑħÐ¾Ð´Ñı":2128,"Ð¾Ð·Ð²":2129,"Ð½Ð³":2130,"Ð¾Ð²Ð¾ÑĢÐ¸ÑĤÑĮ":2131,"ĠÐ¿ÐµÑĢÐ²ÑĭÐ¹":2132,"ĠÐ¿ÑĢÐ¾Ñĩ":2133,"ĠÐ±ÐµÑĢ":2134,"ÑĢÐµÐ¶":2135,"ĠÐ¡ÐµÐ¹ÑĩÐ°Ñģ":2136,"ĠÐļÑĤÐ¾":2137,"ĠÐ¿ÑĢÐ¾Ð¸Ð·Ð¾ÑĪ":2138,"ÑĪÐ°":2139,"ĠÐ¾ÑĤÐ½Ð¾ÑĪ":2140,"Ð±Ð°":2141,"ĠÑĢÐ¾Ð´Ð¸ÑĤ":2142,"Ð¸Ð½Ñĭ":2143,"ÑıÐ»Ð¸":2144,"ÑĤÐ¾ÑĩÐ½Ð¾":2145,"ĠÐ²Ð¿ÐµÑĢÐµÐ´":2146,"ĠÐ·Ð°ÑģÑĤÐ°Ð²Ð»Ñı":2147,"ĠÐ¥Ð¾ÑĢÐ¾ÑĪÐ¾":2148,"ĠÐ³Ð»ÑıÐ´Ñı":2149,"ĠÑıÑĢ":2150,"ĠÐ¾ÑĢ":2151,"ĠÑĤÑĥÐ´Ð°":2152,"ĠÐŃÐ¼":2153,"ĠÐºÐ²Ð°ÑĢ":2154,"ĠÑģÐ²Ð¾Ð¸Ð¼Ð¸":2155,"ĠÐºÑĢÐ°Ð¹":2156,"ĠÐļÐ¾Ð½ÐµÑĩÐ½Ð¾":2157,"ĠÐ¿ÑıÑĤ":2158,"Ð¾ÑĩÐºÑĥ":2159,"ĠÐ·ÑĥÐ±":2160,"ĠÐ¾Ð±Ð¾":2161,"ĠÐ¿ÐµÑĢÐµ":2162,"ĠÐ´ÑĥÐ¼Ð°Ñİ":2163,"ĠÐ²Ð°ÑĪ":2164,"ÑĢÐ°ÑĤÑĮÑģÑı":2165,"ÑĩÐ¸Ð½":2166,"ĠÑģÐ¿Ð°Ñģ":2167,"!-":2168,"Ð±Ñĥ":2169,"ĠÑģÐ¿ÑĢÐ°ÑĪ":2170,"Ð¾Ð²Ð°Ð»ÑģÑı":2171,"ĠÐ´ÐµÑģÑı":2172,"ÑĪÑĳÐ»":2173,"ĠÑĤÐ°ÐºÐ°Ñı":2174,"ĠÑģÐ²ÑıÐ·":2175,"ÑĥÐ»ÑĮ":2176,"ÑĥÑĤÑģÑĤÐ²":2177,"ĠÑħÐ¾ÑĩÐµÑĤ":2178,"ĠÐ¾ÑĤÐ²ÐµÑĩ":2179,"ĠÐ¸ÑģÑĩ":2180,"ÑĢÐ¾Ð´Ðµ":2181,"ĠÑģÑĤÐ°ÑĢÐ°":2182,"ĠÐŁÐ°ÑĢ":2183,"ĠÐºÑĢÐ¾Ð²Ð°ÑĤÑĮ":2184,"ÑĩÐ¸Ð²Ð¾":2185,"ĠÐ¿Ð¾Ð´Ð´":2186,"ĠÐ¾Ð´Ð½Ñĥ":2187,"ĠÑģÐ¿Ð¸Ð½Ð¾Ð¹":2188,"ĠÐ¼ÐµÐ»":2189,"ÐĿÑĥ":2190,"ÐµÐ²Ð°ÑĤÑĮ":2191,"ĠÑĩÑĳÑĢ":2192,"ĠÐľÐ°Ð»":2193,"ÑģÑĤÐ°ÑĤÐ¸":2194,"ĠÐ±Ð¾Ð»Ð¸":2195,"ÑĢÐ°Ð¼":2196,"ĠÐ½Ð¾ÑĢÐ¼":2197,"ĠÐ´ÑĭÑħ":2198,"Ð°Ð½Ð¾":2199,"Ð°Ð´ÑĨÐ°ÑĤÑĮ":2200,"ÐµÑĢÐµÐ·":2201,"ĠÐ·Ð½Ð°Ð»Ð°":2202,"Ð¾Ð·Ñı":2203,"ĠÐ¾Ð±ÑĢÐ°ÑĤÐ½Ð¾":2204,"ĠÐ±Ð»Ð¸Ð¶Ðµ":2205,"Ð½ÐµÐ·Ð°Ð¿":2206,"ÑģÑĤÐ°ÑĤÐ¾ÑĩÐ½Ð¾":2207,"ÐµÐ¶Ð´Ðµ":2208,"ĠÐ¸Ð·Ð±":2209,"ĠÐ¿Ð°Ð»ÑĮÑĨÑĭ":2210,"Ð½ÑĥÐ»Ð¾":2211,"Ð»Ð¾ÑĤ":2212,"ĠÐ½Ð°Ð¹ÑĤÐ¸":2213,"Ð¸Ñī":2214,"ĠÐ¾Ð±ÐµÑĢ":2215,"ÐŃÑĤÐ¾":2216,"Ð°ÐºÑĤÐ¸":2217,"ĠÑĤÐµÐ»ÐµÑĦÐ¾Ð½":2218,"ĠÑĥÑģÑĤÐ°Ð²":2219,"Ð»Ð°Ð±":2220,"ĠÑħÐ¾ÑĢÐ¾ÑĪ":2221,"ĠÐ·Ð°ÑĩÐµÐ¼":2222,"ĠÐ·Ð°Ñħ":2223,"ĠÐ¾ÑģÑĤÐ¾ÑĢ":2224,"ĠÐ½Ð°Ð³":2225,"ĠÐ¾Ð´Ð½Ð¾":2226,"ĠÐ¶Ð°Ð»":2227,"ĠÑģÐ¾ÑģÑĤÐ¾Ñı":2228,"ĠÐ¿ÑĢÐ¸Ð¿":2229,"ĠÑģÐ¿ÑĥÑģÑĤ":2230,"Ð¼ÑĥÑĢ":2231,"Ð³Ñĥ":2232,"ĠÐ¼Ð¾Ð¶ÐµÑĪÑĮ":2233,"ĠÐ´ÐµÐ»Ðµ":2234,"ĠÐ¸ÑģÑĩÐµÐ·":2235,"ÐµÐ½Ð½Ð¾Ð³Ð¾":2236,"Ð°Ð½Ñģ":2237,"ĠÐľÐ¸":2238,"ĠÐ¿Ð°Ð»":2239,"ĠÑįÑĤÐ¾Ð¼Ñĥ":2240,"ĠÐ¿Ð»ÐµÑĩÐ¾":2241,"ĠÐ²ÑĭÑĪÐµÐ»":2242,"ÐµÐ¶Ð°Ð»":2243,"ÐµÑĢÐº":2244,"ĠÐĶÐ¶ÐµÐ¹":2245,"ĠÐĽÐ¸":2246,"ĠÐºÐ°":2247,"Ð¸ÑģÐº":2248,"ĠÑĤÑıÐ¶ÐµÐ»Ð¾":2249,"ÑĢÐ°Ð³":2250,"ĠÐ¿ÑĢÐµÐ´ÑģÑĤÐ°Ð²":2251,"ĠÐ½Ð°ÑģÑĤÐ¾Ð»ÑĮÐºÐ¾":2252,"Ð´Ð¾Ð¼":2253,"ĠÐĶÐ¶Ð¾Ð½":2254,"ĠÑģÑĩÐ°ÑģÑĤÐ»Ð¸Ð²":2255,"ĠÐ¿Ð¾Ð½ÑıÐ»Ð°":2256,"Ð¾Ð»Ð½Ðµ":2257,"Ð½Ð¸ÑĨÑĥ":2258,"ĠÐ¼ÑĥÐ¶ÑĩÐ¸":2259,"Ð½Ð¸Ñħ":2260,"ĠÑĥÑģÐ¿ÐµÐ»":2261,"ĠÑģÐ¾Ð½":2262,"ÑĳÑĤÑģÑı":2263,"ÑĪÐºÐ°":2264,"ÐµÐ¶Ð°Ð»Ð°":2265,"ÐŀÑĤ":2266,"ĠÐ²Ð·Ð´Ð¾ÑħÐ½ÑĥÐ»":2267,"Ð°ÐºÐ°":2268,"Ð¾Ð²Ð¾ÑĢÐ¸Ð»":2269,"ĠÑĥÑħÐ¼Ñĭ":2270,"ĠÐ±ÑĥÐº":2271,"ĠÐ¾Ð±ÑĢÐ°Ñī":2272,"ÑĥÐ¹ÑģÑĤÐ°":2273,"Ð½Ð°Ñĩ":2274,"ÑĤÑı":2275,"ÑĤÐ¾Ð»":2276,"ÑįÐ¼":2277,"ĠÐ¸Ð·Ð¼ÐµÐ½":2278,"ĠÐ±ÑĢÑİÐ½ÐµÑĤ":2279,"ĠÐ²Ð¾Ð·Ð²ÑĢÐ°Ñī":2280,"ĠÑģÐ²Ð¾Ð±Ð¾Ð´":2281,"ĠÐĽÐ°Ð´Ð½Ð¾":2282,"ĠÐĵÐµÑĢÐ¼Ð¸":2283,"Ð¸ÑĤÐ°":2284,"Ð½Ð°Ð²":2285,"ĠÐ´Ð»Ð¸Ð½":2286,"ĠÐĴÑģÑĳ":2287,"ĠÐºÐ²Ð°ÑĢÑĤÐ¸":2288,"Ð¸ÑĤÑĥÐ°":2289,"Ð°Ð¹ÑģÑı":2290,"ĠÐľÐ°Ð¹":2291,"ĠÐ·Ð°Ð±Ñĭ":2292,"ĠÐ¼ÐµÑģÑı":2293,"Ð½Ð¸ÑĨÐµ":2294,"ĠÐ²ÑĭÐ´Ð¾Ñħ":2295,"ĠÐ±ÑĢÐ¾Ð²":2296,"ĠÑĩÐ¸ÑĤ":2297,"ĠÑģÐ¿ÑĢÐ°Ð²":2298,"ÑĢÑĮ":2299,"ĠÐ½Ð°Ð¿Ð¾Ð¼":2300,"ĠÐ²Ð¾ÑĪ":2301,"Ð¿Ð¸":2302,"ĠÐ´ÑĢÑĥÐ·ÑĮÑı":2303,"ĠÐĶÐµÐ²ÑĥÑĪÐºÐ°":2304,"ĠÐ¿Ð»ÐµÑĩÐ°Ð¼Ð¸":2305,"ÑĪÑĥ":2306,"Ð¸Ð»Ð»":2307,"Ð¾Ð»Ð¾Ð¶":2308,"Ð¸ÑģÑģ":2309,"ĠÐ¿Ð¾Ð¼Ð¾Ñī":2310,"ĠÐºÑĢÑĥ":2311,"ĠÐ´Ð¾Ð»Ð¶Ð½Ð°":2312,"ĠÐ½Ð¾ÑĩÑĮ":2313,"ĠÐ¿ÑĢÐ¾Ð²Ð¾Ð´":2314,"ÑĨÐµÐ½":2315,"ÑĥÐ´Ð°":2316,"ÐļÐ¾Ð³Ð´Ð°":2317,"ĠÐ·Ð°Ð¿Ð°Ñħ":2318,"Ð²Ðµ":2319,"ÑĨÐµÐ¿":2320,"ĠÑĢÐµÑĪÐ¸Ð»Ð°":2321,"ĠÐŃÐ¹":2322,"ĠÑģÐ¾Ð±Ð¸ÑĢ":2323,"ĠÐ¾ÑĤÐµÑĨ":2324,"ĠÑĪÐµÑİ":2325,"ĠÑģÐ¾Ð¼":2326,"ĠÐ½ÐµÐºÐ¾ÑĤÐ¾":2327,"ĠÐ¿ÑĢÐµÐ²":2328,"ĠÐ¡Ð¿Ð°ÑģÐ¸Ð±Ð¾":2329,"ĠÐ¿Ð°Ð¿":2330,"ĠÐ¸Ð´ÑĤÐ¸":2331,"Ð³Ð¾ÑĤÐ¾Ð²":2332,"ĠÐ¶ÐµÑģÑĤ":2333,"ĠÐĽÑİÑģÐ¸":2334,"ÑĥÐºÐ¸":2335,"ĠÐ²ÑģÐº":2336,"Ð¸ÑĩÐµÑģ":2337,"ĠÐ¿ÑĢÐ¸ÑĪÐ»Ð¾ÑģÑĮ":2338,"ÐµÑģÐ¿":2339,"ĠÐ²Ð½ÑĥÑĤÑĢÐ¸":2340,"ÐµÐ»ÑģÑı":2341,"ÑģÐºÐ¸Ð¹":2342,"ĠÐ¼Ð°Ñģ":2343,"ÑģÐºÐ¸":2344,"ĠÑĥÑģÐ¼ÐµÑħÐ½ÑĥÐ»ÑģÑı":2345,"ÐºÐ°Ð¼":2346,"ĠÑģÐ¸ÑĤÑĥÐ°":2347,"!\"":2348,"ĠÐ±ÑĢÐ°ÑĤÐ°":2349,"ĠÐ¿Ð¾ÑģÐ¿":2350,"ĠÐºÐ°ÐºÐ¸Ðµ":2351,"ĠÑģÑĢÐµÐ´":2352,"ĠÐ½Ð°ÑģÑĤÐ¾Ñı":2353,"Ð°ÑģÑĤÑĮ":2354,"ĠÑģÐµÐ¼ÑĮ":2355,"ĠÐ¿ÐµÑĢÐµÐ±":2356,"ĠÐ±Ð¾Ð»ÑĮÐ½Ð¾":2357,"Ð¾ÑģÑĤÑĮ":2358,"ĠÐ¿ÑĭÑĤÐ°Ð»ÑģÑı":2359,"ĠÐ½ÐµÐ¿ÑĢÐ¸":2360,"ĠÑĥÐ»ÑĭÐ±ÐºÐ¾Ð¹":2361,"ÑĢÐ¸Ð²ÐµÑĤ":2362,"ĠÐ»ÐµÑģ":2363,"Ð´ÑĮ":2364,"ÐºÐ¾Ñĩ":2365,"ĠÑģÐ°Ð¼Ð¾Ðµ":2366,"ĠÐ·Ð°Ð¶":2367,"ÑĤÐ¾ÑĢÐ°":2368,"ĠÐĳÑĭ":2369,"ÐµÐ¶Ð°ÑĤÑĮ":2370,"Ð¾ÐºÐ¸":2371,"ĠÑģÐ¶Ð¸Ð¼":2372,"ĠÐ·Ð½Ð°ÑĤÑĮ":2373,"Ð°ÑģÑĤÐ¸":2374,"ĠÐºÐ¾ÑĤÐ¾ÑĢÑĭÑħ":2375,"ĠÐ²Ð¸Ð´ÐµÑĤÑĮ":2376,"ĠÐ¿ÐµÑģ":2377,"ĠÐ½ÐµÐ»ÑĮÐ·Ñı":2378,"Ð¸Ð»ÑĮÐ½Ð¾":2379,"Ġ1":2380,"ĠÐĺÐ½":2381,"ĠÐ¿Ð¾Ð»Ð½Ð¾ÑģÑĤÑĮÑİ":2382,"Ð»ÑĭÐ¹":2383,"Ð²Ð¾Ðµ":2384,"ÑīÐµÑģÑĤÐ²":2385,"ÑįÐ»ÑĮ":2386,"ĠÑĤÐ²Ð¾Ð¹":2387,"ĠÐ»Ð¸ÑĪ":2388,"ĠÐ¿ÑĢÐ¾Ð¼":2389,"ĠÑģÐ¼ÑĭÑģ":2390,"ĠÑĢÐ°ÑģÐº":2391,"ĠÑģÐ¼ÐµÑĪ":2392,"ĠÐ±ÑĥÐ´ÐµÑĪÑĮ":2393,"Ð´Ð°Ð»":2394,"ĠÐ¢Ð¾":2395,"ĠÐºÐ°Ñģ":2396,"ĠÐ·Ð»":2397,"Ð°Ð²ÐµÑĢ":2398,"ĠÐ¾ÑĤÑĩ":2399,"ĠÑģÐ¾Ð¾Ð±Ñī":2400,"ĠÐ¾Ð½Ð¾":2401,"ĠÑģÐµÐºÑĥÐ½Ð´Ñĥ":2402,"ĠÐ¿ÐµÑĢÐµÐ¶":2403,"ÐµÐ´Ð¸":2404,"ĠÑĤÐ¾Ñĩ":2405,"ĠÐ¸ÑģÐ¿ÑĥÐ³":2406,"Ð»ÑıÑı":2407,"ĠÐ²Ñĩ":2408,"ĠÑģÐ¼Ð¾ÑĤÑĢÐµÑĤÑĮ":2409,"ĠÑĥÑģÐ¿Ð¾ÐºÐ¾":2410,"ĠÑģÐ¸Ð´ÐµÐ»":2411,"ĠÐĲÐ»ÐµÐº":2412,"ÑĢÐ¾ÑģÐ¸Ð»":2413,"ĠÑģÐ»Ð¾Ð¶":2414,"ĠÑĪÐµÐ¿":2415,"ĠÑģÐ°Ð¼ÑĭÐ¹":2416,"ĠÑĩÐ»ÐµÐ½":2417,"ÑĥÐ¶ÐµÐ»Ð¸":2418,"ĠÐ³Ð¾ÑģÑĤ":2419,"Ð´Ð¾ÑĢÐ¾Ð²":2420,"ĠÐ»ÐµÐ³ÐºÐ¾":2421,"ĠÐºÑĢÐ¾Ð¼Ðµ":2422,"ĠÐ²ÑģÐ¿":2423,"ĠÑĥÐ²Ð¸Ð´ÐµÐ»Ð°":2424,"ĠÑģÐºÐ¾Ð»ÑĮÐºÐ¾":2425,"ĠÐ¾Ñħ":2426,"ĠÐºÐ¾ÑĢÐ¾ÑĤ":2427,"ÑģÑĤÑĢÐ°":2428,"ĠÐ¼Ð¾Ð¸Ñħ":2429,"ĠÐºÐµÐ¼":2430,"ĠÐ¿Ð¾Ð¼Ð¾ÑĩÑĮ":2431,"ÑĢÐ°Ð»Ð°":2432,"ĠÑģÐ¼Ð¾ÑĤÑĢÐ¸ÑĤ":2433,"ĠÑĤÐ¸ÑĪÐ¸":2434,"Ð°Ð»ÐµÐºÐ¾":2435,"ÐºÐ»Ð¸":2436,"ĠÐ²ÐµÑīÐ¸":2437,"Ð°Ð½Ð½ÑĭÐµ":2438,"Ð°Ð½Ð¸Ð¸":2439,"ĠÐ¸Ð´Ð¸":2440,"ĠÐ¿Ð»ÐµÑĩÐ¸":2441,"ĠÐ½ÑĢÐ°Ð²Ð¸ÑĤÑģÑı":2442,"ÐµÐ½Ð½Ð¾Ðµ":2443,"Ð°Ð·Ð°Ð»Ð°":2444,"ĠÑģÑĥÐ´":2445,"ÐľÑĭ":2446,"ĠÑģÐ¿Ð°ÑĤÑĮ":2447,"ĠÐºÑĢÐµÑģ":2448,"ÑĳÐ·":2449,"Ð¾ÑĢÐ°ÑĩÐ¸Ð²":2450,"Ð¾ÑĤÐ°":2451,"ĠÑĢÑĥÐ±":2452,"ĠÐ¿Ð°Ð´":2453,"Ð½ÑıÑĤÑĮ":2454,"ĠÑĩÑĥÐ´":2455,"Ð¸Ð²Ð°ÑıÑģÑĮ":2456,"Ð¾ÑĢÑĤ":2457,"ĠÑģÑĤÐ°Ð»Ð¸":2458,"ĠÐ´Ð¶":2459,"ĠÐļÐ°Ð¶":2460,"ÑģÑĤÐµÑĢ":2461,"ĠÐ¿Ð¾ÑģÑĤÐ°Ð²":2462,"ĠÑĤÐµÐ¼Ð½Ð¾":2463,"ĠÐĴÐµÐ´ÑĮ":2464,"ĠÑĢÐµÐ±Ñı":2465,"ÑĢÐ¾Ð¹":2466,"ÐŁÐ¾Ñģ":2467,"ĠÐ¶Ð¸ÑĤÑĮ":2468,"ĠÐ¿Ð¾Ð´Ð°ÑĢ":2469,"ÑĳÑģ":2470,"ĠÐ¿Ð¾ÑģÑĤÑĥÐ¿":2471,"ĠÐ·Ð²Ð¾Ð½":2472,"ĠÐ²ÑĤÐ¾ÑĢÐ¾Ð¹":2473,"?\"":2474,"ĠÑģÐºÐ²Ð¾Ð·ÑĮ":2475,"Ð²Ñĭ":2476,"ÑĥÐ»Ñı":2477,"ĠÐ±Ð°ÑĢ":2478,"ĠÐºÐ»Ð°Ñģ":2479,"ĠÑģÐ»ÑĥÑĩÐ°":2480,"Ð¾Ð»Ð¾":2481,"ĠÐ±ÐµÐ³":2482,"ĠÐ¸Ð¼Ñı":2483,"ÐµÐµÑĤ":2484,"ĠÐ²Ð¾ÑģÐ¿":2485,"ĠÐ²ÐµÐ»Ð¸":2486,"ĠÐ²Ð½Ð¸Ð¼Ð°Ð½Ð¸Ðµ":2487,"ĠÐ¼Ð°Ð»Ð¾":2488,"ĠÑĢÐ°Ð·Ð´ÑĢÐ°Ð¶":2489,"ĠÐ¿Ð¾ÑĢÑıÐ´ÐºÐµ":2490,"Ð¾Ð»ÐµÐ²":2491,"ĠÐ¾Ð±Ñģ":2492,"ĠÐ¢ÐµÐ±Ðµ":2493,"ĠÐ¿Ð¾ÑģÑĤÐ¾Ñı":2494,"ĠÐ¾Ð¶Ð¸Ð´":2495,"Ð½ÑıÑı":2496,"ĠÑĥÐ²ÐµÑĢÐµÐ½":2497,"ĠÐ½Ð°Ð²ÐµÑĢÐ½Ð¾Ðµ":2498,"ĠÐ²Ð°Ð½":2499,"ĠÐ°ÑĢ":2500,"ĠÐ´ÑĭÑĪ":2501,"ÑĢÐ°ÑĦ":2502,"ĠÐ¿Ð°Ð»ÑĮÑĨÐ°Ð¼Ð¸":2503,"ĠÐ¦":2504,"ĠÑģÐµÑĢÑĮÐµÐ·":2505,"ÐºÑĥÑĢÐ°ÑĤ":2506,"Ð½ÐµÐ·Ð°Ð¿Ð½Ð¾":2507,"Ð½Ð°ÑĩÐµ":2508,"ĠÐ·Ð°Ð½Ð¸Ð¼":2509,"ĠÑįÐ¼Ð¾":2510,"ĠÑģÐµÐºÑĥÐ½Ð´":2511,"ĠÑĢÐµÐ±ÐµÐ½":2512,"Ð´Ð°Ñı":2513,"ĠÐĶÐ°Ð²":2514,"ÑıÑĤÑģÑı":2515,"ÑĥÑģÐºÐ°":2516,"Ð¨":2517,"ĠÑģÐ»ÑĥÑĩÐ°Ð¹":2518,"ĠÑģÑĩÐ°":2519,"Ð»Ð°Ðº":2520,"ĠÐ¿ÑĢÐ¸ÑıÑĤ":2521,"ĠÐ¾Ð±ÐµÑī":2522,"ĠÐĺÐ¼":2523,"ĠÐ¼ÐµÑĪ":2524,"ĠÐ¾Ð±Ð½Ð¸Ð¼":2525,"ĠÐ¼Ð¾Ðµ":2526,"Ð¾ÑĢÐ¸":2527,"Ð°ÑİÑīÐ¸Ð¹":2528,"ĠÐ¿ÑıÑĤÑĮ":2529,"Ð±Ñĭ":2530,"ÑĨÐ¾Ð²":2531,"Ð¿Ð°":2532,"ĠÐ¿Ð»Ð¾ÑħÐ¾":2533,"Ð½Ð°Ð½Ð¸Ðµ":2534,"ĠÐ´Ð¾ÑģÑĤÐ°ÑĤÐ¾ÑĩÐ½Ð¾":2535,"Ð¾Ñı":2536,"ĠÐ¶ÐµÐ½ÑīÐ¸Ð½Ð°":2537,"Ð¾Ð²Ð¾Ð»ÑĮÑģÑĤÐ²":2538,"ÐµÑİÑģÑĮ":2539,"ĠÑģÐºÑĢÑĭ":2540,"Ð½Ð¸Ð»Ð°":2541,"ĠÐĴÐ¾":2542,"ÑĢÑĭÐµ":2543,"Ð¾Ð·ÑĢ":2544,"Ð°Ñī":2545,"ĠÐ±ÑĥÐ´ÑĥÑĤ":2546,"ĠÑĢÐ°Ð·Ð²ÐµÑĢ":2547,"ĠÐºÐ¾ÑĤÐ¾ÑĢÐ¾Ðµ":2548,"ĠÑģÐ¼ÐµÑħ":2549,"ĠÐĳÐ»":2550,"ĠÐºÐ¾Ð½ÑĨÐµ":2551,"ÑĢÐ°Ñħ":2552,"Ð¾ÑĢÐ¾Ð´":2553,"ĠÐ²Ð¸Ð½Ð¾Ð²":2554,"Ð°Ð½Ð½Ð¾":2555,"ÐºÐ»ÑİÑĩ":2556,"ĠÐ¿Ð»Ð°ÑĤÑĮ":2557,"ĠÐ²ÐµÐ´":2558,"ĠÑħÐ¾Ð·Ñı":2559,"ĠÐºÑĥÐ¿":2560,"ĠÐ¿ÑĢÐ¾Ð¸Ð·Ð¾ÑĪÐ»Ð¾":2561,"ĠÐ¢ÐµÐ¼":2562,"ÑĨÐµÐ²":2563,"Ð½Ð¸ÑĨ":2564,"Ð¾Ð»ÑĮÐ½Ð¾":2565,"Ð¸Ð½Ð¾":2566,"ĠÐºÑĢÐ¾Ð²ÑĮ":2567,"ĠÑĢÐ°ÑģÑģÐºÐ°Ð·ÑĭÐ²":2568,"ÐºÐ¸Ð¼Ð¸":2569,"ĠÐĶÑĢÐ°ÐºÐ¾":2570,"ĠÐ¾ÑģÐ¾Ð·":2571,"Ð°ÑĪÐ°":2572,"Ð¸Ð¼ÑģÑı":2573,"ĠÐºÑĢÐ¾Ð²Ð¸":2574,"ĠÑĤÐ¾Ð¹":2575,"Ð±Ñģ":2576,"ĠÐ¾ÑģÑĤÐ¾ÑĢÐ¾Ð¶Ð½Ð¾":2577,"ÑħÐ¾Ð´Ð¸ÑĤÑĮ":2578,"ĠÐ´Ð¾Ð±Ð°Ð²":2579,"ĠÑĪÐ¾Ðº":2580,"ÑĪÐµÐµ":2581,"ĠÐ¼Ð»Ð°Ð´":2582,"ĠÐ´Ð²Ð¸Ð³":2583,"ĠÐ´Ð²Ðµ":2584,"ĠÑģÐµÐ»":2585,"ĠÑģÐºÐ¾ÑĢÐµÐµ":2586,"ĠÑģÑĤÑĢÐ°Ð½Ð½Ð¾":2587,"ĠÐ·Ð°Ð¼ÐµÑĢ":2588,"ÑħÑĥ":2589,"ĠÐļÐ°ÑĢ":2590,"Ð¸Ð²Ð¾":2591,"Ð¼Ð°Ð½":2592,"ĠÐ»Ð°Ñģ":2593,"ĠÐ¼Ð°Ð¼":2594,"ĠÑĩÑĥÐ¶":2595,"ĠÑģÐ¿Ð¸Ð½Ñĥ":2596,"ĠÐĽÑĥÐ¸":2597,"ĠÐ¿Ð¾Ð´Ð½ÑıÐ»":2598,"ĠÐ¾Ð±ÑĭÑĩÐ½Ð¾":2599,"ĠÐ¿Ð¾ÑħÐ¾Ð¶":2600,"ĠÐ¾ÐºÐ¾Ð½":2601,"ĠÐ³Ð¾Ð»Ð¾ÑģÐ¾Ð¼":2602,"ÐµÐ½Ð½ÑĭÑħ":2603,"ÑĤÐ¾Ð½":2604,"Ð±Ð¾Ð»":2605,"ĠÑĪÑĥÐ¼":2606,"ÐµÐ½ÑĤÐ°":2607,"Ð²Ð¾Ð´":2608,"ĠÑģÐ½":2609,"ĠÑĥÐ´Ð°":2610,"ĠÐ½ÐµÐ¾Ð±":2611,"ĠÐ¿Ð¾Ð´Ð¾ÑĪÐµÐ»":2612,"ĠÐŁÐ¾ÑģÐ»Ðµ":2613,"Ð°ÑĢÐ¾Ð²":2614,"ÐµÐ½Ð½Ð°Ñı":2615,"ĠÐ¿Ð¾ÑĪÐ»Ð°":2616,"Ð»ÑĭÐµ":2617,"ĠÐļÐ¾ÑĢ":2618,"ĠÐ½Ð¾Ð¼":2619,"ĠÐ·Ð°ÐºÑĢÑĭÐ²":2620,"ÐµÑĪÑĮÑģÑı":2621,"ĠÐ¿ÑĢÐ¾ÑĤÑıÐ½ÑĥÐ»":2622,"ÐµÐ»ÑĮÐ½Ð¾":2623,"ĠÐ²ÑĭÑĢÐ°Ð¶":2624,"ĠÐ´ÑĢÑĥÐ¶":2625,"ĠÐ»Ð°Ð´Ð½Ð¾":2626,"ĠÐ¸ÑģÑĤÐ¾ÑĢÐ¸":2627,"Ð°Ð²Ð»Ð¸Ð²":2628,"ĠÐ²ÑģÐµÐ¹":2629,"Ð¢Ð°Ðº":2630,"ĠÐ¿Ð¾ÑģÐ»ÐµÐ´Ð½Ð¸Ð¹":2631,"Ð»ÑıÐµÑĤÑģÑı":2632,"ĠÐķÐ¼Ñĥ":2633,"ĠÐ´ÑĥÐ¼Ð°ÑĤÑĮ":2634,"ĠÐ¾Ð¼":2635,"ÐµÑģÐº":2636,"ĠÑģÐ»ÑĥÑĩÐ°Ðµ":2637,"ĠÐ´Ñĥ":2638,"ĠÐ¿ÐµÑĢÐµÐ¿":2639,"ĠÐ¡Ð°Ðº":2640,"ÑĢÐ¸Ð½":2641,"Ð¾Ð»ÐµÑĤ":2642,"ĠÐ·Ð°Ð²ÑĤÑĢÐ°":2643,"ĠÐ·Ð»Ð¾":2644,"ĠÐ¿ÐµÑĩ":2645,"ĠÐ²ÑģÑĤÐ°Ð»":2646,"ĠÐ±Ð¾Ð³":2647,"ĠÑģÐ°Ð¼Ð¾Ð¹":2648,"ĠÐ¾ÑģÐ²":2649,"ĠÐ¿Ð°":2650,"ĠÐ¾Ð¶Ð¸Ð´Ð°":2651,"ĠÐ²ÑĢÐ¾Ð´Ðµ":2652,"ĠÐ¾ÑĪÐ¸Ð±":2653,"ĠÐ±Ð»Ð°Ð³Ð¾Ð´Ð°ÑĢ":2654,"ĠÐ²Ð¸Ð´ÐµÐ»Ð°":2655,"ÐºÐ°Ð½":2656,"ĠÑĩÑĥÐ²":2657,"ÐµÐ·Ð´":2658,"ĠÐ¿ÑĢÐ¾Ð¸ÑģÑħÐ¾Ð´Ð¸ÑĤ":2659,"ÑĩÐ°ÑĤÑĮ":2660,"ĠÐ¾ÐºÐ°Ð·Ð°Ð»ÑģÑı":2661,"ĠÐ¿Ð¾Ð´ÑĥÐ¼Ð°Ð»":2662,"Ð¸Ð½Ñı":2663,"ĠÐ¼Ð°Ð¼Ð°":2664,"ÑĢÐ°Ð²Ð´Ð°":2665,"ĠÐŁÐ¾Ð»":2666,"ĠÐ¾Ð±ÑıÐ·":2667,"ÐµÑĢÐ³":2668,"ĠÐ²Ð½Ð¸Ð¼Ð°Ð½Ð¸Ñı":2669,"ĠÐ¿ÑĢÐ°ÐºÑĤÐ¸":2670,"ĠÑĥÐ²Ð¸Ð´ÐµÑĤÑĮ":2671,"ĠÐ¨ÐµÑĢ":2672,"ĠÑĤÐµÑĢÐ¿":2673,"ĠÑĥÐ³Ð¾":2674,"ĠÐºÐ°ÐºÐ°Ñı":2675,"ĠÑģÑĤÐ¾Ð»ÑĮÐºÐ¾":2676,"ĠÐ´ÑĭÑħÐ°Ð½Ð¸Ðµ":2677,"ĠÐ¾Ð±ÑĭÑĩ":2678,"ÑİÑĤÑģÑı":2679,"ĠÐ²ÑĭÑģÐ¾Ðº":2680,"ĠÐ½ÐµÐ±Ð¾Ð»ÑĮÑĪ":2681,"Ð¸ÑģÑĤÐ¾":2682,"ĠÐ¼Ð°Ð½":2683,"ĠÐ¿ÑĢÐµÐ´ÑģÑĤÐ°Ð²Ð»Ñı":2684,"ĠÑģÐ°Ð´":2685,"ĠÐ¾ÑĤÑĨÐ°":2686,"Ð¸Ð²Ð°Ð»Ð°":2687,"ĠÐ³ÑĢÐ¾Ð¼ÐºÐ¾":2688,"ĠÐµÐ´Ð¸Ð½ÑģÑĤÐ²ÐµÐ½":2689,"Ð²Ð°ÑĤÑĮ":2690,"ĠÐ¿ÑĢÐµÐºÑĢÐ°ÑģÐ½Ð¾":2691,"ĠÐ¾ÑģÑĤÐ°Ð½":2692,"ĠÐ²Ð·Ð´ÑĢ":2693,"ĠÐĶÐ¾":2694,"ĠÐ¼Ð°ÑĤÑĮ":2695,"ĠÐ¾Ð³Ð¾":2696,"ĠÐ´Ð¾Ð¿":2697,"ĠÑģÐ¾Ð»Ð½":2698,"ĠÑģÐ»Ð°Ð´":2699,"ĠÑħÐ¾ÑĩÐµÑĤÑģÑı":2700,"ÐµÑĢÐ²ÑĭÐµ":2701,"ĠÑĩÑĳÐ¼":2702,"ĠÑģÐ¼Ð¾ÑĤÑĢÐµÐ»Ð°":2703,"âĢ":2704,"ĠÐ¿ÑĢÐ¾Ð¸Ð·Ð½ÐµÑģÐ»Ð°":2705,"ĠÐ´Ð¾Ñģ":2706,"Ð¿ÐµÑĢ":2707,"ĠÐºÐ°ÐºÐ¸Ð¼":2708,"ĠÐ´Ð²ÑĥÑħ":2709,"ÑĢÐµÐ´ÐµÐ»":2710,"Ð½ÑİÑİ":2711,"Ð¸Ñİ":2712,"ÑĩÐ¾Ð½":2713,"Ð°Ð½Ðµ":2714,"ĠÐ¸ÑģÑĤ":2715,"ĠÐ¡ÑĤÐ°Ð¹Ð»":2716,"Ð¾ÑĢÑĥ":2717,"ĠÐ²ÑħÐ¾Ð´":2718,"Ð°ÐµÑĤÐµ":2719,"ĠÐºÐ¾ÑģÑĤ":2720,"Ð»Ð¸ÑĩÐ½Ð¾":2721,"Ð¿Ð¾Ð¼Ð¸Ð½Ð°":2722,"ĠÐ±ÑĭÑģÑĤÑĢ":2723,"ÑĪÐµÐ±":2724,"ĠÑģÐ¸Ð»Ñĭ":2725,"ĠÐ¾Ð³Ð»ÑıÐ´":2726,"ĠÑĥÐ´Ð¾Ð²Ð¾Ð»ÑĮÑģÑĤÐ²":2727,"ĠÑĢÐ°Ð´Ð¸":2728,"Ð¾Ð²Ð°":2729,"ĠÑģÐºÑĢÑĭÐ²":2730,"ĠÐ°ÐºÐºÑĥÑĢÐ°ÑĤ":2731,"ĠÑĩÐ°ÑģÐ¾Ð²":2732,"ĠÐ±ÑĥÐºÐ²":2733,"ĠÐĿÐ¸ÑĩÐµÐ³Ð¾":2734,"ĠÑģÑĤÐ¾ÑıÐ»Ð°":2735,"ÑĢÐµÐ¿":2736,"ĠÐºÐ¾Ðµ":2737,"Ð´ÑĢÐ°Ð²":2738,"ĠÐºÐ¾Ð¼Ñĥ":2739,"Ð¾Ð¿ÑĭÑĤ":2740,"ĠÑĤÐ°Ð½":2741,"ĠÐ¿Ð¾Ð¹Ð´":2742,"ĠÐ¾Ð±Ð¸Ð´":2743,"Ð¸Ð¼Ð°":2744,"ĠÑĩÑĥÐ²ÑģÑĤÐ²Ð¾Ð²Ð°Ð»":2745,"ĠÐ¾ÐºÐ¾Ð»Ð¾":2746,"Ð»Ð¾ÑģÑĮ":2747,"ĠÐĵÐ´Ðµ":2748,"ĠÐ´ÐµÐ¼Ð¾Ð½":2749,"ĠÐ¸ÑģÐ¿ÑĭÑĤ":2750,"ĠÐ·Ð¾Ð»":2751,"Ð°ÑıÐ²":2752,"ĠÐºÐ°ÐºÐ¾Ðµ":2753,"ĠÐľÐµÐ½Ñı":2754,"ĠÐ²Ð¸Ñģ":2755,"ĠÐ¿Ð¾Ð½ÑĢÐ°Ð²":2756,"ĠÐ¿ÑĥÑģÑĤÑĮ":2757,"ĠÐ·Ð°Ð¼ÐµÑĤÐ¸Ð»Ð°":2758,"ĠÑĥÐ»ÑĭÐ±ÐºÐ°":2759,"ĠÐ¼Ð¾Ð»ÑĩÐ°":2760,"ĠÐ´ÑĥÐ¼Ð°Ð»Ð°":2761,"ĠÑĪÑĥÑĤ":2762,"ĠÐ½Ð°Ð»":2763,"ÑıÐ¼":2764,"ĠÑģÐ¼Ðµ":2765,"ĠÐ¡Ð°Ð¼":2766,"ÑĥÐ·":2767,"ĠÐ¸Ð½Ð¾Ð³Ð´Ð°":2768,"ĠÐºÐ°Ð·":2769,"ĠÐ¼ÑĭÑģÐ»ÑĮ":2770,"Ð¾Ð»Ð³Ð¾":2771,"ĠÐ¼Ð¾Ð³Ð»Ð¸":2772,"ĠÐ»Ð¸ÑĨÐ¾Ð¼":2773,"Ð°Ð³Ð¸":2774,"ĠÐļÑĢÐ¸":2775,"ĠÐ¼Ð½Ð¾Ð³":2776,"ĠÐĶÑĥÐ¼":2777,"ĠÐ½ÐµÐ´Ð¾":2778,"ĠÐļÑĥÑĢ":2779,"ĠÐ¿ÑĢÐ¸Ð¶Ð¸Ð¼":2780,"ĠÐĹÐ°ÑĩÐµÐ¼":2781,"ĠÑģÑĬ":2782,"Ð°Ð½Ð¸ÐµÐ¼":2783,"ÑĩÐ¸Ñħ":2784,"ĠÑĩÐ°ÑģÑĤÐ¾":2785,"ĠÐ´ÑĢÑĥÐ³Ð¾Ð¼":2786,"ĠÐĶÐ¸Ð½":2787,"ĠÐ¿Ð¾Ð½Ð¸Ð¼Ð°Ð»":2788,"ÑģÐºÐ¾Ð³Ð¾":2789,"ĠÐºÑĢÐµÐ¿ÐºÐ¾":2790,"ĠÐºÑĢÑĥÐ³":2791,"Ð¾ÑĤÐ¾Ð¼":2792,"Ð½Ð°Ð¶":2793,"ĠÑĥÑģÑĤÑĢÐ¾":2794,"Ð¤":2795,"Ð´ÑĢÑĥÐ³":2796,"ÑĪÐ¸Ð¹ÑģÑı":2797,"ĠÐ¾ÑĤÐ²ÐµÑĢ":2798,"ĠÑĢÐ°Ð·Ð³Ð¾Ð²Ð°ÑĢ":2799,"ĠÐŁÐ¾ÑĤÑĤÐµÑĢ":2800,"ĠÐ»Ð¾Ð²":2801,"ÑĤÐ°Ñī":2802,"ĠÑĩÑĥÐ²ÑģÑĤÐ²Ð°":2803,"ÑĥÑĪÐºÑĥ":2804,"ĠÐ±ÑĥÐ¼":2805,"ÑĳÐ½Ð½Ð¾":2806,"Ð±Ð¸":2807,"Ð¾ÑĤÑĢÐ¸":2808,"ĠÐ¢Ð°":2809,"ĠÐ±ÐµÐ·ÑĥÐ¼":2810,"ÑĢÑĭÐ³":2811,"ĠÐ¿ÑĢÐ¾Ð²ÐµÑĢ":2812,"ĠÐĳÐµÐ»":2813,"ĠÐ²ÑĭÑĢ":2814,"ĠÑĢÑĥÐ±Ð°ÑĪ":2815,"Ð°Ð»ÑĮÐ½ÑĭÐ¹":2816,"ÐµÐ½ÐµÐ¼":2817,"ĠÐ²ÑĭÑĪÐ»Ð°":2818,"ĠÑģÐ¼Ð¾Ð¶ÐµÑĤ":2819,"ĠÐ¿ÑĢÐ¸Ð½ÑĨ":2820,"Ð¾Ð´Ð°":2821,"ĠÐ´ÑĥÑħ":2822,"ĠÐ¢Ð¾ÑĤ":2823,"ĠÑĤÐµÐ»Ð°":2824,"ĠÑģÐ²Ð¾ÐµÐ¼Ñĥ":2825,"!!!":2826,"ĠÐ¿ÐµÑĢÐµÐº":2827,"ĠÐ¿Ð¾ÑĨÐµÐ»ÑĥÐ¹":2828,"Ð¸Ð²Ð°Ð»Ð¸":2829,"ĠÐ²Ð°Ð¼Ð¿":2830,"ĠÑģÑĤÐµÐº":2831,"ÑĢÐµÐ¼ÐµÐ½Ð½Ð¾":2832,"ĠÐ¿Ð¾Ð´Ð¾ÑĪÐ»Ð°":2833,"ÐµÐ´Ñı":2834,"ĠÑģÐ´ÐµÐ»Ð°Ð»Ð°":2835,"ĠÐ¼ÑĥÐ·Ñĭ":2836,"ĠÑģÑĥÑīÐµÑģÑĤÐ²":2837,"ĠÑģÐ»Ð¾Ð²Ð¾":2838,"ĠÐ²Ð¾Ð·Ð»Ðµ":2839,"ÑĤÐ½Ð¾":2840,"ĠÐ·Ð¾Ð²":2841,"ĠÑĦÐ°Ðº":2842,"ĠÐ¿Ð¾Ð¹Ð¼":2843,"ĠÐ¿ÑĥÐ³":2844,"Ð¸Ð·Ð²":2845,"ĠÑģÑĤÑĢÐ°Ñħ":2846,"ĠÑĩÑĥÐ²ÑģÑĤÐ²Ð¾":2847,"ÑĢÑĭÐ¹":2848,"ĠÐ¼ÐµÐ½":2849,"ÐµÑĩÐ°ÑĤ":2850,"ĠÐ¿Ð¾Ð´Ñģ":2851,"ĠÐ·Ð°Ñī":2852,"ĠÐ´Ð¾Ð»Ð¶Ð½Ñĭ":2853,"........":2854,"ÑģÑĤÐ²Ð¾Ð¼":2855,"ĠÐ´Ð¸":2856,"ĠÐ¿Ð¾ÐºÐ°Ð·ÑĭÐ²":2857,"ĠÐ½Ð¸ÐºÐ¾Ð³Ð¾":2858,"ÑĢÑıÑģ":2859,"ĠÐ¿Ð¾Ð´Ð¾Ð·ÑĢ":2860,"ĠÐ¾ÐºÐ¾Ð½Ñĩ":2861,"ĠÐ¿Ð¾ÑħÐ¾Ð¶Ðµ":2862,"ĠÐ¿ÑĢÐ¸Ð»":2863,"ĠÐ´Ð¾Ð»Ð³":2864,"ĠÐºÐ¾Ð¼Ð°Ð½":2865,"ĠÐ´Ð¾Ð²ÐµÑĢ":2866,"ĠÑĢÑĭÐ¶":2867,"ĠÐľÐ°Ð»ÑĦ":2868,"ĠÑĩÐ°ÑģÑĤÑĮ":2869,"ĠÑĤÐ°ÐºÐ¶Ðµ":2870,"Ð¼Ð¾ÑĤÑĢÑı":2871,"ĠÐ¿ÑĢÐµÐ¶Ð´Ðµ":2872,"ÑĩÐ¸Ðº":2873,"ÑĢÐµÐ¼Ñı":2874,"ĠÐ¢Ð°Ð¼":2875,"Ð²Ð¸Ð´":2876,"ĠÐ²Ð¸Ð¶Ñĥ":2877,"ĠÑĢÐ¾Ð·":2878,"ĠÑģÐ¸Ñħ":2879,"ĠÐ±ÑĥÐ´ÐµÐ¼":2880,"ĠÐ»ÐµÑģÑĤ":2881,"ĠÐ½ÐµÐ¾Ð¶Ð¸Ð´Ð°Ð½Ð½Ð¾":2882,"ĠÐ½Ð°Ð¼Ð¸":2883,"ĠÐ²ÑģÑĤÐ°Ð²":2884,"ĠÐ¿ÑĢÐ¸ÐºÐ¾Ñģ":2885,"Ð°Ð·Ð´":2886,"ĠÐ¿Ð¾ÑĤÑı":2887,"ĠÐ²Ð»ÑİÐ±":2888,"ĠÐ¾ÑĤÐºÑĥÐ´Ð°":2889,"ĠÐ²Ð¸Ð´Ð¸Ð¼Ð¾":2890,"ÑĤÐ°Ð»":2891,"ĠÐºÐ¸Ð²Ð½ÑĥÐ»Ð°":2892,"ÑįÐº":2893,"ĠÐ²ÐµÑī":2894,"ĠÐ¿Ð¾Ð´Ð´ÐµÑĢÐ¶":2895,"ĠÐºÑĥÑģ":2896,"ĠÐ¾ÑĤÐ±":2897,"ĠÑĥÐ¼ÐµÑĢ":2898,"ĠÑħÐ¼Ñĭ":2899,"ĠÐŁÑĢÐ¾ÑģÑĤÐ¸":2900,"ĠÐ¼ÐµÐ½ÑĮ":2901,"ĠÐºÐ¾Ð»ÐµÐ½Ð¸":2902,"ĠÐ¸Ð·Ð´":2903,"ÑİÑĤÐ½Ð¾":2904,"ÑĳÐ³":2905,"ĠÐ¿Ð¾ÑĨÐµÐ»Ñĥ":2906,"ĠÐ²ÐºÑĥÑģ":2907,"ĠÐ¿Ð¾Ð¸Ð½ÑĤÐµÑĢÐµÑģ":2908,"ĠÐ¸Ð½Ð°ÑĩÐµ":2909,"ÑĢÐ¾ÑĪ":2910,"ĠÑĤÐ°ÐºÐ¸Ñħ":2911,"ĠÐ²ÑĭÐ´ÐµÑĢÐ¶":2912,"ĠÐĿÐ°Ð²ÐµÑĢ":2913,"ĠÐ³ÑĢÑĥÐ´ÑĮ":2914,"ĠÑģÐ³":2915,"ÑĢÐ¸Ð¼":2916,"ĠÑĦÐ¸Ð³":2917,"Ð±ÑģÐ¾Ð»":2918,"ĠÑģÐ»ÐµÐ·Ñĭ":2919,"ĠÐ²Ð²ÐµÑĢ":2920,"ĠÐĵÐµÑĢÐ¼Ð¸Ð¾Ð½Ð°":2921,"Ð¼ÐµÑıÐ»ÑģÑı":2922,"ĠÐ¼Ð¾Ð·":2923,"ĠÐ½Ð°ÑģÑĤÑĢÐ¾":2924,"ĠÐ¾ÑĤÑĩÐ°Ñı":2925,"ĠÑģÑĤÐ¾ÑĢÐ¾Ð½":2926,"ÐĴÑģÐµ":2927,"ĠÐ±ÑĥÑĤ":2928,"ĠÐ¿ÑĢÐ¾Ñī":2929,"ĠÐ³Ð¾Ð»ÑĥÐ±":2930,"ÐµÐ·Ð¶":2931,"ĠÐ½Ð°Ð´Ðµ":2932,"ĠÐ¼Ð¸Ð¼Ð¾":2933,"ĠÐ½Ð¾ÑĩÐ¸":2934,"Ð·Ð¸":2935,"ĠÐ½Ð¾Ð¶":2936,"ÑĥÐ¶Ðµ":2937,"ĠÐºÐ¾ÑĤÐ¾ÑĢÐ¾Ð¼":2938,"?..":2939,"ĠÐ·Ð°ÑıÐ²":2940,"Ð°Ð¹Ð½":2941,"ĠÐ²Ð½Ð¸Ð¼Ð°ÑĤÐµÐ»ÑĮÐ½Ð¾":2942,"Ð¸ÐºÐ¸":2943,"ĠÐ¾ÑĤÐºÑĢÑĭÐ»":2944,"ÐµÑĢÑĤÐ²":2945,"Ð°Ð½ÐµÑĤ":2946,"ÑĭÐ²Ð°Ð»Ð°":2947,"Ð¼ÐµÑĢ":2948,"ĠÑħÐ»Ð¾Ð¿":2949,"Ð¸ÑĤÐ°Ð½":2950,"Ð¾Ð»Ñı":2951,"Ð¾ÑĢÐ´":2952,"ĠÐ´ÑĢÑĥÐ³Ñĥ":2953,"ĠÐ¿Ð¾ÑĩÑĥÐ²ÑģÑĤÐ²Ð¾Ð²Ð°Ð»":2954,"ĠÐ°Ð»":2955,"ĠÐ¿Ð¾Ð±ÐµÐ´":2956,"Ð¸ÐµÐ¼":2957,"Ð¾ÑĢÐ¼Ð¾ÑĤ":2958,"Ð¾Ð³Ðµ":2959,"Ð»ÑıÐ´":2960,"ĠÐŁÐ¾ÐºÐ°":2961,"ĠÐ¶Ð´Ð°ÑĤÑĮ":2962,"ĠÐĴÐ¸Ð´":2963,"ĠÐ¿Ð¾Ð³Ð¾Ð²Ð¾ÑĢÐ¸ÑĤÑĮ":2964,"Ð°ÐºÐ¾Ð½":2965,"ĠÑĥÐ·Ð½Ð°ÑĤÑĮ":2966,"ÑĤÐ¸Ñı":2967,"ĠÐ²Ð¾Ð´Ñĭ":2968,"ĠÐ²Ð¾ÑģÐ¿Ð¾Ð¼Ð¸Ð½Ð°":2969,"ĠÐ²Ð¾Ð»ÑĪÐµÐ±":2970,"ĠÐ°Ð½Ð³":2971,"Ð¸Ð²Ð°ÐµÑĤÑģÑı":2972,"ĠÑģÐ¾Ð»":2973,"ĠÑĤÑĢÐµÐ±":2974,"ĠÐ´Ð¾Ð³Ð°Ð´":2975,"ĠÐ´ÑĢÐ¾Ð¶":2976,"ĠÐ½Ð°ÑĩÐ°Ð»Ð¸":2977,"ĠÐ²ÑģÐµÐ¼Ñĥ":2978,"Ð¡Ð¿":2979,"ĠÐ´Ð°Ð»ÐµÐºÐ¾":2980,"ĠÐŁÐµÑĢ":2981,"ÑĤÑĢÐ°Ðº":2982,"Ð¾Ð¹Ð´Ñı":2983,"ĠÐ¿ÑĢÐ¾ÑĪÐµÐ¿ÑĤÐ°Ð»":2984,"ÐµÑĢÑĭ":2985,"ĠÑĤÑı":2986,"ÑĢÐ¾ÑĩÐµÐ¼":2987,"ÑĤÐ¾Ð¹":2988,"ÑĩÐºÑĥ":2989,"ĠÑĢÐ°Ð·ÑĥÐ¼":2990,"ĠÑģÐ°Ð¼ÑĭÐ¼":2991,"ĠÐ¡Ð¾":2992,"ĠÐ¿Ð¾ÐºÐ°Ð·":2993,"ÐµÐ²ÐµÑĢ":2994,"ĠÑĤÐ²Ð¾Ñı":2995,"ĠÑĦÑĥÑĤ":2996,"ĠÑģÑĤÐ°ÑĤÑĮ":2997,"ÑıÑĤÑĮÑģÑı":2998,"ĠÐ²Ð²ÐµÑĢÑħ":2999,"ĠÐ¿ÑĢÐ¸ÑģÑĥÑĤÑģÑĤÐ²":3000,"ĠÐ´Ð¾Ð¶Ð´":3001,"Ð»Ð°Ð½":3002,"ĠÐ²Ð¾Ð²ÑģÐµ":3003,"ĠÐ³Ð¾Ð»Ð¾Ð²Ñĭ":3004,"ĠÐ´ÐµÐ²Ð¾ÑĩÐºÐ°":3005,"ĠÐŁÐ¾ÑįÑĤÐ¾Ð¼Ñĥ":3006,"ĠÑĥÐ´ÐµÑĢÐ¶":3007,"ĠÐ²ÑĩÐµÑĢÐ°":3008,"ĠÐ»Ð°Ð´Ð¾Ð½ÑĮ":3009,"ÑĥÑİÑī":3010,"ĠÐ¼Ð¾Ð¸Ð¼":3011,"ĠÐ²Ð¾ÑģÐºÐ»Ð¸":3012,"ÑĢÐµÐ±":3013,"ĠÐ²Ð¿Ð¾Ð»Ð½Ðµ":3014,"ĠÑĢÑĥÐºÐ°":3015,"ĠÐ¿Ð¾ÑģÑĤÐ¾ÑıÐ½Ð½Ð¾":3016,"ĠÐ¼Ð³Ð½Ð¾Ð²ÐµÐ½Ð¸Ðµ":3017,"ĠÐ¿Ð¾ÑĪÐµÐ»":3018,"ĠÐ±ÑĥÐºÐ²Ð°Ð»ÑĮÐ½Ð¾":3019,"ĠÑģÐ²Ð¾Ñĳ":3020,"ĠÐŁÐ¾ÑĤÐ¾Ð¼Ñĥ":3021,"âĢķ":3022,"Ð°Ð½Ñĥ":3023,"ĠÐ¼Ð¾Ð³ÑĥÑĤ":3024,"Ð¸ÑĪÑĮÑģÑı":3025,"Ð½Ð¾Ðº":3026,"ĠÑĥÐ´Ð¸Ð²Ð»":3027,"ĠÑģÐ¼ÐµÑĢÑĤÐ¸":3028,"ÑĥÑģÑĤÐ¸Ð»":3029,"ĠÐ³Ð¾Ð´Ð°":3030,"ĠÐ¿Ð¾ÑģÐ¿ÐµÑĪ":3031,"ÐºÐ¾Ð»ÑĮ":3032,"ÑĮÐ¼Ð¸":3033,"Ð¾Ð³Ð¸":3034,"ĠÐ¸ÑģÐ¿Ð¾Ð»ÑĮÐ·":3035,"ĠÐ¿ÑĥÑĤÐ¸":3036,"Ð»ÐµÐ½Ð°":3037,"ĠÐºÐ¾ÑĦÐµ":3038,"ÐĿÐµÑĤ":3039,"ĠÐ»ÑİÐ±Ð¸ÑĤ":3040,"ĠÐºÑĢÑĥÐ¶":3041,"Ð´Ð°ÑĤÑĮ":3042,"ĠÐ¿Ð¾Ð¶Ð°Ð»ÑĥÐ¹ÑģÑĤÐ°":3043,"ĠÐ²Ð¸Ð´Ðµ":3044,"Ð¸Ð¿":3045,"ĠÐ³Ð¾ÑģÑĤÐ¸":3046,"ĠÐ²Ð·ÑıÐ»Ð°":3047,"ĠÑĢÐ°ÑģÑģÐ»Ð°Ð±":3048,"ĠÑģÐ½Ð°ÑĩÐ°Ð»Ð°":3049,"ĠÐ¼Ð°Ð»ÑĮÑĩÐ¸Ðº":3050,"ĠÐ³ÑĢÑı":3051,"ĠÐ¾ÑĢÑĥÐ¶":3052,"ĠÐºÐ¾ÑĪ":3053,"ĠÑĤÐ²Ð¾Ð¸":3054,"ĠÐºÑĥÑħÐ½Ñİ":3055,"ÑĭÐ²Ð°ÑıÑģÑĮ":3056,"ĠÐ½Ð°Ð¿ÑĢÐ¾ÑĤÐ¸Ð²":3057,"ĠÐ½Ð°Ð¿ÑĢÑıÐ¶":3058,"ĠÐĴÐ¿":3059,"ÐµÐ½Ñģ":3060,"ĠÐ¿ÐµÑĢÐµÐ¼":3061,"ĠÑįÐ»ÑĮÑĦ":3062,"ĠÐ·ÐµÑĢÐº":3063,"Ð²Ð¸Ð½Ð¸":3064,"ĠÐĲÐ´":3065,"Ð»Ð¸Ðº":3066,"ĠÐ¾ÑĤÐ½Ð¾ÑĪÐµÐ½Ð¸Ñı":3067,"ĠÑģÑĤÐ°ÑĢÐ°ÑıÑģÑĮ":3068,"ĠÐ½ÐµÐ¾Ð±ÑħÐ¾Ð´":3069,"ĠÐ·ÐµÐ¼Ð»Ñİ":3070,"ĠÑģÐ²Ð¾ÐµÐ¼":3071,"ĠÐ¼Ð°Ð»ÑĭÑĪ":3072,"ÐµÑĤÑĭ":3073,"Ð¾Ð²Ð°Ð»Ð¸":3074,"ĠÐ¼Ð°Ðº":3075,"ĠÐ³Ð¾Ð²Ð¾ÑĢÐ¸Ð»Ð°":3076,"ĠÐ¾ÑĤÐ¼":3077,"ÑĥÑģÑĤÐ¾":3078,"ĠÐĶÐ°Ð²Ð°Ð¹":3079,"ĠÐ¿Ð¾ÑģÐ»ÑĭÑĪ":3080,"ĠÑĦÑĭÑĢ":3081,"ĠÐ¾ÐºÐ½Ð¾":3082,"ĠÐĲÐ»":3083,"ĠÑģÐ¼ÑĥÑī":3084,"ĠÐ¿ÑĢÐ¸Ð²ÑĭÐº":3085,"ĠÐ¿Ð¾Ð´Ð¿":3086,"ĠÐ¿ÑĢÐ¾ÑħÐ¾Ð´":3087,"ĠÐ³Ð¾ÑģÐ¿":3088,"ĠÐ¿ÑĢÐ¸Ð´ÑĥÐ¼":3089,"Ð»ÐµÑĩ":3090,"ĠÐ´Ð½ÐµÐ¹":3091,"ĠÐĿÐ°ÑĨÑĥ":3092,"Ð²Ð¸Ð³":3093,"ĠÐ¿Ð¾ÑĢÐ°":3094,"ĠÑĢÑĥÐºÐµ":3095,"Ð½ÑıÐºÐ°":3096,"ĠÑĤÑĢÐ°Ð²":3097,"Ð»Ð¸ÑĤ":3098,"ĠÑģÐ¾ÑģÐµÐ´":3099,"Ð½Ð¸ÐºÐ¾Ð¼":3100,"ÑĥÐºÐ°":3101,"ĠÑĪÐºÐ°":3102,"ĠÑĥÐ¼Ð°":3103,"ĠÐĿÐµÑĥÐ¶ÐµÐ»Ð¸":3104,"ĠÐ¾Ð±ÑĬÑıÑĤÐ¸":3105,"ĠÐŁÐ°ÑĢÐµÐ½ÑĮ":3106,"ĠÐ·Ð°ÐºÐ°ÑĤ":3107,"Ð¸Ð²Ð°ÑĤÑĮÑģÑı":3108,"ĠÐ¿ÑĢÐ°ÐºÑĤÐ¸ÑĩÐµÑģÐºÐ¸":3109,"ÐµÐ»Ð°ÑģÑĮ":3110,"ÐµÐ½Ð½ÑĥÑİ":3111,"ĠÐ±ÑĥÑĢ":3112,"ÐµÐ¼ÑģÑı":3113,"Ð°Ð¶Ð¸":3114,"ĠÑģÐ°Ð¼Ð¸":3115,"ĠÐ¾Ð±Ð°":3116,"ÑģÐ½Ð¾":3117,"ĠÐ¾ÑģÑĤÐ°Ð»Ð¾ÑģÑĮ":3118,"ĠÐ²ÐµÑĢÐ½ÑĥÐ»ÑģÑı":3119,"ĠÐ»ÑİÐ±Ð¾Ð²ÑĮ":3120,"ĠÐ¿Ñģ":3121,"ĠÐķÑīÐµ":3122,"ĠÑħÐ¾ÑĢÐ¾":3123,"ĠÐ¼Ð°ÑĤÐµÑĢÐ¸":3124,"ÑıÑīÐµÐ³Ð¾":3125,"ĠÑĤÐ°Ð»Ð¸":3126,"ĠÐĶÐ¶ÐµÐº":3127,"ĠÐ°Ð±ÑģÐ¾Ð»":3128,"Ð¾Ð½Ñĥ":3129,"ĠÐ²Ð½ÐµÐ·Ð°Ð¿Ð½Ð¾":3130,"ÑĤÑĥÑĢ":3131,"ĠÑģÐ¿ÐµÑĪ":3132,"ĠÑģÐ¸Ð³":3133,"ĠÐ¿Ð¾Ð»Ð¾Ð²":3134,"ĠÐ¾ÐºÑĢÑĥÐ¶":3135,"ÐĴÐ¾ÑĤ":3136,"ĠÐļÐ»Ð°":3137,"ĠÑģÐ¾ÑĤ":3138,"ĠÐ²ÑĭÐ³":3139,"ĠÑĥÑģÐ»ÑĭÑĪÐ°Ð»":3140,"ĠÐŀÐ´Ð½Ð°ÐºÐ¾":3141,"ĠÐ¾ÑģÐ¾Ð±ÐµÐ½Ð½Ð¾":3142,"Ð½ÐµÑĪ":3143,"ÐŀÐ½Ð¸":3144,"Ð¾Ð»ÑĮÑĪÐµ":3145,"ĠÐ·Ð´Ð¾ÑĢÐ¾Ð²":3146,"ĠÐ¼ÑĥÑĩ":3147,"ĠÐµÐ»Ðµ":3148,"ĠÐ¿Ð°Ð¼":3149,"ĠÐŁÐ¾ÑĤÐ¾Ð¼":3150,"ĠÐ¿ÑĢÐ¸ÑĪÐµÐ»":3151,"ĠÐ¶ÐµÐ»Ð°Ð½Ð¸Ðµ":3152,"ÑĭÐ²Ð°Ñİ":3153,"Ð¾Ð´Ð½Ð¾":3154,"ĠÑĥÑĤÑĢÐ¾":3155,"ÑĳÑĪÑĮ":3156,"ĠÐ¿ÑĢÐ¾Ñħ":3157,"ĠÐ½Ð¾ÑĢÐ¼Ð°Ð»ÑĮÐ½Ð¾":3158,"ĠÑĢÐ°ÑģÑĤÐµÑĢ":3159,"Ð¾Ð´Ð¸":3160,"ĠÐ·Ð°Ð±Ð¾ÑĤ":3161,"Ð¾ÑĤÐº":3162,"ĠÐ¾ÑģÐº":3163,"ĠÐĲÐ»ÐµÐºÑģ":3164,"ĠÐ½Ð°ÑģÐ»Ð°Ð¶":3165,"ĠÐ¿ÑĢÐ¸Ð½Ð¸Ð¼":3166,"ĠÐ´Ð°Ð»":3167,"ĠÐľÐ°ÐºÑģ":3168,"ĠÐ´ÐµÐ»Ð°ÐµÑĤ":3169,"ĠÐ´ÐµÐ²ÑĥÑĪÐºÐµ":3170,"ĠÐ½Ð°Ð¿Ð¸Ñģ":3171,"ĠÐ¾ÑħÐ¾ÑĤ":3172,"ĠÐ¿Ð¾ÑĨÐµÐ»Ð¾Ð²Ð°Ð»":3173,"Ð»Ð°Ð³":3174,"ÑĦÐ¾ÑĢÐ¼Ð°":3175,"Ð½Ð°Ð»Ð°":3176,"Ð°ÑģÐº":3177,"ĠÑģÑĩÐ°ÑģÑĤÑĮ":3178,"ÐĶÐµÐ²ÑĥÑĪÐºÐ°":3179,"ÑĢÐ¸Ð·":3180,"ĠÐµÑħ":3181,"ĠÐĳÑĢ":3182,"ĠÑĥÐ´Ð°Ð»Ð¾ÑģÑĮ":3183,"ĠÐ½Ð°Ð¿ÑĢÐ°Ð²Ð¸Ð»ÑģÑı":3184,"ÑĥÑĪÐºÐ¸":3185,"ĠÐ¼ÐµÐ½ÑĮÑĪÐµ":3186,"Ð»Ð¾Ñī":3187,"ĠÐĲÐ¹":3188,"ĠÐ²Ð¾Ð¹":3189,"ĠÐ½ÐµÐ¶Ð½Ð¾":3190,"ĠÐºÐ»ÑĥÐ±":3191,"ÑĢÐ°ÑģÑĤ":3192,"ĠÐ²Ð·Ð´Ð¾ÑħÐ½ÑĥÐ»Ð°":3193,"ÑĭÐ²Ð°ÐµÑĤÑģÑı":3194,"Ð»Ð°ÑĤ":3195,"ĠÐ¿ÑĢÐ¾ÑĨ":3196,"Ð½ÑıÐ»":3197,"ÑĢÐ°Ð»ÑģÑı":3198,"ĠÐ¼Ð¸Ð³":3199,"Ð¾Ð±Ð½Ð¾":3200,"ĠÑģÑĤÐ¾Ð»ÑĮ":3201,"ĠÐ¾Ð´Ð½Ð¸Ð¼":3202,"Ð»ÑĭÐ¼":3203,"ĠÐŁÑĢÐ¸Ð²ÐµÑĤ":3204,"ĠÐºÐ°ÑĤ":3205,"ĠÐ¿ÑĢÐ¸ÑĪÐ»Ð°":3206,"ĠÑģÐºÐ¾Ð»ÑĮÐ·":3207,"ĠÑĨÐ²ÐµÑĤÐ°":3208,"ĠÐ±Ð¾Ð»ÑĮÑĪÐ¾Ð¹":3209,"ĠÑĦÐ¾ÑĢ":3210,"Ð°ÑİÑīÐ¸Ñħ":3211,"ÑģÑĤÐ°Ð½Ð¾Ð²":3212,"ÐµÐ½Ð¸ÑĢÐ¾Ð²":3213,"ÑĳÐ¿":3214,"ĠÐ¶Ð°ÑĢ":3215,"ĠÐ¿ÑĢÐ¾ÑĦ":3216,"ÐµÑħÐ°Ð»Ð¸":3217,"ĠÑĩÐ°ÑģÐ°":3218,"ĠÑĥÑĢÐ¾Ðº":3219,"ĠÑĢÐµÐ´":3220,"ĠÑĤÐ²Ð¾ÐµÐ¹":3221,"Ð°Ð°":3222,"ĠÐºÐ°ÐºÑĥÑİ":3223,"ÐºÐ°Ðº":3224,"ĠÐ¼Ð¸ÑĢÐµ":3225,"ĠÐ³ÑĢÑĥÐ¿Ð¿":3226,"Ð°Ð¶Ñĥ":3227,"ĠÐ¿Ð¾ÑĪÐ»Ð¸":3228,"ĠÑģÑĤÑĥÐ¿":3229,"ĠÑģÐ¼Ð¾Ð³Ð»Ð°":3230,"ĠÑĢÐ°Ð½":3231,"ĠÐ£ÑĩÐ¸Ñħ":3232,"ĠÐ³Ð¾Ð²Ð¾ÑĢÑı":3233,"ĠÐ±Ð°Ð»":3234,"ĠÐ¿Ð¾Ð²ÑĤÐ¾ÑĢ":3235,"ĠÐ´Ð°Ð²Ð°Ð¹":3236,"ĠÑĢÐ°Ð´Ð¾ÑģÑĤ":3237,"Ð¾Ð»Ð·":3238,"ĠÐ²Ð¼ÐµÑģÑĤÐ¾":3239,"ĠÐ½Ð¾Ð¼ÐµÑĢ":3240,"ĠÐºÐ¾Ð½ÑĨÐ°":3241,"ĠÐ²Ð¸Ð´Ð½Ð¾":3242,"Ð¾Ð²Ð°Ð»Ð¾":3243,"ĠÐ´Ð¾Ð»Ð¶Ð½Ð¾":3244,"ĠÐ¿Ð¾Ð¿ÑĭÑĤÐ°Ð»ÑģÑı":3245,"ĠÐ¿Ð¾ÑĪ":3246,"ĠÐºÑĢÐ°":3247,"ĠÐ¿ÑĢÐ¾Ð³Ð¾Ð²Ð¾ÑĢÐ¸Ð»":3248,"ĠÐ¼ÐµÑĢ":3249,"ĠÑģÐ¿Ð¾ÑĢ":3250,"ÐµÐ³Ð°":3251,"Ð¾Ð½Ðµ":3252,"ĠÐŀÑĩ":3253,"ĠÐĹÐ½Ð°ÑĩÐ¸ÑĤ":3254,"ĠÐ´Ð¾Ð¼Ðµ":3255,"ĠÑĩÐµÑĢÑĤ":3256,"ĠÑĦÑĥÑĤÐ±Ð¾Ð»":3257,"ĠÐ»Ð¸ÑĨÑĥ":3258,"Ð½Ð¸ÐºÑĥ":3259,"Ð°ÑİÑīÐµÐ³Ð¾":3260,"Ð¾Ð²Ð°Ð»Ð°ÑģÑĮ":3261,"ĠÐ¾Ð´Ð½Ð°ÐºÐ¾":3262,"ĠÐ¿ÑĢÐ¾ÑĤÑı":3263,"ĠÐ²Ð·Ð´ÑĢÐ¾Ð³":3264,"ĠÑĩÐ¸ÑģÑĤ":3265,"ĠÑĥÐ±Ð¸Ð¹":3266,"Ðĸ":3267,"ĠÑĥÐ±Ð¸ÑĤÑĮ":3268,"ĠÐ¾ÑĢÐ³":3269,"ĠÑĤÑıÐ¶ÐµÐ»":3270,"ÑĥÑģÐ°":3271,"ĠÑĥÑģÑĤÐ°Ð»Ð¾":3272,"Ð°ÐºÐ¾Ð²":3273,"ĠÐ²ÑĭÐ¶":3274,"Ð»Ð¾Ð¹":3275,"ÑıÑı":3276,"Ð°ÑĢÑĤ":3277,"ĠÐĿÐ°Ð´Ð¾":3278,"ĠÐ²Ð¾Ð·Ð¼":3279,"ĠÐļÑĢÐ¸Ñģ":3280,"ÑĳÐ´":3281,"ĠÐ¿Ð»Ð°ÑĤÑĮÐµ":3282,"Ð¾Ð¶ÐµÑĪÑĮ":3283,"ĠÐ¿ÑĢÐ¸ÑıÑĤÐ½Ð¾":3284,"ĠÐ´ÐµÐ²ÑĩÐ¾Ð½":3285,"ÑĢÐµÑĪ":3286,"ÐµÐºÐ¸":3287,"ÑīÐµÐ¹":3288,"ÑģÑĤÐ½Ð¾":3289,"ĠÐ±Ð°Ð±":3290,"ĠÐ»Ð°Ð´Ð¾Ð½Ð¸":3291,"ĠÐ·Ð°Ð¹":3292,"ĠÐ¾ÑĩÐµÑĢÐµÐ´Ð½Ð¾Ð¹":3293,"Ð»Ð¸Ð¶":3294,"ĠÑİÐ½Ð¾ÑĪ":3295,"ĠÐĴÐ°Ñģ":3296,"ÑĢÐ¾ÑģÐ¸Ð»Ð°":3297,"ĠÐ¿ÑĢÐ¾ÑĪÐ»Ð¾":3298,"ĠÑģÐ»ÑĭÑĪÐ°Ð»":3299,"ĠÐŁÐ¾Ð¼":3300,"ĠÐ¼Ð°Ð³Ð°Ð·":3301,"Ð¾Ð´Ñĥ":3302,"ĠÐĳÑĥÐ´":3303,"ĠÐ½Ð°Ð´ÐµÐ¶":3304,"...\"":3305,"ĠÐ²Ð¸Ð½Ð¾Ð²Ð°ÑĤ":3306,"ĠÑģÐ¿Ð°Ð»ÑĮ":3307,"ÑİÐ±":3308,"ÑĩÐºÐ¸":3309,"ĠÐ²Ð¿ÐµÑĢÐ²ÑĭÐµ":3310,"ĠÐºÐ¾ÑĤ":3311,"ĠÐ¼Ð¾Ð»Ñĩ":3312,"ĠÑĢÐ°Ð·Ð²Ðµ":3313,"Ð¸Ð½Ð³":3314,"Ð°ÐµÑĪÑĮÑģÑı":3315,"ĠÑĥÑħÐ¾Ð´":3316,"ĠÐĿÐ°Ð¼":3317,"ĠÐ´ÑĢÑĥÐ³Ð¸Ñħ":3318,"ĠÑĩÑĥÐ²ÑģÑĤÐ²ÑĥÑİ":3319,"ĠÑģÑĤÐµÐ½Ðµ":3320,"ĠÑĢÐ°Ð±Ð¾ÑĤÑĥ":3321,"ĠÑģÐ¼Ð¾Ð³Ñĥ":3322,"ĠÐ½ÑĥÐ¶ÐµÐ½":3323,"ĠÑģÐ¸Ð»Ð¾Ð¹":3324,"ĠÑģÑĤÑĢÐ°ÑĪÐ½Ð¾":3325,"ÐµÐ´Ñĥ":3326,"Ð»ÐµÐ·":3327,"ĠÑĪÐºÐ°ÑĦ":3328,"ĠÑģÑĤÐ¾Ð»Ð°":3329,"ĠÑĥÐ»Ð¸ÑĨÐµ":3330,"ĠÐ³ÑĥÐ±Ð°Ð¼Ð¸":3331,"Ġ...":3332,"ĠÑĤÑĥÐ¼":3333,"Ð½Ð°ÑĢÑĥÐ¶":3334,"ĠÐ±ÑĭÑģÑĤÑĢÐµÐµ":3335,"Ð¸Ð½ÐºÑĥ":3336,"ĠÐľÐ°Ð¹Ðº":3337,"ĠÐ¾Ð´ÐµÐ¶":3338,"ĠÑģÐ¸Ð»Ñĥ":3339,"ĠÐ§Ð°Ð½":3340,"ÑĪÐµÐ¼Ñĥ":3341,"ĠÑģÐ¸Ð´ÐµÐ»Ð°":3342,"ĠÑģÐ¿Ð¸Ð½Ðµ":3343,"Ð»Ð¸Ð±Ð¾":3344,"ĠÐ¼ÑıÐ³ÐºÐ¾":3345,"ĠÐ¼Ð¸Ð½ÑĥÑĤÑĥ":3346,"Ð¡ÑĤ":3347,"Ð½Ð¾Ð²ÑĢÐµÐ¼ÐµÐ½Ð½Ð¾":3348,"ÐµÑħÐ°Ð»":3349,"ĠÑĥÐ³ÑĢ":3350,"ĠÐ¾Ð´Ð½Ð¾Ð¼":3351,"ĠÐ¾Ð±Ð»ÐµÐ³":3352,"ÑĨÐµÐ¼":3353,"Ð¾ÑĢÑĭ":3354,"Ð°ÑĢÐº":3355,"ĠÐ¿ÑĢÐ¸Ð´ÐµÑĤÑģÑı":3356,"ÐµÑĢÐµÐº":3357,"ĠÐ·ÑĢ":3358,"ĠÐ°ÐºÐºÑĥÑĢÐ°ÑĤÐ½Ð¾":3359,"Ð²Ð¾ÑģÑĤ":3360,"Ġ2":3361,"ĠÑĥÐ»ÑĭÐ±Ð°ÐµÑĤÑģÑı":3362,"ĠÑģÑĤÐ¾Ð¸Ð»Ð¾":3363,"ĠÐ²ÑĢÐ°Ð³":3364,"ĠÑĥÐ¹ÑĤÐ¸":3365,"ĠÐŀÑģ":3366,"Ð»ÑĥÐ¶":3367,"ĠÐºÐ¾ÑĤÐ¾ÑĢÑĭÐ¼":3368,"ÐµÐ»Ð¸ÑģÑĮ":3369,"ĠÑĥÐ²ÐµÑĢÐµÐ½Ð½Ð¾":3370,"ÑĪÐºÐ¸":3371,"ĠÐĶÐµÐ¹":3372,"ĠÑĤÐµÐ»Ñĥ":3373,"ÑĢÐ°ÑĩÐ¸Ð²":3374,"ĠÑģÑĥÐ´ÑĮ":3375,"Ð¾Ð±ÑĢÐ°Ð·":3376,"ĠÐ·ÐµÐ»ÐµÐ½":3377,"ĠÐ¡ÑįÐ¼":3378,"ĠÐ·Ð´Ð°":3379,"ÐµÐ´Ð¶":3380,"Ð¾Ð²Ð¾ÑĢÐ¸Ð»Ð°":3381,"ĠÐ¾ÑĤÐ¾ÑĢ":3382,"ĠÐ²ÑĭÑĢÐ²":3383,"ĠÐ´ÑĢÑĥÐ·ÐµÐ¹":3384,"ĠÐ½Ð°ÑĩÐ¸Ð½Ð°ÐµÑĤ":3385,"ĠÐ¡Ð¸":3386,"ĠÑĥÑģÐ¿ÐµÐ»Ð°":3387,"ÐŁÐ¾":3388,"ĠÑĥÐ·Ð½Ð°":3389,"ĠÐ³Ð¾ÑĢÑıÑĩ":3390,"ĠÑĥÐ»ÑĭÐ±Ð°ÑıÑģÑĮ":3391,"ÐµÑĨÐ¸":3392,"ĠÐ¿ÑĢÐ¸Ð¿Ð¾Ð´Ð½Ñı":3393,"ĠÐŃÐ»":3394,"ĠÐ·Ð°Ð±ÑĭÐ»":3395,"ĠÐ¿Ð¾Ð¼ÐµÑī":3396,"ÐŁÐ¾ÑģÐ»Ðµ":3397,"ÑĢÑĭÐ¼":3398,"ĠÐ¿ÑĢÐ¾Ð´Ð¾Ð»Ð¶Ð¸Ð»":3399,"ĠÐ½ÐµÐ·Ð½Ð°ÐºÐ¾Ð¼":3400,"ĠÐ¾ÐºÐ°Ð·Ð°Ð»Ð¾ÑģÑĮ":3401,"ĠÑģÐ¸Ð»Ð°":3402,"Ð¸ÑĢÐ°Ñı":3403,"Ð´ÐµÑĢ":3404,"ĠÐºÐ°ÐºÐ¾Ð³Ð¾":3405,"ĠÐ·Ð²ÑĥÑĩ":3406,"Ð¸ÑģÑĮ":3407,"ĠÑĨÐ°ÑĢ":3408,"ĠÑĢÐ°Ð²":3409,"ĠÐľÐµÑĢ":3410,"ÑĢÑĭÐ»":3411,"ĠÐ½Ð°ÑĤ":3412,"ĠÐ¿Ð¾Ð½Ð¸Ð¼Ð°Ñı":3413,"Ð¸Ð½ÐºÐ¸":3414,"ĠÑĩÐ°Ð¹":3415,"Ð¾Ð³Ð°":3416,"ÐµÐ½Ñĥ":3417,"ĠÐ¿Ñĭ":3418,"ĠÐ¸Ð½ÑĦÐ¾ÑĢÐ¼Ð°":3419,"ÑĨÐ¸Ð¾Ð½":3420,"ĠÐ¡ÐµÑĢ":3421,"Ð»ÑĮÐ·":3422,"ĠÐ¾Ð±ÑīÐµÐ¼":3423,"ĠÑĤÐµÐ¿Ð»Ð¾":3424,"ĠÐ¿Ð¾Ð¼Ð½Ñİ":3425,"ÐĹÐ°":3426,"ĠÑĨÐµÐ¿":3427,"ĠÑĨÐµÐ»Ð¾Ð²":3428,"ÑĢÑıÑĤ":3429,"ÑģÐ¾Ð²":3430,"Ð¸ÑĤÐµÐ»Ñı":3431,"ĠÐ·ÑĥÐ±Ñĭ":3432,"Ð»Ð¸Ð½Ð°":3433,"ĠÐ¾Ð¿ÑĢÐµÐ´ÐµÐ»":3434,"ÑĢÐ¾Ð²Ð°ÑĤÑĮ":3435,"ĠÐ¾ÑĤÐ»Ð¸Ñĩ":3436,"ĠÐ¾ÑģÐ½Ð¾Ð²":3437,"ĠÑħÑĥÐ¶Ðµ":3438,"ĠÑĥÑĩÐµÐ½Ð¸":3439,"ÐµÐ½ÑĤÑĭ":3440,"ĠÐ¿ÑĢÐ¸Ð³Ð¾ÑĤÐ¾Ð²":3441,"ÑĢÑĥÑĩ":3442,"ĠÐ´ÑĥÑĪÐµ":3443,"Ð¿Ñĥ":3444,"ĠÐ·Ð°ÑħÐ¾ÑĤ":3445,"ÑĨÐ¸Ð¹":3446,"ÑģÑĭ":3447,"ĠÐ¿Ð¾Ð´Ð½ÑıÐ»ÑģÑı":3448,"ĠÐ¿Ð¾Ð»Ð¸":3449,"ĠÐ¾ÐºÐ°Ð·Ð°Ð»Ð°ÑģÑĮ":3450,"ĠÐ¿Ð¾Ð¿ÑĢÐ¾Ð±":3451,"ĠÐĶÐ¸":3452,"ĠÐ¼Ð¸ÑģÑģ":3453,"ĠÐ±Ð¾Ð¹":3454,"ĠÐ¿ÑĥÑĤ":3455,"ĠÐºÐ°Ð±Ð¸Ð½ÐµÑĤ":3456,"ĠÐ¼ÐµÑĢÐµ":3457,"ĠÐ²Ð·ÑıÑĤÑĮ":3458,"ĠÐ¼ÑĭÑģÐ»Ñı":3459,"ĠÑģÑĤÐ°Ð²":3460,"ĠÐ·Ð½Ð°Ñĩ":3461,"Ð½Ð¸ÑĪÑĮ":3462,"ĠÐ°Ð»ÑĮÑĦ":3463,"ĠÐ¾Ð´Ð½Ð¾Ð²ÑĢÐµÐ¼ÐµÐ½Ð½Ð¾":3464,"ÑĢÐµÐ²":3465,"ĠÑĤÐ°ÐºÐ¾Ð¼":3466,"Ð¾ÑĩÐ½Ð¾":3467,"ĠÑĪÐµÐ»":3468,"ĠÐĶÐ»Ñı":3469,"ĠÐ¿Ð¾ÐºÑĢÐ°Ñģ":3470,"ÑĤÐ¸Ñħ":3471,"ĠÐ¿Ð°ÑĢÐ½Ð¸":3472,"ĠÐ¿Ð»Ð°Ðº":3473,"ĠÑĢÐ¾Ð²":3474,"ĠÐ³Ð¾Ð»Ð¾Ð²Ð°":3475,"Ð½ÑĳÑģ":3476,"ĠÐĹÐ°ÑĤ":3477,"ÑĩÐºÐ°":3478,"ĠÐºÐ¾Ð½ÑĤÑĢ":3479,"ĠÑĤÐ²Ð¾ÑĢ":3480,"ĠÐ½ÑĥÐ¶Ð½Ð°":3481,"Ð²ÐµÑĢÐ´":3482,"ĠÑįÐ½":3483,"ÐµÑĢÐ¾Ð¼":3484,"ÑĢÑıÐ¼":3485,"ĠÑĩÐµÑģÑĤÐ½Ð¾":3486,"ĠÐ¨ÐµÑĢÐ»Ð¾Ðº":3487,"ĠÐ¸Ð½ÑĤÐµÑĢÐµÑģÐ½Ð¾":3488,"ĠÐ¿Ð»Ð°Ð½":3489,"ĠÑĤÑĢÑĥÐ´Ð¾Ð¼":3490,"ĠÐ¾Ð±Ð½Ð°ÑĢÑĥÐ¶":3491,"ĠÐ¾ÑĤÑģÑĤ":3492,"ĠÑĩÐµÐ¼Ñĥ":3493,"ĠÐ°Ð±ÑģÐ¾Ð»ÑİÑĤÐ½Ð¾":3494,"ĠÐ²ÑģÑĤÐ°Ð»Ð°":3495,"Ð°Ð¼ÐµÑĤ":3496,"Ð´ÐµÑĤ":3497,"Ð¿ÐµÐ»":3498,"Ð¾Ð²Ð°ÑĤÑĮÑģÑı":3499,"ĠÑĤÑĢÐ¾":3500,"ĠÐ¿ÑĭÑĤÐ°Ð»Ð°ÑģÑĮ":3501,"ĠÑĥÑĤÑĢÐ°":3502,"ĠÑĩÐ°ÑģÑĤÐ¸":3503,"ÑĭÐ³":3504,"ĠÐ´ÑĥÐ¼Ð°ÐµÑĪÑĮ":3505,"PO":3506,"ĠÐºÐ¾Ð¿":3507,"ĠÐ¿Ð¾Ð¿ÑĢÐ°Ð²":3508,"ÑĥÑģÑĤÑĮ":3509,"Ð¾Ð¸":3510,"ĠÐĴÐµÑĢ":3511,"Ð»ÐµÐ¿":3512,"ĠÑĪÐ¸ÑĢ":3513,"ĠÑĦÐ¾ÑĤ":3514,"ĠÑģÐµÐ»Ð°":3515,"...-":3516,"ĠÐ»Ð¸Ð±Ð¾":3517,"ĠÐ¿ÑĢÐ¸ÑĩÐ¸":3518,"ĠÑĤÑĢÑĥÐ±":3519,"ĠÐ¿ÑģÐ¸Ñħ":3520,"ĠÐ¾ÑĤÐºÐ¸":3521,"ĠÐ¿ÑĢÐ¾Ð±Ð¾ÑĢÐ¼Ð¾ÑĤ":3522,"Ð¾ÑĢÐ¾Ð¼":3523,"ĠÐ½Ð°ÑĥÑĩ":3524,"ĠÐ»Ð¸ÑĩÐ½Ð¾":3525,"ĠÐ¥Ð¾Ñĩ":3526,"ÑĢÐ¾Ð²Ð°Ð»":3527,"ĠÐ¾ÐºÐ½Ð°":3528,"ĠÐ½Ð°ÑħÐ¼ÑĥÑĢ":3529,"ĠÐ´Ð¸Ð²Ð°Ð½":3530,"Ð°ÑİÑīÐµÐ¹":3531,"ĠÑĪÐ°ÑĤ":3532,"ĠÐļÐ°Ñģ":3533,"ÑĩÑĮ":3534,"ĠÐŃÐ½":3535,"ĠÐ³ÑĢÐ°":3536,"Ð¸ÑĢÐ¾Ð²Ð°ÑĤÑĮ":3537,"Ð°ÐºÑĥ":3538,"Ð°ÑİÑīÐµ":3539,"ĠÑĤÑĢÐµÐ½Ð¸ÑĢÐ¾Ð²":3540,"POV":3541,"),":3542,"ÑĥÐ²":3543,"ĠÐ¸Ð·Ð¼":3544,"ĠÑĢÐµÐ²":3545,"ĠÐ±ÑĥÑĤÑĭÐ»":3546,"ĠÑģÑĢÐµÐ´Ð¸":3547,"ĠÐ§ÐµÑĢÐµÐ·":3548,"ĠÐ½ÐµÐ³":3549,"ĠÐĽÐµ":3550,"ĠÐ¿Ð¾Ð²ÐµÑĢÐ½ÑĥÐ»ÑģÑı":3551,"ĠÐ²ÑĢÐµÐ¼ÐµÐ½ÐµÐ¼":3552,"ĠÐ¼Ð°ÑĪÐ¸Ð½Ñĥ":3553,"ĠÐ»Ð¾Ð¶":3554,"ĠÐ¿Ð¾Ð¼Ð¾ÑīÑĮ":3555,"Ð°Ð»ÑĮÐ½Ð¾Ð¹":3556,"ĠÐ½Ð°ÑĪÐ¸":3557,"ĠÐ¼Ð¾Ð³Ð»Ð¾":3558,"ĠÐ½ÐµÑģÐº":3559,"Ð»ÑıÑĤÑĮÑģÑı":3560,"ĠÐ´Ð¾Ð²":3561,"ÑĳÐº":3562,"ĠÐ»ÐµÐ·":3563,"ĠÐ¿ÑĢÐµÑĢÐ²":3564,"ĠÐ¿Ð¾ÑģÐ¼Ð¾ÑĤÑĢÐµÑĤÑĮ":3565,"ÑĢÑĭÑħ":3566,"ĠÑĢÐ¸Ñģ":3567,"ĠÐ¸ÑģÐºÑĢÐµÐ½":3568,"ĠÑĥÑĩÐ¸ÑĤ":3569,"ĠÐ¿Ð¾Ð²ÐµÐ´":3570,"ĠÐ±Ð»ÐµÐ´":3571,"ĠÑĢÐ°ÑģÐ¿Ð°Ñħ":3572,"ĠÑģÐ½Ð¸Ð¼":3573,"ĠÐĽÐ¾ÐºÐ¸":3574,"ĠÐ¿Ð¾Ð·Ð´Ð½Ð¾":3575,"ĠÐ¿ÐµÑĢÐµÐ³":3576,"ĠÐ¾Ð±Ð½ÑıÐ»":3577,"ĠÑĩÑĥÐ²ÑģÑĤÐ²ÑĥÑı":3578,"ĠÐ¿Ð¾ÐºÐ°Ð·Ð°Ð»Ð¾ÑģÑĮ":3579,"Ð½ÐµÑģÑĤÐ¸":3580,"ĠÐ³Ð¾Ð»Ð¾ÑģÐµ":3581,"ĠÐ¿Ð°Ð»ÑĮÑĨÐµÐ¼":3582,"ĠÐ½Ð°ÑĪÐµÐ¹":3583,"ĠÐ²Ð¸Ð´Ñĥ":3584,"Ð°Ð½Ð½Ð¾Ð¹":3585,"ĠÐŁÑĢÐ°Ð²Ð´Ð°":3586,"ÑĤÐ¾Ð³Ð¾":3587,"ÐµÐ¹ÑĤ":3588,"ĠÐ¾Ð±Ð»ÐµÐ³Ñĩ":3589,"ĠÐ¾ÑģÑĤÐ°Ð½Ð¾Ð²Ð¸Ð»ÑģÑı":3590,"ĠÑĢÐµÐ°Ðº":3591,"Ð¾Ð½ÑĮ":3592,"ĠÐ¾ÑĤÐ¾":3593,"ĠÐ¿Ð°Ð»Ð°":3594,"Ð±Ð»":3595,"Ð°Ð´Ð°":3596,"ÑĤÐ¾Ð¶":3597,"Ð¼Ñģ":3598,"ĠÐ´ÐµÑģÑıÑĤÑĮ":3599,"ĠÑģÑĤÐµÐ½Ñĭ":3600,"ĠÑħÑĢÑĥ":3601,"ĠÐ±ÐµÑģÑģ":3602,"ÑĢÑįÐ½":3603,"ÑĩÐ½ÑĭÐ¹":3604,"ĠÐŁÐ¸ÑĤ":3605,"ĠÐ¼ÐµÐ½ÐµÐµ":3606,"ĠÐĶÐµÐ²":3607,"ĠÑĥÐ³Ð¾Ð»":3608,"ĠÑıÐ·ÑĭÐº":3609,"ĠÐ½ÐµÐ²Ð¾Ð·Ð¼Ð¾Ð¶Ð½Ð¾":3610,"ĠÐ¼Ð°ÑĪÐ¸Ð½Ñĭ":3611,"ĠÐ²ÑĭÐº":3612,"Ð°Ð´ÑĮ":3613,"ĠÑĥÐ±ÐµÐ´":3614,"ĠÐ¿Ð¾Ð·Ð²Ð¾":3615,"ÑĢÑĭÐ²Ð°Ñı":3616,"Ð¼ÑĥÑī":3617,"ĠÐ³ÑĢÑıÐ·":3618,"ÑģÐºÐ¸Ðµ":3619,"ĠÐ²ÑĤÐ¾":3620,"ÑĢÑıÑħ":3621,"ÑĥÐ²ÐµÑĢ":3622,"Ð»Ð¸Ð¿":3623,"ĠÐĻ":3624,"ĠÐ¿ÑĢÐµÐ´ÑĥÐ¿":3625,"ÑĤÐ¾Ðµ":3626,"ĠÐ¿ÑĢÐ¸Ð²ÐµÑĤ":3627,"Ð»Ð°Ñı":3628,"ĠÐºÐ¾ÑĢÐ¾Ð»ÐµÐ²":3629,"ĠÐĶÐ¶ÐµÑĢ":3630,"ĠÐ¿ÑĢÐ¾Ð´Ð¾Ð»Ð¶Ð°Ð»":3631,"ĠÐ´Ð²Ð¾ÑĢ":3632,"Ð¾Ð±ÑĢ":3633,"ĠÐ¿ÑĢÐ¸Ð±Ð»Ð¸Ð¶":3634,"Ð½Ð¸ÐµÐ¼":3635,"ÑĤÐ°ÑĩÐ¸":3636,"ĠÐĴÐ·":3637,"ĠÐŃÑĤÐ¾ÑĤ":3638,"ĠÑĢÐ°ÑģÑģÐ¼Ð°ÑĤÑĢÐ¸Ð²":3639,"ĠÑģÐ¿ÐµÑĨÐ¸":3640,"ĠÐ¿Ð¾ÑģÐ»ÑĥÑĪ":3641,"Ð½ÐµÐ¼Ñĥ":3642,"Ġt":3643,"ĠÐ³Ð»ÑĥÐ±Ð¾ÐºÐ¾":3644,"ĠÑĪÐµÐµ":3645,"ĠÐ³Ð»Ð¾ÑĤ":3646,"ĠÐ²Ð¾ÑĢ":3647,"ĠÐ¿Ð¾ÑıÑģ":3648,"ĠÐ·Ð½Ð°Ñı":3649,"ĠÐ´ÑĥÑĢ":3650,"Ð¸ÑĨ":3651,"ĠÑħÑĢÐ¸Ð¿":3652,"ĠÐļÐ°Ð¶ÐµÑĤÑģÑı":3653,"ÐŁÑĢÐ¾":3654,"ÐµÑģÑģÐ¸":3655,"Ð¾Ð³ÑĢÐ°ÑĦ":3656,"ĠÐ²Ð¾Ð·Ð±":3657,"ĠÐ¼ÑĥÐ¶ÑĩÐ¸Ð½Ñĭ":3658,"ĠÑĨÐµÐ½ÑĤ":3659,"ÑĭÐ²Ð°ÑĤÑĮÑģÑı":3660,"ĠÑģÐ»Ð¾Ð¼":3661,"Ð»Ð°ÑĪ":3662,"ĠÐ¿Ð°Ñħ":3663,"ĠÐ²ÐµÑģÐµÐ»Ð¾":3664,"ĠÐ¿ÑĥÑĤÑĮ":3665,"Ð´ÐµÐ»":3666,"ĠÐ½Ð¾ÑĩÑĮÑİ":3667,"ĠÐ¿Ð¾Ð¹ÑĤÐ¸":3668,"ĠÐ¶ÑĥÑĤ":3669,"Ð¾Ð±Ð¸":3670,"ĠÐ¾Ð±Ð²":3671,"ĠÐºÐ°ÑĢÐ¼Ð°":3672,"ĠÐ½Ð°ÑĩÐ¸Ð½":3673,"ĠÑĢÐ°Ð·Ð´Ð°Ð»ÑģÑı":3674,"ĠÐ¿Ð¾Ð½Ð¸Ð¼Ð°ÐµÑĪÑĮ":3675,"ĠÐ»ÑİÐ±Ð²Ð¸":3676,"ĠÐłÐ°Ñģ":3677,"ĠÐ¡Ð°ÐºÑĥÑĢÐ°":3678,"ĠÐ½Ð°ÑģÐºÐ¾Ð»ÑĮÐºÐ¾":3679,"ĠÑĥÐ´Ð¸Ð²Ð»ÐµÐ½Ð½Ð¾":3680,"ÑĳÑĢÑĤ":3681,"ĠÐ´ÑĥÑĪÐ¸":3682,"ĠÐ¿ÐµÑĢÐµÑģ":3683,"Ð°ÑģÑĤÐµÑĢ":3684,"ĠÐĿÐ°Ð²ÐµÑĢÐ½Ð¾Ðµ":3685,"ĠÐ¾Ð±ÑĢÐ°Ð·Ð¾Ð¼":3686,"ĠÑģÐ»Ð¾Ð¶Ð½Ð¾":3687,"ÐŁÐ°ÑĢ":3688,"ĠÐ¾ÑģÑĤÐ°Ð»ÑģÑı":3689,"ĠÑģÑĤÑĭ":3690,"ÑĥÐ»ÑĮÑĤ":3691,"âĪ":3692,"Ð»ÑıÐµÑĤ":3693,"Ð½Ð°Ð´ÑĨÐ°ÑĤÑĮ":3694,"âĪĴ":3695,"Ð»ÐµÐ½Ð½ÑĭÐ¹":3696,"ĠÐ¾ÑĩÐµÑĢ":3697,"ĠÐłÐµÐ¹":3698,"ĠÐ·Ð²ÑĥÐº":3699,"ĠÐ¿Ð¾ÑıÐ²Ð¸Ð»ÑģÑı":3700,"ĠÐ¿Ð¾Ð»Ð¾Ð¶Ð¸Ð»":3701,"ĠÐ²ÐºÐ»ÑİÑĩ":3702,"ÑĭÐ²Ð°Ð»Ð¸":3703,"ÑģÑĤÐ²ÐµÐ½Ð½Ð¾Ðµ":3704,"ĠÐ±ÑĢÐ¾ÑģÐ¸Ð»":3705,"ĠÐ¾ÑīÑĥÑĤ":3706,"ĠÐ³Ð½ÐµÐ²":3707,"ĠÐ·Ð°ÑīÐ¸ÑĤ":3708,"ĠÑģÑħÐ²Ð°ÑĤÐ¸Ð»":3709,"ĠÐ¾ÑĤÑģÑİÐ´Ð°":3710,"ĠÐ²Ð·Ð³Ð»ÑıÐ´Ð°":3711,"ĠÐ´Ð¶Ð¸Ð½Ñģ":3712,"Ð»ÑıÐ»ÑģÑı":3713,"ĠÐ»ÑĳÐ³":3714,"ĠÐ²Ð½ÑĥÑĤÑĢÑĮ":3715,"ĠÐ¿Ð¾Ð´Ð°Ð²":3716,"ĠÐ²ÐµÑĢÐ½ÑĥÑĤÑĮÑģÑı":3717,"ĠÐ¿ÑĢÐ¸ÑģÑĤ":3718,"ĠÐ²ÐµÑģÑĮÐ¼Ð°":3719,"ĠÐķÐµ":3720,"ĠÐķÐ¹":3721,"ĠÐ½ÐµÐ±Ð¾":3722,"ĠÐ¿Ð¾ÑĩÑĥÐ²ÑģÑĤÐ²Ð¾Ð²Ð°Ð»Ð°":3723,"ÑĪÐµÐ´":3724,"ĠÑģÑĤÐ°Ð½ÐµÑĤ":3725,"in":3726,"Ð¸ÑĢÐµÐº":3727,"ĠÐ£Ð¶Ðµ":3728,"ĠÐĳÐµÐ·":3729,"Ð´Ð°Ð½":3730,"ĠÐ°Ð´":3731,"ĠÑģÐ¾Ð¶Ð°Ð»":3732,"ĠÐ²Ð·Ð´":3733,"ĠÐ²Ð´Ð¾Ñħ":3734,"ĠÐŀÐ¿":3735,"ĠÐ¢ÑĥÑĤ":3736,"ĠÐ¼Ð¾Ñĳ":3737,"ĠÐºÐ¾Ð½Ñĩ":3738,"ĠÑģÑĭÐ½Ð°":3739,"ĠÑģÐ¾Ðº":3740,"ĠÑįÑĤÐ°Ð¶":3741,"ĠÐ·Ð¾Ð²ÑĥÑĤ":3742,"ĠÐ·Ð°Ð¼Ð¾Ð»":3743,"ĠÐ½Ð¾ÑģÐ¾Ð¼":3744,"ĠÐ²ÑĭÑĤÐ°Ñī":3745,"ĠÐºÑĥÑĩ":3746,"ĠÑĢÐ°Ð·Ð³Ð»ÑıÐ´":3747,"Ð¾Ð½Ñĭ":3748,"ĠÑģÐ¿Ð°ÑģÐ¸Ð±Ð¾":3749,"ÑıÐ³Ð¸Ð²Ð°Ñı":3750,"ĠÐºÐ¾Ð¶Ñĥ":3751,"ĠÑģÑĤÑĢÐµÐ¼":3752,"ĠÐ¿Ð¾Ð·Ð½Ð°ÐºÐ¾Ð¼":3753,"ĠÑģÐ¾Ð±Ð¸ÑĢÐ°Ð»ÑģÑı":3754,"ĠÑĥÑħÐ¾":3755,"Ð¸ÑĤÐµÐ»ÑĮÐ½ÑĭÐ¹":3756,"ĠÐ½ÐµÐ´Ð¾ÑĥÐ¼":3757,"ĠÐ½ÐµÐ±Ð¾Ð»ÑĮÑĪÐ¾Ð¹":3758,"ĠÑĪÐ°Ð½Ñģ":3759,"Ð½ÐµÐ½Ð¸Ñı":3760,"ĠÐ¼Ð°Ñħ":3761,"ĠÑģÑĤÐµÐ½Ñĥ":3762,"Ð´Ð¶Ð¸":3763,"ĠÐºÐ¾Ð½ÑĨÐ¾Ð²":3764,"Ð»Ð¾Ð½Ð¸Ð»ÑģÑı":3765,"Ð¾Ð±ÑĢÐ°Ð¶":3766,"ĠÐ¡Ð¼":3767,"ÑģÑģ":3768,"ĠÐ½ÐµÐ¾Ð¶Ð¸Ð´Ð°Ð½":3769,"ĠÐĲÐ¼":3770,"ĠÑģÐ¿ÑĥÑģÑĤÑı":3771,"ĠÑģÐ¾Ð±Ñĭ":3772,"ĠÐ½ÐµÐ¿Ð¾Ð½":3773,"ĠÐ»ÑİÐ±Ð¸Ð»":3774,"ĠÐĴÐ¾Ð·Ð¼Ð¾Ð¶Ð½Ð¾":3775,"ĠÐ¿ÑĮÑı":3776,"ĠÑĩÐµÐ»Ð¾Ð²ÐµÑĩ":3777,"ĠÐ¼Ð°Ð»ÐµÐ½ÑĮÐºÐ¸Ð¹":3778,"ĠÐ¿ÑĢÐ¾Ð¸ÑģÑħÐ¾Ð´":3779,"ĠÐ½Ð°ÑģÑĤ":3780,"Ð¾Ð³Ñĥ":3781,"ĠÐ´ÐµÐ»Ð°ÐµÑĪÑĮ":3782,"Ð°Ð½Ñĭ":3783,"ĠÐ¾Ð´ÐµÐ¶Ð´Ñĥ":3784,"ĠÐ³ÑĥÐ±Ñĥ":3785,"ĠÐºÐ°ÑĢÑĤÐ¸":3786,"ÐµÐ½Ð¸ÑĤÑĮ":3787,"ĠÐ¸Ð´Ð¸Ð¾ÑĤ":3788,"Ð°Ð½Ð½Ð¾Ðµ":3789,"ĠÐ³Ð»Ð°Ð´":3790,"ĠÐ½ÐµÐ»Ð¾Ð²":3791,"ĠÐ¾ÑĤÐºÑĢÑĭÐ»Ð°":3792,"ĠÐ½ÐµÐ¸Ð·Ð²":3793,"ĠÐ½ÐµÐ½Ð°Ð²Ð¸Ð´":3794,"ĠÐ¿Ð¾ÑģÐ»ÐµÐ´Ð½ÐµÐµ":3795,"ĠÑĥÐ¿Ð°Ð»":3796,"ĠÐ´ÐµÑĤÐµÐ¹":3797,"ĠÐ±ÑĢÐ°ÑĤÑĮ":3798,".\"":3799,"ĠÐ¶Ð´Ð°Ð»":3800,"ĠÑĤÐ²Ð¾Ñİ":3801,"ĠÑģÐ»Ð¾Ð²Ð°Ð¼Ð¸":3802,"ĠÐ·Ð°Ð¿Ð¸Ñģ":3803,"ĠÐ²Ð¾Ð»Ð½Ñĥ":3804,"ĠÐ¼Ð¸Ð»Ð¾":3805,"ĠÑĩÑĥÐ²ÑģÑĤÐ²Ð¾Ð²Ð°Ð»Ð°":3806,"ÑħÐ²Ð°ÑĤÐ¸Ð»":3807,"ĠÐĵÐ¾Ñģ":3808,"Ð°ÑİÑīÐ¸Ð¼":3809,"ÑĪÐ¸ÐµÑģÑı":3810,"ĠÐ½ÐµÑĢÐ²Ð½Ð¾":3811,"ĠÐ¾ÑĤÐ²ÐµÑĤÐ°":3812,"ĠÐĴÐ»Ð°Ð´":3813,"ĠÐĲÐ»Ð¸":3814,"ĠÐ¿Ð¾ÑģÐ»ÐµÐ´Ð½Ð¸Ðµ":3815,"ĠÐŃÐ´":3816,"Ð°Ð»ÑĮÐ½ÑĭÐµ":3817,"ĠÑĤÐ°ÐºÑĥÑİ":3818,"ĠÑģÐ°Ð¼Ð¾":3819,"ĠÑĥÐ»ÑĭÐ±ÐºÑĥ":3820,"ĠÐ·Ð°ÑģÑĤÐ°Ð²Ð»ÑıÑı":3821,"ĠÐ¿Ð»Ð¾ÑĤ":3822,"ÑĥÑģÐºÐ°Ñı":3823,"ĠÐľÐ¸Ð½":3824,"ĠÐ²Ð¾Ð»Ð½Ð¾Ð²":3825,"ĠÐ¸Ð³ÑĢÐ°":3826,"ÑĢÑĭÐ·":3827,"ÑĪÐµÐ³Ð¾ÑģÑı":3828,"ĠÑĥÑħÐ¼ÑĭÐ»ÑĮ":3829,"ĠÐ¾ÑģÑĤÐ°Ð½Ð°Ð²Ð»Ð¸Ð²":3830,"ĠÐºÐ¾Ð¶":3831,"ĠÐ¾ÑĤÐºÐ°Ð·":3832,"ÑıÐµÑĤ":3833,"Ð°ÑĢÐ°Ðº":3834,"ĠÐ¸ÑĤ":3835,"ĠÐ¾ÑģÐ¾Ð±Ð¾":3836,"ĠÐ²Ð¾ÑĢÐ¾ÑĤ":3837,"ĠÐ´Ð¾ÑģÑĤÐ°Ð²":3838,"ĠÐ¾ÑĤÑĩÐµÐ³Ð¾":3839,"ĠÐ¸ÑģÐºÐ°ÑĤÑĮ":3840,"Ð²Ð¾ÑĢÐ°ÑĩÐ¸Ð²":3841,"ĠÑĥÑĤÑĢÐ¾Ð¼":3842,"ĠÑģÐ»ÐµÐ´ÑĥÑİÑīÐ¸Ð¹":3843,"ĠÐ²ÑĭÐ´Ð¾ÑħÐ½ÑĥÐ»":3844,"ĠÐļÐ°Ð¹":3845,"Ð¶Ð´":3846,"ĠÐ±Ð»Ð¸Ð·ÐºÐ¾":3847,"ÐµÑħÐ°ÑĤÑĮ":3848,"ĠÐ¾ÑĤÑģÑĤÑĥÐ¿":3849,"ĠÐ¿Ð°ÑĢÐ°":3850,"ĠÑģÐ»ÑĥÐ¶":3851,"ĠÑĢÐ°ÑģÑģÑĤ":3852,"ĠÑĥÑĪÐµÐ»":3853,"ĠÐ¿Ð¾ÐºÐ¸":3854,"Ð½Ð°Ð»Ð¸":3855,"ĠÐ¿ÑĢÐ¸Ð²Ð»ÐµÐº":3856,"ĠÑĩÑĤÐ¾Ð±":3857,"ĠÐ¼Ð¸ÑĢÐ°":3858,"ĠÐ½Ð¾Ð³Ñĥ":3859,"ĠÑĤÐ°Ð¹":3860,"Ð°ÑĤÑĥ":3861,"Ð¾Ð²Ð¾Ð¹":3862,"ĠÐ²Ð½ÐµÑĪ":3863,"ĠÐºÐ¾ÑĢÐ°Ð±":3864,"ĠÐ¿Ð¾Ð´ÑĤ":3865,"ĠÐ»ÐµÐ²":3866,"ĠÑģÑĤÐ¾ÑıÐ»Ð¸":3867,"ĠÐ¡ÐµÐ³Ð¾Ð´Ð½Ñı":3868,"ĠÑģÐ¾ÑĢÐ²":3869,"ÐµÑĤÐ¸":3870,"ĠÐ±ÑĢÐ¾Ð²Ð¸":3871,"ĠÐ±Ð°Ð½":3872,"ĠÑģÐ¾ÑģÑĤÐ¾ÑıÐ½Ð¸Ð¸":3873,"ĠÐ²ÑĭÑĤ":3874,"ĠÑģÑĥÐ¿":3875,"ĠÑģÐ¼ÐµÑĢÑĤÑĮ":3876,"ĠÐ¿Ð¸ÑģÑĮ":3877,"ĠÑħÐ²Ð°ÑĤÐ¸ÑĤ":3878,"ÑĩÐ¸Ðµ":3879,"ÐµÑĤÑĥ":3880,"Ð¼Ð¾Ð½":3881,"ÑģÐ°Ð½":3882,"ĠÐ¿ÑĢÐ¸ÐºÐ¾ÑģÐ½Ð¾Ð²":3883,"ĠÐ¸Ð·ÑĥÑĩ":3884,"ÑĤÐ¾Ð±Ñĭ":3885,"ĠÐ¿Ð¾Ð´ÑĥÐ¼Ð°Ð»Ð°":3886,"ÑīÐµÐ³Ð¾":3887,"ĠÑĤÑĳÐ¼":3888,"ou":3889,"ĠÐ§ÐµÐ³Ð¾":3890,"ĠÐ¾ÑĤÐ¾Ð·Ð²":3891,"ÑĢÐ°Ð»Ð¸":3892,"Ð°Ð½Ð¸Ñİ":3893,"ĠÐļÑĥ":3894,"Ð¾Ð¶Ð´ÐµÐ½Ð¸Ñı":3895,"ÐºÐ°ÑĤ":3896,"ĠÐ½ÐµÐ´ÐµÐ»Ñİ":3897,"ĠÑĪÐºÐ¾Ð»Ðµ":3898,"ĠÐľÐ¾ÑĢ":3899,"ĠÐ¾ÑĤÐ²ÐµÑĤÐ¸ÑĤÑĮ":3900,"ĠÐ·Ð°Ð´ÐµÑĢÐ¶":3901,"ĠÐ¾ÑģÑĤÐ°Ð»ÑĮÐ½ÑĭÐµ":3902,"ĠÐ²Ð°Ð¶Ð½Ð¾":3903,"ĠÐ¸Ð½ÑģÑĤ":3904,"ĠÐ´ÐµÐ»Ð°Ð»":3905,"ÑĥÑİÑĤ":3906,"Ð½Ð°Ñħ":3907,"Ð¾Ð´Ñı":3908,").":3909,"ĠÐ¾ÑģÐ¼Ð¾ÑĤÑĢ":3910,"ĠÑĦÐ¸Ð·":3911,"ĠÐ²ÑģÐµÐ¼Ð¸":3912,"ĠÐºÑĥÐ»":3913,"ĠÐĺÑĤÐ°ÑĩÐ¸":3914,"ĠÐ²Ð°Ð¼Ð¸":3915,"ĠÐ¿Ð»Ñİ":3916,"Ð¾ÑĩÐµÐº":3917,"ĠÐĴÐ°Ð¼":3918,"Ð´Ð¾Ð¹":3919,"ĠÑĥÑģÐ»ÑĭÑĪÐ°Ð»Ð°":3920,"ĠÐ²Ð¿ÐµÑĢ":3921,"ĠÑĥÐ²Ð¸Ð´ÐµÐ²":3922,"ÑİÑīÐ¸Ð¹":3923,"ĠÐ·Ð¾Ð»Ð¾ÑĤ":3924,"ÑĥÐ¶Ð½Ð¾":3925,"ĠÐ»Ð°Ð¿":3926,"ĠÑĥÐ·Ð½Ð°Ð»":3927,"ÐµÑģÑģÐ°":3928,"ÐľÐ½Ðµ":3929,"ÐµÐ²Ð¸":3930,"ĠÐ¡Ð¾Ð²":3931,"ĠÑĥÐ¼Ð¸":3932,"ĠÐ»ÑİÐ±Ð¾Ð¿ÑĭÑĤ":3933,"ĠÐ½Ð¾Ð³Ð°Ð¼Ð¸":3934,"Ġ.":3935,"ĠÐ¿ÑĢÐµÐ¿":3936,"ÐµÐ»ÐµÐ¼":3937,"ĠÐĹÐ½Ð°ÐµÑĪÑĮ":3938,"ĠÐ´ÑĢÑĥÐ³Ð¾Ð³Ð¾":3939,"Ð°ÑĤÐ¾":3940,"ĠÐ´Ð°ÑĤÑĮ":3941,"ĠÑģÐ²ÐµÑĤÐµ":3942,"ĠÐ³Ð¾ÑĤÐ¾Ð²Ð°":3943,"ĠÐ¡Ð½ÐµÐ¹":3944,"ĠÐ½ÐµÑĢ":3945,"Ð´Ð°Ð²":3946,"Ð¾Ð»Ð¸":3947,"ĠÐ¢Ñį":3948,"ĠÐ³Ð»ÑĥÐ±Ð¾Ðº":3949,"Ð°Ð»Ð¸Ð»ÑģÑı":3950,"ĠÐ¿Ð¾ÑıÐ²Ð¸Ð»Ð°ÑģÑĮ":3951,"ĠÐ¿Ð¾Ð´Ð±Ð¾ÑĢÐ¾Ð´":3952,"Ð°ÑĢÑĭ":3953,"ĠÐļÐ¸":3954,"Ð¾ÑħÐ¾ÑĤ":3955,"Ð°Ð½Ð½ÑĭÐ¼":3956,"ĠÑĢÐµÐ±ÑıÑĤ":3957,"ĠÑģÑĤÐ¾Ñı":3958,"ÑĥÐ¶ÑĩÐ¸Ð½Ð°":3959,"ĠÐľÐ°Ð»ÑĦÐ¾Ð¹":3960,"ĠÐºÐ¾Ð»ÑĮ":3961,"ÑİÐ¼":3962,"ĠÐ¢Ð¾ÑĢ":3963,"ĠÐ½ÐµÐ²ÐµÑĢÐ¾":3964,"Ð¾Ð¿Ð°Ñģ":3965,"ĠÐ´Ð²ÐµÑĢÑĮÑİ":3966,"ĠÐ¿Ð°ÑĢÐ½Ñİ":3967,"ĠÐ»Ð¸ÑģÑĤ":3968,"ĠÐ·Ð²ÐµÑĢ":3969,"Ð¾Ð»Ð½Ñı":3970,"ĠÐ½Ð°Ð²ÐµÑĢÐ½ÑıÐºÐ°":3971,"ĠÐ½Ð°Ð¿ÑĢÐ°Ð²Ð¸Ð»Ð°ÑģÑĮ":3972,"ĠÐ¾ÑĩÐµÑĢÐµÐ´ÑĮ":3973,"ĠÑģÐ¾Ñĩ":3974,"ĠÐ½ÐµÐ¿Ð¾Ð´":3975,"ĠÐĲÑħ":3976,"ĠÑģÑĤÐ°Ð½Ð¾Ð²Ð¸ÑĤÑģÑı":3977,"ĠÐ¿ÑĢÐ°Ð²Ð°":3978,"ĠÐ¿Ð¾Ð´ÑĥÐ¼Ð°ÑĤÑĮ":3979,"Ð¸Ð½Ð¾Ð¼":3980,"ÑĥÑģÑĤÐ¸ÑĤÑĮ":3981,"Ð½Ð¸ÑĤÐµÐ»ÑĮ":3982,"ĠÑģÐµÑĢÑĮÑĳÐ·":3983,"ĠÐ¾Ð±Ð¸Ð¶":3984,"ĠÐ¿ÑĢÐ°Ð·Ð´":3985,"ĠÐ§Ð¾Ð½":3986,"ĠÐ¿ÑĢÐ¾Ð¸Ð·Ð½ÑĳÑģ":3987,"ĠÐ¼Ð¾Ðº":3988,"ĠÐºÑĢÐ¸Ðº":3989,"ĠÐ²ÐµÑĢÑħ":3990,"ĠÐ´ÑĢÑĥÐ³Ð¸Ðµ":3991,"ĠÑĪÐºÐ¾Ð»Ñĭ":3992,"ĠÑģÐ¾Ð¼Ð½ÐµÐ²":3993,"ÐµÐ¿ÐµÐ½Ð½Ð¾":3994,"ÑīÐ°":3995,"ÑģÐºÐ¸Ñħ":3996,"ÐºÐ¾ÑĢ":3997,"ĠÑģÑĤÑĥ":3998,"Ð½Ð¸ÑĩÑĤÐ¾Ð¶":3999,"ĠÑĩÐµÑĢÑĤÐ¾Ð²":4000,"ĠÑģÑĤÐ¾Ð¹":4001,"ĠÐ¿Ð¾Ð´ÑħÐ¾Ð´":4002,"Ð°Ð½Ð½Ð°Ñı":4003,"ĠÐ½Ð¸ÐºÐ¾Ð¼Ñĥ":4004,"ĠÐ·Ð°ÐºÑĢÐ¸":4005,"ĠÑĤÑĥÐ¿":4006,"ĠÐ³ÑĢÐ¾Ð·":4007,"ĠÐ¼ÐµÑĩÑĤ":4008,"ĠÐ¡ÑĤÐ°Ð¹Ð»Ð·":4009,"ĠÐ¿ÑĢÐµÐ·":4010,"ĠÐ½Ð¸ÐºÐ°ÐºÐ¸Ñħ":4011,"ĠÐ²Ð¾Ð¿ÑĢÐ¾ÑģÑĭ":4012,"ĠÐĶÑĥÐ¼Ð°Ñİ":4013,"ÐºÐ¾ÑĩÐ¸Ð»":4014,"ĠÐ½Ð°ÑģÐ»Ð°Ð¶Ð´":4015,"ĠÐ½ÑĳÐ¼":4016,"Ð°ÑĦ":4017,"ĠÑģÐ¾Ð´":4018,"ĠÐ²ÑĭÑģÑĤÑĥÐ¿":4019,"ĠÐ½Ð°ÑĢÑĥÑĪ":4020,"ĠÐºÐ¾ÑĢÐ¸Ð´Ð¾ÑĢ":4021,"ÑĢÐ°Ðº":4022,"ÑıÐ»Ð¸ÑģÑĮ":4023,"ĠÐ¿Ð¾Ð´Ð½ÑıÐ»Ð°":4024,"ĠÑĥÑģÐ¿Ð¾ÐºÐ°":4025,"ĠÐļÑģÑĤÐ°ÑĤÐ¸":4026,"ĠÐ¾ÑĦÐ¸":4027,"ĠÐ½ÐµÐ²Ð¾Ð»ÑĮÐ½Ð¾":4028,"ĠÐ¿ÑĢÐ¾ÑĪÐµÐ¿ÑĤÐ°Ð»Ð°":4029,"ĠÐ±Ð¾Ð»ÐµÐ·":4030,"ĠÐ²ÐµÑĤÐµÑĢ":4031,"er":4032,"Ð¾Ð½Ð·":4033,"ĠÐ¾ÐºÐ¾Ð½ÑĩÐ°ÑĤÐµÐ»ÑĮÐ½Ð¾":4034,"ĠÐ¿Ð¸Ñģ":4035,"ĠÑĤÐ°Ð»Ð¸Ñİ":4036,"ÑģÑĤÐ²Ð¸Ñı":4037,"ĠÐĲÐ³Ð°":4038,"ĠÑĩÐ°ÑĪ":4039,"ĠÐ¿Ð¾Ð¿Ð°Ð´":4040,"Ð¼ÐµÑĪ":4041,"Ð¾ÑĢÑī":4042,"ĠÑħÑĥÐ´":4043,"ĠÐ½ÐµÐ´Ð¾Ð²Ð¾Ð»ÑĮÐ½Ð¾":4044,"ĠÐ±Ð»Ð¸Ð¶":4045,"Ð¸Ð²Ð°Ð»ÑģÑı":4046,"ĠÐ´ÐµÑĤÐ¸":4047,"ĠÐ±Ð»Ð¾Ð½Ð´Ð¸":4048,"Ð»ÐµÐ¶":4049,"ÑĩÐ°ÑĤ":4050,"ĠÐ·Ð°Ð±ÑĭÑĤÑĮ":4051,"ĠÐ¾Ð±ÑıÐ·Ð°ÑĤÐµÐ»ÑĮÐ½Ð¾":4052,"ĠÐ²ÑĭÑĪÐµ":4053,"ĠÐ²Ð°Ð»":4054,"ĠÑĪÐ°ÑĢ":4055,"ÑģÑĤÐµÐ¹":4056,"ĠÐ²Ð°Ð¼Ð¿Ð¸ÑĢ":4057,"ĠÐ¼Ð¾ÐµÐ¼Ñĥ":4058,"ĠÑĢÐ°ÑģÑģÐºÐ°Ð·Ð°ÑĤÑĮ":4059,"ĠÐ·Ð°ÐºÑĢÑĭÐ»":4060,"ĠÐ½ÐµÑģÐ¼Ð¾ÑĤÑĢÑı":4061,"ĠÐ¿ÑĢÐ¾Ð¶":4062,"ĠÐ½Ð°ÑĪÐµÐ»":4063,"ĠÐ¿ÑĢÐµÐ²ÑĢÐ°ÑĤ":4064,"ĠÐ·Ð°Ð´ÑĥÐ¼ÑĩÐ¸Ð²Ð¾":4065,"ĠÑĥÑĪÐ»Ð°":4066,"Ð°ÑİÑīÐ¸Ðµ":4067,"ĠÑģÑĭÐ½":4068,"ĠÐ¿Ð¾Ð¹Ð´Ñĥ":4069,"ĠÐ³Ð¾Ð²Ð¾ÑĢÑİ":4070,"Ð·Ð°Ð´Ð¸":4071,"ÐµÐ½ÑĤÐ¾Ð²":4072,"Ð»ÑĭÑħ":4073,"ĠÑĩÐµÐ»Ð¾Ð²ÐµÐºÐ¾Ð¼":4074,"Ð¾Ð²Ð°Ð²":4075,"ĠÐ¾ÑĤÐ²Ð»ÐµÐº":4076,"ĠÑĩÑĥÐ²ÑģÑĤÐ²ÑĥÐµÑĤ":4077,"ĠÐ¸Ð·Ð±Ð°Ð²":4078,"ĠÐ¼Ð¾Ð½":4079,"ĠÑģÐ¸Ð¼":4080,"ĠÐ¿Ð¾Ð½Ð¸Ð¼Ð°Ð»Ð°":4081,"ĠÑģÐ¸Ð½":4082,"ÐµÐ²ÐµÐ»":4083,"ĠÐŁÑĥÑģÑĤÑĮ":4084,"ĠÑģÑĤÐ°Ðº":4085,"ĠÐ¿ÑĢÐ¾Ð±Ð»ÐµÐ¼Ñĭ":4086,"ĠÑĢÐµÑĪÐ¸Ð»Ð¸":4087,"ĠÐŀÑħ":4088,"Ð¼ÐµÑıÐ»Ð°ÑģÑĮ":4089,"ĠÑĥÑģÐ¿ÐµÐ²":4090,"Ð´ÐµÑĤÑĮ":4091,"ĠÑħÐ¼ÑĭÐºÐ½ÑĥÐ»":4092,"ĠÐºÐ°ÐºÐ¸Ñħ":4093,"ĠÐ¾Ð´Ð¸Ð½Ð¾":4094,"ĠÐºÑĢÑĭÐ»ÑĮ":4095,"ĠÐ¿ÑĢÐ¾ÑģÑĤÐ¸":4096,"ĠÐ½Ð°Ð¹Ð´":4097,"Ð»ÑıÑıÑģÑĮ":4098,"ÑĤÐ¾ÑıÑĤ":4099,"Ð°ÑĢÐµÐ»":4100,"ĠÑĪÐºÐ¾Ð»Ñĥ":4101,"ĠÐ¿ÑĢÐ¸Ð½ÐµÑģ":4102,"ĠÐļÑįÑĢ":4103,"ĠÑĢÐ¾Ð·Ð¾Ð²":4104,"ĠÐ¿ÑĭÑĤÐ°ÐµÑĤÑģÑı":4105,"ĠÐĶÐ¾Ð±":4106,"ĠÐ¿ÑĢÐ¸Ð¾ÑĤÐº":4107,"ĠÐ¿Ð¾Ð»ÑĥÑĩÐ¸Ð»Ð¾ÑģÑĮ":4108,"ĠÐºÐ»Ñİ":4109,"Ð°ÑĢÐ°ÐºÑĤÐµÑĢ":4110,"ĠÐ¿Ð¾ÑģÑĤÐµÐ»Ð¸":4111,"Ð½Ð°ÑĩÐ°Ð»Ð°":4112,"ĠÐ¤ÑĢÑįÐ½":4113,"ĠÐ¿Ð¾Ð¸Ð½ÑĤÐµÑĢÐµÑģÐ¾Ð²Ð°Ð»ÑģÑı":4114,"ĠÐŀÑģÑĤ":4115,"ÐµÐ´Ð¸Ð½":4116,"ĠÐ¿ÐµÑĢÐ²ÑĭÐ¼":4117,"ÐµÐ´Ð°":4118,"ÑİÑĢ":4119,"ĠÐĳÑĭÐ»Ð¾":4120,"ĠÐ½ÐµÐ¿ÑĢÐ¸ÑıÑĤ":4121,"ÑīÐ¸ÐµÑģÑı":4122,"ĠÑģÑĤÑĢÐ¾":4123,"ĠÐ´ÑĥÑĪÑĥ":4124,"ĠÑĢÐ¾Ð´Ð¸ÑĤÐµÐ»Ð¸":4125,"ĠÐ½Ð°Ð¿ÑĢÑıÐ³":4126,"ĠÑĥÐ½Ð¸":4127,"ÑĭÑĢÐµ":4128,"ĠÐ´Ð¾ÑĩÑĮ":4129,"ĠÐ½Ð¾Ð²ÑĭÐ¹":4130,"ĠÑģÐ²ÐµÐ¶":4131,"ĠÐ¢ÑģÑĥ":4132,"ĠÐ¿ÑĥÑģÑĤÐ¾":4133,"ĠÐºÐ¾ÑĢÐ¾Ð±":4134,"ĠÐĽÑİÐ±":4135,"ÑħÑĳÐ½":4136,"Ð½Ð¾ÑĢÐ¸":4137,"Ð¸Ð´Ð½Ð¾":4138,"ÑĨÐ¾":4139,"ĠÐ¾Ð±ÑĢ":4140,"Ð°Ð»ÑĮÐ½ÑĭÐ¼":4141,"ĠÐºÐ¾Ð½ÐµÑĨ":4142,"ĠÑĥÐ»Ð¸ÑĨÑĥ":4143,"ĠÐ³Ð»Ð°Ð²Ð½Ð¾Ðµ":4144,"ĠÐĶÑį":4145,"ĠÑĥÑĪ":4146,"ÑĪÑĮÑģÑı":4147,"ĠÑĢÐ°Ð±":4148,"ĠÐ³Ð¾ÑĢÐ¾Ð´Ð°":4149,"ĠÐ¿ÐµÑĢÐµÐ½":4150,"ÑĢÐµÑģÑĤ":4151,"Ð½Ð°Ð½Ð¸Ñı":4152,"ĠÐ³ÑĥÐ±Ð°Ð¼":4153,"Ð°Ð½Ð½Ð¾Ð³Ð¾":4154,"ĠÐ´Ð°ÑĢ":4155,"ĠÐ£Ð·":4156,"ĠÐ¿ÑĢÐµ":4157,"ĠÐ¿Ð¾Ð²ÐµÑĢÑħ":4158,"ĠÑĤÑĭÑģÑı":4159,"ÐŁÐ¾Ð´":4160,"ĠÐ´Ð¾Ð²Ð¾Ð»ÑĮ":4161,"ĠÐ¿ÑĢÐ°Ð²Ð¸Ð»ÑĮÐ½Ð¾":4162,"ĠÐ²Ð¾ÑģÐ¿Ð¾Ð¼Ð¸Ð½Ð°Ð½Ð¸Ñı":4163,"ĠÑħÐ¸ÑĤ":4164,"ĠÐ²Ð½ÑĥÑĤÑĢÐµÐ½":4165,"ĠÑĤÑĢÐµÐ²":4166,"ĠÐ°Ð²ÑĤÐ¾Ð¼":4167,"ĠÐ´Ð¾ÑģÑĤÐ°Ð»":4168,"ĠÑģÐ¸Ð´ÐµÐ»Ð¸":4169,"ĠÑĢÐ°Ð±Ð¾ÑĤÑĭ":4170,"ĠÑģÐ¼Ð¾ÑĤÑĢÐµÐ»Ð¸":4171,"ĠÐļÐ¾Ð»":4172,"ĠÐŀÑĩÐµÐ½ÑĮ":4173,"ĠÐ´Ð¸ÑĢÐµÐº":4174,"ÐµÐ¸":4175,"ĠÐ²Ð¾ÑģÑħ":4176,"ĠÐ¡Ð°Ð½":4177,"ĠÑĥÑĩÐ°":4178,"ÑĨÐ¾Ð¼":4179,"ĠÑģÑĤÑĢÐ°Ð´":4180,"ĠÐ½Ð°ÑģÑĤÑĥÐ¿":4181,"ĠÐ´ÑĭÐ¼":4182,"ĠÐ²Ð¾Ð´Ñĥ":4183,"Ð¿Ðµ":4184,"ĠÐ¾Ð´ÐµÑı":4185,"Ð¾Ð´Ð¸ÑĤ":4186,"Ð½Ð¸ÑĤÑĮÑģÑı":4187,"ĠÐ±Ð¾ÑĢ":4188,"ĠÑģÐ¿ÑĢÑıÑĤ":4189,"ĠÐºÑģÑĤÐ°ÑĤÐ¸":4190,"ĠÐ²Ð»Ð°":4191,"ĠÐ¿Ð¾Ð·Ð¶Ðµ":4192,"ĠÑįÑĤÐ¸Ð¼Ð¸":4193,"ĠÐ·Ð²Ð¾":4194,"Ð¼Ð¸Ð³":4195,"ĠÐ¿ÑĢÐ¾Ð¸Ð³":4196,"ĠÐ´Ð²Ð¸Ð¶ÐµÐ½Ð¸Ñı":4197,"ĠÐ¿Ð°Ð»ÑĮÑĨÐµÐ²":4198,"ĠÐ¶ÐµÐ»Ð°Ð½Ð¸Ñı":4199,"ĠÐ²Ð¾Ð·Ð¼ÑĥÑī":4200,"ĠÐ²Ð¾Ð»Ð¾ÑģÐ°Ð¼Ð¸":4201,"ÑģÑıÑĤ":4202,"ÑĢÑĥÐ´":4203,"Ð½ÑĥÑĤÑĢÐ¸":4204,"ĠÐ´ÐµÐ½ÑĮÐ³Ð¸":4205,"ÐµÐ¼Ð¾Ð½":4206,"ÑģÑĤÐ¾Ñı":4207,"ĠÐ¡ÐµÐ²ÐµÑĢ":4208,"ÐµÐºÑĤÐ¸Ð²":4209,"ĠÐŁÐ¾Ð¶Ð°Ð»":4210,"ĠÑģÐ¶Ð°Ð»":4211,"Ð¾ÑĤÑĭ":4212,"ĠÐ²Ð¸Ð´Ð¸ÑĤ":4213,"ĠÑĥÐ½Ð¸ÑĩÑĤÐ¾Ð¶":4214,"Ð»ÑĥÑĪÐ°Ð¹":4215,"ĠÐ¾ÑģÑĤÐ°ÑĤÑĮÑģÑı":4216,"ĠÐļÐ°ÑĤ":4217,"ĠÐ¸Ð´ÐµÑĤ":4218,"ĠÐ»ÐµÐ¶Ð°Ð»":4219,"ÐµÐ½ÑĮÐºÐ¾":4220,"ÑĢÐ¸Ð´":4221,"ÑģÐºÐ°Ñı":4222,"ÑĥÐ½Ð°":4223,"Ð®":4224,"ÑĨÐ¸ÐµÐ¹":4225,"ĠÐ²ÐµÑĩÐµÑĢÐ¾Ð¼":4226,"Ð°Ð¼ÐµÐ½":4227,"ĠÑģÐ°Ð¼Ð¾Ð¼Ñĥ":4228,"Ð°Ð½Ð½ÑĭÑħ":4229,"ÑĮÐµ":4230,"ĠÐ´Ð°Ð»ÑĮ":4231,"Ð½Ð¾Ð²Ð¾Ð»Ð¾Ñģ":4232,"ÑĢÑĥÑĤ":4233,"ĠÑģÐ¸Ð³Ð°ÑĢ":4234,"ĠÑĢÐµÐ±ÑıÑĤÐ°":4235,"ĠÑħÐ²Ð¾ÑģÑĤ":4236,"**":4237,"ÐµÐ»Ðµ":4238,"ĠÐ¿ÑĢÐ¸Ð½Ð°Ð´":4239,"ĠÐĶÐµÑĢÐµÐº":4240,"ĠÐ½ÐµÐ´Ð°Ð²Ð½Ð¾":4241,"ĠÐ±ÑĥÐ´ÑĮ":4242,"ĠÐ§ÐµÑĢÑĤ":4243,"Ð¸Ð²Ð°ÑİÑĤ":4244,"ĠÐ½Ð¸Ð¶Ðµ":4245,"ĠÐ¼ÐµÐ»ÑĮ":4246,"ÐĺÐ·":4247,"ĠÐ¿ÑĢÐ¸ÐºÐ°Ð·":4248,"ÑĪÐºÑĥ":4249,"ĠÑĦÑĢÐ°Ð·":4250,"Ð½Ð°Ð¶Ð´Ñĭ":4251,"ÐĻ":4252,"ĠÑĢÐ°Ð·Ð¾Ð±":4253,"ĠÑİÐ½Ð¾ÑĪÐ°":4254,"ĠÐ·Ð°Ð½ÑıÑĤÐ¸":4255,"ĠÐ½Ð°Ð·Ð²":4256,"ĠÐ¿Ð¾Ð³Ð¸Ð±":4257,"ĠÐ¶Ð¸Ð·Ð½":4258,"Ð°Ð½Ð¸Ð¹":4259,"ĠÐ·Ð°Ð¿Ñı":4260,"ĠÐ·Ð°ÐºÐ»ÑİÑĩ":4261,"ĠÐ¿Ð¾Ð½Ð¸Ð¼Ð°ÐµÑĤ":4262,"ĠÐ²Ð°ÑĢÐ¸":4263,"ĠÑĢÐ°Ð·ÑĢÐµÑĪ":4264,"ÑĥÐ¼Ñı":4265,"ĠÐ¿ÑĢÑıÐ¼":4266,"ĠÑıÐ·ÑĭÐºÐ¾Ð¼":4267,"ĠÐ¼ÑĭÑģÐ»ÐµÐ¹":4268,"ĠÐ½Ð¸Ð·":4269,"ĠÐºÑĥÑĢÑĤ":4270,"ĠÐĴÐ¾Ð»":4271,"ĠÐ¿ÑĢÐ¸Ð¼ÐµÑĢ":4272,"Ð»ÐµÐ±":4273,"ĠÑĤÐ¸ÑĪÐ¸Ð½Ð°":4274,"Ð½Ð¸ÑģÑĮ":4275,"Ð¸ÑĢÐ°ÑĤÑĮ":4276,"ÑĥÐµÑĤÑģÑı":4277,"ÑģÑĤÐµ":4278,"ĠÐ²Ð¾Ð·Ð½Ð¸Ðº":4279,"ÐµÐ»ÑĮÐµ":4280,"ĠÑģÐ¿ÑĢÐ¾ÑģÐ¸ÑĤÑĮ":4281,"ĠÐ¿Ð¾Ð»ÑĮÐ·":4282,"ĠÐ¡ÑĤÐ°ÑĢ":4283,"ĠÑģÐ¸ÑĤÑĥÐ°ÑĨÐ¸Ð¸":4284,"Ð°Ð¹ÑĤ":4285,"ĠÑģÐ¾Ð·Ð½Ð°Ð½Ð¸Ðµ":4286,"ĠÐłÐ°Ð·Ð²Ðµ":4287,"ĠÐķÑĳ":4288,"ĠÑģÐ¾Ð¿ÑĢÐ¾ÑĤÐ¸Ð²":4289,"ĠÐ¾ÑģÑĤÐ°Ð²Ð°Ð»Ð¾ÑģÑĮ":4290,"ÑĢÐµÐ´Ð¸":4291,"ĠÑıÑģÐ½Ð¾":4292,"ĠÐ¾ÑĤÐ½Ð¾Ñģ":4293,"ĠÐ±Ð»Ð¸Ð¶Ð°Ð¹":4294,"ĠÐ´ÑĥÐ¼Ð°ÐµÑĤ":4295,"ĠÐ´ÐµÐ¹ÑģÑĤÐ²Ð¸Ñı":4296,"ÐĴÑĭ":4297,"Ð½ÐµÑĤÑģÑı":4298,"ĠÐĺÐ¼ÐµÐ½Ð½Ð¾":4299,"ĠÐĹÐ´ÐµÑģÑĮ":4300,"ĠÐ¾ÐºÐ°Ð·ÑĭÐ²":4301,"ĠÐ»ÑİÐ±Ð¾Ð¹":4302,"ĠÐ·Ð°ÑĤÑĭ":4303,"ĠÑĤÐ²Ð¾ÐµÐ³Ð¾":4304,"ĠÐľÐ¾Ð¶Ð½Ð¾":4305,"ĠÐĿÐ°Ð´ÐµÑİÑģÑĮ":4306,"ĠÑģÑĤÐ¾Ð»Ð¸":4307,"ĠÑģÐ¸":4308,"ĠÑģÐµÑģÑĤÑĢÐ°":4309,"ĠÑĥÐ³Ð¾Ð´Ð½Ð¾":4310,"ĠÐ±ÐµÑģÐ¿Ð¾ÐºÐ¾":4311,"ĠÐ´ÑĢÑĥ":4312,"ĠÐ¿Ð¾ÑħÐ¾Ð´":4313,"ĠÐ»Ð¾Ð±":4314,"ÑĢÑĭÑĤ":4315,"ĠÐŀÐº":4316,"ĠÐ½Ð°Ð¼ÐµÑĢ":4317,"ÐµÐ´Ð»ÐµÐ½Ð½Ð¾":4318,"ĠÐ²ÐµÑģÐµÐ»":4319,"ÐµÐ½Ð½ÑĭÐ¼Ð¸":4320,"ĠÐ¿Ð¾Ð¸Ñģ":4321,"ĠÑģÑĤÑĥÐ»":4322,"ĠÑģÐ¾Ð»Ð½ÑĨÐµ":4323,"ĠÐŃÐ»ÑĮ":4324,"ĠÐ£ÑĩÐ¸ÑħÐ°":4325,"ĠÐľÐ¾Ð¹":4326,"ÑĪÑĥÑİÑģÑı":4327,"ÑĩÐµÑģÑĤÐ²Ðµ":4328,"Ð¡Ðº":4329,"Ð»Ð°Ð·Ð°":4330,"ĠÐºÐ°Ð¶Ð´ÑĭÐ¼":4331,"ĠÐ½Ð°ÑĪÐµÐ³Ð¾":4332,"ĠÐ¾ÑĤÑĢÐ°Ð¶":4333,"ÑĢÑĥÑı":4334,"Ð¸Ð»Ð»Ð¸":4335,"ĠÐ½ÐµÑģÐºÐ¾Ð»ÑĮ":4336,"ĠÐ¿ÑĢÐ¸Ð´Ñĥ":4337,"ÑīÑĥÑĢ":4338,"ÑİÐº":4339,"ĠÐ³Ð¾Ð»Ð¾ÑģÐ°":4340,"ĠÐ²ÑĭÐ´Ð°Ð²":4341,"ĠÐ¾Ð³Ð¾Ð½ÑĮ":4342,"ĠÐ´Ð²Ð¾":4343,"ÑĤÐ¾ÑĢÑı":4344,"Ð§ÐµÑĢÐµÐ·":4345,"ĠÐĿÐ°Ð¿":4346,"ĠÐ¼Ð¸ÑģÑĤÐµÑĢ":4347,"ĠÐ²ÑĭÐ²":4348,"ĠÐ¿Ð¾Ð²Ð¾ÑĢÐ°ÑĩÐ¸Ð²":4349,"ÑĪÐµÐ¼":4350,"ĠÑģÐ¸Ð´ÐµÑĤÑĮ":4351,"ÐĵÐ°ÑĢÑĢÐ¸":4352,"ÑĪÐ¸Ð¼Ð¸":4353,"ĠÐ´Ð¾ÑĢÐ¾Ð³Ñĥ":4354,"ÐºÐ½ÑĥÐ²":4355,"ÐºÐ°ÐµÑĤ":4356,"Ð¾Ð»Ð°Ð³":4357,"Ð»ÐµÑĩÑĮ":4358,"ĠÐ·Ð°ÑīÐ¸":4359,"ĠÑĥÑģÑĤÑĢÐ°":4360,"ĠÐ»ÐµÐº":4361,"ĠÐ¥Ð°":4362,"ĠÑģÐ°Ð¼ÑĭÐµ":4363,"ĠÐ¾Ð¶Ð¸Ð´Ð°Ð»":4364,"ĠÑģÐ¿Ð°Ð»":4365,"ĠÐ¿Ð»Ð°Ð¼":4366,"ĠÐ¼ÑĭÑģÐ»ÐµÐ½Ð½Ð¾":4367,"ĠÐºÐ»Ð°ÑģÑģ":4368,"ĠÐ²Ð¾Ð·Ð±ÑĥÐ¶Ð´":4369,"ĠÐĵÐ¾ÑģÐ¿Ð¾Ð´":4370,"ĠÐ²Ð¾Ð·Ð´ÑĥÑħÐµ":4371,"Ð³Ð¾Ðµ":4372,"ĠÐ¿ÑĢÐ¸ÑĩÐ¸Ð½":4373,"ĠÑĢÑĥÐ³":4374,"ÑĢÐµÐº":4375,"ÑģÐµÐ³Ð´Ð°":4376,"ĠÐºÐ¾Ð¶Ð°":4377,"ĠÑĤÐ°Ð±":4378,"Ð°ÑģÐ°":4379,"ÑģÐºÐ¾Ð¼":4380,"Ð¸Ð½Ð°Ñı":4381,"ĠÐ¢Ð²Ð¾":4382,"ĠÐ¿ÑĢÐ¾ÑĤÑıÐ½ÑĥÐ»Ð°":4383,"ĠÐ±ÑĥÐ´ÑĥÑī":4384,"ĠÑģÐ²ÐµÑĤÐ°":4385,"ĠÑĢÐµÐ¿":4386,"ĠÐ½ÐµÐ¿Ð»Ð¾Ñħ":4387,"ĠÐĲÐ»ÑĮ":4388,"ĠÐŁÐ¾Ð²":4389,"ĠÑĢÐ°Ð½Ð¾":4390,"ĠÐ¾Ð±ÐµÑĢÐ½ÑĥÐ»ÑģÑı":4391,"ĠÑģÐµÑĢÑĮÐµÐ·Ð½Ð¾":4392,"ĠÐĺÑħ":4393,"ĠÐ»ÐµÑģÑĤÐ½Ð¸ÑĨÐµ":4394,"ĠÐ±ÐµÐ·Ð¾Ð¿Ð°Ñģ":4395,"ĠÑħÐ°ÑĢÐ°ÐºÑĤÐµÑĢ":4396,"ĠÐ±Ð»Ð°Ð³Ð¾":4397,"ĠÑĤÐ°ÑĢÐµÐ»":4398,"ĠÑģÐ¾Ñħ":4399,"ĠÐ·Ð°Ð³Ð»Ñı":4400,"an":4401,"Ð¾Ð±Ð¾ÑĢÐ¾ÑĤ":4402,"ĠÐ¿Ð¾Ð½ÑıÑĤÐ½Ð¾":4403,"ĠÐ²Ð¿ÐµÑĩÐ°ÑĤ":4404,"ÑģÑĤÑĢÐµÐ»":4405,"ÑĳÐ·Ñĭ":4406,"ĠÐľÑį":4407,"Ð¾ÑĩÐºÐµ":4408,"ĠÐºÑĢÐ°Ð¹Ð½ÐµÐ¹":4409,"ÑīÑĥÑİ":4410,"ĠÐ¼Ð¾Ð¶ÐµÐ¼":4411,"ĠÐ·Ð°ÑģÑĤÐ°Ð²Ð¸Ð»":4412,"ĠÐ½ÐµÑĥÐ²ÐµÑĢ":4413,"Ð¾Ð·Ð¼":4414,"ĠÑĪÐ¸ÑĢÐ¾ÐºÐ¾":4415,"ĠÐ²ÑģÐ»ÐµÐ´":4416,"ĠÑĩÐµÑĤÑĭÑĢÐµ":4417,"ĠÑĥÐ¹":4418,"ÑĤÑĢÐ¸":4419,"ĠÑĥÐ¿Ð°Ð»Ð°":4420,"ÑħÐµÐ½":4421,"ĠÑħÐ¾Ð»Ð¾Ð´Ð½Ð¾":4422,"Ð°ÑİÑīÑĥÑİ":4423,"ĠÐ¿ÑĢÐµÐ´Ð¿Ð¾Ñĩ":4424,"ĠÐ´Ð²Ð¾Ðµ":4425,"ÐµÑħÐ°Ð»Ð°":4426,"ÑĩÐ½Ð¾Ð¹":4427,"ĠÐ·Ð°Ð²ÑĤÑĢÐ°Ðº":4428,"ĠÐ¿ÑĢÐ¾ÑĪÐ»Ð°":4429,"Ð°ÑİÑīÐ°Ñı":4430,"ĠÐ·Ð°Ð¿ÑıÑģÑĤÑĮ":4431,"ĠÐ¿ÑĢÐ¸Ð·Ð½":4432,"on":4433,"ĠÑģÐ¾ÑĢ":4434,"ĠÐ½Ð¸Ð¶":4435,"ĠÐĿÑĥÐ¶Ð½Ð¾":4436,"ĠÐ¿Ð°ÑĢÐ½ÐµÐ¹":4437,"Ð»ÐµÐ½Ð½ÑĭÐµ":4438,"ĠÐ²ÑĭÑħÐ¾Ð´Ñĥ":4439,"ĠÐ¿Ð¾Ð¿ÑĭÑĤÐ°Ð»Ð°ÑģÑĮ":4440,"Ð½ÑĥÑģÑĮ":4441,"Ð»Ð¾Ð²Ð½Ð¾":4442,"ÐµÐ²Ð°Ð»":4443,"ĠÑĢÐ°Ð·Ð¼ÑĭÑĪ":4444,"ĠÐ¿Ð¾ÑģÐ»ÑĭÑĪÐ°Ð»ÑģÑı":4445,"ĠÑģÑĨÐµÐ½":4446,"ĠÐ½Ð°ÑħÐ¾Ð´Ð¸ÑĤÑģÑı":4447,"ĠÐŀÐ¹":4448,"ĠÐ¼Ð¾Ð¼ÐµÐ½ÑĤÐ°":4449,"Ð¾ÑģÑģ":4450,"ĠÐ¿Ð¾Ð´Ð²":4451,"ÑīÐ°Ñı":4452,"ĠÐ¾ÑĤÑĤ":4453,"ĠÐŀÐ´Ð¸Ð½":4454,"ĠÑģÑĤÐ°ÑĢÐ°Ð»ÑģÑı":4455,"ÑģÑĤÑĢÐµÑĩ":4456,"ĠÐ¿ÑĢÐ¾ÑĪÑĥ":4457,"ĠÐ¸Ð·Ð´ÐµÐ²":4458,"ĠÐ·Ð°Ð³Ð¾":4459,"ÐµÐ¶Ð°Ð»Ð¸":4460,"ĠÐ¼ÐµÑģÑıÑĨ":4461,"ÑĪÐµÐ¹ÑģÑı":4462,"ĠÐ¾ÑĢÐ³Ð°Ð½Ð¸":4463,"ĠÑĥÐ´Ð¸Ð²Ð¸Ð»ÑģÑı":4464,"Ð²Ð°Ð½":4465,"ĠÐ¾ÑĤÑģÑĤÑĢÐ°Ð½":4466,"ĠÐ²Ð·ÑĢÐ¾Ñģ":4467,"ĠÐ·Ð°Ð¼ÐµÑĤÐ½Ð¾":4468,"ĠÐ¿ÑĢÐ¸Ð½ÑıÐ»ÑģÑı":4469,"ĠÑģÑĤÑĥÐ´":4470,"ĠÑĢÐµÐ±ÑĳÐ½":4471,"ĠÐ±ÑĢÐ¾Ð²ÑĮ":4472,"ÑĢÐ°Ð»Ð°ÑģÑĮ":4473,"ĠÐĶÐ¶Ð¸Ð½":4474,"ĠÐ¿Ð¾Ð´Ð°Ð»ÑĮÑĪÐµ":4475,"ĠÑĤÐµÐ»Ð¾Ð¼":4476,"ĠÑģÐ·Ð°Ð´Ð¸":4477,"ĠÑĤÐ¾ÑĢÐ¾Ð¿":4478,"Ð°Ð¼Ð¿":4479,"ĠÑĥÐ¶Ð°ÑģÐ½Ð¾":4480,"ĠÐ²Ð¸Ð´Ð¾Ð¼":4481,"ĠÑĤÐºÐ°":4482,"ĠÐĺÐ´Ð¸":4483,"ĠÐ¿ÑĢÐ¾ÑĦÐµÑģÑģ":4484,"ĠÑĥÐ»ÑĭÐ±Ð½ÑĥÐ²ÑĪÐ¸ÑģÑĮ":4485,"ĠÐľÐ°Ð³":4486,"ÑĢÑĥÐº":4487,"Ð´Ð°ÐµÑĤ":4488,"ĠÐ²ÑģÑĤÑĢÐµÑĩÐ¸":4489,"ĠÑĢÐ°Ð·Ð½ÑĭÐµ":4490,"ĠÐ½Ð°Ð±Ð»ÑİÐ´Ð°Ñı":4491,"ĠÐ´Ð²Ð°Ð´ÑĨÐ°ÑĤÑĮ":4492,"ĠÐĳÑįÐº":4493,"ĠÐ²Ð¿ÐµÑĢÑĳÐ´":4494,"ĠÑģÐ¼ÑĥÑĤ":4495,"Ð¾Ð·Ð°":4496,"ÑĢÐµÐ´Ð¾ÑĤÐ¾":4497,"ĠÑģÐ»ÑĥÑĩÐ°Ð¹Ð½Ð¾":4498,"ĠÐ´Ð¾Ñĩ":4499,"ÐķÑģÐ»Ð¸":4500,"ĠÑĤÑĢÑĥÐ´Ð½Ð¾":4501,"ĠÑĤÐµÐº":4502,"ĠÐ²ÑĭÐ¹":4503,"ĠÐĿÐ°ÑĤ":4504,"ĠÐ¿Ð¾Ð´Ð¶":4505,"ÑĢÐ¸ÑĨ":4506,"ĠÐ´ÑĢÑĥÐ³Ð¸Ð¼":4507,"ĠÐ¿Ð¾Ð´Ð¾ÑĪÑĳÐ»":4508,"ĠÐ½ÐµÐ¾Ð±Ñĭ":4509,"ĠÑģÑĤÑĢÐ°ÑħÐ°":4510,"ĠÐķÑīÑĳ":4511,"ĠÑģÑĤÐ¾Ð»Ð¾Ð¼":4512,"ĠÐĿÐ°Ð¹Ð»":4513,"ĠÐ²Ð¾Ð·Ð¼Ð¾Ð¶Ð½Ð¾ÑģÑĤÑĮ":4514,"Ð°Ð±Ñĭ":4515,"Ð¾Ð²Ð¸":4516,"ĠÑģÐ¿ÑĢÐ°ÑĪÐ¸Ð²Ð°ÐµÑĤ":4517,"ÑĢÐ¸ÑģÑĤ":4518,"ÑīÐ¸Ð¼":4519,"ĠÐ²ÑĭÐ³Ð»ÑıÐ´ÐµÐ»":4520,"ĠÐ¾ÑīÑĥÑīÐµÐ½Ð¸Ðµ":4521,"ÐŁÐ°ÑĢÐµÐ½ÑĮ":4522,"ÑģÑĤÐ²Ñĥ":4523,"Ð°ÑģÑĤÐ¸Ð½":4524,"ĠÐ¢Ðµ":4525,"ĠÐ²ÑĭÑĪÐ»Ð¸":4526,"ĠÐ³Ð¾ÑĢÐ°Ð·":4527,"ĠÑģÐµÐ¼ÑĮÐ¸":4528,"ĠÐ´ÐµÑĢÐ¶Ð°":4529,"ĠÑģÐ°Ð¼ÑĭÑħ":4530,"ĠÑıÑĢÐ¾":4531,"ĠÐĴÐ¿ÑĢÐ¾ÑĩÐµÐ¼":4532,"ĠÑħÐ²Ð°ÑĤÐ°Ð»Ð¾":4533,"ÑĭÐ²Ð°ÑİÑĤ":4534,"ĠÐ¿ÑĢÐ¸Ð·Ð½Ð°":4535,"ĠÐ²ÑĭÑģÐº":4536,"Ð°Ð½Ñı":4537,"ĠÐ²ÑģÐ¿Ð¾Ð¼Ð½Ð¸Ð»":4538,"ĠÐ»ÐµÐ³ÑĩÐµ":4539,"ĠÐ²ÑĭÐ²Ð¾Ð´":4540,"ĠÑĩÐ°ÑģÑĭ":4541,"ĠÐ¿Ð¾ÑģÑĤÐµÐ¿ÐµÐ½Ð½Ð¾":4542,"ĠÐ±Ð»Ð¾Ð½Ð´Ð¸Ð½ÐºÐ°":4543,"ĠÐ·Ð°Ð½ÑıÑĤ":4544,"ÑĥÐ¼Ð°ÐºÐ¸":4545,"ĠÑģÐµÐºÑĢÐµÑĤ":4546,"ÑĥÐ»ÑĮÑĤÐ°ÑĤ":4547,"ÐµÐ³Ñĥ":4548,"ĠÑīÐµÐºÐµ":4549,"ĠÐĹÐ°Ð²":4550,"Ð¾Ð¼Ð°Ð½":4551,"ÑĤÐµÑĢÐµÑģÐ½Ð¾":4552,"ĠÐ¿Ð¾Ð´ÑĢÑĥÐ³Ð°":4553,"ĠÐŃÐ»Ð¸":4554,"Ð½ÐµÐ¶":4555,"ĠÐ½ÐµÐ´Ð¾Ð²Ð¾Ð»ÑĮ":4556,"ĠÐ³Ð¾ÑĢÐ´Ð¾":4557,"ĠÐ»Ð°Ð´Ð¾Ð½ÑĮÑİ":4558,"ĠÐ¿Ð¾Ð²ÑĤÐ¾ÑĢÑı":4559,"ĠÐĽÐ¸Ð·":4560,"ĠÐ½Ð°Ð¶":4561,"ĠÑģÐ¾Ð³Ð»Ð°ÑģÐ¸Ð»ÑģÑı":4562,"ĠÐ²ÑģÐºÐ¾ÑĢÐµ":4563,"Ð»ÑĥÑĩ":4564,"ĠÐ¿ÐµÑĢÐ²Ð¾Ð³Ð¾":4565,"ÐµÐ´Ð¸Ð½Ðµ":4566,"Ð¸Ð»ÐµÑĤ":4567,"ĠÐ½ÐµÐ¾Ð±ÑħÐ¾Ð´Ð¸Ð¼Ð¾":4568,"ĠÐ¥Ð¸Ð½Ð°":4569,"ĠÐ¡ÑĤÐ¸Ð²":4570,"ĠÐ´ÑĢÑĥÐ³Ð¾Ðµ":4571,"ĠÐ³Ð°Ð´":4572,"ĠÐĶÐ¶Ð°ÑĢ":4573,"ĠÑĦÐ¸Ð»ÑĮ":4574,"ĠÐ¾ÑĤÐ¾ÑĢÐ²":4575,"ĠÐ½Ð°Ð¼Ð½Ð¾Ð³Ð¾":4576,"Ð¾Ñĥ":4577,"ĠÐ»Ð¾Ðº":4578,"ĠÐŁÑĢÐµÐ´":4579,"ĠÐ³Ð¾ÑĢÐ°Ð·Ð´Ð¾":4580,"ĠÐ¿ÐµÑĢÐ²Ð¾Ð¹":4581,"ĠÑģÑĤÐ°ÐºÐ°Ð½":4582,"ĠÐ¾ÑģÑĤÐ°Ð²Ð¸ÑĤÑĮ":4583,"ĠÐ¸Ð¼ÐµÐµÑĤ":4584,"Ð³Ð»ÑıÐ´ÐµÑĤÑĮ":4585,"ÐºÐ¸Ð´":4586,"Ð½Ð¾ÑĢ":4587,"ÑĢÐ¾ÑģÐ¸ÑĤÑĮ":4588,"ĠÐĽÑĥÑĩ":4589,"ĠÑħÑĢ":4590,"ĠÐ²ÑĢÑıÐ´":4591,"ĠÑģÑĥÑħ":4592,"ĠÐ²Ð·ÑıÐ²":4593,"ÑĩÐ½Ð¾Ðµ":4594,"ĠÑĤÑĢÑı":4595,"ĠÐ¼Ð°Ð»ÑĮÑĩÐ¸ÐºÐ°":4596,"Ð»Ð¾Ð½Ð¸Ð²":4597,"ĠÑĢÐ°ÑģÑģÐºÐ°Ð·":4598,"ÑĢÐº":4599,"ĠÑģÐ²ÐµÑĢÑħÑĥ":4600,"ÑģÑĤÐ²ÑĥÐ¹":4601,"ĠÐ¼Ð¾Ð·Ð³":4602,"ĠÐ¿ÑĢÐ¸Ð±Ð»Ð¸Ð·":4603,"Ð¸ÑģÑĤÐ¸":4604,"Ð½Ð¸Ñİ":4605,"ĠÐļÐ°Ð½":4606,"ĠÐ¿Ð¾Ð´ÑĬ":4607,"ĠÑħÐ²Ð°ÑĤÐ°ÐµÑĤ":4608,"ĠÐ·ÐµÐ¼Ð»Ðµ":4609,"ĠÐ²Ð¾ÑģÑĤÐ¾ÑĢ":4610,"ĠÐĹÐ°ÑĤÐµÐ¼":4611,"ĠÐºÐ½Ð¸Ð³Ñĥ":4612,"ÑĭÐ¶":4613,"ĠÑĢÐ°Ð·Ð¾Ñĩ":4614,"ĠÑĢÐ¾Ð´Ð¸ÑĤÐµÐ»ÐµÐ¹":4615,"ÐµÐ½ÐºÐ°":4616,"ĠÐ¾Ð¿ÑĥÑģÑĤÐ¸Ð»":4617,"ĠÐ½ÐµÑĩÐµÐ³Ð¾":4618,"ĠÐĿÐ°Ñģ":4619,"ÑħÐ²Ð°ÑĤÐ¸Ð²":4620,"ÐµÑıÑĤÑĮÑģÑı":4621,"ĠÐ¸Ð·ÑĥÐ¼":4622,"Ð»ÑİÑģÑĮ":4623,"ÑĤÐ¸Ðº":4624,"Ð°Ð»Ð»Ð¸":4625,"ĠÑĪÐ»Ð°":4626,"ĠÐĳÐ¾Ð»ÑĮ":4627,"ĠÑģÑĢÐ°Ð²":4628,"Ð¾Ð»ÐµÐ·":4629,"ĠÐºÐ°Ð¿Ð¸ÑĤÐ°Ð½":4630,"ĠÑģÐºÐ»Ð°Ð´":4631,"ĠÑĢÐ°Ð·ÑĢÑĥÑĪ":4632,"ÑģÑĤÐ²Ð¸Ðµ":4633,"ĠÐ¿Ð¾Ð»ÐµÐ·":4634,"ĠÐ²Ð·Ð³Ð»ÑıÐ½ÑĥÐ»":4635,"ĠÐ³Ð¾ÑģÑĤÐ¸Ð½Ð¾Ð¹":4636,"Ð¬":4637,"ĠÐ¶Ð°Ð»ÑĮ":4638,"ĠÑĤÑĢÐµÑĤÑĮ":4639,"ĠÐ½Ð°ÑĩÐ°ÑĤÑĮ":4640,"ĠÐļÑĥÐ´Ð°":4641,"Ð»Ð¾Ð½Ñı":4642,"Ð°Ð»ÑĮÐ½Ð¾Ð³Ð¾":4643,"ĠÐ²Ð¸Ð·":4644,"ĠÐ½Ð¸ÐºÑĥÐ´Ð°":4645,"ĠÐ¾ÑģÑĤÐ°Ð²Ð¸Ð²":4646,"ĠÐºÑĥÑħÐ½Ðµ":4647,"ĠÑĢÐ°Ð´Ð°":4648,"Ð´ÑĥÐ¼":4649,"ĠÐ´ÐµÐ²ÑĥÑĪÐºÐ¾Ð¹":4650,"ĠÐ¿Ð¾ÐºÑĢÐ°ÑģÐ½":4651,"Ð°Ð½ÑĩÐ¸Ð²":4652,"Ð»Ð¾Ð³Ð¾":4653,"he":4654,"ĠÐºÐ°ÑĦÐµ":4655,"ÐµÑģÑĮ":4656,"Ð´Ð°ÑĤ":4657,"ĠÐ´ÑĢÑĥÐ³ÑĥÑİ":4658,"ĠÑĩÐµÑĤÐ²ÐµÑĢ":4659,"ĠÐ²ÑĭÑıÑģ":4660,"ĠÐ¾ÑĤÐ»Ð¸ÑĩÐ½Ð¾":4661,"ĠÐºÐ°Ñĩ":4662,"ĠÐ°Ð¿":4663,"ĠÐ¿Ð¾Ð»Ð¾ÑĤ":4664,"ĠÐ¿Ð¾Ð¿ÑĢÐ¾ÑģÐ¸Ð»":4665,"ĠÐ¾ÑģÑĤÐ°Ð²Ð»ÑıÑı":4666,"ĠÑģÑĢÐ°Ð¶":4667,"Ð¾Ð½Ð¸Ð¼":4668,"ĠÑĤÐ¾Ð¿":4669,"ĠÑĪÑĤÐ°":4670,"Ð½Ð¾ÑģÐ¸ÑĤ":4671,"ĠÑĦÐ¾ÑĤÐ¾Ð³ÑĢÐ°ÑĦ":4672,"ĠÐ¿ÑĢÐ¾Ð·Ð²":4673,"ĠÐ¥Ð¼":4674,"ĠÐ¼Ð¾Ð»ÑĩÐ°Ð»":4675,"ĠÐ´Ð°Ð²Ð°Ñı":4676,"ĠÐ·Ð°Ð¿Ð¾Ð¼":4677,"ĠÑĢÐ°Ð´Ð¾ÑģÑĤÐ½Ð¾":4678,"ĠÐ½ÐµÐ»":4679,"ĠÐĵÑĢÐµÐ¹":4680,"ÑĢÐ°Ð»Ð¸ÑģÑĮ":4681,"Ð¾ÑħÐ¾Ð¶Ðµ":4682,"ĠÐ¿Ð¾Ð·Ð°Ð´Ð¸":4683,"ĠÐĲÐº":4684,"ÐµÑĢÐ¾Ð²":4685,"ĠÐ±ÑĭÐ²Ð°ÐµÑĤ":4686,"Ð´Ð°Ð»Ð°":4687,"ĠÐ²Ð¾Ð²ÑĢÐµÐ¼Ñı":4688,"Ð½Ð¸Ð¼Ð¸":4689,"ĠÐºÐ°Ð¶Ð´Ð¾Ð³Ð¾":4690,"ĠÐ²ÑĭÐ¹ÑĤÐ¸":4691,"ĠÑģÑĤÐ°":4692,"ĠÐĽÐ¸Ð»Ð¸":4693,"Ð¾Ð½Ð¾Ð¼":4694,"ĠÐ¿ÑĢÐ¾ÑĪÐµÐ»":4695,"ĠÐ¿ÑĢÐµÐ´Ð»Ð¾Ð¶Ð¸Ð»":4696,"ĠÑģÐ»ÐµÐ´Ð¾Ð¼":4697,"ĠÑģÑĤÐ¾Ð»Ðµ":4698,"ĠÐĿÐ¸ÐºÑĤÐ¾":4699,"ĠÑģÐµÑĢÐ´ÑĨÐ°":4700,"ĠÐ²Ð»Ð°Ð´":4701,"Ð±Ðµ":4702,"ĠÐ¼Ð¾Ð»Ð¾Ð´Ð¾Ð¹":4703,"ĠÐ¡ÐºÐ¾Ð»ÑĮÐºÐ¾":4704,"ĠÐ¸ÑģÐºÐ»ÑİÑĩ":4705,"Ð´ÑĭÐ¹":4706,"ĠÐ½Ð¸ÐºÐ°ÐºÐ¾Ð³Ð¾":4707,"ÑĢÐµÐ¹":4708,"Ð°Ð»ÑĮÐ½Ð°Ñı":4709,"ĠÐ¿ÑĢÐµÐ´Ð¼ÐµÑĤ":4710,"ÑĥÑģÑĤÑı":4711,"ĠÐ¾ÑĢÑĥÐ¶Ð¸Ðµ":4712,"ĠÐ¿Ð°Ð½Ð¸":4713,"ÐºÐ½ÑĥÐ»ÑģÑı":4714,"ÑıÐ·Ð°":4715,"ĠÐ¿ÑĢÐ¸ÑĪÐ»Ð¸":4716,"ÐºÐ¸Ð½ÑĥÐ»":4717,"ĠÐ½ÐµÐ»Ð¾Ð²ÐºÐ¾":4718,"Ð»ÑıÐ»":4719,"ĠÐ¾ÑĤÐ´ÑĭÑħ":4720,"ĠÐ¿ÐµÑĢÐµÐ¾Ð´":4721,"ĠÐ¿Ð¾Ð¼Ð¾":4722,"ĠÐ´ÑĢÐ°ÐºÐ¾Ð½":4723,"ÐµÐ´Ð¾Ð¼":4724,"ĠÐ½ÐµÑĩÑĤÐ¾":4725,"Ð°ÑĢÑĮ":4726,"ĠÐ²ÐµÑĩÐ½Ð¾":4727,"ĠÐ¿Ð¾ÐºÐ°ÑĩÐ°Ð»":4728,"Ð¸Ð½Ð´":4729,"ÐµÑģÐµÐ´":4730,"ĠÐŁÐ¾Ð½":4731,"ĠÐ¾Ð±Ðµ":4732,"ĠÑģÐ°Ð¼Ð°Ñı":4733,"ÐļÐ¾":4734,"ĠÐ»Ð°ÑģÐºÐ¾Ð²":4735,"ĠÐ¾ÑģÑĤÐ°Ð»Ð°ÑģÑĮ":4736,"ÐķÐ³Ð¾":4737,"ĠÐ¾Ð´ÐµÑıÐ»Ð¾":4738,"ĠÐ²ÐµÑĢÐ½ÑĥÐ»Ð°ÑģÑĮ":4739,"ĠÐ¿ÑĢÐ¾Ð³Ð¾Ð²Ð¾ÑĢÐ¸Ð»Ð°":4740,"ĠÐ¿Ð¾Ð²ÐµÑĢÐ½ÑĥÐ»Ð°ÑģÑĮ":4741,"ÑĩÑĥÑĤÑĮ":4742,"ĠÐ¿ÑĤÐ¸":4743,"ĠÐĶÐ¾Ðº":4744,"ĠÐ»ÑĮ":4745,"ĠÐ½Ð°ÑĪÐ»Ð°":4746,"Ð¾Ð»Ð°Ð¹Ð½":4747,"Ð»ÑİÐ´":4748,"ĠÐ¼Ð³Ð½Ð¾Ð²ÐµÐ½Ð½Ð¾":4749,"ĠÐ¾Ð±Ð¾ÑĢÐ¾ÑĤ":4750,"................":4751,"ÑħÐ»Ð¸Ð¿":4752,"ĠÑĥÑĩÐµÐ±":4753,"ĠÑģÐ¼ÑĭÑģÐ»Ðµ":4754,"ĠÐ·Ð°Ð¸Ð½ÑĤÐµÑĢÐµÑģ":4755,"ĠÐ´ÐµÑģÑıÑĤ":4756,"Ð¾Ð²ÑĭÐ¹":4757,"ĠÐ½Ð°Ð´ÐµÑİÑģÑĮ":4758,"ÑĥÑģÑĮ":4759,"ÑĢÐ°Ð½Ð½Ð¾":4760,"Ð¼Ð°Ñħ":4761,"ĠÐ²ÐµÑĩÐµÑĢÐ°":4762,"ĠÐļÐ°ÐºÐ¾Ð¹":4763,"ÐµÐµÑĪÑĮ":4764,"ĠÐ±ÐµÑĪ":4765,"ĠÐ½Ð°ÑĢÐ¾Ð´":4766,"Ð´ÑĢÐ°Ð²ÑģÑĤÐ²ÑĥÐ¹":4767,"ÑģÐºÑĥÑİ":4768,"ĠÐļÐ¾Ð½":4769,"ĠÐĽÐµÐ²Ð¸":4770,"ÑĥÑĢÑĥ":4771,"ĠÐĴÐ¸Ðº":4772,"ĠÐ¾Ð´Ðµ":4773,"ĠÑģÑĥÐ¼ÐºÑĥ":4774,"ĠÐ¿Ð¾Ð¼ÐµÑĪ":4775,"Ð¾ÑĢÐ½Ð¾":4776,"ĠÑģÐ¾ÑģÑĢÐµÐ´Ð¾ÑĤÐ¾":4777,"ĠÐ£Ð±":4778,"ÐµÐ²Ð°Ñı":4779,"ÐºÐ°Ð»":4780,"ĠÐŁÐµÑĢÐµÐ´":4781,"ĠÐ¿Ð°Ðº":4782,"ĠÐ¿ÑĢÐ¾Ð±Ð¾ÑĢÐ¼Ð¾ÑĤÐ°Ð»":4783,"ÑĭÐ²Ð°Ð»ÑģÑı":4784,"ĠÐ¿ÑĢÐ°Ð²Ð´Ñĥ":4785,"ĠÐĳÐ¾Ð¶Ðµ":4786,"Ð½Ð¸ÐºÐµ":4787,"ĠÑģÐ»ÑĭÑĪÐ°Ð»Ð°":4788,"Ð¸Ð²Ð°Ð¹":4789,"ĠÑģÑģ":4790,"ĠÐ²ÑģÑĤÐ°ÑĤÑĮ":4791,"ĠÑĢÐµÐ±ÐµÐ½ÐºÐ°":4792,"ĠÐ·Ð½Ð°Ðº":4793,"ĠÑĤÑĢÐ¾Ð³":4794,"ĠÑĤÑĢÑĥÐ±ÐºÑĥ":4795,"ĠÐ½ÐµÐ´ÐµÐ»Ð¸":4796,"ĠÑĩÐµÐ»Ð¾Ð²ÐµÑĩÐµÑģ":4797,"ĠÑģÐºÐ°Ð¶Ñĥ":4798,"ĠÐ½ÐµÐºÐ¾ÑĤÐ¾ÑĢÐ¾Ðµ":4799,"ĠÐ¼Ð¸Ð½ÑĥÑĤÑĭ":4800,"ĠÐ¾Ð±ÐµÑģÐ¿":4801,"ÑĢÐ¸Ð¼ÐµÑĢ":4802,"ĠÐ±Ð¾ÑıÐ»ÑģÑı":4803,"ĠÐ¾ÑĤÑģÑĥÑĤÑģÑĤÐ²":4804,"ĠÑĥÑģÑĤÐ°Ð²Ð¸Ð»ÑģÑı":4805,"Ð¾Ð´ÑĥÑĪ":4806,"ĠÐ²Ð·Ð³Ð»ÑıÐ´Ñĭ":4807,"ÑħÐ¾":4808,"ĠÑģÑĤÐ¾ÑĢÐ¾Ð½Ðµ":4809,"ĠÑĢÐµÐ´ÐºÐ¾":4810,"ÑĪÐ¸ÑħÑģÑı":4811,"ÐŁÑĢÐ¸":4812,"Ð¾Ð²Ð¾ÑĢÐ°":4813,"ĠÐ´Ð¾Ð±Ð°Ð²Ð¸Ð»":4814,"ĠÐ½Ð°ÑĩÐ°Ð»Ð¾":4815,"Ð°Ð»ÑĮÐ½Ð¾Ðµ":4816,"ĠÐºÐ»Ð°Ð´":4817,"Ð¸ÑĤÐµÐ»ÐµÐ¹":4818,"ĠâĢķ":4819,"ĠÑģÑĤÑĥÐº":4820,"ĠÐĹÐµÐ¹Ð½":4821,"ĠÑĤÐµÐ¼Ñĥ":4822,"ĠÐŃÑĤÐ°":4823,"ĠÐ¿ÑĢÐ¾Ð²ÐµÐ»":4824,"ĠÑĥÐ²ÐµÑĢÐµÐ½Ð°":4825,"Ð½ÐµÐ½Ð½Ð¾":4826,"ĠÐ´ÑĥÑĢÐ°":4827,"ĠÑģÐ¸Ð´Ð¸ÑĤ":4828,"ĠÐ¾ÐºÐ°Ð·Ð°Ð»Ð¸ÑģÑĮ":4829,"ĠÐ¼Ð°ÑĪÐ¸Ð½Ðµ":4830,"Ð°Ð²ÑĪÐ¸Ð¹":4831,"Ð¸ÑĤÐµÐ»ÑĮÐ½ÑĭÐ¼":4832,"ĠÐ¿Ð¾Ð²Ð¾Ð´Ñĥ":4833,"ĠÑģÐ»ÑĳÐ·Ñĭ":4834,"ÑĩÐ¸Ð³Ð¾":4835,"ĠÐ¿Ð¾Ð»ÑĥÑĩÐ¸Ð»":4836,"ÑĥÐ»Ð¸":4837,"ĠÐ¶ÐµÐ»Ð°Ñı":4838,"Ð½Ð¾Ð³":4839,"ĠÐ·Ð²Ð¾Ð½Ð¾Ðº":4840,"Ð»Ð°Ð¼":4841,"Ð¾Ð¹Ð´ÐµÑĤ":4842,"Ð¸ÑĢÐ¾Ð²Ð°Ð»":4843,"ĠÐ¡ÑĤÐ¾":4844,"Ð´ÐµÐ¼":4845,"ĠÐ¡Ð¾Ð½":4846,"ĠÑģÐ´Ð°Ð²":4847,"ĠÐ¿Ð¾Ð»ÐµÑĤ":4848,"ĠÑĥÑħÐ¼ÑĭÐ»ÑĮÐ½ÑĥÐ»ÑģÑı":4849,"ĠÐ´ÐµÐ½":4850,"ÑĢÐ¾Ð¼Ð°ÑĤ":4851,"ĠÐ¿ÑĢÐµÐºÑĢÐ°ÑĤ":4852,"ĠÐ¸ÑĤÐ¾Ð³Ðµ":4853,"Ð»ÐµÐ½Ð¸Ð¸":4854,"ĠÐ¾Ð±Ð¼":4855,"ĠÐľÐ°ÑĢÐ¸":4856,"ĠÐ¡ÐµÐ±":4857,"ÑģÑĤÐ¸Ð³":4858,"ĠÐ»ÐµÐ´Ñı":4859,"ĠÑĩÑĮ":4860,"ĠÐ³Ð¾ÑĢÐ»Ð¾":4861,"Ð°Ð»Ðµ":4862,"ĠÑĪÐ¸ÑĢÐ¾Ðº":4863,"ĠÐ²Ð»Ð°Ð¶":4864,"ĠÑĢÐ°ÑģÑģÐ¼ÐµÑıÐ»ÑģÑı":4865,"ĠÐ½ÐµÐ·Ð°Ð¼ÐµÑĤ":4866,"ĠÐ²ÐµÑģÑĤÐ¸":4867,"ĠÐºÑĢÐ¸ÐºÐ½ÑĥÐ»":4868,"ĠÐ¿Ð¾Ð¾Ð±":4869,"ĠÐ±ÑĭÑģÑĤ":4870,"ĠÐ¸Ð´ÐµÑı":4871,"ĠÐ·Ð°ÑīÐ¸Ñī":4872,"ĠÐŁÐµÑĢÐ²":4873,"ÑĤÑĥÐ´Ð°":4874,"ĠÐ±Ð¾ÑİÑģÑĮ":4875,"ĠÐ¿Ð¾ÑĢÐ°Ð¶":4876,"ÑĤÐµÑĦ":4877,"ĠÐ´ÑĭÑĪÐ°ÑĤÑĮ":4878,"ĠÐ§ÑĤÐ¾Ð±Ñĭ":4879,"ĠÐ¿ÑĢÐ¸Ð¶Ð°Ð»":4880,"ĠÑħÐ¸Ñħ":4881,"ĠÐ´Ð¾ÑĢÐ¾Ð³Ðµ":4882,"Ð°Ð»Ð»":4883,"ĠÑģÐ»ÑĥÑħ":4884,"ĠÐĹÐ°Ð±":4885,"Ð»ÑĥÑħ":4886,"ĠÐ³Ð¾Ð²Ð¾ÑĢÐ¸Ð»Ð¸":4887,"ĠÐ¼Ð°Ð¹":4888,"ÐµÐ²ÑĪÐ¸ÑģÑĮ":4889,"ĠÐĴÐ°":4890,"ĠÑģÑĥÑī":4891,"ĠÐ¿Ð°Ð»ÐµÑĨ":4892,"ÑĢÑĥÐµÑĤ":4893,"ÑĤÐ¾Ð±":4894,"ÐĴÑģ":4895,"ĠÑĥÑĢÐ¾Ð²":4896,"ĠÐĵÐ¾Ð»":4897,"ĠÐĴÐ¸Ð½":4898,"ĠÐłÑĥÐºÐ¸":4899,"ĠÐ¾ÑĤÐ´Ð°Ð»":4900,"ĠÐ¸ÑģÑĤÐµÑĢÐ¸":4901,"ĠÑĢÑĥÐºÐ°Ð²":4902,"ÐµÐ¹Ð»":4903,"ĠÐ¼Ð¾ÐµÐ¼":4904,"ĠÐ²ÐµÐ·":4905,"ĠÐ¸Ð±Ð¾":4906,"ĠÑĥÐºÐ°Ð·":4907,"ĠÑĢÐ²Ð°":4908,"ĠÑĢÐµÐ±ÐµÐ½Ð¾Ðº":4909,"ĠÐ¿ÑĢÐµÐ´Ð»Ð°Ð³":4910,"ĠÐ±ÐµÑģÐ¿Ð¾ÐºÐ¾Ð¹":4911,"ÑĢÑĭÐ»Ð°":4912,"ÑīÐ¸Ñħ":4913,"ĠÐ¿Ð»Ð¾Ñī":4914,"ĠÐ½Ð°Ð¿Ð¾Ð¼Ð¸Ð½Ð°":4915,"ĠÐºÐ»ÑİÑĩÐ¸":4916,"ĠÐ¿ÑĢÐ¸ÐºÑĢÑĭÐ²":4917,"ĠÐ½ÐµÐ¿Ð¾Ð½ÑıÑĤ":4918,"ĠÐ¿ÑĢÐ¸Ð»Ð¸":4919,"Ð¸ÑĤÐµÑģÑĮ":4920,"ÐµÑĩÐ¸":4921,"ÑģÐ¾Ð¼":4922,"ĠÐĿÐ°ÐºÐ¾Ð½ÐµÑĨ":4923,"ĠÐ¿ÑĢÐ¾ÑıÐ²":4924,"ĠÐ¿ÑĢÐ¾Ð´Ð¾Ð»Ð¶Ð°Ñı":4925,"ĠÐ¿Ð¾Ð¼Ð¾ÑīÐ¸":4926,"ĠÑĤÑĮ":4927,"ÑĩÐ½ÑĭÐµ":4928,"ĠÐºÐ°Ð¶Ð´Ð¾Ð¹":4929,"ĠÐ¿Ð¾ÑĤÑĢÑıÑģ":4930,"ÑĢÐ¾ÑĦ":4931,"ĠÑĥÑģÐ»ÑĭÑĪÐ°ÑĤÑĮ":4932,"ĠÐ¸Ð³ÑĢÐ°ÑĤÑĮ":4933,"ĠÐ²Ð°ÑĪÐ¸":4934,"ĠÐºÐ¾ÑĤÐ¾ÑĢÐ¾Ð¼Ñĥ":4935,"ĠÐ·Ð°Ð±ÑĭÐ»Ð°":4936,"ĠÑĥÑĪÐ¸":4937,"ĠÑĤÐ²Ð¾Ð¸Ñħ":4938,"ÑĤÐ°Ð½":4939,"ĠÑģÐ»ÑĭÑĪÐ½Ð¾":4940,"ĠÐºÐ°ÑĢÑĤ":4941,"ĠÑĥÑģÑĤÐ°Ð»":4942,"ĠÑĥÑĩÐ°ÑģÑĤ":4943,"ĠÑĤÐ²Ð¾Ðµ":4944,"ĠÐ²ÑĨÐµÐ¿":4945,"ĠÐ´ÑĥÐ¼Ð°Ñı":4946,"ÑĥÑĤÑģÑı":4947,"ĠÐ·ÑĢÑı":4948,"ĠÐ¸ÑģÐºÑĢÐµÐ½Ð½Ðµ":4949,"ĠÐºÐ¾Ð¶Ðµ":4950,"ĠÐĽÐµÐº":4951,"ĠÐ¾ÑģÑĤÐ°Ð»ÑĮÐ½ÑĭÑħ":4952,"ĠÐĴÐ¸Ð´Ð¸Ð¼Ð¾":4953,"ĠÐ¼Ð°ÑĪ":4954,"ĠÐ·Ð°Ð²Ð¸Ñģ":4955,"ĠÐ²ÑģÑħÐ»Ð¸Ð¿":4956,"ĠÐ½Ð°ÑģÐ¼ÐµÑĪ":4957,"ĠÑĢÐ°ÑģÑģÑĤÐ¾Ñı":4958,"ĠÑıÑĢÐºÐ¾":4959,"ĠÐ¿Ð»ÐµÐ²Ð°ÑĤÑĮ":4960,"ĠÐ§ÐµÑĢ":4961,"ĠÑģÑĩÐµÑĤ":4962,"ĠÐ¡ÐµÑħ":4963,"ĠÐ¾ÑĤÐ²ÐµÑĩÐ°ÐµÑĤ":4964,"Ð±ÐµÑĢ":4965,"ĠÑĪÐ»Ð¸":4966,"ĠÑįÐ¼Ð¾ÑĨÐ¸Ð¸":4967,"Ð»Ð°ÑģÑģ":4968,"ĠÑĤÐ¾Ð½Ð¾Ð¼":4969,"Ġm":4970,"ĠÐºÐ»ÐµÑĤ":4971,"Ð¸Ð½ÐºÐ°":4972,"\"?":4973,"ĠÐ½ÑĢÐ°Ð²Ð¸Ð»Ð¾ÑģÑĮ":4974,"Ð¾Ð¼Ð°":4975,"ĠÐĿÐµÐ²":4976,"ĠÑħÐ¾ÑĤÐµÐ»Ð¸":4977,"ĠÐ¸Ð¼ÐµÐ½Ð¸":4978,"ĠÐ·Ð°ÐºÑĢÑĭÐ»Ð°":4979,"ĠÑģÐ»ÑĥÑĪÐ°ÑĤÑĮ":4980,"ĠÐ´Ð¾Ð¼Ñĥ":4981,"ĠÐ½ÐµÐºÐ¾ÑĤÐ¾ÑĢÑĭÐµ":4982,"ĠÐ¿Ð¾Ð»Ð°":4983,"ĠÐ¸Ð·Ð²ÐµÑģÑĤ":4984,"ĠÑģÑĤÐ¾ÑĢÐ¾Ð½Ð°Ð¼":4985,"ĠÐ¡Ð½Ð°ÑĩÐ°Ð»Ð°":4986,"ÑĥÑĩÐ¸":4987,"ĠÐ·Ð°Ð¼ÐµÑĤÐ¸Ð²":4988,"ĠÐ·Ð°Ð³Ð°Ð´":4989,"ĠÐ´Ð¾Ð¶":4990,"ĠÑĩÑĥÐ²ÑģÑĤÐ²Ð¾Ð²Ð°ÑĤÑĮ":4991,"ĠÐ³Ð¾ÑģÐ¿Ð¾Ð´":4992,"ĠÐ¼ÑĥÐ¶ÑĩÐ¸Ð½Ñĥ":4993,"ĠÐ¿ÑĢÐ¸Ñĩ":4994,"ĠÐ²Ð¾Ð·ÑĮÐ¼Ð¸":4995,"ĠÐ°Ð³":4996,"ĠÐ³Ð»ÑĥÐ¿Ð¾":4997,"ĠÐ¾Ð±Ð½ÑıÐ»Ð°":4998,"ÐµÐ¹Ð½Ð´Ð¶":4999,"ĠÐ¿ÑĢÐµÐ¶":5000,"ĠÑĥÐ´Ð¸Ð²Ð»ÐµÐ½Ð¸Ðµ":5001,"ĠÐ¿Ð¾Ð²ÐµÑĢÐ¸ÑĤÑĮ":5002,"ĠÐ¿Ð¾Ð´ÑĩÐ¸Ð½":5003,"ĠÐ¿ÑĢÐ¸Ð½ÑıÑĤÑĮ":5004,"ĠÑģÐ¸Ð»Ð°Ñħ":5005,"ĠÐ¸Ð¼ÐµÑİ":5006,"ĠÐ³ÐµÑĢÐ¾":5007,"Ð»Ð¸Ð»":5008,"ĠÑĢÐ°Ð±Ð¾ÑĤÐ°ÑĤÑĮ":5009,"??":5010,"ĠÐ¿ÑĢÐµÑģÑĤ":5011,"ĠÑģÐ¶Ð¸Ð¼Ð°Ñı":5012,"ĠÐļÐµÐ½":5013,"ĠÐ¿Ð¾Ð´ÑĢÑĥÐ³Ñĥ":5014,"ĠÑĪÐºÐ¾Ð»ÑĮ":5015,"ĠÐºÑĢÐ¾Ð²ÑĮÑİ":5016,"ĠÑĤÐ°ÐºÐ¸Ð¼Ð¸":5017,"ĠÐ¿ÑĢÐ¾Ð²Ð°Ð»":5018,"ĠÐ·Ð°ÑĪ":5019,"ĠÐ¼ÑĭÑĪ":5020,"ĠÐºÐ²Ð°ÑĢÑĤÐ¸ÑĢÑĥ":5021,"ĠÑĥÑģÐ¼ÐµÑħÐ½ÑĥÐ»Ð°ÑģÑĮ":5022,"ĠÐ¿Ð¾Ð´ÐµÐ»":5023,"ÑĢÐ°Ð±Ð¾ÑĤ":5024,"ĠÐĹÐ°Ðº":5025,"ĠÑĢÐ°Ð·Ð±ÑĥÐ´":5026,"ĠÐ²ÐµÐ»":5027,"ĠÐ¡ÐºÐ¾ÑĢ":5028,"ĠÐ¿Ð¾Ð²ÐµÐ·":5029,"ĠÐ£Ð·ÑĥÐ¼Ð°ÐºÐ¸":5030,"ĠÐ½Ð°Ð²ÑģÐµÐ³Ð´Ð°":5031,"ĠÐ¿ÑĢÐ¾ÑħÐ»Ð°Ð´":5032,"ĠÐ¸Ð´Ñĥ":5033,"ĠÐ£Ñģ":5034,"ĠÑģÐ¾Ð²ÐµÑĤ":5035,"ĠÐ½ÐµÑĥÐ²ÐµÑĢÐµÐ½Ð½Ð¾":5036,"ĠÐºÑĥÐ»Ð°Ðº":5037,"ĠÐºÐ½Ð¸Ð³":5038,"ĠÐ¼ÐµÑĢÑĤÐ²":5039,"ĠÐ²ÐµÑĢÐ½Ð¾":5040,"ĠÑģÐ¼Ð¾ÑĤÑĢÑİ":5041,"ĠÑĥÑĩÐ¸ÑĤÐµÐ»ÑĮ":5042,"ĠÐ¾Ð±Ð¾Ð¸Ñħ":5043,"ĠÑģÐ¾ÑģÑĢÐµÐ´Ð¾ÑĤÐ¾Ñĩ":5044,"ĠÐ¿Ð¾ÑģÐ¼Ð¾ÑĤÑĢÐµÐ²":5045,"ĠÑģÑĥÐ´Ð¾ÑĢ":5046,"ĠÐ´ÐµÐ²ÑĥÑĪÐµÐº":5047,"ĠÐłÐ°Ð¹":5048,"ÑĨÐµÐ»":5049,"ĠÑģÐ¼ÐµÑĢÑĤ":5050,"ĠÐ½Ð¾Ð²Ð¾Ð¹":5051,"ĠÐłÐ¾Ð±":5052,"ĠÑģÐ²Ð¾ÑĳÐ¼":5053,"ĠÐ¿ÐµÑĢÐµÑħ":5054,"ÑĨÐµÐ¹":5055,"ĠÐľÑĥ":5056,"ĠÐ°Ð»ÐºÐ¾Ð³Ð¾":5057,"ĠÑģÐºÑĢÐ¸Ð¿":5058,"ĠÐ¾Ð±Ð»Ð¸Ð·":5059,"ĠÑģÐ¾Ð±ÑĭÑĤÐ¸":5060,"ĠÐ·Ð°ÐºÐ°Ð½ÑĩÐ¸Ð²":5061,"Ð¾ÑĤÐ²ÐµÑĤ":5062,"ĠÐ·Ð°ÑħÐ¾Ñĩ":5063,"ĠÐľÐ¾Ñı":5064,"Ð°Ð½Ð½ÑĥÑİ":5065,"ĠÑĦÐ°ÐºÑĤ":5066,"ĠÐ¾Ð¿ÑĢÐ°Ð²":5067,"ĠÐ¿Ð¾Ð»Ñı":5068,"Ð°ÑģÑģ":5069,"ĠÐºÑĢÑĥÑĤ":5070,"ĠÑģÑĤÑĢÐµÐ»":5071,"ÑĦÐµÑĢ":5072,"ĠÑģÐ¾Ð±ÐµÑģÐµÐ´":5073,"ĠÑģÐ²Ð°Ð´ÑĮ":5074,"ĠÐ¿ÑĥÐ»ÑĮ":5075,"ĠÐ½Ð°Ð¿Ð°Ð´":5076,"ÑĭÐ½":5077,"ĠÐ¾Ð¿Ð¾Ð·":5078,"ĠÐ½Ð°Ð¾Ð±Ð¾ÑĢÐ¾ÑĤ":5079,"ĠÐ¿Ð°Ð¿Ð°":5080,"ĠÐ¾Ð±ÑĬÑıÐ²":5081,"ĠÐ¾ÑĤÐºÐ°Ð·ÑĭÐ²":5082,"ĠÐ¿ÑĢÐ¾ÑģÑĤÑĢÐ°Ð½":5083,"ĠÐ½Ð°ÑħÐ¼ÑĥÑĢÐ¸Ð»ÑģÑı":5084,"ĠÐºÐ°ÑĪ":5085,"Ð·Ð²":5086,"ĠÐ½Ð°ÑĪÐ¸Ñħ":5087,"ĠÑĪÐ°Ð³Ð¾Ð²":5088,"ĠÐ»ÑİÐ´Ñı":5089,"ĠÐ¿ÐµÑĢÐµÑĪ":5090,"ĠÐ¢Ð¸":5091,"ĠÐķÑģÑĤÑĮ":5092,"ĠÑĢÐ°Ð·Ð»Ð¸Ñĩ":5093,"ĠÑīÐµÐºÐ¸":5094,"ĠÑģÐ²Ð°Ð»":5095,"ĠÐłÐ¾Ð½":5096,"ĠÐ¿ÑĢÐ¾ÑĩÑĮ":5097,"ĠÐĶÐ¶Ð¾":5098,"ĠÑĢÐµÑĩÑĮ":5099,"ĠÐ·Ð½Ð°ÐºÐ¾Ð¼ÑĭÐ¹":5100,"ĠÐ¥Ð°Ð½":5101,"ĠÐĺÑģ":5102,"ĠÐ¿Ð¾ÑĤÐµÑĢÑıÐ»":5103,"ĠÐ²ÑĭÑĢÐ°Ð¶ÐµÐ½Ð¸Ðµ":5104,"ĠÐ²Ð¾ÑĪÐµÐ»":5105,"ĠÐ¿Ð¾Ð»Ð½Ð¾Ð¹":5106,"ĠÐ¼Ð°Ð³Ð°Ð·Ð¸Ð½":5107,"ĠÐ¿ÑĢÐ¾Ð»":5108,"ĠÐ¿Ð¾Ð´ÑĢÐ¾ÑģÑĤ":5109,"ĠÐ¿Ð¾ÑĢÑĭÐ²":5110,"ĠÑģÐ¾Ð±ÑģÑĤÐ²ÐµÐ½Ð½Ð¾Ð¹":5111,"ĠÐ»ÐµÐ½":5112,"ĠÑģÐ¿Ð°ÑģÑĤÐ¸":5113,"Ð¸ÑĤÐ¸":5114,"ĠÑĤÐ°Ð½ÑĨ":5115,"ĠÑģÐ»ÐµÐ´ÑĥÐµÑĤ":5116,"ĠÐ´ÑĥÑĪÐ°":5117,"ÐµÐºÐ°":5118,"ĠÐ¾ÑĤÐºÑĢÐ¾Ð²":5119,"ĠÐ¾ÑĨÐµÐ½":5120,"ĠÐºÐ¾Ð¼Ð¿Ð°Ð½Ð¸Ð¸":5121,"ĠÐ´Ð°Ð¼":5122,"ĠÐ¿ÑĢÐ¾Ð½Ð¸Ðº":5123,"ĠÐĴÐ°Ð»":5124,"ĠÐ¼Ð°Ð»ÐµÐ½ÑĮÐºÐ°Ñı":5125,"ĠÐ¿ÐµÑĢÐµÑģÐ¿":5126,"ĠÐºÐ»ÑİÑĩ":5127,"ĠÐ²ÑģÐ¿Ð¾Ð¼Ð¸Ð½Ð°":5128,"ĠÐ¾ÑĦÐ¸ÑĨÐ¸":5129,"ĠÐ¿ÑĢÐ¾ÐºÐ»Ñı":5130,"ĠÐ³ÑĢÑĥÐ±Ð¾":5131,"ÑĩÐ½ÑĭÐ¼":5132,"ĠÐ³Ð°Ð·":5133,"ĠÐ¿ÑĢÐ¸ÑģÑĤÑĥÐ¿":5134,"ĠÐļÐ¸ÑĢ":5135,"Ð¸Ð´Ð¶":5136,"ĠÐŁÐ¾Ð·":5137,"ĠÐ²Ð¾Ð·Ð¼Ð¾Ð¶Ð½Ð¾ÑģÑĤÐ¸":5138,"Ð¾Ð²Ð°Ð½Ð¸Ðµ":5139,"ĠÐ¾Ð¶Ð¸Ð´Ð°Ñı":5140,"ĠÐ¾ÑģÑĤÐ°Ð»Ð¸ÑģÑĮ":5141,"ĠÐºÐ¾Ð»ÐµÐ½":5142,"Ð¸ÑģÑĤÐ¾Ð»ÐµÑĤ":5143,"ĠÑĤÐµÑĤ":5144,"ÑĢÐ¸ÑĦÑĦ":5145,"ÑĩÐ¾Ðº":5146,"ĠÐ¿ÑĢÐ¾Ð¹ÑĤÐ¸":5147,"ĠÑĢÐµÐ·ÑĥÐ»ÑĮÑĤÐ°ÑĤ":5148,"ĠÐ²ÑĢÐ°Ñĩ":5149,"ĠÑĦÑĭÑĢÐºÐ½ÑĥÐ»":5150,"Ð¾ÑĪÐ»Ð¸":5151,"ĠÐ³Ð¾Ð²Ð¾ÑĢÐ¸ÑĪÑĮ":5152,"ĠÐ½ÐµÐ²Ñĭ":5153,"Ð°Ð³Ðµ":5154,"00":5155,"ĠÐ¿ÑĢÐµÑģ":5156,"ĠÐ°ÑĢÐ¾Ð¼Ð°ÑĤ":5157,"ĠÐºÐ»Ð¸":5158,"ĠÑĥÐ±ÐµÐ¶":5159,"Ð°Ð²Ð¸":5160,"Ð¾Ð²Ð¾":5161,"ĠÑģÐ²Ð¸Ð´Ð°":5162,"ĠÐ¿Ð¾ÑĪÑĳÐ»":5163,"ĠÐĲÑģ":5164,"ÑĤÐµÑģÑĮ":5165,"ĠÐ²Ð½Ñĥ":5166,"ĠÐºÑĢÐµÑģÐ»Ð¾":5167,"ĠÐ¾ÑģÑĤÐ°Ð²Ð¸Ð»":5168,"ĠÐ·Ð°ÑħÐ»Ð¾Ð¿":5169,"ĠÐ¤ÑĢÐ°Ð½":5170,"Ð¸Ð²Ð°Ð»Ð¸ÑģÑĮ":5171,"ĠÐ¾Ð±ÑĬÑıÑģÐ½Ð¸ÑĤÑĮ":5172,"ĠÐ®Ð½":5173,"Ð¸Ð¼Ð¾Ðµ":5174,"ÑĥÐµÑĪÑĮ":5175,"ĠÐ³ÑĢÑĥÐ±":5176,"ĠÐ½Ð¾Ð³Ð°Ñħ":5177,"ÑĢÐ°ÑĤÐ¸":5178,"ÑĢÑĥÐ±":5179,"ĠÑģÑĤÐ¾ÑıÑĤÑĮ":5180,"ĠÑĢÐ°Ð·Ð¾ÑĩÐ°ÑĢÐ¾Ð²":5181,"ÑĢÐ¾Ñī":5182,"ĠÐ¼Ð¾Ñī":5183,"ĠÑĢÐµÑĪÐµÐ½Ð¸Ðµ":5184,"ĠÐ½Ð°Ð±Ð»ÑİÐ´Ð°Ð»":5185,"ĠÑĢÐ¾Ñģ":5186,"ÐµÐµÑĤÑģÑı":5187,"ĠÑĥÐ»ÑĭÐ±Ð°Ð»ÑģÑı":5188,"Ð¼ÐµÐ»":5189,"ĠÐ²ÑĭÐ¿Ð¾Ð»":5190,"ĠÑģÑħÐ¾Ð´":5191,"ĠÐ¾ÑĤÐ´Ð°Ð²":5192,"ĠÑĤÐ¾Ð»ÑģÑĤ":5193,"Ð¾ÑĤÑĥ":5194,"ĠÐĲÐ²":5195,"ĠÐ³Ð°Ð»":5196,"ĠÐ¾ÑĤÐºÑĢÑĭÑĤ":5197,"ĠÐľÐ¾Ð»":5198,"ĠÐ¾ÑģÐ¼Ð°ÑĤÑĢÐ¸Ð²":5199,"Ð°Ð´Ðµ":5200,"Ð«":5201,"ĠÑĥÐ´Ð°ÑĢÐ¸Ð»":5202,"ÑħÐ¾Ð¶Ñĥ":5203,"Ð¸Ð±Ð»Ð¸":5204,"ĠÐ¼Ð¾ÑĤ":5205,"ĠÐļÑĥÑĢÑĤ":5206,"ĠÐ»ÐµÐ¶Ð°Ð»Ð°":5207,"ĠÐ·ÐµÐ¼Ð»Ð¸":5208,"ĠÑĢÐ¾Ð±":5209,"ĠÐ´Ð¸Ð²Ð°Ð½Ðµ":5210,"Ð¼Ð°ÑĢ":5211,"!..":5212,"ĠÐ´ÑĢÐ¾Ð¶Ð°":5213,"ÐµÐ½Ð´":5214,"Ð¸ÑģÐ°":5215,"ĠÐ±Ð»ÐµÑģÑĤ":5216,"Ð¿ÑĢÐµÐ¶":5217,"ÑĥÑģÐºÐ°ÑĤÑĮ":5218,"Ð¾Ð»Ð°":5219,"Ð¾ÑĩÐºÐ¾Ð¹":5220,"ĠÐ¾Ð±Ð»Ð°Ð´":5221,"ĠÐ¿Ð°ÑĢÐ½ÐµÐ¼":5222,"ĠÐ²Ð¾ÑģÐºÐ»Ð¸ÐºÐ½ÑĥÐ»":5223,"ĠÑģÐ½Ñı":5224,"ĠÐ²ÑĭÐ»ÐµÑĤ":5225,"Ð¾Ð·Ð½Ð°":5226,"Ð¸Ð»Ð¸Ñı":5227,"ĠÐºÐ¾Ð½ÑĩÐ¸":5228,"ĠÑĤÑī":5229,"ĠÐ¿Ð¾Ð´Ð½ÑıÐ»Ð°ÑģÑĮ":5230,"Ð¼Ð¼":5231,"ĠÑģÐµÐ¼ÑĮÑı":5232,"ĠÐ¾ÑĤÐ¼ÐµÑĤ":5233,"ÑīÐµÐ¼Ñĥ":5234,"ĠÑĥÐ²Ð°Ð¶":5235,"ĠÐĶÐ°Ð¹":5236,"ĠÐŃÐ¼Ð¼Ð°":5237,"ĠÑģÑĥÐ¼Ð°Ñģ":5238,"ĠÑģÑĤÑĢÑĥ":5239,"Ð½ÑĥÐ¶Ð´":5240,"ĠÐ¾ÑĤÑĤÑĥÐ´Ð°":5241,"ĠÑĥÐ¿ÑĢÐ°Ð²":5242,"re":5243,"Ð»ÐµÐ²":5244,"ĠÐ±Ð¸ÑĤ":5245,"Ð°Ð¶ÐµÑĤÑģÑı":5246,"ĠÐ¿Ð¾Ð»Ð¾ÑĤÐµÐ½":5247,"Ð¿ÑĢÐµÐ¶Ð½ÐµÐ¼Ñĥ":5248,"ĠÐ²Ð¸":5249,"Ð¸Ð½Ð°Ð»":5250,"ĠÑĢÐ°Ð±Ð¾ÑĤÐµ":5251,"ĠÐ¥Ð¾":5252,"ÑĤÐ¾ÑĢÐ¸Ð¸":5253,"ĠÐ¶ÐµÐ»ÐµÐ·":5254,"ĠÐ´ÐµÑĢÐ¶Ð°ÑĤÑĮ":5255,"ĠÐ½ÐµÑĥÐ´":5256,"ĠÐ¿ÑĢÑĭÐ³":5257,"ĠÑģÐºÐ°Ð¶Ð¸":5258,"ĠÐ½ÐµÐ¸Ð·Ð²ÐµÑģÑĤ":5259,"ĠÐºÐ»Ð°":5260,"ĠÑĥÑħÐ¼ÑĭÐ»":5261,"ĠÐ¾ÑĤÑĢÑĭÐ²":5262,"ĠÐ¿ÑĢÐ¾ÑĪÐ¸":5263,"ĠÐ½Ð°ÑģÑĤÑĢÐ¾ÐµÐ½Ð¸Ðµ":5264,"ĠÐ´Ð¾Ð³Ð¾Ð²Ð¾ÑĢ":5265,"Ð°ÑĤÑĭÐ¹":5266,"ĠÑĢÐµÐ°Ð»ÑĮÐ½Ð¾":5267,"ĠÑĢÑĥÐ±Ð°ÑĪÐºÑĥ":5268,"ĠÐ¼ÑĥÑģ":5269,"ĠÐĲÑĢÑĤÑĥÑĢ":5270,"ĠÐ¾ÑĤÐºÐ»ÑİÑĩ":5271,"ĠÐ´Ð¾ÑĤ":5272,"Ð°ÑĤÐ°":5273,"ĠÐ¾ÑĦ":5274,"Ġs":5275,"ĠÐ½ÐµÐ¿Ð¾Ð½Ð¸Ð¼":5276,"ĠÐ¾ÐºÑĥ":5277,"ĠÐ¿ÑĢÐ¸Ð½ÑĨÐ¸":5278,"ĠÐ¿Ð¾Ð´Ð±Ð¾ÑĢÐ¾Ð´Ð¾Ðº":5279,"ĠÑĤÐµÐ»Ðµ":5280,"ÐºÐ°ÑĢ":5281,"ĠÐ½ÐµÑģÐºÐ¾Ð»ÑĮÐºÐ¸Ñħ":5282,"ĠÐ²Ð°Ð½Ð½Ð¾Ð¹":5283,"Ð»Ð¸Ð²ÑĭÐ¹":5284,"ĠÐ¿ÑĢÐµÐ´ÑģÑĤÐ°Ð²Ð¸ÑĤÑĮ":5285,"ĠÐ¶ÐµÐ½ÑīÐ¸Ð½Ñĭ":5286,"ĠÐ¿Ð°Ð¼ÑıÑĤÐ¸":5287,"ĠÐ¿ÑĢÐµÐ´Ð¿Ð¾Ð»Ð¾Ð¶":5288,"ĠÐ´Ð¾ÐºÑĥÐ¼":5289,"ĠÐ¿Ð¾ÑģÑĤÐ°Ð²Ð¸Ð»":5290,"ĠÐ¡Ð°Ð¹":5291,"ĠÐ½Ð°ÑĪÐ°":5292,"ĠÐ¾ÑĤÐ¾Ð·Ð²Ð°Ð»ÑģÑı":5293,"ĠÐ¸Ð¼ÐµÐ»":5294,"ĠÐ¿Ð¾ÐºÑĢÑĭÐ²":5295,"Ð¾Ð²Ð°Ð½Ð¸Ñı":5296,"ĠÑĢÐ°ÑģÐ¿Ð¾Ð»Ð¾Ð¶":5297,"ĠÐ¾ÑģÑĤÐ°ÑĤ":5298,"ĠÐºÐ°ÐºÐ¾Ð¼":5299,"ĠÑįÐ¼Ð¾ÑĨÐ¸Ð¹":5300,"ÐŀÐ´":5301,"ĠÐ¶ÑĥÑĢ":5302,"ĠÑģÑĤÐ¾Ð»Ñĥ":5303,"ĠÐ²Ð¾Ð·Ð¼ÑĥÑĤ":5304,"ĠÐ·Ð½Ð°ÐµÑĤÐµ":5305,"ÑĢÐ¾Ð³":5306,"ĠÑģÑĤÐ¾Ð½":5307,"ĠÐ¿Ð¸ÑģÑĤÐ¾Ð»ÐµÑĤ":5308,"ĠÐ¡Ð²":5309,"ÑģÐºÐ¸Ð¼":5310,"ĠÑĪÑĤ":5311,"ÑĤÐ¾ÑĢÐ¾Ð¶":5312,"Ð¾Ð±Ð¸Ð»ÑĮ":5313,"ĠÐºÐ°Ð¿Ð»Ð¸":5314,"ĠÐĶÐ¶Ð°ÑģÑĤÐ¸Ð½":5315,"ĠÑĢÐ°Ð·Ñĥ":5316,"ĠÐ¥Ð¾ÑĤÑĮ":5317,"ÑĩÐ½Ð¾Ð³Ð¾":5318,"ĠÐ¿Ð¾ÑĤÑĢÐµÐ±":5319,"ĠÐ²Ð¾Ð´Ð¾Ð¹":5320,"Ð½Ð¸ÑĨÐµÐ¹":5321,"ĠÐĴÐ´ÑĢÑĥÐ³":5322,"ÑıÑīÐ¸Ð¹":5323,"ĠÐ¿ÑĢÐ¸ÐºÑĥÑģ":5324,"Ð´ÑĨÐµ":5325,"Ð¼ÑĭÑģ":5326,"ÐºÐ¾ÑĩÐ¸Ð»Ð°":5327,"ĠÑĤÐµÑĩ":5328,"Ð²Ð¾ÑĤ":5329,"ĠÐ¿ÑĢÐ¾Ð½Ð·":5330,"ĠÐĺÐ·Ð²Ð¸Ð½Ð¸":5331,"ÑĥÑĤÑĮ":5332,"ĠÐ·Ð½Ð°Ð»Ð¸":5333,"ĠÐ°ÑĤÐ°Ðº":5334,"ĠÐļÑĢÐ¸ÑģÑĤÐ¸":5335,"ĠÑģÐµÑĢÐµÐ±":5336,"ĠÐ²ÐµÑĢÐ½ÑĥÑĤÑĮ":5337,"ĠÐ¾ÑĩÐµÐ²":5338,"ĠÐ·Ð°Ð¼Ð¾Ðº":5339,"ÑĭÑħÐ°ÐµÑĤ":5340,"ĠÐ½Ð°Ð¿ÑĥÐ³":5341,"Ð¾Ð½Ð¸Ð½":5342,"ĠÑģÐ¼Ð¾ÑĤÑĢÐ¸":5343,"ÐºÑģ":5344,"Ð¶Ð°Ð»":5345,"ĠÐ½ÐµÐ¿ÑĢÐ°Ð²":5346,"ĠÑģÐ¼ÐµÐ½":5347,"ĠÐ¾ÑīÑĥÑīÐµÐ½Ð¸Ñı":5348,"ĠÑģÐ¿ÑĥÑĤ":5349,"ĠÐ¾ÑĤÐºÑĢÑĭÑĤÑĮ":5350,"ĠÐ¿Ð¾Ð´Ð¼Ð¸Ð³":5351,"ĠÐ¿Ð¾Ð´Ð½ÑıÐ²":5352,"ĠÐ¾ÑĤÐ»Ð¸":5353,"ĠÐ½ÐµÐ²Ð¸Ð½":5354,"ÑĢÐµÐ»":5355,"ĠÐ¿Ð»Ð°ÑĤ":5356,"ĠÐ¿ÑĢÐ¸ÑīÑĥÑĢ":5357,"Ð´ÑĢÐµÑģ":5358,"ĠÐ¾ÑĤÐ´Ð¾Ñħ":5359,"ÑģÑĤÑĢÐµÑĩÑĥ":5360,"ĠÐ¾ÑģÑĤÐ°Ð½Ð¾Ð²Ð¸Ð»Ð°ÑģÑĮ":5361,"ÐµÑĪÐ½Ð¾":5362,"ĠÐ»ÑİÐ±Ð¸Ð¼Ð¾Ð³Ð¾":5363,"Ð¾Ð²ÑĭÐµ":5364,"ĠÐ¿Ð¾Ð´Ð³Ð¾ÑĤÐ¾Ð²":5365,"ĠÐºÐ°Ð¶Ð´ÑĥÑİ":5366,"ĠÐ°ÐºÑĤÐ¸Ð²":5367,"ÑĩÐ¸Ð¹":5368,"ĠÐ±Ñĥ":5369,"ĠÐ¿ÑĢÐ¾ÑģÐ½ÑĥÐ»ÑģÑı":5370,"ÐµÑĢÐ¿":5371,"Ð½Ð¸ÐºÐ°Ð¼Ð¸":5372,"ĠÑģÑĥÐ´Ñı":5373,"ÑĭÐ»Ð°":5374,"ĠÐ½ÑĥÐ¶Ð½Ñĭ":5375,"Ð°Ð´Ð¾Ð±":5376,"ĠÐ¿Ð¾Ð´ÑĢÑĥÐ³Ð¸":5377,"ĠÑģÐ´ÐµÐ»Ð°":5378,"Ð¾Ð»Ð²":5379,"ĠÑĨÐµÐ»ÑĮ":5380,"ĠÐ±ÑĢÐµÐ´":5381,"ĠÐ´Ð¾ÑĢÐ¾Ð¶":5382,"ÐµÐºÑĤ":5383,"ĠÑĥÑģÐº":5384,"Ġ3":5385,"ĠÑģÑĩÐ°ÑģÑĤÑĮÑı":5386,"ĠÐ¢ÐµÐ±Ñı":5387,"ĠÐ²ÐµÑĢÐ¸ÑĤÑĮ":5388,"ĠÐ¼Ð°ÑĢ":5389,"ĠÐ¼ÑĥÐ¶Ð°":5390,"Ð½ÑĤ":5391,"ĠÐ¾Ð´Ð½Ð¾Ð¼Ñĥ":5392,"ĠÐ¿Ð¾Ð³Ð»Ð°Ð¶":5393,"ĠÐ»Ð¸ÑĦ":5394,"ĠÐ½Ð¾Ð²ÑĭÐµ":5395,"Ð²Ð¸Ð¶":5396,"ĠÐ¾Ð´Ð½Ð°Ð¶Ð´Ñĭ":5397,"ĠÐ±ÐµÑģÐºÐ¾":5398,"ĠÐ¾Ð±Ð½Ð°Ð¶":5399,"Ð¸Ð¼Ð°Ñı":5400,"ĠÐĶÐ°Ð¼":5401,"ĠÐ²Ð¾Ð½":5402,"Ð½Ð°Ð´ÑĨ":5403,"ĠÐ¿ÐµÑĢÐµÑħÐ²Ð°ÑĤ":5404,"Ð¼Ð¾Ð¼":5405,"ĠÑħÑĢÑĥÐ¿":5406,"ĠÐ¡Ð²ÐµÑĤ":5407,"ĠÑĢÐ°Ð·Ð²ÐµÑĢÐ½ÑĥÐ»ÑģÑı":5408,"ĠÐ´Ð½Ð¸":5409,"ÐµÐ³Ð¸":5410,"ÑĢÐ¾ÑħÐ¾ÑĤ":5411,"ĠÐ¡Ð½ÐµÐ¹Ð¿":5412,"Ð¸Ð±Ð»Ð¸Ð¾ÑĤ":5413,"ĠÑģÐ¾ÑģÑĤÐ¾ÑıÐ½Ð¸Ðµ":5414,"ĠÐ°Ð½Ð³ÐµÐ»":5415,"ĠÐ¿ÑĢÐ¸Ð½Ð°Ð´Ð»ÐµÐ¶":5416,"ĠÑħÐ¾Ð»":5417,"ĠÐ¾ÑĤÐ¾Ð´":5418,"ĠÐŁÐ¾ÑħÐ¾Ð¶Ðµ":5419,"ĠÐ¿Ð»ÐµÑĩÑĥ":5420,"ĠÐ¿Ð¾ÑģÑĤÐ°ÑĢ":5421,"ĠÐ»Ð°Ð²":5422,"ĠÐ±Ð¾Ð»ÑĤ":5423,"ĠÐ·Ð°ÑģÐ»ÑĥÐ¶":5424,"ĠÐºÑĢÑĥÐ¿":5425,"Ð¸ÐºÐ¾Ð²":5426,"ÐµÑĤÑĮÑģÑı":5427,"ĠÐłÐµÐ½":5428,"ÑĩÐ°ÑģÐ°":5429,"ĠÐĽÑĥÑĩÑĪÐµ":5430,"ĠÐ²ÑĭÐ³Ð»ÑıÐ´Ð¸ÑĤ":5431,"ĠÐĵÐµÐ½":5432,"ĠÐ¿ÑĢÐ¾ÑģÑĮ":5433,"ĠÐ²Ð·ÑĢÑĭÐ²":5434,"ĠÑģÐ¿ÐµÑĨÐ¸Ð°Ð»ÑĮÐ½Ð¾":5435,"ĠÐ¼Ð°Ð³Ð¸ÑĩÐµÑģ":5436,"ĠÐ¿Ð¾Ð¼Ð¾ÑĢÑī":5437,"ĠÐ¿Ð¾Ð³Ð»Ð°Ð´":5438,"ĠÐºÐ°Ð±Ð¸Ð½ÐµÑĤÐ°":5439,"ĠÐ¿Ð¾ÑĢÐ¾Ð³Ðµ":5440,"ĠÐļÐ°Ð¼":5441,"ÑĢÐ°ÐµÑĤ":5442,"ĠÑĨÐµÐ»Ð¸":5443,"ĠÐĿÐ¸ÐºÐ¾Ð³Ð´Ð°":5444,"ĠÐ¼Ð°Ð³Ð¸Ð¸":5445,"ĠÐ¶Ð´ÐµÑĤ":5446,"ĠÐ±Ð¾Ð»ÑĮÑĪÐ¸Ð¼":5447,"ĠÑģÐ¾Ð·Ð´Ð°":5448,"ÑĩÐµÑģÐºÐ¸Ð¹":5449,"ĠÐ¿ÐµÑĢÐµÐ»":5450,"ĠÐĺÐ½ÑĤÐµÑĢÐµÑģÐ½Ð¾":5451,"Ð¹ÑģÑı":5452,"ĠÐ¡ÐµÐ²ÐµÑĢÑĥÑģ":5453,"ĠÐ´ÐµÑĢÐ¶Ð°Ð»":5454,"ĠÐ¾ÑĤÑĢÐ¸ÑĨ":5455,"ÑĢÐ¾ÑĩÐ½Ð¾":5456,"ĠÑĢÑĥÑħ":5457,"ĠÐ¾ÑĤÑĤÐ¾Ð»":5458,"Ð¿Ñĭ":5459,"Ð¼Ð¾Ñģ":5460,"ĠÐ·Ð°ÑģÐ¼ÐµÑıÐ»ÑģÑı":5461,"ĠÐ¿ÐµÑĢÐ²ÑĥÑİ":5462,"ÐµÐ½Ð¾Ðº":5463,"ĠÑĤÑĢÑĥÐ´":5464,"ĠÐĶÐ¶ÐµÐ¹Ð¼Ñģ":5465,"ÑĥÐ´Ð¸":5466,"ĠÐ·Ð°Ð±ÑĭÐ²":5467,"Ð¾Ð¶Ð´Ð¸":5468,"ÐµÐ¼ÑĮ":5469,"ĠÑĢÐ°Ð·Ð³Ð¾Ð²Ð¾ÑĢÐ°":5470,"ĠÑģÐ½Ðµ":5471,"ĠÑįÐºÐ·":5472,"ĠÐ³Ð¾Ð»Ð¾Ð´":5473,"ĠÐ¿Ð¾ÑģÑĤÐµÐ»ÑĮ":5474,"ĠÑħÐ¾Ð´Ð¸ÑĤÑĮ":5475,"ĠÐļÐ°ÐºÐ°Ñı":5476,"Ð¸ÑĤÐµÐ»Ð¸":5477,"ÐµÐ·Ð´Ð°":5478,"ĠÐ³ÑĢÑĥÑģÑĤÐ½Ð¾":5479,"ĠÐĲÐ½Ð³":5480,"ĠÐ´Ð¸Ð²Ð°Ð½Ð°":5481,"ĠÐ¿ÐµÑĢÐµÐ²ÐµÑĢ":5482,"ĠÐ´ÑĢÑĥÐ·ÑĮÑıÐ¼Ð¸":5483,"ĠÑĢÐ°Ð·Ð´ÑĥÐ¼":5484,"ĠÐļÑįÑĢÐ¾Ð»Ð°Ð¹Ð½":5485,"ĠÐ¿Ð¾Ð´Ð°ÑĢÐ¾Ðº":5486,"ĠÑĥÐºÑĢÐ°ÑĪ":5487,"ÑģÑĤÑĢÐ°Ð´":5488,"ÑįÐ»":5489,"Ð¢Ðŀ":5490,"ĠÑĤÑĳÐ¿":5491,"ÑıÑīÐ¸Ð¼":5492,"ĠÑĤÐ¾ÑĩÐ½ÐµÐµ":5493,"ĠÐ¸ÑģÐ¿ÑĢÐ°Ð²":5494,"ÑħÐ¸":5495,"Ð´Ð¸Ð²":5496,"ĠÐ²Ð¾Ð·Ð´ÑĥÑħÐ°":5497,"Ð±Ð¾Ð¼":5498,"ĠÐ¿ÑĢÐ¸ÑĪÑĳÐ»":5499,"ÑİÑīÐµ":5500,"ĠÐ¿Ð¾Ð´ÑģÐº":5501,"ÐŁÐ¾ÐºÐ°":5502,"ĠÑģÑĢÑĭÐ²":5503,"ĠÐºÐ¾Ð»ÐµÐ½Ñı":5504,"ĠÐ½Ð°ÑĪÐ»Ð¸":5505,"ĠÐ¿Ð¾Ð»Ð¾Ñģ":5506,"ĠÑĩÐ°ÑīÐµ":5507,"Ð¸ÑĢÐ°ÑıÑģÑĮ":5508,"ÑıÑīÐ¸Ñħ":5509,"ĠÐ¿ÑĢÐ¾Ð´Ð¾Ð»Ð¶Ð¸Ð»Ð°":5510,"ĠÐĽÑİÑĨÐ¸":5511,"Ð°ÐµÐ¼ÑģÑı":5512,"ĠÐ¿Ð¾Ð´ÑĥÑĪÐºÑĥ":5513,"ĠÐ²ÑĭÐ·Ð²":5514,"ĠÐľÐµÐ»":5515,"ĠÑĪÐ°Ð³Ð¸":5516,"ĠÐ½Ð°ÑĪÑĥ":5517,"ĠÐ°ÑĤ":5518,"ĠÑĢÐ¾Ð¶Ð´ÐµÐ½Ð¸Ñı":5519,"ĠÐŀÐ³":5520,"ĠÑĢÐµÐº":5521,"ĠÐ¿ÑĢÐµÑģÑĤÑĥÐ¿":5522,"ĠÐ½Ð¾Ð²Ð¾Ð³Ð¾":5523,"ĠÐ´Ð²Ð¸Ð³Ð°ÑĤÑĮÑģÑı":5524,"Ð¸Ð»ÑĮÐ´Ð¸":5525,"ĠÐ¿ÑĢÐ¾ÑģÑĭÐ¿":5526,"ĠÐ´ÐµÐ²Ð¾ÑĩÐºÐ¸":5527,"ĠÐ½Ð°Ð²ÑģÑĤÑĢÐµÑĩÑĥ":5528,"ĠÑģÐºÐ°Ð¶ÐµÑĪÑĮ":5529,"Ð»Ð¾Ð½Ð´Ð¸Ð½":5530,"ĠÐļÐ¸Ð¼":5531,"ĠÐļÑĢÐ°Ñģ":5532,"ÑĭÑĩÐ½Ð¾":5533,"ĠÑħÐ¾ÑĢÐ¾ÑĪÐ¸Ð¹":5534,"ĠÐ²Ð°Ð½Ð½ÑĥÑİ":5535,"ĠÑĤÑĢÐ°Ð½":5536,"ĠÑĢÐ°ÑģÑģÐºÐ°Ð·Ð°Ð»":5537,"ÑĩÐµÑģÑĤ":5538,"ÑĩÐ¸Ñģ":5539,"ĠÐ½ÐµÑģÑĩÐ°ÑģÑĤ":5540,"ÑĥÑĪÐºÐµ":5541,"ĠÐ¿Ð¾Ð»Ð¾Ð¶Ð¸Ð»Ð°":5542,"Ð°ÑĤÐµÐ»Ñı":5543,"ĠÐ»ÑİÐ±Ð¸Ð»Ð°":5544,"ĠÐ°Ð´ÑĢÐµÑģ":5545,"ĠÐ¿Ð¾ÐºÐ°Ð·Ð°ÑĤÑĮ":5546,"ĠÐ¿ÑĢÐ¾Ð·Ð²ÑĥÑĩ":5547,"ĠÐ¿ÑĢÐµÐ¿Ð¾Ð´":5548,"ĠÑĢÐ¾Ð´Ð¸ÑĤÐµÐ»Ñı":5549,"ĠÐ»ÑİÐ±Ð¸ÑĪÑĮ":5550,"ĠÑģÐ¼Ð¾Ð¶ÐµÑĪÑĮ":5551,"ĠÐŁÐ¾Ð¶Ð°Ð»ÑĥÐ¹ÑģÑĤÐ°":5552,"ĠÑĦÑĥÑĤÐ±Ð¾Ð»ÐºÑĥ":5553,"ĠÐĹÐ°Ð¿":5554,"ĠÐ¿Ð¾Ð³Ð¾Ð²Ð¾ÑĢ":5555,"ĠÑģÐºÐ°Ð·Ð°Ð»Ð¸":5556,"Ð»ÐµÑĤÐ²Ð¾ÑĢ":5557,"ÐµÐ»Ñĳ":5558,"Ð°ÑĤÐµÐ»ÑĮÐ½ÑĭÐ¹":5559,"ĠÐ´Ð¶Ð¸Ð½ÑģÑĭ":5560,"ÑģÑĤÐµÑģÑĤÐ²ÐµÐ½Ð½Ð¾":5561,"ĠÐĵÐ»Ð°Ð²":5562,"Ð²ÐµÑĢÑĮ":5563,"ĠÐ±Ð»Ð¾Ð½Ð´Ð¸Ð½Ð°":5564,"ĠÐ¼Ñı":5565,"Ð¾Ð²Ð°ÑĢÐ¸":5566,"ÑĤÐ¾ÑĩÐºÐ¸":5567,"ĠÐ¾Ð´ÐµÐ¶Ð´Ñĭ":5568,"ĠÐ²ÑģÐ¿Ð¾Ð¼Ð½Ð¸ÑĤÑĮ":5569,"ĠÐłÐ¸":5570,"ĠÑĢÐµÑģ":5571,"ĠÐ¾ÑĤÑĩÐ°ÑıÐ½Ð½Ð¾":5572,"ĠÐ¥Ð°ÑĢÑĥ":5573,"ÐµÐ½ÑĮÐµ":5574,"ĠÐ¿ÑĢÐ¾ÑĩÐ¸ÑĤ":5575,"ĠÑģÐ¼ÑĭÑģÐ»":5576,"Ð¾Ð²Ð»ÐµÑĤÐ²Ð¾ÑĢ":5577,"ĠÐºÐ¾Ð½ÑĨ":5578,"ĠÑĢÐ¸ÑģÐº":5579,"ÐµÐ¹Ð½Ð´Ð¶ÐµÑĢ":5580,"ĠÐ³Ð»ÑĥÑħ":5581,"Ð½ÐµÐ½Ð¸Ðµ":5582,"ÐµÑĢÐ°ÑĪ":5583,"ĠÑĢÐ°Ð·Ð°":5584,"ĠÐ¼Ð¸Ð»Ð°Ñı":5585,"ĠÑģÐ³Ð»Ð¾ÑĤ":5586,"ĠÐ¸ÑģÐºÑĥÑģ":5587,"ĠÐłÐµÐ±":5588,"ĠÐ±ÐµÐ¶Ð°ÑĤÑĮ":5589,"ĠÐ¢Ð¾Ð½Ð¸":5590,"ĠÐ£Ð¶":5591,"ÑĮÐµÑĤ":5592,"ĠÐ³Ð¾ÑģÑĤÐ¸Ð½ÑĥÑİ":5593,"ĠÐ¢ÑģÑĥÐ½Ð°":5594,"ĠÐ»Ð¾Ð¼":5595,"ÑıÐ³Ð¸Ð²Ð°ÐµÑĤ":5596,"Ð¼ÐµÐ½ÑĤ":5597,"ĠÑĢÐ°ÑģÑģÑĤÑĢÐ¾":5598,"ĠÑĤÑĢÐµÐ¿":5599,"ĠÐ¿Ð¾Ð´ÑħÐ¾Ð´Ñı":5600,"ĠÐ¥Ð¾Ð³":5601,"ĠÐŁÑĢÐ¸Ð½":5602,"ĠÐ³Ð¾Ð²Ð¾ÑĢÑıÑĤ":5603,"ĠÐ¾Ð±ÑģÑĥÐ¶Ð´":5604,"ĠÐ´Ð²ÑĥÐ¼Ñı":5605,"Ð¼Ð¾ÑĤÑĢÐ¸":5606,"ĠÐ¿ÑĢÐ¾ÑĢ":5607,"ĠÐŀÑĤÐºÑĥÐ´Ð°":5608,"Ð½ÑĥÐ»Ð¾ÑģÑĮ":5609,"Ð°ÑĤÑĭ":5610,"ĠÐ´ÑĢÐµÐ²":5611,"ĠÐ¶Ð¸Ð»":5612,"ĠÐŁÐ¾ÑģÐ»ÐµÐ´":5613,"ÑıÐ»Ð¾":5614,"ÑģÑİ":5615,"ĠÐ¿Ð¾Ð±ÐµÐ¶Ð°Ð»Ð°":5616,"ÐµÐ¼Ð½Ð¾Ð³Ð¾":5617,"ĠÐ·Ð°ÑĪÐ»Ð°":5618,"ÑĪÐ°ÑıÑģÑı":5619,"ĠÐĽÑĥÑħ":5620,"ĠÐ¼ÐµÑĢÐ·":5621,"ĠÑĪÑĤÐ°Ð½Ñĭ":5622,"ĠÑĥÑģÐ¼ÐµÑĪ":5623,"ĠÐ¿Ð¾ÑģÑĤÑĥÑĩ":5624,"ĠÐ¿ÑĢÐ¸ÑħÐ¾Ð´Ð¸Ð»Ð¾ÑģÑĮ":5625,"ĠÐľÐ¸Ð»":5626,"ĠÐŁÑĢÐ¾ÑģÑĤ":5627,"ĠÐ¿Ð¾Ð»ÑĩÐ°ÑģÐ°":5628,"Ð»ÐµÐ½Ð½Ð¾Ð¹":5629,"ĠÑĩÐ°ÑģÑĤ":5630,"ĠÐ±Ð¸Ð±Ð»Ð¸Ð¾ÑĤ":5631,"ĠÐ¼ÐµÑģÑıÑĨÐ°":5632,"ĠÑĪÐµÑģÑĤ":5633,"Ġa":5634,"ĠÐ¿Ð¾Ð»ÑĥÑĩÐ¸ÑĤÑĮ":5635,"ĠÐ¾ÑĤÐ¿ÑĢÐ°Ð²Ð¸Ð»ÑģÑı":5636,"ĠÑģÑĤÐ¸Ñħ":5637,"Ð¾Ð´Ñĭ":5638,"ĠÐ¾ÑģÐ¾Ð·Ð½Ð°Ð²":5639,"ÑĥÐ½Ðº":5640,"Ð¢Ð¾Ð»ÑĮÐºÐ¾":5641,"ĠÐ¿ÑĢÐ¸Ð¹ÑĤÐ¸":5642,"ĠÐºÑĢÐ°Ð¹Ð½Ðµ":5643,"ÑĥÑģÑĤÐ¸Ð»Ð°":5644,"ĠÑģÐ¾Ð±Ð¸ÑĢÐ°ÑİÑģÑĮ":5645,"ĠÐ½Ð°Ð¿Ð¾Ð»Ð½":5646,"ĠÐ¾ÑħÑĢÐ°":5647,"ĠÐ¿ÑĢÐ¾Ð´Ð¾Ð»Ð¶Ð°Ð»Ð°":5648,"ÐŁÐ¾ÑĩÐµÐ¼Ñĥ":5649,"Ð¸ÑĢÐ°ÐµÑĤ":5650,"ĠÑģÑĤÑĢÐ°Ð¶":5651,"Ð´Ð°ÐµÑĤÑģÑı":5652,"ĠÐ¾ÑĤÐ´ÐµÐ»":5653,"ĠÐ¿Ð¸ÑĤÑĮ":5654,"ĠÑĥÑģÐ»Ð¾Ð²":5655,"Ð»Ð°Ð³Ð¾Ð´Ð°ÑĢ":5656,"ĠÐ¼Ð¾ÑĢÐ³":5657,"Ð°Ð½Ð³":5658,"Ð»ÑĥÐ¿":5659,"ĠÐ¾ÑģÐ²ÐµÑī":5660,"ĠÐŀÑĢ":5661,"ĠÐ¼ÑĥÑĢÐ°ÑĪ":5662,"ÑĳÐ½Ð½ÑĭÐ¹":5663,"ĠÐ±ÐµÐ·ÑĢÐ°Ð·":5664,"ĠÐ²Ð¾Ð¿ÑĢÐ¾ÑģÐ¾Ð²":5665,"ĠÐ²Ð¿ÐµÑĢÐµÐ´Ð¸":5666,"ĠÐ³ÑĥÐ±Ð°Ñħ":5667,"ĠÐŀÑĤÐº":5668,"ĠÐ²Ð¼ÐµÑĪ":5669,"ĠÐĳÐ°ÑĢ":5670,"Ð¾Ð»Ð¾Ð³":5671,"ĠÐ±ÐµÑģÐ¿Ð¾Ð»ÐµÐ·":5672,"ĠÑĤÐµÐ»ÐµÐ²":5673,"ÑīÐ¸Ð½Ð°":5674,"ĠÐ¼Ð°ÑģÑĤÐµÑĢ":5675,"ĠÐ¾Ð±ÐµÑĢÐ½ÑĥÐ»Ð°ÑģÑĮ":5676,"Ð¾ÑģÑĤÑĮÑİ":5677,"ĠÐ²Ð·Ð±":5678,"Ð»ÐµÐ½Ð½ÑĭÐ¼":5679,"ĠÐ´Ñĭ":5680,"ĠÐ´Ð²Ð¸Ð¶ÐµÐ½Ð¸ÐµÐ¼":5681,"ĠÐ´ÑıÐ´":5682,"ÐµÑĢÑĭÐ²":5683,"ĠÐ¼ÑĭÑģÐ»ÑıÐ¼Ð¸":5684,"ĠÑģÑĤÐ°ÑĢÑĪÐ¸Ð¹":5685,"ĠÑĥÐ±Ð¸Ð»":5686,"Ġw":5687,"ĠÐ·Ð°ÑħÐ¾ÑĤÐµÐ»Ð¾ÑģÑĮ":5688,"ĠÑĥÐ´Ð¾Ð±":5689,"ĠÐ³Ð¾ÑĢÐ¾Ð´Ðµ":5690,"ĠÐ±ÐµÐ·ÑĥÐ¼Ð½Ð¾":5691,"ÑıÑīÐµÐ¹":5692,"ĠÐ¿ÑĢÐµÐ²ÑĢÐ°Ñī":5693,"ĠÐ¸Ñī":5694,"Ð²ÐµÐ½":5695,"ÐłÐ°Ð·":5696,"ĠÐ¿Ð¾Ð»Ð½Ð¾":5697,"ĠÐ¿Ð¾Ð¼Ð¾Ð¶ÐµÑĤ":5698,"ĠÑģÐ´ÐµÐ»Ð°Ñİ":5699,"ÑĥÐµÐ¼":5700,"ĠÐĽÐ¸Ð°Ð¼":5701,"ĠÐ½Ð°ÑģÐ»ÐµÐ´":5702,"ÑĨÐ°ÑĢ":5703,"ĠÐºÐ¾Ð¼Ð°Ð½Ð´":5704,"ĠÐ¸Ð³ÑĢÑĥÑĪ":5705,"ĠÐ´ÐµÐ»Ð°Ñı":5706,"ĠÐ½ÐµÐ²ÑĭÐ½Ð¾Ñģ":5707,"ĠÐµÐ´Ð¸Ð½ÑģÑĤÐ²ÐµÐ½Ð½ÑĭÐ¹":5708,"ĠÐ²Ð¾ÑģÑħÐ¸Ñī":5709,"ĠÐ·Ð°ÑħÐ²Ð°ÑĤ":5710,"ĠÐ±Ð¾ÐºÐ°Ð»":5711,"ĠÐ¿ÑĢÐµÐ´ÑĥÐ¿ÑĢÐµÐ´":5712,"ĠÑĥÐ´Ð°Ð»":5713,"ĠÐ²ÑĢÐµÐ·":5714,"ĠÐ¿Ð¾Ð½Ð°Ð´Ð¾Ð±":5715,"ÑħÐµ":5716,"ĠÐ½ÐµÑģÐ¿":5717,"Ð¾ÑĦ":5718,"ÐµÐ½ÑĮÐºÐ¸Ð¹":5719,"ĠÐ¿Ð¸ÑĢ":5720,"ĠÐ´Ð¾ÐºÑĤÐ¾ÑĢ":5721,"Ð¸Ð½ÐµÑĤ":5722,"ĠÐ½Ð¾Ð²ÑĥÑİ":5723,"ĠÐ¡ÐµÐ±Ð°ÑģÑĤÑĮ":5724,"ĠÑģÑĩÐ°ÑģÑĤÑĮÐµ":5725,"Ð¸ÑĤÑĭ":5726,"ĠÐ¢Ð°Ð¾":5727,"ĠÑģÐ¾ÑģÑĤÐ°Ð²":5728,"ĠÑģÐ¸Ñı":5729,"ĠÐĵÐ»Ð°Ð·Ð°":5730,"ĠÐĳÐ¸Ð»Ð»":5731,"ĠÐºÑĥÐ»Ð°ÐºÐ¸":5732,"ĠÐ¿Ð¾Ð¼Ð¾ÑīÑĮÑİ":5733,"ĠÐĶÐ¶Ð¸":5734,"ĠÑĢÑĥÑģ":5735,"ÐµÐ½Ð½Ð¾ÑģÑĤÐ¸":5736,"ĠÐĺÑĩÐ¸Ð³Ð¾":5737,"Ð¶Ð¸":5738,"ĠÐĴÐµÐ»Ð¸":5739,"ĠÐºÐ²Ð°ÑĢÑĤÐ¸ÑĢÐµ":5740,"ĠÐºÐ°ÑģÐ°ÐµÑĤÑģÑı":5741,"ĠÑĢÐ¾Ð²Ð½Ð¾":5742,"ĠÐ²Ð¸Ð´Ð¸ÑĪÑĮ":5743,"ÑģÐºÐ¾Ðµ":5744,"ĠÐ¿Ð¾Ð³Ð»ÑıÐ´":5745,"ĠÐ²ÑĭÐ±Ð¾ÑĢ":5746,"ĠÑģÐµÐºÑĥÐ½Ð´Ñĭ":5747,"ÑĤÐ¾Ð½Ð°":5748,"ĠÐľÐ¸ÑĢ":5749,"ĠÐ¿Ð¾Ð»ÑĥÑĩÐ¸ÑĤÑģÑı":5750,"ĠÐ¡Ð»Ð¸ÑĪÐºÐ¾Ð¼":5751,"ÑĥÑģÐºÐ°ÐµÑĤ":5752,"ĠÑĤÐ¸ÑħÐ¸Ð¹":5753,"ĠÑģÐ¸Ð¼Ð¿":5754,"ĠÑĥÐ·Ð½Ð°Ð»Ð°":5755,"ĠÐ§ÐµÐ¼":5756,"ĠÐ³Ð¾Ð²Ð¾ÑĢÐ¸":5757,"ĠÐ»ÑİÐ±Ð¾Ð¼":5758,"ĠÐºÐ½Ð¸Ð³Ð¸":5759,"ĠÐ¾Ð¿Ð¸Ñģ":5760,"ĠÐ²Ðº":5761,"ÑĩÑĳÑĤ":5762,"ÑĩÐ½Ð°Ñı":5763,"ĠÐ½Ð°Ð´ÐµÑıÑģÑĮ":5764,"ĠÐ½ÐµÐ·Ð°Ð¼ÐµÑĤÐ½Ð¾":5765,"ĠÑģÑĤÐ°Ð½Ð¾Ð²Ð¸Ð»Ð¾ÑģÑĮ":5766,"ĠÐĳÐ»ÐµÐ¹":5767,"ĠÐ¸Ð·Ð¾Ð±ÑĢÐ°Ð¶":5768,"ĠÑĢÐµÐ°Ð»ÑĮ":5769,"ĠÑģÑĤÑĥÑĩ":5770,"ĠÐ²ÐµÐ¶":5771,"ĠÐģ":5772,"ĠÐ¿ÑĢÐ¸Ð´ÑĳÑĤÑģÑı":5773,"ĠÐ¿ÑĢÐ¸Ð³Ð»Ð°Ñģ":5774,"ĠÐ¿Ð¾ÑģÐµÑĤ":5775,"ĠÐ¸Ð·Ð²Ð¸Ð½Ð¸":5776,"ĠÐ¿ÑĢÐ¾Ð²ÐµÑģÑĤÐ¸":5777,"ĠÐ²ÑģÐºÑĢÐ¸":5778,"ĠÑģÐ¿Ð¸ÑĤ":5779,"ĠÑīÐµÐ»":5780,"Ð°Ð½ÑĤÐ°":5781,"ĠÐ¿Ð¾Ð»ÑİÐ±":5782,"ĠÐºÐ»Ð¾":5783,"ĠÐĶÐ¶Ðµ":5784,"ĠÐ½ÐµÐ²Ð¾Ð·Ð¼":5785,"ĠÐ»ÑİÐ±Ð¸Ð¼ÑĭÐ¹":5786,"ĠÑĩÐµÑĢÐ½ÑĭÐµ":5787,"Ð¼Ð¸ÑĤ":5788,"ĠÐ»Ð°Ð±":5789,"ĠÑģÑĤÐ¾Ð»Ð¾Ð²":5790,"ĠÐ·Ð°ÐºÑĥÑģ":5791,"ĠÐ¿Ð¾ÑĢÑıÐ´Ð¾Ðº":5792,"Ð½ÐµÑĪÑĮ":5793,"Ð³Ð°ÑĢ":5794,"ĠÐ±Ð°ÑĪ":5795,"ĠÑĤÑĢÐ°Ñħ":5796,"--":5797,"ĠÐ´ÑĢÐ°ÐºÐ¾":5798,"ĠÐ²ÑģÐ¿Ð¾Ð¼Ð½Ð¸Ð»Ð°":5799,"Ð¾ÐºÐ¾Ð½":5800,"ĠÐ½Ð°ÑħÐ¾Ð´Ð¸Ð»ÑģÑı":5801,"Ð»ÑıÐ½":5802,"ĠÑĢÐ°Ð±Ð¾ÑĤÐ°":5803,"ĠÐ¸ÑģÑĤÐ¾ÑĢÐ¸Ð¸":5804,"ĠÐ»ÐµÑģÑĥ":5805,"ĠÐ½Ð°ÑĩÐ°Ð»ÑĮ":5806,"ĠÑĤÐ°ÐºÐ¸":5807,"ĠÑĩÐ¸ÑĤÐ°ÑĤÑĮ":5808,"ĠÑģÐ»ÑĭÑĪÐ°ÑĤÑĮ":5809,"ÑĢÑıÐ¼Ð¾":5810,"ĠÑĤÐµÐ½Ð¸":5811,"ĠÐľÑĥÐ¶ÑĩÐ¸Ð½Ð°":5812,"Ð»ÑıÑİ":5813,"ĠÑħÐ¾Ð·ÑıÐ¹":5814,"ĠÐ¸ÑģÑĤÐ¸Ð½":5815,"ĠÑģÑĥÐ¼Ð°ÑģÑĪÐµÐ´":5816,"Ð»Ð»Ñİ":5817,"ĠÑĪÐ¸Ð¿":5818,"ĠÐ´Ð²Ð¸Ð¶ÐµÐ½Ð¸Ðµ":5819,"ĠÐ·Ð°ÐºÐ»Ð¸Ð½Ð°":5820,"ÑĪÐ¸ÑĪÑĮ":5821,"Ð»Ð¸Ð¶Ðµ":5822,"ĠÐŁÐ¾Ð¹Ð´":5823,"ĠÐ±Ð»Ð°Ð³Ð¾Ð´Ð°ÑĢÑı":5824,"Ð»ÐµÐ½Ñĭ":5825,"ÑĤÐ¾ÑıÑĤÐµÐ»ÑĮ":5826,"ĠÐ¡Ñį":5827,"ĠÑĢÐ¾Ð´ÑģÑĤÐ²ÐµÐ½":5828,"ĠÐ´Ð²Ð¾Ð¸Ñħ":5829,"ĠÐ¿Ð°Ð¼ÑıÑĤÑĮ":5830,"Ð»ÑĭÐ¼Ð¸":5831,"ĠÑģÐ¾Ð¶Ð°Ð»ÐµÐ½Ð¸Ñİ":5832,"Ð»ÑıÐ»Ð°ÑģÑĮ":5833,"ĠÐ¥Ð¸":5834,"ĠÐºÐ¾ÑĢÐ¸Ð´Ð¾ÑĢÐµ":5835,"ĠÐŁÐ¾Ñĩ":5836,"Ð°ÑĢÐµ":5837,"ĠÐºÐ¾ÑĢÐ¾ÑĤÐºÐ¾":5838,"ĠÐ¿ÑĢÐ¸ÑģÐ»ÑĥÑĪ":5839,"ĠÐĿÐ°ÑģÑĤ":5840,"ĠÑĩÐ¸Ñģ":5841,"Ð½ÑĳÐ¼":5842,"ĠÐ²ÑĩÐµÑĢÐ°ÑĪ":5843,"ĠÐ½Ð°ÑģÑĤÐ¾Ð¹":5844,"ÐĿÐ¸Ðº":5845,"ĠÐ¾Ð±Ð¶":5846,"ĠÐĴÐ¾Ð·":5847,"ĠÐ¿Ð¾Ð´ÑħÐ¾Ð´Ð¸ÑĤ":5848,"ĠÐ¾ÑģÑĤÐ°Ð½Ð¾Ð²Ð¸ÑĤÑĮ":5849,"ĠÐ¥Ð²Ð°ÑĤ":5850,"ĠÐ¿Ð¾Ð´Ð·":5851,"ÑİÑīÐµÐ³Ð¾":5852,"Ġy":5853,"ĠÑħÐ¼Ñĥ":5854,"ĠÐ²Ð¾ÑģÐ¿Ð¾Ð»ÑĮÐ·":5855,"ĠÑįÐ½ÐµÑĢÐ³":5856,"ĠÐ±ÐµÐ·Ð´":5857,"ĠÑĥÐ¶Ð¸Ð½":5858,"ĠÑĥÐ»ÑĭÐ±ÐºÐµ":5859,"ĠÐ¿ÑĢÐ¾Ð·":5860,"ĠÐ¼Ð½Ð¾Ð³Ð¸Ðµ":5861,"ĠÑģÐ¼Ð¸ÑĢ":5862,"ÑģÐºÐ¾ÑĢÐµ":5863,"ĠÐ³Ð¾ÑĢÑĮ":5864,"ĠÐ¾ÑĤÑģÑĤÑĢÐ°":5865,"ĠÐ¿ÑĢÐ¸Ð»Ð¾Ð¶":5866,"ĠÑĥÑĤÐ¾Ñĩ":5867,"ĠÐ²Ð¾ÑģÐºÐ»Ð¸ÐºÐ½ÑĥÐ»Ð°":5868,"ĠÐ·Ð°Ð»Ðµ":5869,"ĠÑģÐ½ÐµÐ³":5870,"ĠÑģÐ¾ÑĪ":5871,"Ð¸ÑĢÐ°ÑĤÑĮÑģÑı":5872,"ĠÐ´Ð¾Ð¼Ð°ÑĪ":5873,"ĠÐ¼Ð¾Ð¶ÐµÑĤÐµ":5874,"Ð½Ð¾Ð¿":5875,"ĠÐ¶Ð´Ð°Ð»Ð°":5876,"ĠÐ¥Ð¾Ð»":5877,"ĠÐ²ÑĭÐ¼":5878,"ĠÐ·Ð°Ð²ÐµÑĢ":5879,"ÐµÑģÐºÐ¾Ð»ÑĮÐºÐ¾":5880,"ÑĢÐ°Ð½Ð¸ÑĤ":5881,"ĠÐ½Ð°ÑĢÑĥÐ¶":5882,"ĠÐ¿ÑĢÐ¸Ð³Ð»Ð°ÑĪ":5883,"ĠÑĤÑĥÐ°Ð»":5884,"ĠÐ²ÑĭÑħÐ¾Ð´Ð¸ÑĤ":5885,"ĠÐ½Ð°Ð·Ð²Ð°ÑĤÑĮ":5886,"ĠÐ¿Ð¾ÑĤÐ¾":5887,"ĠÐ¿ÑĢÐµÐ´Ð°ÑĤÐµÐ»ÑĮ":5888,"ĠÑģÐ¼ÐµÑĪÐ½Ð¾":5889,"Ð²Ð¸Ð½":5890,"Ð¾ÐºÐ¾Ð¹ÑģÑı":5891,"Ð¸Ð²Ð°Ð»Ð¾":5892,"ÑĨÐ²ÐµÑĤ":5893,"ĠÐ¿ÑĢÐ¸ÑģÐ¾":5894,"ĠÐ¶ÐµÐ½Ñī":5895,"Ð¾Ð³Ð»Ð°Ð·":5896,"Ð°Ð½Ð¾Ð¼":5897,"ĠÐ²Ð·Ð´ÑĢÐ¾Ð³Ð½ÑĥÐ»":5898,"ĠÑĢÐ°Ð·Ð¾Ð·":5899,"ĠÐ¿ÑĢÐ°Ð²Ð¸Ð»ÑĮ":5900,"ÐĲÐĲ":5901,"ĠÐ°Ð¿Ð¿":5902,"ĠÐľÐ°Ð¼Ð°":5903,"ÑıÑīÑĥÑİ":5904,"ĠÑĤÐµÐ»ÐµÐ²Ð¸Ð·":5905,"ĠÐ¾Ð¿ÑĭÑĤ":5906,"Ð¸Ð¼ÑĭÐ¹":5907,"ĠÑĤÐ¾Ð²Ð°ÑĢÐ¸":5908,"ĠÑģÐ¾Ð»Ð½ÑĨÐ°":5909,"ĠÐļÐ°Ð¶Ð´ÑĭÐ¹":5910,"ÑĢÐ¸ÑĦÑĦÐ¸Ð½":5911,"ĠÐºÐ²Ð°ÑĢÑĤÐ¸ÑĢÑĭ":5912,"ÐµÐ½Ð½Ð¾Ð¼":5913,"ĠÑģÐ¿Ð¸Ð½Ñĭ":5914,"ĠÐ½ÐµÐ¿ÑĢÐ¸ÑıÑĤÐ½Ð¾":5915,"Ð¾Ð»ÑĥÑĩ":5916,"ĠÐ¿Ð¾Ð¼ÐµÑīÐµÐ½Ð¸Ðµ":5917,"ĠÐŀÐ½Ð¾":5918,"ĠÐ¿Ð¾Ð²Ð¾ÑĢ":5919,"ĠÐºÑĢÐµÑģÐ»Ð°":5920,"ĠÐŃÑĢ":5921,"Ð¸ÑĤÐµÐ»ÑĮÐ½Ð¾Ð¹":5922,"Ð¸Ð²Ð°ÐµÑĪÑĮ":5923,"ĠÐ¿Ð»Ð°Ð½ÐµÑĤ":5924,"ĠÑĪÐ¾ÐºÐ¾Ð»":5925,"ĠÐ³ÐµÑĢ":5926,"ĠÐŃÑĤÐ¸":5927,"ĠÐ¿ÐµÑĢÐµÑģÑĤÐ°Ð»":5928,"ĠÐ¥ÐµÐ¹":5929,"Ð¿Ð¾":5930,"ĠÐ·Ð°Ð´ÑĥÐ¼Ð°Ð»ÑģÑı":5931,"ĠÐŃÐ»ÑĮÐ·Ð°":5932,"ĠÑģÐ¾Ð´ÐµÑĢÐ¶":5933,"ĠÐ´Ð»Ð¸Ð½Ð½ÑĭÐµ":5934,"ĠÐ·Ð°ÑĪÐµÐ»":5935,"ĠÑģÐ¼ÑĭÑģÐ»Ð°":5936,"ÑĤÐµÑĨ":5937,"ÑĪÐµÐµÑģÑı":5938,"ĠÐ½Ð°Ð¿Ð°ÑĢ":5939,"ĠÐ²ÑĢÐµÐ´":5940,"ĠÑīÐµÐºÑĥ":5941,"ĠÐ»ÑİÐ´ÑĮÐ¼Ð¸":5942,"ĠÐºÑĢÐ¸ÐºÐ½ÑĥÐ»Ð°":5943,"ÐµÐ¶Ð¸ÑĤ":5944,"ĠÑĥÐ´Ð¾Ð²Ð¾Ð»ÑĮÑģÑĤÐ²Ð¸Ðµ":5945,"ÐµÐ»ÑĮÑı":5946,"ĠÐ¡Ð¾Ð±":5947,"ÐºÐ¾Ð¼Ñĥ":5948,"ĠÐ¼Ð½Ð¾Ð³Ð¾Ðµ":5949,"ĠÐ¶Ð¸Ð·Ð½ÑĮÑİ":5950,"ĠÐ´Ð°Ð»Ð°":5951,"ĠÐµÐ´Ñĥ":5952,"ĠÑģÐµÐ³Ð¾Ð´Ð½ÑıÑĪ":5953,"ĠÐļÐ°Ð·Ð°Ð»Ð¾ÑģÑĮ":5954,"ĠÐ±ÑĥÐ¼Ð°Ð³Ð¸":5955,"ĠÐ¾Ð±Ð¾ÑĢÐ°ÑĩÐ¸Ð²":5956,"ĠÐ¿ÐµÑĢÐ²Ð¾Ðµ":5957,"ĠÐ²ÑģÐ¿ÑĭÑħ":5958,"ĠÐ¿ÑĢÐ¸Ð½ÑıÐ»":5959,"ĠÑģÐ»Ð°Ð±Ð¾":5960,"ĠÐ¾Ð±ÐµÐ´":5961,"ÑĩÐ°Ð»Ð¸":5962,"Ð¾Ð»Ð¾ÑģÐ°Ñı":5963,"ÑĮÐµÐ²":5964,"ĠÑģÑĤÑĥÐ»Ð°":5965,"ĠÑģÐ¸Ð½Ñı":5966,"ĠÐ²Ð¾Ð·Ð¼Ð¾Ð¶":5967,"ĠÐ¡Ð»ÑĥÑĪÐ°Ð¹":5968,"ĠÐĵÑĢÐµÐ¹Ð½Ð´Ð¶ÐµÑĢ":5969,"Ð»Ð¸ÑĤÑĮ":5970,"ĠÐ¿Ð¾ÑĤÐ¾Ðº":5971,"ĠÐ¾ÑĤÑĩÐµÑĤ":5972,"ÑĩÐ°Ð¹":5973,"ĠÐŁÐ¾Ð¿":5974,"ĠÑģÐ¾Ð·Ð½Ð°Ð½Ð¸Ñı":5975,"ĠÐ¸Ð³Ð½Ð¾ÑĢÐ¸":5976,"Ð²Ð°ÑĢÑĤ":5977,"ÐµÐ´ÐµÑĤ":5978,"ĠÐ¿Ð¾Ð¼Ð½Ð¸ÑĪÑĮ":5979,"Ð¸ÑĤÐµÑĢ":5980,"ĠÐ¾Ð´Ð½Ð¾Ðº":5981,"ĠÑģÐ»ÑĭÑĪÑĥ":5982,"ĠÐ»Ð¸Ð´":5983,"ĠÐ±ÑĥÑĤÑĭÐ»ÐºÑĥ":5984,"ĠÐ·Ð²ÑĥÐºÐ¸":5985,"ĠÑĪÐ¾ÐºÐµ":5986,"Ð°Ð»ÑĮÐ½ÑĭÑħ":5987,"ĠÐ³Ð°ÑĢ":5988,"ÐµÐ¼Ð¸":5989,"ÑĩÐ¸ÐºÐ°":5990,"ĠÑĤÐµÐ¼Ð½Ð¾ÑĤÐµ":5991,"ĠÐ¾ÑĤÑĢÐµÐ·":5992,"ĠÐ¿Ð¾Ð²ÐµÐ·Ð»Ð¾":5993,"ĠÐĳÐ¾Ð³":5994,"ÑģÑĤÑĭ":5995,"Ð°ÑĤÐ¸Ð²":5996,"Ð²Ñĥ":5997,"ĠÐºÐ¾Ð¶Ð¸":5998,"ĠÐ²Ð¾Ð´Ð°":5999,"ĠÐºÑĢÐµÑģÐ»Ðµ":6000,"ĠÐĶÐ¾Ð½":6001,"ĠÑģÐµÐ¼ÐµÐ¹":6002,"Ð¸Ð¼Ð¾Ð¹":6003,"ÑİÑĪ":6004,"ĠÐ½ÐµÐ¿Ð»Ð¾ÑħÐ¾":6005,"ĠÐ²ÑĭÑĪÐ»Ð¾":6006,"ĠÐļÐ°Ð¿":6007,"ĠÑĪÐ°Ð³Ð¾Ð¼":6008,"ĠÑģÐ°Ð¼ÑĥÑİ":6009,"ĠÐ·Ð°ÑĤÐ¾":6010,"ĠÐ¿Ð¾Ð»ÑĥÑĩÐ°ÐµÑĤÑģÑı":6011,"ĠÐ¼Ð¸Ð»ÑĭÐ¹":6012,"ĠÐ»Ð±Ñĥ":6013,"ĠÑģÑĩÐ°ÑģÑĤÑĮÑİ":6014,"ĠÑģÐ²Ð¾Ð´":6015,"ĠÐłÐ¾Ð´":6016,"ĠÑĢÐ°Ð·Ð¾Ð¼":6017,"ĠÐ¿Ð¾Ð´ÑĢÐ¾Ð±":6018,"ĠÐ½Ñĭ":6019,"ĠÐ±Ð¾ÑıÐ»Ð°ÑģÑĮ":6020,"Ð½ÐµÑģÐ»Ð¸":6021,"ĠÐľÐ¾":6022,"ĠÑģÐ¾Ð¿ÑĢÐ¾Ð²":6023,"ĠÐ´ÐµÐ½ÐµÐ³":6024,"ĠÐ¿Ð¾Ð½ÑĢÐ°Ð²Ð¸Ð»Ð¾ÑģÑĮ":6025,"ĠÐ½Ð¾ÑĤ":6026,"ÑĤÐ¸ÑĢÐ°Ñı":6027,"ÑĤÑĭÐ¹":6028,"ÑģÑĤÐ²ÐµÐ½Ð½ÑĭÐ¹":6029,"ĠÐ¿Ð¾Ð´Ð¾Ð¶Ð´":6030,"ĠÐ¥Ð¾ÑĩÐµÑĪÑĮ":6031,"ĠÐ·Ð°ÐºÐ°Ð·":6032,"Ð¾Ð¶ÐµÑģÑĤÐ²Ð¾":6033,"ÑĢÐ°Ð¹":6034,"ĠÐ¿Ð¾ÑĢÑĤ":6035,"ĠÐĳÐ»ÐµÐ¹Ð½":6036,"ĠÑĦÐ¸":6037,"ĠÐºÐ¾Ð²":6038,"ĠÐ´ÐµÑĢÐµÐ²ÑıÐ½":6039,"!?":6040,"ÑĥÐ´ÑĢÑı":6041,"ĠÐļÐ»":6042,"ĠÑĢÐ°Ð¹":6043,"Ð¸Ð½Ð°Ð¼Ð¸":6044,"ĠÑĢÐ°ÑģÑĪÐ¸":6045,"ĠÐ»ÐµÐ¶Ð¸ÑĤ":6046,"ĠÐ²ÑĭÐ·Ð¾Ð²":6047,"ÐŀÐ±":6048,"Ð»Ð¾ÐºÐ¾ÑĤ":6049,"ĠÑģÐ¾ÑħÑĢÐ°":6050,"ĠÐ¶Ð°Ð¶":6051,"ÑģÐ¸Ð¸":6052,"ĠÑĤÐµÐ½ÑĮ":6053,"ĠÐ¾ÑĤÐ¼Ð°Ñħ":6054,"ĠÐ§Ð°Ð½Ñĳ":6055,"ĠÐłÐ¾":6056,"ĠÐ²Ð¿ÑĢÐ°Ð²":6057,"ĠÐ¾ÑĢÐ³Ð°Ð½Ð¸Ð·":6058,"ĠÐ´Ð²Ð¸":6059,"ÑĳÐ¶":6060,"ĠÐ¿ÑĢÐ¾ÑĤÐ¸Ð²Ð¾Ð¿":6061,"ĠÑģÐ¿Ð°Ð»ÑĮÐ½Ñİ":6062,"ĠÐĿÐµÐ¿":6063,"ĠÐ¾Ð±Ð¼Ð°":6064,"ĠÐ²Ð¸Ð½Ð°":6065,"ÑĤÐµÐ¼":6066,"ĠÑģÐ½ÑıÐ»":6067,"ÑĢÐ¾Ñĩ":6068,"ĠÐ¾Ð±ÑĢÐ°Ð´":6069,"ĠÐ¼Ð¾Ð»ÑĩÐ°Ð½Ð¸Ðµ":6070,"ÑĤÐ¸Ðµ":6071,"ĠÐĽÐ¸Ñģ":6072,"ĠÐĳÐ¾Ð»ÑĮÑĪÐµ":6073,"ĠÑģÐ´ÐµÐ»Ð°Ð»Ð¸":6074,"Ð¸Ð½Ðº":6075,"ĠÐ¿Ð»Ð°Ð²":6076,"ĠÐ´Ð¾Ð¶Ð´ÑĮ":6077,"ĠÑĢÐµÐ¶":6078,"ĠÐ²Ð·Ð´Ð¾ÑħÐ½ÑĥÐ²":6079,"ĠÑĤÑĢÐµÑĤ":6080,"ĠÑģÐ¸ÑĤÑĥÐ°ÑĨÐ¸Ñİ":6081,"ĠÐ½Ð°ÐµÐ´Ð¸Ð½Ðµ":6082,"ĠÑĥÐ½Ð¸Ð²ÐµÑĢ":6083,"ĠÐ·Ð°Ð»Ð°":6084,"ĠÑģÐ¾Ð±Ð¸ÑĢÐ°Ð»Ð°ÑģÑĮ":6085,"ÑģÑĤÐ²Ð¾ÑĢ":6086,"ĠÐ¿Ð¾Ð²ÐµÐ»":6087,"ĠÐ¸Ð¼Ð¿":6088,"ĠÑĥÑħÐ¾Ð´Ð¸ÑĤÑĮ":6089,"Ð¾ÑģÐ½ÐµÐ¶":6090,"ÐµÐ½Ð¸ÑıÐ¼Ð¸":6091,"ÑĢÐ¸ÐºÐ°":6092,"ĠÐ¸Ð·Ð¾":6093,"Ð¢ÐµÐ¿ÐµÑĢÑĮ":6094,"ĠÑģÐµÑģÑĤÑĢÑĥ":6095,"ĠÐºÐ¾Ð¼Ð½Ð°ÑĤÐ°":6096,"ÑĳÐ²":6097,"ĠÐºÐ¾Ð¼Ð½Ð°ÑĤ":6098,"ĠÐºÐ¾ÑģÑĤÑİÐ¼":6099,"ĠÐ²Ð¾ÑĪÐ»Ð°":6100,"Ð¾ÐºÑĥ":6101,"ĠÐ¸Ð·Ð²ÐµÑģÑĤÐ½Ð¾":6102,"ĠÑĨÐ°ÑĢÐ°Ð¿":6103,"ĠÐ¿Ð¾Ð¶Ð°Ð»ÑĥÐ¹":6104,"ĠÑĤÐ²":6105,"ĠÑħÐ²Ð°ÑĤÐ¸Ð»Ð¾":6106,"ĠÑĥÐ´Ð¾Ð²Ð¾Ð»ÑĮÑģÑĤÐ²Ð¸ÐµÐ¼":6107,"ĠÑĢÐ°ÑģÑģÐºÐ°Ð·ÑĭÐ²Ð°ÑĤÑĮ":6108,"ÐµÐ½Ð½Ð¾ÑģÑĤÑĮ":6109,"ĠÐĽÐ¾ÑĢ":6110,"ĠÐ»ÑİÐ±Ð¸ÑĤÑĮ":6111,"ĠÑģÐ¸Ð´Ñı":6112,"ĠÑĤÑĢÑıÑģ":6113,"ĠÐºÐ¾Ð»ÐµÐ½ÑıÑħ":6114,"ĠÐĿÐ°Ð¹":6115,"ĠÐ±ÐµÐ´ÑĢÐ°":6116,"ĠÐ³ÑĢÑĥÑģÑĤ":6117,"Ð»ÐµÐ½Ð¸ÐµÐ¼":6118,"ĠÐ¾ÑĩÐºÐ¸":6119,"ĠÑĢÐ°Ð²Ð½":6120,"ĠÐ²Ð·Ð³Ð»ÑıÐ½ÑĥÐ»Ð°":6121,"ĠÐ²Ð¸ÑģÐºÐ¸":6122,"ĠÐ¿ÑĢÐ¸Ð²ÑıÐ·":6123,"ĠÑĤÐ²Ð¾Ð¸Ð¼":6124,"ĠÐ¿Ð¸ÑģÑĮÐ¼Ð¾":6125,"ĠÑģÐ»Ð¸Ð·":6126,"ĠÐ¼Ð¸Ð»Ð»Ð¸":6127,"ĠÐķÐ»ÐµÐ½Ð°":6128,"ÐµÐ²Ð°":6129,"ÐºÐ½ÑĥÑĤÑĮ":6130,"ÐºÐ¾Ð»ÑĮÐºÑĥ":6131,"ĠÐ¾Ð±ÑħÐ²Ð°ÑĤ":6132,"ĠÐĺÐ½Ð¾Ð³Ð´Ð°":6133,"ĠÑĥÐ³Ð»Ñĥ":6134,"ĠÐ·Ð°ÐºÐ¾Ð½ÑĩÐ¸Ð»":6135,"ĠÐļÐ°":6136,"ĠÑĥÐ´Ð¾Ð²Ð»ÐµÑĤÐ²Ð¾ÑĢ":6137,"ĠÐºÐ¸Ñģ":6138,"ĠÑĪÐµÑģÑĤÑĮ":6139,"ĠÑĪÐ¾ÑĢ":6140,"ĠÐ¿ÑĢÐµÐ´Ð»Ð¾Ð¶ÐµÐ½Ð¸Ðµ":6141,"ĠÑĢÐµÑĪÐ¸ÑĤÐµÐ»ÑĮÐ½Ð¾":6142,"ĠÐ¿Ð¾Ð·Ð²":6143,"ĠÐ¿Ð¾ÑĤÑıÐ½ÑĥÐ»ÑģÑı":6144,"ĠÐ°Ð¼":6145,"ĠÐ±Ð¾Ð»ÑĮÑĪÐ°Ñı":6146,"ll":6147,"ĠÐĳÐµÐ½":6148,"ĠÑĥÑģÐ¸Ð»":6149,"ÑīÐµÑģÑĤÐ²Ð°":6150,"ĠÐ´ÑĢÐ¾Ð¶ÑĮ":6151,"ĠÐŀÑģÐ¾Ð±":6152,"ÑĮÑİÑĤ":6153,"ĠÐĶÐ°Ð¼Ð±Ð»":6154,"ĠÐ²Ð¾Ð»Ð¾ÑģÐ°Ð¼":6155,"ĠÐ¿Ð¾ÐºÑĥÐ¿":6156,"ĠÐ´Ð°Ð±Ñĭ":6157,"ĠÐ¿Ð¾Ð³ÑĢÑĥÐ·":6158,"ĠÑĦÐ¾ÑĤÐ¾":6159,"ĠÐ²Ð¾Ð·ÑĢÐ°ÑģÑĤ":6160,"ĠÐ¿ÑĢÑıÑĤ":6161,"ĠÐ»Ð¾Ð¿":6162,"ĠÐ¾Ð±ÐµÑīÐ°Ð»":6163,"ĠÐºÐ°ÑĢÐ¼Ð°Ð½Ð°":6164,"ĠÐ´ÑĳÑĢ":6165,"ĠÐ¶ÑĥÑĤÐºÐ¾":6166,"ĠÐ¤ÑĢÑįÐ½Ðº":6167,"ĠÑĥÐºÐ°Ð·ÑĭÐ²":6168,"Ð°Ð»ÑĮÐ½ÑĥÑİ":6169,"ĠÐ¾ÑģÐ²Ð¾Ð±Ð¾Ð´":6170,"ĠÐļÐ»Ð°ÑĥÑģ":6171,"ĠÐ²ÐµÑĢÑİ":6172,"ĠÐ¿ÑĢÐ¾ÑģÐ½ÑĥÐ»Ð°ÑģÑĮ":6173,"ĠÑħÐ¸ÑħÐ¸Ðº":6174,"ÐµÐ¶Ð°Ð²":6175,"ĠÐ¿Ð¾Ð¿Ð°Ð»":6176,"ĠÐ²Ð¾Ð·ÑĢÐ°Ð·":6177,"ĠÐ¿Ð¾ÑģÑĢÐµÐ´Ð¸":6178,"ĠÐºÐ°Ð¶Ð´Ð¾Ðµ":6179,"ĠÐ²Ð¸Ð´ÐµÐ»Ð¸":6180,"ĠÐ¼Ð°Ð³Ð¸":6181,"ĠÐ¡Ð¸ÑĢÐ¸":6182,"ĠÐ±Ð»Ð°Ð³":6183,"ĠÐ·Ð°ÑıÐ²Ð¸Ð»":6184,"ĠÐ½Ð°ÑĢÑĥÐ¶Ñĥ":6185,"ĠÐĴÐ¾Ð¾Ð±ÑīÐµ":6186,"ĠÐ¿ÑĢÐµÑĢÐ²Ð°Ð»":6187,"Ð¾Ð½ÑĮÐºÐ¾":6188,"ĠÐ²ÑģÐ»ÑĥÑħ":6189,"ĠÑĩÑĥÐ´ÐµÑģ":6190,"Ð¢ÐµÐ¼":6191,"ĠÐ¾ÑĤÐ¿ÑĥÑģÑĤÐ¸Ð»":6192,"ĠÐ»ÐµÑĩ":6193,"ĠÐ´ÐµÐ»Ð°Ñİ":6194,"ĠÐ·ÐµÑĢÐºÐ°Ð»Ð¾":6195,"ĠÑĢÐ°ÑģÑģÑĤÐµÐ³":6196,"ÑĢÐ¾Ð·":6197,"ĠÑģÐµÑģÑĤÑĢÑĭ":6198,"Ð´ÑĨ":6199,"ĠÐ¼ÑĥÐ¶ÑĩÐ¸Ð½":6200,"ĠÐļÐ°ÑģÑĤÐ¸":6201,"ĠÐ¨Ð¸":6202,"Ð¼Ð¾Ð¹":6203,"ĠÑģÐ¾Ð»Ð½Ðµ":6204,"ĠÐ¶ÐµÑĢÑĤ":6205,"ÐµÐ²Ð¾Ð¹":6206,"ĠÑĢÐ°Ð±Ð¾Ñĩ":6207,"ÑĦÐ°":6208,"ĠÐ¿ÑĢÐ¸Ð¶Ð¸Ð¼Ð°Ñı":6209,"ĠÐĵÐ¾ÑģÐ¿Ð¾Ð´Ð¸":6210,"Ð°ÐºÐµ":6211,"ĠÐºÐ¾ÑĦ":6212,"ĠÐ¿ÑĢÐµÐ´ÑĥÐ¿ÑĢÐµÐ¶":6213,"ĠÐ³ÑĢÑĥÐ´":6214,"ÐµÑĪÐµ":6215,"ĠÐ¿Ð¾ÐºÐ°Ð·Ð°Ð»":6216,"ĠÑģÑĩÐ¸ÑĤÐ°Ð»":6217,"ĠÐ²ÑĭÐ´Ð¾ÑħÐ½ÑĥÐ»Ð°":6218,"ĠÐ´Ð¾ÑģÑĤÐ°Ð»Ð°":6219,"Ð¸Ð¼ÑĭÐ¼":6220,"ÐºÑĥÑĢ":6221,"ÑıÑİ":6222,"ĠÐ²ÑĭÑĤÑı":6223,"ĠÐ»ÑİÐ´ÑıÐ¼":6224,"ÐĲÐ½":6225,"ĠÐ¿ÑĢÐµÐ´Ð²":6226,"ĠÐ¿Ð¾Ð±ÐµÐ¶Ð°Ð»":6227,"ĠÐ²ÑģÑĤÑĢÐµÑĩÑĥ":6228,"ar":6229,"Ð½ÑĥÑĤÑģÑı":6230,"ĠÐ¥Ð¸Ð½Ð°ÑĤÐ°":6231,"ĠÐ²ÑĢÐ°":6232,"ÑĢÐ¾ÐºÐ¸":6233,"ÑĢÐ°Ð²ÑĪÐ¸ÑģÑĮ":6234,"ĠÐ¡ÐºÐ¾ÑĤ":6235,"ĠÐ¾ÑĤÑĨÐ¾Ð¼":6236,"ĠÐ³Ð¸Ð»ÑĮÐ´Ð¸":6237,"ĠÑĢÐ°ÑģÑģÑĩÐ¸ÑĤ":6238,"ĠÐºÐ°Ð½":6239,"ĠÐļÑįÑĤ":6240,"ĠÑĩÐµÐ»Ð¾Ð²ÐµÐºÑĥ":6241,"ĠÐ¾Ð³Ð»Ñı":6242,"ĠÐ»ÑĥÑĩÑĪÐ¸Ð¹":6243,"ĠÑĢÐ°Ð·Ð½ÑĭÑħ":6244,"ĠÐĶÐ¾Ð¼":6245,"ĠÐ¿Ð¾Ð´Ð½ÑıÑĤÑĮÑģÑı":6246,"ĠÐ·Ð°Ð¼ÐµÑĤÐ¸ÑĤÑĮ":6247,"ĠÐ¿Ð¾ÑģÑĤÐ°":6248,"ÐµÐ½ÐµÑĢ":6249,"ĠÐ¿ÑĢÐ¸Ð¾Ð±":6250,"ĠÐ¿Ð¾Ð»Ð½ÑĭÐ¹":6251,"ĠÐºÐ¾ÑĢÐ¸Ð´Ð¾ÑĢÑĥ":6252,"Ð»ÑĥÑİ":6253,"ĠÑĨÐµÐ»ÑĭÐ¹":6254,"ĠÐŁÑĢÐµÐº":6255,"ĠÐ¶Ð¸Ð´":6256,"ĠÐ¿Ð°ÐºÐµÑĤ":6257,"ĠÐ¸Ð»Ð»Ñİ":6258,"Ð»Ð¸Ð»ÑģÑı":6259,"Ð¸Ð²Ð°Ð»Ð°ÑģÑĮ":6260,"ÐµÐ¶Ð½Ð¾":6261,"ĠÑĢÐ°Ð·ÑĢÑĭÐ²":6262,"ĠÐ¼Ð°ÑĪÐ¸Ð½Ð°":6263,"ĠÑģÑĤÑĭÐ´Ð½Ð¾":6264,"Ð°Ð´Ñĭ":6265,"ĠÐ°Ð»ÑĮÑĦÐ°":6266,"ĠÑĥÐ´Ð°ÑĢÐ°":6267,"ĠÑģÐ»Ð°Ð²":6268,"ÑĤÐµÐ»ÑĮ":6269,"Ð¦":6270,"ĠÑĢÐ°Ð·Ð½Ð¾":6271,"ĠÐ¿ÑĭÐ»ÑĮ":6272,"ÑģÑĤÑĢÐ¸":6273,"ĠÑģÑĤÑĢÐ°Ð½Ð½Ð¾Ðµ":6274,"ĠÐ¢Ð¸Ñħ":6275,"ĠÐ½Ð¾Ð³Ð¾Ð¹":6276,"ĠÐĴÐ¾Ð½":6277,"ĠÑĢÑĤÐ°":6278,"ĠÑģÐ»ÑĥÐ³":6279,"ĠÐºÑĢÐµÐ¿ÑĩÐµ":6280,"ĠÐ¾Ð¿ÑĥÑģÑĤÐ¸Ð»Ð°":6281,"ĠÐ¿Ð¾Ð¾Ð±ÐµÑī":6282,"ĠÑĥÑģÑĤÑĢÐµÐ¼":6283,"ĠÐºÐ¸Ð²Ð°ÐµÑĤ":6284,"ĠÐ²ÑĤ":6285,"ĠÐ¿Ð¾Ð¼Ð½Ð¸Ð»":6286,"ĠÑĥÐ´Ð¸Ð²Ð¸Ð»Ð°ÑģÑĮ":6287,"ĠÐĶÐ¶ÐµÑĢÐ°ÑĢÐ´":6288,"ĠI":6289,"ĠÐĶÐ¶Ð¾Ð½Ð°":6290,"ĠÐ¿Ð°ÑĢÑĤ":6291,"ĠÐ²ÑĭÑĢÑĭÐ²":6292,"ĠÐ¿ÑĢÐ¸ÑģÐµÐ»":6293,"ĠÑĥÐ¼ÐµÑĢÐµÑĤÑĮ":6294,"ĠÑĢÐ¾Ð¼Ð°Ð½":6295,"ĠÐ¾Ð±ÐµÑģÐ¿Ð¾ÐºÐ¾":6296,"Ð»Ð¾Ð¶Ð¸Ð»":6297,"ĠÐ¿ÐµÑĢÑģÐ¾Ð½":6298,"ĠÐºÑĥÑĢÑģÐµ":6299,"ĠÑģÑĤÐ¾Ð¿":6300,"Ð¸Ð·Ð»Ð¸":6301,"ĠÐ±ÑĢÐ¾ÑģÐ¸Ð»Ð°":6302,"ÑĢÐµÑī":6303,"ĠÐ¾Ð´ÐµÑĤ":6304,"ĠÐ¡Ð°":6305,"ĠÐĵÐ¾ÑĢ":6306,"ĠÐ±Ð¾Ð»ÑĮÑĪÑĥÑİ":6307,"ĠÐºÑĥÑħÐ½Ð¸":6308,"ĠÐ¿Ð¾Ð¿ÑĭÑĤÐºÐ¸":6309,"ĠÑĤÑĢÐ¸Ð´ÑĨ":6310,"ĠÐ¶ÐµÑĢÑĤÐ²":6311,"Ð³Ð¾Ð²":6312,"ĠÐĳÐ¾":6313,"Ð¼Ð¾ÑĤÑĢÐµÑĤÑĮ":6314,"ĠÐ¿ÑĢÐµÐ·ÑĢ":6315,"ĠÐ¾ÑĤÐ²ÐµÑĢÐ½ÑĥÐ»ÑģÑı":6316,"ĠÐ·Ð½Ð°ÑİÑĤ":6317,"ÑīÐ¸Ðº":6318,"ĠÐ¥Ð¾Ð³Ð²Ð°ÑĢÑĤ":6319,"Ġyou":6320,"ĠÐºÑĢÐ¸ÐºÐ¸":6321,"ÑĥÐ´Ñĥ":6322,"Ð°Ð½Ð½ÑĭÐ¼Ð¸":6323,"ĠÐ¿Ð¾Ð´Ð¾Ð±Ð½Ð¾Ðµ":6324,"ĠÑĢÐ°Ð´Ð¾ÑģÑĤÐ¸":6325,"Ð»ÐµÐ½Ð½ÑĭÑħ":6326,"ÑĳÐ½Ð°":6327,"ĠÐ¾ÐºÐ½Ñĥ":6328,"ĠÑĥÐ»Ð¾Ð²":6329,"ĠÐ·Ð°Ð´Ð°Ð²":6330,"ĠÐ±Ð»Ð¸Ð½":6331,"ĠÐ¿Ð»Ð°Ð½Ñĭ":6332,"ÑĨÐ°Ð¼":6333,"ĠÐ½Ð°Ð¼ÐµÐº":6334,"Ð¸ÑĤÐ°Ð½Ð°":6335,"ĠÐºÐ°Ð±Ð¸Ð½ÐµÑĤÐµ":6336,"ĠÐ¼Ð¾Ð¼ÐµÐ½ÑĤÑĭ":6337,"ÐĿÐ°Ð´":6338,"ĠÐ´Ð¾ÑĢÐ¾Ð³Ð¾Ð¹":6339,"ĠÐ¼Ð°Ð»ÑĮÑĩÐ¸ÑĪÐºÐ°":6340,"ĠÐ¿ÑĢÐ¾ÑīÐµ":6341,"ĠÐ¼Ð»Ð°Ð´ÑĪÐ¸Ð¹":6342,"ĠÐľÐ°Ð¹ÐºÐ»":6343,"ĠÐ¿Ð¾ÑĤÐ¾Ð»Ð¾Ðº":6344,"ĠÑĢÐ°Ð·Ð´ÐµÐ»":6345,"ĠÐĵÐ¾Ð²Ð¾ÑĢ":6346,"Ð°Ð¶Ð½Ð¾":6347,"ĠÐŃÐ´Ð²Ð°ÑĢ":6348,"Ð³Ð°Ð¼Ð¸":6349,"ĠÐŁÐ°Ð¿":6350,"ĠÐ²ÑĭÐ¿Ð°Ð»":6351,"ĠÐľÐ¾Ð¸":6352,"ĠÐ¾Ð±ÑĢÐ°ÑĤÐ¸Ð»ÑģÑı":6353,"ĠÑģÑĤÐ°ÑĢÐ°Ð»Ð°ÑģÑĮ":6354,"ĠÐ¼ÐµÑģÑıÑĨÐµÐ²":6355,"ĠÐ¼Ð°Ð»ÐµÐ½ÑĮÐºÐ¾Ð¹":6356,"ĠÐ²Ð¾Ð·ÑĮ":6357,"ÑĤÐ¾ÑĢÐ¾Ð¿":6358,"ĠÑĦÐ¾Ð½Ð°":6359,"ĠÑħÐ¾ÑĤÐ¸ÑĤÐµ":6360,"ĠÐ¾ÑģÑĤÐ°Ð½ÐµÑĤÑģÑı":6361,"Ð¸Ð²ÑĪÐ¸Ð¹":6362,"ĠÑģÐºÐ°Ð¼":6363,"ĠÐ·Ð°Ð±Ð°Ð²":6364,"Ð½Ð¸ÑĢÐ¾Ð²":6365,"ĠÑĥÑģÐ»ÑĭÑĪÐ°Ð²":6366,"ĠÑĤÐµÑĢÐ¿ÐµÑĤÑĮ":6367,"ĠÑĢÐµÐ¼":6368,"Ð°Ð¹ÑĤÐµÑģÑĮ":6369,"Ð»Ð¾Ð½Ð¸Ð²ÑĪÐ¸ÑģÑĮ":6370,"ĠÐŀÑģÑĤÐ°Ð²":6371,"ĠÑıÐ³":6372,"ĠÐ´ÐµÐ»Ð¾Ð¼":6373,"ĠÑģÑĤÑĢÐ°Ð½Ð½ÑĭÐ¹":6374,"ĠÐ½ÐµÐ²ÐµÑĢÐ¾ÑıÑĤÐ½Ð¾":6375,"ĠÑĢÐ°Ð·Ð³Ð¾Ð²Ð°ÑĢÐ¸Ð²Ð°ÑĤÑĮ":6376,"ĠÐ¿Ð¾Ð¶Ð°Ð»Ð°":6377,"ĠÐ¾Ð±Ð½Ð¸Ð¼Ð°Ñı":6378,"ĠÑĢÐ°ÑģÑĤÐ²Ð¾ÑĢ":6379,"ĠÐ¾Ð±Ð¾Ð¶":6380,"ĠÐºÐ¾Ð½ÑĦ":6381,"ĠÑĤÐµÑĢÑĢÐ¸":6382,"ĠÐ¸Ð½ÑĦÐ¾ÑĢÐ¼Ð°ÑĨÐ¸Ñİ":6383,"ĠÐĶÐ¶ÐµÐ¹Ð½":6384,"ÑĭÑģÐº":6385,"Ð¸ÑĢÐ°Ð»":6386,"ĠÑīÐµÐºÐ°Ð¼":6387,"Ð¸ÑģÑĤÐµÑĢ":6388,"ĠÑĥÐºÐ°Ð·Ð°Ð»":6389,"ÑĤÐ°Ð»Ðº":6390,"ĠÐ·Ð°ÑģÑĤÐ°Ð²Ð¸ÑĤÑĮ":6391,"ĠÐ¿Ð¾Ð»Ð¾Ð¶ÐµÐ½Ð¸Ðµ":6392,"ĠÑģÐ¾Ð±ÑģÑĤÐ²ÐµÐ½Ð½Ð¾":6393,"ĠÐ¿Ð¾Ð¿Ð°ÑģÑĤÑĮ":6394,"ĠÐ¸ÑģÐ¿ÑĥÐ³Ð°Ð½Ð½Ð¾":6395,"ĠÐĹÐµÐ¼":6396,"ĠÐ·ÑĥÐ±Ð°Ð¼Ð¸":6397,"ĠÐ¿Ð¾ÐºÑĢÑĭ":6398,"ĠÐ¾Ð±ÑģÑĤÐ°Ð½Ð¾Ð²":6399,"ĠÑħÐ¾Ð»Ð¾Ð´Ð½ÑĭÐ¹":6400,"ĠÑģÐ¸ÑĤÑĥÐ°ÑĨÐ¸Ñı":6401,"ÑıÐ½Ð½Ð¾":6402,"ĠÐ¿Ð¾ÑıÐ²Ð¸Ð»Ð¸ÑģÑĮ":6403,"ĠÐ±ÑĢÐ°ÑĤÐ¾Ð¼":6404,"ĠÐ¡Ñĥ":6405,"ĠÑģÐ¿Ð¸Ñģ":6406,"ĠÐ¿Ð¾Ð²Ð¸Ñģ":6407,"ĠÐ³Ð¾Ð´Ñĭ":6408,"ĠÐ¿ÑĢÐ°Ð²Ð¾":6409,"ĠÐ¡Ð°ÑĪÐ°":6410,"ĠÐ½Ð°ÑģÑĤÐ¾ÑĢÐ¾Ð¶":6411,"Ð»ÑĳÐ½":6412,"ĠÐºÐ¾ÑģÐ½ÑĥÐ»ÑģÑı":6413,"ĠÐ¼ÐµÑħ":6414,"Ð±Ð¾Ð¹":6415,"ĠÐľÐ¸Ðº":6416,"ĠÑįÐºÑģÐ¿":6417,"ĠÐ¼ÑĢÐ°Ñĩ":6418,"Ð¸Ð»Ð»Ð°":6419,"Ð¼Ð¸Ð½":6420,"ĠÐ²ÐµÑĢÐ¾":6421,"ĠÑĢÐ°ÑģÑģÐºÐ°Ð¶":6422,"ĠÑĥÐ´Ð¾Ð²Ð¾Ð»ÑĮÑģÑĤÐ²Ð¸Ñı":6423,"ĠÐ·Ð´Ð°Ð½Ð¸Ñı":6424,"ĠÐºÐ°Ð¿ÐµÐ»ÑĮ":6425,"ĠÐĹÐ°ÑĤÐ¾":6426,"ĠÐ¾ÐºÑĢÑĥÐ³":6427,"ĠÐ¤ÑĢÐµÐ´":6428,"en":6429,"ÑİÑīÐ¸Ðµ":6430,"ĠÐ·Ð°Ð±ÑĢÐ°ÑĤÑĮ":6431,"ĠÐ¿Ð¾ÑģÐ»ÐµÐ´Ð½ÐµÐ¹":6432,"ĠÐ¿Ð¾Ð·Ð²Ð°Ð»":6433,"ĠÐ¸ÑģÑĤÐ¾ÑĢÐ¸Ñİ":6434,"ĠÐ¸Ð½ÑĤÐµÑĢÐµÑģÐ¾Ð¼":6435,"ĠÐ²Ð·Ð²Ð¾Ð»":6436,"ÑģÐ¾Ð½Ð°":6437,"ÑĥÑĢÑĭ":6438,"ĠÑĤÑĢÐµÑĤÐ¸Ð¹":6439,"ĠÑĩÐ¸ÑģÑĤÐ¾":6440,"ĠÐ½Ð°Ð¿Ð¸ÑĤ":6441,"ĠÐŀÑĤÐ»Ð¸ÑĩÐ½Ð¾":6442,"ĠÑĤÐ¸ÑĪÐ¸Ð½Ñĥ":6443,"ĠÑģÑĥÐ´Ð¾ÑĢÐ¾Ð¶Ð½Ð¾":6444,"ĠÐ¾ÑħÑĢÐ°Ð½":6445,"ĠÑģÐ¸ÑģÑĤ":6446,"ĠÐ½Ð°Ð±Ð»ÑİÐ´Ð°ÑĤÑĮ":6447,"ĠÐ¾ÐºÐ½Ð¾Ð¼":6448,"ĠÐ½Ð°ÐºÐ°Ð·":6449,"Ð¸ÑĤÐµÐ»ÑĮÐ½ÑĭÐµ":6450,"ĠÐ½ÐµÐ¾Ð¶Ð¸Ð´Ð°Ð½Ð½Ð¾ÑģÑĤÐ¸":6451,"ĠÐĿÐ°ÑĢ":6452,"ĠÐĺÐ½Ð¾":6453,"ĠÐ¿ÑĢÐ¾ÑĪÐ»Ð¸":6454,"ÑģÐ¸Ð¼":6455,"ĠÐĶÐ¶ÐµÐ½Ñģ":6456,"ĠÐºÐ¾Ð½ÑĤÑĢÐ¾Ð»":6457,"ĠÐ»ÐµÐºÐ°ÑĢ":6458,"ÑİÑĢÐ¿":6459,"ĠÐ¿Ð°ÑĢÑĭ":6460,"Ð»ÐµÐ½Ð½Ð¾Ð³Ð¾":6461,"ĠÐºÐ°ÑĢÐ¼Ð°Ð½":6462,"ÐĽÑİ":6463,"ĠÐ¿Ð¾ÑĤÐ¾Ð»":6464,"ĠÐ¿Ð¾Ð¸ÑģÐºÐ°Ñħ":6465,"ĠÐ¾ÐºÐ°Ð·ÑĭÐ²Ð°ÐµÑĤÑģÑı":6466,"ĠÐ³ÑĥÐ»Ñı":6467,"ĠÐ²Ð¸Ð´Ñı":6468,"ĠÐ¾Ð¼ÐµÐ³Ð°":6469,"ĠÐ¿Ð¸Ð»":6470,"ĠÐ·Ð°ÑħÐ¾Ð´":6471,"Ð»Ð°Ð²Ð°":6472,"ĠÑĢÑĥÑĩÐºÑĥ":6473,"ĠÐ¿Ð»ÐµÐ¼":6474,"ĠÐ´Ð°Ð½Ð½ÑĭÐ¹":6475,"ĠÑĢÑİÐº":6476,"ĠÐ¿ÑĢÐ¾Ð²ÐµÐ´":6477,"ĠÐ¿ÑĢÐ¾ÑģÐ¸Ð»":6478,"ÑĢÐ¾Ð¶":6479,"ĠÐ¥Ð²Ð°ÑĤÐ¸ÑĤ":6480,"ÑıÑĤÐ¾":6481,"ĠÑĥÐ³ÑĢÐ¾Ð¶":6482,"ĠÐ¾ÑģÑĤÑĢÐ¾Ð²":6483,"ĠÑģÑĥÐ¿ÑĢÑĥÐ³":6484,"Ð¾Ð½Ð¾Ð²":6485,"ĠÐ±Ð¾Ñģ":6486,"ĠÑĤÐºÐ°Ð½ÑĮ":6487,"ÐĿÐ¸":6488,"ÑĢÐ¸ÑĦÑĦÐ¸Ð½Ð´Ð¾ÑĢ":6489,"ĠÐŁÐ¾Ð³":6490,"ÑĭÐ²Ð°Ð»Ð°ÑģÑĮ":6491,"ÑĩÐ°Ð½":6492,"ĠÐºÐ¾ÑĢÐ¾Ð»ÑĮ":6493,"ĠÑĩÐµÐ»Ñİ":6494,"ÑĨÐ°Ð¼Ð¸":6495,"ĠÑĪÐµÐ¸":6496,"ĠÐĿÐµÑģ":6497,"ÐµÐ±ÑıÑĤÐ°":6498,"Ð°Ð´ÐµÐ¼":6499,"ĠÐ£Ð²Ð¸Ð´":6500,"ĠÐĴÐ¸Ð½ÑĩÐµÑģÑĤ":6501,"ĠÐ°Ñģ":6502,"ĠÐºÐ¾Ð³":6503,"ĠÐ¿ÑĢÐ¸ÑĤÐ²Ð¾ÑĢ":6504,"ÑģÑĤÐ²Ð¾Ð²Ð°ÑĤÑĮ":6505,"ÑĪÐµÐº":6506,"Ð¸ÑĤÐµÐ»ÑĮÐ½Ð¾Ð³Ð¾":6507,"ÑĤÐ¸Ð¼":6508,"ĠÑĥÑĪÑĳÐ»":6509,"ĠÑģÐºÑĢÐµÑģÑĤ":6510,"Ð¾Ð´Ð¸ÑĤÑĮ":6511,"ÑĢÑĥÑĩÐ¸Ð²":6512,"ĠÐļÐ°ÐºÐ¾Ð³Ð¾":6513,"ĠÐ¿ÑĢÐ¸Ð½ÑıÐ»Ð°ÑģÑĮ":6514,"ĠÐŁÐ¸ÑĤÐµÑĢ":6515,"ÑĮÑıÐ²":6516,"Ð³Ðµ":6517,"ĠÐ¿ÑĢÐ¸Ð¼ÐµÑĢÐ½Ð¾":6518,"ĠÐĹÐ´ÑĢÐ°Ð²ÑģÑĤÐ²ÑĥÐ¹":6519,"ĠÐ½Ð°ÐºÐ»Ð¾Ð½Ð¸Ð»ÑģÑı":6520,"Ð»ÑĥÐ³":6521,"Ð¸ÑĤÐµÐ»ÑĮÐ½Ð¾Ðµ":6522,"ĠÐ¿ÑĢÐ¾Ð²ÐµÑĢÐ¸ÑĤÑĮ":6523,"Ð°Ð»Ð¸Ð·":6524,"ĠÐ¡Ð½Ð¾Ð²Ð°":6525,"ĠÑĢÐ°Ð½Ñĭ":6526,"ĠÐ³Ð¸Ð±":6527,"ĠÐ½Ð°ÑĤÑı":6528,"ĠÐ±Ð¾ÑıÑģÑĮ":6529,"ÑĤÑĭÐ¼Ð¸":6530,"ÑĥÐ¸":6531,"ĠÐ¸Ð·Ð½ÑĥÑĤÑĢÐ¸":6532,"ÑĢÑİ":6533,"ĠÐ¸ÑģÐ¿Ð¾Ð»ÑĮÐ·Ð¾Ð²Ð°ÑĤÑĮ":6534,"ÑĥÑĢÐ¸":6535,"ĠÐ£Ð¸Ð·Ð»Ð¸":6536,"ĠÐ³ÑĢÐ°ÑĦ":6537,"ĠÐ¿ÑĢÐ¸ÑģÑĤÐ°Ð»ÑĮÐ½Ð¾":6538,"ÑĩÐµÑģÑĤÐ²Ð°":6539,"ĠÑģÑĤÐµÑģ":6540,"ÑĢÐ°Ð¼Ð¸":6541,"ĠÑĪÐµÐ¿ÑĩÐµÑĤ":6542,"ĠÐ¿Ð¾Ð¿ÑĢÐ¾ÑģÐ¸Ð»Ð°":6543,"ĠÐĸÐµÐ½":6544,"ĠÐ´Ð¾ÑģÑĤÐ¸Ð³":6545,"ĠÐĽÐ¸ÑĪÑĮ":6546,"ĠÐľÐ°Ð»ÑĮÑĩÐ¸":6547,"ĠÐ´Ð¾ÑĢÐ¾Ð³Ð¸":6548,"ĠÑĪÐµÐ¿ÑĤ":6549,"Ð°Ð»Ñĭ":6550,"ĠÐĶÐ¶Ð°ÑĢÐµÐ´":6551,"ĠÑĢÐ°Ð·ÑĬ":6552,"ĠÐ¶ÐµÐ½Ð¸":6553,"ĠÑİÐ±":6554,"ĠÑįÑĦÑĦ":6555,"Ð¾Ð»Ð¾ÑģÑĭÐ¹":6556,"ĠÐļÐ°Ð³":6557,"ĠÐ¿ÑĢÐ¾Ð±Ð»ÐµÐ¼Ð°":6558,"ĠÑģÐ¾Ð³Ð»Ð°ÑģÐ¸Ð»Ð°ÑģÑĮ":6559,"ĠÑģÐ¿Ð¸Ð½ÐºÑĥ":6560,"ĠÑģÐ¾Ð±Ð¸ÑĢÐ°ÐµÑĤÑģÑı":6561,"ĠÐ§Ð°ÑĢ":6562,"ĠÐľÐµÑĢÐ»Ð¸Ð½":6563,"ĠÐ±ÑĢÐ°ÑĤÑĥ":6564,"ĠÐ»ÐµÐ´Ð¸":6565,"ĠÐ¿ÑıÑĤÐ¸":6566,"ĠÐŃÑĢÐ¸Ðº":6567,"ĠÐĲÐ½Ð½Ð°":6568,"ĠÐŁÑĢÐ¾ÑģÑĤÐ¸ÑĤÐµ":6569,"ĠÐ·Ð°ÑģÑĭÐ¿":6570,"ĠÐ¾Ð´Ð½Ð¸":6571,"ÑĥÐ¼Ð¸":6572,"ĠÐ¿Ð¾ÑĢÐ°Ð·":6573,"ĠÐ±ÐµÑĢÐµÐ¼":6574,"ĠÐ¿Ð»ÐµÐ½":6575,"ĠÐ½Ð°ÑĩÐ¸":6576,"ĠÑĥÐ·Ð½Ð°ÐµÑĤ":6577,"ĠÐľÑįÑĤ":6578,"ĠÑĤÐ¸ÑħÐ¾Ð½ÑĮÐºÐ¾":6579,"ĠÐ½ÐµÐ±ÐµÑģ":6580,"ĠÐĵÐ°ÑĢ":6581,"ÑģÑĤÐ¸ÑĤÑĮ":6582,"ĠÐ²Ð´Ð¾Ð»ÑĮ":6583,"ĠÐ¿Ð¾Ð¹Ð´ÐµÐ¼":6584,"ĠÐĽÐ¸Ð´":6585,"ĠÐ¡ÐºÐ°Ð¶Ð¸":6586,"ĠÑģÐ¸Ð»ÑĮÐ½ÑĭÐ¹":6587,"Ð½Ð¾ÑģÑı":6588,"ĠÐ²ÑĭÐ»ÐµÐ·":6589,"Ð°Ð½Ð·":6590,"ĠÐŁÑĢÐ¾ÑĪÑĥ":6591,"ĠÐ¿ÑĢÐ¸ÑĢÐ¾Ð´":6592,"ĠÐ»Ð°ÑģÐºÐ¾Ð²Ð¾":6593,"ĠÐ¾Ð±ÑĥÑĩ":6594,"ĠâĪĴ":6595,"ĠÐĶÐ¾ÐºÑĤÐ¾ÑĢ":6596,"ĠÐ¸ÑģÑħÐ¾Ð´":6597,"ĠÐ²ÑĭÑĤÐµÑĢ":6598,"Ð»Ð¾Ðµ":6599,"ĠÑģÑĥÑĤ":6600,"ÑĢÐ¾Ð²Ð°Ð²":6601,"ĠÐ½ÐµÐ²ÐµÑĢÐ¾ÑıÑĤ":6602,"ĠÐĿÐ¸ÐºÐ°Ðº":6603,"ÑĢÐ°Ð½Ð°":6604,"ĠÑĥÑģÐ¿ÐµÐ»Ð¸":6605,"ĠÐ½Ð°Ð²ÐµÑĢÑħ":6606,"ĠÐ°Ð²ÑĤÐ¾Ð±":6607,"ÑĢÐµÐ°Ð³":6608,"ĠÐ²ÐµÑīÑĮ":6609,"ÑĩÐ¸ÐºÐ¸":6610,"ĠÐ²Ð·Ð²":6611,"ĠÐ¾Ð±ÑıÐ·Ð°Ð½":6612,"ÐºÑĥÐ½":6613,"ĠÐ¿Ð¾Ð»Ð°Ð³":6614,"ĠÐ³Ð½Ð¾Ð¼":6615,"ĠÐ¿Ð¾Ð»Ðµ":6616,"Ð¸ÑĩÐµÑģÑĤÐ²Ð¾":6617,"ĠÐ¿Ð¾ÑĨÐµÐ»Ð¾Ð²Ð°Ð»Ð°":6618,"ĠÐ»Ð¾ÑĪ":6619,"ĠÐ¿Ð¾Ð·Ð²Ð¾Ð»Ð¸Ð»":6620,"ĠÐ´ÐµÐ¼Ð¾Ð½Ð°":6621,"ĠÐ¿ÑĢÐ¸Ð½ÑĨÐµÑģÑģÐ°":6622,"ĠÐºÑĢÐ¸ÑĩÐ°ÑĤÑĮ":6623,"ĠÐ¾Ð¿ÐµÑĢÐ°":6624,"ĠÐ½Ð°Ð·Ð½Ð°Ñĩ":6625,"ĠÑĥÑģÐ¿Ð¾ÐºÐ¾Ð¸ÑĤÑĮ":6626,"ĠÐ¸Ð½ÑĤÐµÑĢ":6627,"ĠÐ¿Ð»Ð°ÐºÐ°ÑĤÑĮ":6628,"ĠÑĥÐ»ÐµÑĤ":6629,"ÑİÑīÐµÐ¹":6630,"at":6631,"ĠÑĢÐµÑģÑĤÐ¾":6632,"ĠÐ·Ð°Ð¿ÑıÑģÑĤÑĮÐµ":6633,"ÐºÐ¾ÑģÑĤÑĮ":6634,"ĠÑĢÑİÐºÐ·":6635,"ĠÐĽÐ¾Ð½":6636,"Ð½ÑĥÑģ":6637,"ÑĪÐ°ÑĢÐ°ÑĪ":6638,"ĠÐ¡ÐºÐ¾ÑĢÐµÐµ":6639,"ĠÐ¿Ð¾ÑĤÐ°Ñī":6640,"ĠÑĥÐ»ÑĭÐ±ÐºÐ¸":6641,"ĠÐ¿Ð¾ÑģÐ¿ÐµÑĪÐ¸Ð»":6642,"Ð°ÑİÑīÐµÐµ":6643,"ĠÐ¿Ð¾Ð¼ÐµÐ½Ñı":6644,"ÐºÐ½ÑĥÐ»Ð°ÑģÑĮ":6645,"ĠÐ²Ð¾Ð·Ð´":6646,"Ð¾ÑĢÐ¾Ð²":6647,"ÑİÑīÐ¸Ñħ":6648,"ĠÐ¿Ð¾ÐºÐ°Ð·ÑĭÐ²Ð°Ñı":6649,"Ð¾ÑĩÐµ":6650,"ĠÐĳÐµÑĢ":6651,"ĠÐ²Ð½Ð¸Ð·Ñĥ":6652,"ĠÑĨÐµÐ»ÑĥÐµÑĤ":6653,"ĠÐ²Ð¿ÑĢÐ¾ÑĩÐµÐ¼":6654,"ĠÐłÐ¾Ð·":6655,"Ð½Ð¾ÑģÑĤ":6656,"ĠÐŁÐ¾ÑĪÐ»Ð¸":6657,"ĠÐ¿Ð¾Ð¿ÑĢÐ¾Ñī":6658,"ĠÑĩÐµÑĤÑĭÑĢ":6659,"ĠÐľÐ°Ð´":6660,"ĠÐ²Ð°ÑĢÐ¸Ð°Ð½ÑĤ":6661,"ĠÑģÐµÐ¼ÑĮÐµ":6662,"ĠÐ½Ð°ÑģÑĤÐ¾ÑıÑīÐ¸Ð¹":6663,"ĠÐ¿Ð¾Ð±Ñĭ":6664,"ĠÑģÑĤÐ¾Ð»Ð¸Ðº":6665,"ĠÐ¾Ð³ÑĢÐ¾Ð¼Ð½ÑĭÐ¹":6666,"ĠÐĴÐ°ÑģÐ¸Ð»Ð¸":6667,"ÑĤÐ¾ÑĢÑĭ":6668,"ĠÐ¡ÐµÑħÑĥÐ½":6669,"ÐºÐ¾Ð»ÐµÐ¿":6670,"ĠÐ³ÑĥÑģÑĤ":6671,"Ð¢ÑĥÑĤ":6672,"ĠÐ¿Ð¾Ð´ÑĢÑĥÐ¶":6673,"ĠÐ½ÐµÐ½Ð°Ð²Ð¸":6674,"ĠÐ¼Ð»Ð°Ð´ÑĪÐµÐ³Ð¾":6675,"Ð¾ÑĢÑıÐ´":6676,"ĠÐ¾Ð±Ð»Ð°":6677,"ĠÐ±ÐµÑģÐµÐ´":6678,"ĠÐ´ÐµÐ»Ð°Ð»Ð°":6679,"Ð¥Ð¾ÑĢÐ¾ÑĪÐ¾":6680,"ĠÐºÑĥÑĢÑĤÐºÑĥ":6681,"ÑĦÐ¸Ð³":6682,"ĠÐľÐ°":6683,"ÐµÑĢÑĮÐµÐ·":6684,"ĠÐ±ÐµÑĪÐµÐ½":6685,"ĠÐ¾ÑĤÑĪ":6686,"ĠÐ½Ð°Ð¸Ð²":6687,"ÑĤÐ¾ÑĩÐºÑĥ":6688,"ÐµÐºÑĥ":6689,"ĠÑıÐ²Ð»ÑıÐµÑĤÑģÑı":6690,"ĠÐ²ÑģÑĳÐ¼":6691,"ĠÐ´ÐµÑĢÐ³":6692,"ĠÑģÐ¾Ð·Ð´Ð°Ð²":6693,"ĠÑıÐ´":6694,"ĠÑĤÐ²ÐµÑĢÐ´":6695,"ĠÐ¿Ð¾Ð²ÐµÑģ":6696,"ĠÐ¿Ð¾ÑģÐ»ÐµÐ´Ð½ÐµÐ³Ð¾":6697,"ĠÐ½Ð°Ð´ÐµÑıÐ»ÑģÑı":6698,"ĠÑģÑĤÐµÐ¿":6699,"ÐµÐ½ÑĤÐ¸":6700,"ÐĴÐ·":6701,"ĠÐ¸Ð³ÑĢÑĭ":6702,"ĠÐ²ÑģÑĤÑĥÐ¿":6703,"ÑīÐµÐ¼":6704,"ĠÐŀÑģÐ¾Ð±ÐµÐ½Ð½Ð¾":6705,"ĠÐ¸ÑģÑĤÐ¾Ñĩ":6706,"ÑİÐ·":6707,"ĠÑĤÑİ":6708,"ĠÐ±Ð¾Ð»ÑĮÑİ":6709,"ĠÑĥÐ¿Ð¾Ð¼":6710,"ĠÐ´Ð°Ð¹":6711,"ĠÐ¿Ð°ÑĢÑĤÐ½":6712,"ĠÐ¿Ð¾ÑĢÐ¾Ð¹":6713,"ĠÐ¿ÑĢÐ¾Ð²ÐµÐ»Ð°":6714,"Ð¼ÐµÑģÑĤ":6715,"ĠÑĤÑĥÐ¼Ð±":6716,"ÐµÐ½Ð½Ð¾Ð¼Ñĥ":6717,"ĠÑĤÑĢÐµÑħ":6718,"ĠÐ¢Ð¾ÑĩÐ½Ð¾":6719,"ĠÐľÐ°ÑĢÐº":6720,"ĠÐ¼Ð¸Ð½Ð¸Ð¼":6721,"ĠÑģÐºÐ°Ð·Ð°Ð²":6722,"ĠÐ²ÑĭÐºÐ»ÑİÑĩ":6723,"ĠÐ¿Ð¾Ð²ÐµÑĢÐ½ÑĥÐ»":6724,"ĠÑģÐ´ÐµÐ»Ð°ÐµÑĤ":6725,"ĠÐ·Ð»Ð¾ÑģÑĤÐ¸":6726,"ĠÐĲÐºÐ¸":6727,"ĠÑĢÐ°ÑģÑģÐºÐ°Ð·ÑĭÐ²Ð°Ð»":6728,"ĠÐ±ÐµÐ·Ð¾Ð¿Ð°ÑģÐ½Ð¾ÑģÑĤÐ¸":6729,"ÑĥÑİÑīÐ¸Ñħ":6730,"ĠÐ¡ÑĤÑĢÐ°Ð½Ð½Ð¾":6731,"ĠÑħÐ¾Ð»Ð¾Ð´Ð¸Ð»ÑĮ":6732,"ÐĳÑĭ":6733,"Ð¸ÑĪ":6734,"ĠÐ½Ð¸ÑĩÐµÐ¼":6735,"ĠÐ´Ð°Ð»ÑĮÐ½ÐµÐ¹":6736,"ĠÑģÐ¸Ð¼Ð¿Ð°ÑĤÐ¸":6737,"ĠÐ±ÑĥÐ¼Ð°Ð¶":6738,"ĠÐ½Ð°ÑĪÑĳÐ»":6739,"ĠÐľÐ¸Ñħ":6740,"ĠÐ¾ÑĤÐ´Ð¾ÑħÐ½ÑĥÑĤÑĮ":6741,"Ð¸Ð²Ð°ÑİÑĤÑģÑı":6742,"ÐºÐ°ÑĤÑĮ":6743,"ÐµÐ½Ð°Ð²":6744,"ĠÐ¾ÑĤÐºÑĢÑĭÐ»Ð°ÑģÑĮ":6745,"ĠÑĦÐ¸Ð·Ð¸":6746,"ĠÐ²ÐµÑīÐµÐ¹":6747,"ĠÐ¡ÐµÑĢÐ´ÑĨÐµ":6748,"Ð½ÐµÐ½Ð¸Ð¹":6749,"ĠÐ½Ð°Ð³Ð»Ð¾":6750,"ĠÐ´ÐµÑĤÑģÑĤÐ²Ð°":6751,"ÑĮÑİÑĤÐµÑĢ":6752,"ĠÐ±Ð»Ð¾Ðº":6753,"ĠÐĲÐ»ÑĮÑĦ":6754,"Ð²ÑĭÑĢ":6755,"ĠÐ¾Ð±Ð´ÑĥÐ¼":6756,"ĠÐ²Ð±":6757,"ĠÐŁÐ¾Ð½Ð¸Ð¼":6758,"ĠÑĥÐ»ÑĭÐ±Ð°ÑĤÑĮÑģÑı":6759,"ĠÐŀÐ¿ÑıÑĤÑĮ":6760,"ĠÐĽÐ¸Ð½":6761,"ĠÐ¿ÐµÑĢÐ²Ð°Ñı":6762,"ĠÑıÑĢÐ¾ÑģÑĤ":6763,"ÑĥÑģÑĤÐ¸Ð²":6764,"ÑĥÐ»ÑıÑĤÑĮ":6765,"ĠÑģÑĤÐ°ÑĢÑĪÐµÐ³Ð¾":6766,"ĠÑĢÐ°Ð·Ð³Ð»ÑıÐ´ÐµÑĤÑĮ":6767,"ĠÐ¼Ð½Ð¾Ð¶ÐµÑģÑĤÐ²Ð¾":6768,"ĠÐ¿Ð¾Ð²Ð¾Ð´":6769,"ĠÐ´Ð°Ð»Ð¸":6770,"ĠÐ²Ð¸Ð´Ð°":6771,"ÑĩÐµÑģÑĤÐ²Ð¾":6772,"ĠÐ·Ð°Ð»ÐµÐ·":6773,"ĠÐºÐ½Ð¸Ð¶":6774,"ĠÑģÐºÑĢÑĭÑĤÑĮ":6775,"ĠÑħÐ¸ÑĤÑĢÐ¾":6776,"ĠÑĦÐ°Ð½Ð°":6777,"Ð¼Ð¾Ðº":6778,"Ð¸Ð¼ÐµÑĤ":6779,"ĠÐ¸ÑģÑĤÐ¾ÑĢÐ¸Ñı":6780,"ĠÑĢÑıÐ´":6781,"ĠÐºÐ°Ð¼ÐµÐ½ÑĮ":6782,"ÑĥÐ´ÑĢ":6783,"ĠÐ»ÐµÑģÐ°":6784,"ÑĩÐµÐ»":6785,"ÐºÑĥÑĪ":6786,"ĠÐ²ÑĭÐ¿ÑĢÑıÐ¼":6787,"ĠÑģÐ±ÐµÐ¶Ð°ÑĤÑĮ":6788,"ĠÐ¿ÐµÑĢÐµÐ³Ð»Ñı":6789,"ĠÑĢÐ¾Ð¶":6790,"ĠÐºÐ¾Ð»Ð¸ÑĩÐµÑģÑĤÐ²Ð¾":6791,"ĠÐ¼ÐµÑĤÑĢÐ¾Ð²":6792,"ĠÐ½ÐµÐ²Ð¸Ð´":6793,"ĠÐ¿ÐµÑĢÐµÐ´Ð¾":6794,"ĠÐ²ÑĭÑħÐ¾Ð´Ð°":6795,"ĠÑħÐ¾Ð´Ñĥ":6796,"ĠÑģÐ¿Ð¾ÑģÐ¾Ð±ÐµÐ½":6797,"Ġ5":6798,"ĠÐ¿Ð¾Ð´Ðº":6799,"ĠÐ½Ð°ÐºÐ¸":6800,"Ð¼ÑĥÑĢÐ¸Ð²":6801,"ÐĺÐ½":6802,"ĠÐķÐ´Ð¸Ð½":6803,"ĠÐ²ÑĭÑĢÐ°Ð·":6804,"Ġl":6805,"ĠÑģÐ²ÑıÐ·Ð¸":6806,"Ð»Ð¸Ñı":6807,"ĠÐ¿Ð¾Ð»Ð¾Ð¶Ð¸Ð²":6808,"ÐºÑĥÑĢÐ¾":6809,"ÑĩÐºÐµ":6810,"ĠÐ´ÐµÐ²ÑĩÐ¾Ð½ÐºÐ°":6811,"ĠÑĨÐµÐ»Ð¾Ð²Ð°ÑĤÑĮ":6812,"ĠÐ·Ð°Ð³Ð»ÑıÐ´":6813,"ĠÐ¼Ð¾Ð¼ÐµÐ½ÑĤÐ°Ð»ÑĮÐ½Ð¾":6814,"ĠÐ¸Ð¼ÐµÑĤÑĮ":6815,"Ð½Ð¸ÑĤÐµ":6816,"ĠÑģÐºÐ°Ð¶ÐµÑĤ":6817,"ĠÐ¾ÐºÐ°Ð·Ð°ÑĤÑĮÑģÑı":6818,"ĠÐ¿Ð¾ÐµÐ·Ð´":6819,"ÑģÑĤÑĢÐ¾Ð¹":6820,"Ð¾Ð²Ð¾Ð³Ð¾":6821,"ĠÑĥÑĩÐ¸ÑĤÐµÐ»Ñı":6822,"Ð½Ð°Ð´":6823,"ĠÑĪÑĢÐ°Ð¼":6824,"ÐļÑĤÐ¾":6825,"ĠÐ¿ÐµÑĢÐ¸":6826,"ĠÐ²ÑĭÑģÐ¾ÐºÐ¸Ð¹":6827,"ĠÐ²ÑĭÑĢÐ²Ð°ÑĤÑĮÑģÑı":6828,"ĠÐ¿ÑĢÐ¾ÑĦÐµÑģÑģÐ¾ÑĢ":6829,"ÐµÐ½ÑĮÐºÐ°Ñı":6830,"ÐµÐ¹Ð½Ð°":6831,"ĠÑĢÑĤÑĥ":6832,"ĠÐºÑĢÐ°ÑģÐ¸Ð²ÑĭÐ¹":6833,"ĠÐ¿Ð¾Ð¸Ð½ÑĤÐµÑĢÐµÑģÐ¾Ð²Ð°Ð»Ð°ÑģÑĮ":6834,"ĠÐłÐµÐ´Ð¶":6835,"ĠÐºÐ»Ñı":6836,"Ð¾Ð¾":6837,"or":6838,"ĠÐ²ÑĭÐ¸Ð³":6839,"ĠÐ·Ð°Ð´Ð°Ð½Ð¸Ðµ":6840,"Ð¸ÑĤÐ¾":6841,"ĠÐ¼Ð¸ÑģÑģÐ¸Ñģ":6842,"ĠÐ·Ð¼Ðµ":6843,"ĠÐ±ÑĥÐ¼Ð°Ð³":6844,"ĠÐ¿Ð»Ñı":6845,"ĠÑģÐ»Ð¾Ð²Ð°Ñħ":6846,"ĠÐ¿Ð¾Ð±Ð»Ð¸Ð¶Ðµ":6847,"ĠÐ¸Ð·Ð±Ð°Ð²Ð¸ÑĤÑĮÑģÑı":6848,"Ð»Ð¾Ð´":6849,"ĠÑĤÐ¸ÑĪÐ¸Ð½Ðµ":6850,"ĠÐ¾Ð¶Ð¸Ð´Ð°Ð»Ð°":6851,"ĠÐ¸Ð·Ð¼ÐµÐ½Ð¸Ð»Ð¾ÑģÑĮ":6852,"ĠÑĤÐµÑģ":6853,"ÑīÐ¸Ð¼Ð¸":6854,"ĠÑĤÐ°ÐºÑģÐ¸":6855,"ÐºÐ¸Ð½ÑĥÐ²":6856,"ĠÐ¿Ð»ÐµÑĩÐµ":6857,"ĠÑģÐ¿ÑĥÑģÐº":6858,"ĠÑĢÐ¾Ð»ÑĮ":6859,"ĠÐ¾ÑĤÐ²ÐµÑĩÐ°ÑĤÑĮ":6860,"ĠÐ¿ÑĢÐ¾ÑĪÐ»Ð¾Ð¼":6861,"ĠÐ¿Ð¾ÑĨÐµÐ»ÑĥÐµÐ¼":6862,"ĠÐ³Ð¾ÑĢÐ»Ðµ":6863,"ĠÐ¾ÑĤÐ²ÑĢÐ°ÑĤ":6864,"ĠÐµÐ´Ð¸":6865,"ĠÐ¿Ð¾ÐµÐ´":6866,"ĠÐ¿ÐµÑī":6867,"ÑĢÐ¸Ð°Ð½":6868,"ĠÐ·Ð°ÑĤÑı":6869,"ĠÐ·Ð°Ð·":6870,"Ð¡ÐµÐ¹ÑĩÐ°Ñģ":6871,"ĠÐ¡ÑĥÐ´":6872,"ĠÐ¾Ð±ÑĬÑıÑĤÐ¸ÑıÑħ":6873,"ĠÐ²ÑĭÑģÑĤÑĢÐµÐ»":6874,"ÐĹÐ½Ð°":6875,"ÐµÑİÑĤ":6876,"ĠÐ½ÐµÐ¿Ð¾Ñģ":6877,"ĠÑĢÐ°ÑģÑĤÑĢ":6878,"ĠÐ¾ÑĤÐ»Ð¸ÑĩÐ¸Ðµ":6879,"ĠÐ·ÐµÐ»Ñĳ":6880,"ĠÐ·Ð°Ð²Ð¾ÑĢ":6881,"ĠÐ²ÑĭÑģÐ»ÑĥÑĪ":6882,"ĠÐ¿ÑĢÐ¾ÑĤÑıÐ¶":6883,"ĠÐ¿ÐµÑĢÐµÑģÑĤÐ°Ð²":6884,"ĠÐ¾ÑĤÐºÑĢÑĭÐ²Ð°Ñı":6885,"Ð¸Ð²ÑĪÐ¸Ð¹ÑģÑı":6886,"ĠÐ·Ð°Ð²Ð°Ð»":6887,"ĠÑħÐ°Ð»Ð°":6888,"ĠÐ¿ÐµÑĢÐ²ÑĭÐµ":6889,"ĠÐ¿Ð¾Ð´Ð½Ð¸Ð¼Ð°Ñı":6890,"ĠÑģÐ»ÐµÐ¿":6891,"ĠÐ¼Ð¾Ð´":6892,"ĠÐ¡Ð¾Ð²ÑģÐµÐ¼":6893,"ĠÐ²Ð¾ÑģÑģÑĤÐ°Ð½Ð¾Ð²":6894,"ĠÐ¾ÑĪÐ°ÑĢÐ°ÑĪ":6895,"ĠÐ»ÐµÐ³Ð»Ð°":6896,"ĠÐĳÑĢÑİ":6897,"ĠÐ¿Ð¾Ð¿ÑĢÐ¾Ð±Ð¾Ð²Ð°ÑĤÑĮ":6898,"Ð¼Ð¾Ð·":6899,"Ð½Ð¸ÑĤÑģÑı":6900,"ĠÐ²ÑĤÐ¾ÑĢÐ¾Ð³Ð¾":6901,"ĠÐ·Ð°Ð¼Ð¸":6902,"Ð»Ð¸ÑĤÑĮÑģÑı":6903,"ĠÐłÐµÑĪ":6904,"ĠÑģÑħÐ²Ð°ÑĤÐ¸Ð»Ð°":6905,"it":6906,"ĠÐ·Ð²Ñĥ":6907,"ĠÐ¿ÑĢÐ¾Ð¸ÑģÑħÐ¾Ð´Ð¸Ð»Ð¾":6908,"ĠÐ¡ÐºÑĥ":6909,"ĠÑĤÐ²Ð°ÑĢ":6910,"Ġb":6911,"ĠÐ²ÑħÐ¾Ð´Ð°":6912,"ÑĩÐ½ÑĭÑħ":6913,"ĠÐĴÐ¼":6914,"ĠÐ½ÐµÐ¼ÐµÐ´Ð»ÐµÐ½Ð½Ð¾":6915,"ĠÐ¿ÑĢÐ¸Ð·ÐµÐ¼":6916,"ĠÐºÑĢÐ°ÑģÐ¸Ð²Ð¾":6917,"ĠÐļÐ°Ð»":6918,"ĠÑģÑĥÐ´ÑĮÐ±Ð°":6919,"ĠÐ¿Ð»Ð¾ÑīÐ°Ð´":6920,"ĠÐ½Ð¸ÐºÐ°ÐºÐ¾Ð¹":6921,"ĠÐ¿ÑĢÐ¾Ð»ÐµÑĤ":6922,"ÐµÑĢÐ²Ð°":6923,"ĠÑģÐºÐ»Ð¾Ð½":6924,"ÐºÐ¾Ð»ÑĮÐ·":6925,"ĠÐ²ÑģÑıÐºÐ¸Ð¹":6926,"ĠÐ¿Ð¾Ð·Ð²Ð¾Ð»Ð¸ÑĤÑĮ":6927,"ĠÐ¿ÑĢÐ¸ÐºÑĢÑĭÐ»":6928,"ĠÐ²ÑĭÐ½ÑĥÐ¶Ð´":6929,"ĠÑģÐºÑĢÐ¸Ð²":6930,"ĠÐĹÐ°Ð²ÑĤÑĢÐ°":6931,"ĠÐ¿Ð¾Ð³ÑĢÑĥÐ¶":6932,"Ð°Ð²ÑĪÐ¸Ð¹ÑģÑı":6933,"ĠÐ¼Ð°ÑĪÐ¸Ð½":6934,"ĠÐºÑĢÐ¸ÑĩÐ°Ð»":6935,"Ð¾ÑĢÐ±":6936,"ĠÐ¾ÑĤÐ¾Ð´Ð²Ð¸":6937,"ĠÐ¿ÑĢÑıÐ´":6938,"ĠÑģÑĤÑĢÐ¾Ð³Ð¾":6939,"ĠÐ¿Ð°Ñĥ":6940,"ÐļÐ¾Ð½ÐµÑĩÐ½Ð¾":6941,"ĠÐ¼ÑĥÑĤ":6942,"ĠÑģÐ»ÑĥÑĪÐ°Ð»":6943,"ĠÑĩÐµÑĢÑĤÐ°":6944,"ĠÑģÑİÑĢÐ¿":6945,"ĠÑģÐ¼Ð¾Ð³Ð»Ð¸":6946,"ĠÐ·Ð°Ð¿Ð»Ð°Ðº":6947,"ĠÑĢÐ¸ÑĤ":6948,"ÑģÐ¸ÑĤ":6949,"ÐĶÐ¾":6950,"ĠÐ¿ÑĢÐ¸Ð´ÐµÑĤ":6951,"ĠÐ´Ð¾ÑĩÐµÑĢÐ¸":6952,"ĠÐĶÐ¸Ð½Ð°":6953,"ĠÐ¸ÑģÐ¿Ð¾ÑĢÑĤ":6954,"ÐĴÑģÑĳ":6955,"ĠÐ¼ÐµÐ»Ð¾Ð´":6956,"ĠÐ²ÑģÐ¿Ð¾Ð¼Ð¸Ð½Ð°Ñı":6957,"ĠÐ¿ÑĢÐµÑģÐ»ÐµÐ´":6958,"ĠÐ±Ð¾ÑĤ":6959,"ĠÐ´Ð¾ÑģÑĤÐ¾Ð¹":6960,"ĠÑģÐºÑĥÑĩÐ½Ð¾":6961,"Ð°Ð´Ð¾Ð»Ð³Ð¾":6962,"ĠÐ¾Ð±ÑĬÑıÑĤÐ¸Ñı":6963,"Ð»ÐµÐ½Ð¸Ñİ":6964,"ĠÐ±ÑĢÑİÐ½ÐµÑĤÐºÐ°":6965,"ÑĥÐ»ÑĭÐ±":6966,"ĠÐ²ÑĭÑĤÐ°ÑīÐ¸Ð»":6967,"ĠÐ¾Ð¿ÑĢÐ°Ð²Ð´":6968,"ÐºÐºÐ¸":6969,"Ð²ÑĥÑĩ":6970,"ĠÐ¿ÑĢÐµÐ¿Ð¾Ð´Ð°Ð²":6971,"ĠÑģÐ¿Ð°Ð»Ð°":6972,"ĠÑĦÐ°Ð¼":6973,"ĠÐľÐ°Ð¼":6974,"ĠÐ¿Ð¾Ð½Ð¸Ð¼Ð°ÑĤÑĮ":6975,"ĠÑĥÑħÐ¾Ð´Ð¸ÑĤ":6976,"ĠÐ²Ð·Ð²Ð¾Ð»Ð½Ð¾Ð²":6977,"ĠÐºÐ»Ð¸Ð½":6978,"ĠÑħÐ¾Ð·ÑıÐ¸Ð½Ð°":6979,"ĠÐºÐ¾ÑĤÐ¾ÑĢÑĭÐ¼Ð¸":6980,"ĠÐĵÐ°":6981,"ĠÐ¾ÑģÑĤÐ°Ð²Ð°ÑĤÑĮÑģÑı":6982,"ĠÐĶÐ¶Ð¸Ð¼":6983,"ÑĢÐ¸Ð½Ð¸Ð¼":6984,"ĠÐºÐ¾Ð»ÑĮÑĨÐ¾":6985,"ĠÐĹÐ°Ð¼":6986,"ĠÑģÐºÑĢÐ¾Ð¼":6987,"Ð³Ð´Ðµ":6988,"ĠÑİÐ½Ð¾":6989,"ÑıÑīÐ°Ñı":6990,"ĠÐ³ÑĢÐ¾Ð¼ÑĩÐµ":6991,"ĠÐ¿ÑĢÐ¾Ð¼Ð¾Ð»":6992,"ÑħÐ¾Ð´Ð¸":6993,"ĠÑģÐ´ÐµÑĢÐ¶Ð°ÑĤÑĮ":6994,"ĠÑħÑĢÑĥÑģÑĤ":6995,"ĠÐ±Ð¾Ð»ÑĮÑĪÐ¸Ðµ":6996,"Ð²ÑĪÐ¸ÑģÑĮ":6997,"ĠÐ¿Ð¾ÑģÑĤÑĢÐ°Ð´":6998,"ĠÐ»Ð°Ð³":6999,"ĠÐļÐ¸Ñģ":7000,"ĠÐ¾ÑģÐºÐ¾Ð»":7001,"ĠÐ²ÐµÑĤÑĢÐ°":7002,"ĠÐ½Ð°Ð¿Ð¾Ð¼Ð¸Ð½":7003,"ĠÐºÐ¾Ð¼Ð¿ÑĮÑİÑĤÐµÑĢ":7004,"ĠÐ¿ÑĥÑĤÐµÑĪÐµ":7005,"ĠÐ¥Ð¾ÑĩÑĥ":7006,"ĠÐ¸Ð·Ð²Ð¸Ð½":7007,"ÑģÐµÑĢ":7008,"ĠÐ¸Ð´ÑĳÑĤ":7009,"ĠÐ´Ð¸ÑĢÐµÐºÑĤÐ¾ÑĢ":7010,"ĠÑĥÐ±ÑĢÐ°Ð»":7011,"ÑĭÐ²Ð°Ð»Ð¾":7012,"ĠÐ¡Ð°Ð²":7013,"ĠÐµÑħÐ°ÑĤÑĮ":7014,"ĠÐ±Ð°Ð·":7015,"ĠÐ½ÐµÐ²ÐµÑģÑĤ":7016,"ÑĭÐ²Ð°ÐµÐ¼":7017,"ĠÐ¿ÑĢÐ¾Ð´Ð¾Ð»Ð¶Ð°ÐµÑĤ":7018,"ÐµÑĢÐµÐ²":7019,"Ð´ÐµÐ½":7020,"Ð°ÑĤÐµÐ»ÑĮÐ½ÑĭÐ¼":7021,"ĠÑģÑĤÑĢÐ°Ð½Ð½ÑĭÐ¼":7022,"ĠÑĥÐ´Ð¸Ð²Ð»ÑĳÐ½Ð½Ð¾":7023,"Ð¾ÑģÐ»ÐµÐ´":7024,"ĠÑĤÐ¾ÑĪ":7025,"ÐµÑĢÐ±":7026,"ĠÐ¿Ð¾Ð»ÑĥÑĩÐ°Ð»Ð¾ÑģÑĮ":7027,"ĠÐ²Ð·Ð´ÑĢÐ¾Ð³Ð½ÑĥÐ»Ð°":7028,"ĠÑĩÐµÑģÑĤ":7029,"ĠÐŀÑĤÐµÑĨ":7030,"ĠÐºÑĢÐ°ÑģÐ¸Ð²Ð°Ñı":7031,"Ð¸Ð½Ð¾Ð±Ð¸":7032,"Ð»ÐµÑģ":7033,"ĠÐłÑıÐ´Ð¾Ð¼":7034,"ĠÐ¾ÑģÐ»Ð°Ð±":7035,"ĠÐ¿Ð¾ÐºÐ°ÑĩÐ°Ð»Ð°":7036,"ĠÐºÐ¾ÑĢÐ¸Ð´Ð¾ÑĢÐ°":7037,"ĠÑģÐ¼ÐµÑıÑĤÑĮÑģÑı":7038,"ĠÐŃÐ»Ð¸Ñģ":7039,"Ð½Ð°ÑģÑĤÐ¾Ñı":7040,"ĠÐ¾Ð±ÑĢÐ°ÑīÐ°Ñı":7041,"ÑĪÐ¸Ð¼ÑģÑı":7042,"ĠÑĢÐ°ÑģÑģÑĤÐ°Ð²":7043,"ĠÐ·Ð°Ð¸Ð½ÑĤÐµÑĢÐµÑģÐ¾Ð²":7044,"ÐĶÐµÐ²":7045,"ĠÐŁÑĢÐ°Ð²":7046,"ĠÐ¿Ð¾ÑĤÐµÑĢÑıÑĤÑĮ":7047,"ĠÐ¡Ð»Ð¾Ð²Ð½Ð¾":7048,"Ð½Ð°Ð¼Ð¸":7049,"ÑħÐ¾Ð¼":7050,"ĠÑģÑĤÑĢÐµÐ¼Ð¸ÑĤÐµÐ»ÑĮÐ½Ð¾":7051,"ĠÐ±ÐµÐ»Ð¾ÑģÐ½ÐµÐ¶":7052,"ĠÐ·Ð°Ð¿ÑĥÑĤ":7053,"Ð¸Ð¼Ð¸Ð½":7054,"ĠÐºÐ¾Ð¼Ð°Ð½Ð´Ñĭ":7055,"ĠÑģÐµÐ¼ÑĮÑİ":7056,"ĠÐ»Ð°Ð´Ð¾Ð½ÑıÐ¼Ð¸":7057,"ĠÐ°Ð¶":7058,"ĠÐ¾ÑģÑĤÐ¾ÑĢÐ¾Ð¶":7059,"ĠÐ¾Ð±ÐµÐ·":7060,"ÐĴÐ¾":7061,"ĠÐ¿ÑĢÐ¸ÐµÐ¼":7062,"ÑģÐ»ÐµÐ´":7063,"ĠÐ²Ð·Ð¼Ð°Ñħ":7064,"ĠÐ¼ÑĥÐ·ÑĭÐºÐ°":7065,"Ð°Ð±ÑĢÐ¸":7066,"ĠÐ²Ð¾Ð·Ð²ÑĢÐ°ÑīÐ°ÑĤÑĮÑģÑı":7067,"ĠÐ¾Ð±ÑĢÐµÑĩ":7068,"ĠÐ®ÐºÐ¸":7069,"ĠÑħÐ¸Ñī":7070,"Ð¸Ð±Ð°ÑĢÐ¸":7071,"ĠÑģÐºÑĥÑĩ":7072,"ĠÑĨÐµÐ»ÑĥÑİ":7073,"ĠÐ±ÑĢÑİÐ½ÐµÑĤÐ°":7074,"ĠÑĢÐ°ÑģÑģÐµ":7075,"ĠÐ¿ÑĢÐ¸ÐºÐ¾ÑģÐ½Ð¾Ð²ÐµÐ½Ð¸Ñı":7076,"ĠÑģÐ¾Ð±ÑĭÑĤÐ¸Ð¹":7077,"Ð´ÑĢÐµÐ¹":7078,"ĠÐ°Ð»ÑĮ":7079,"Ð¾ÑģÐ°":7080,"ĠÐ¿ÑĭÑĤÐ°Ð»Ð¸ÑģÑĮ":7081,"ĠÐ¾Ð´ÐµÐ¶Ð´Ð°":7082,"Ð¿ÐµÐ»Ð°":7083,"ĠÑģÐ²ÑıÐ·ÑĮ":7084,"ÑĤÐ¾ÑĢÐ¸Ñİ":7085,"ĠÐ¡ÑĤÐµÑĦ":7086,"ĠÐ¿Ð¸ÑĤ":7087,"ĠÐĺÑĤÐ°Ðº":7088,"ĠÐ±Ð¸":7089,"ĠÑĥÑģÐºÐ¾ÑĢ":7090,"ÑĦÑĥ":7091,"ÐµÐ²Ð°ÑĤÑĮÑģÑı":7092,"Ð¾Ð²Ð°Ñı":7093,"ĠÐ½ÐµÑĥÐ´Ð°":7094,"ĠÑĩÐµÑģÑĤÑĮ":7095,"ÐľÐ¾Ð¶ÐµÑĤ":7096,"ĠÐ¶ÐµÐ½Ð°":7097,"ĠÑĦÐ¾ÑĢÐ¼Ñĥ":7098,"ĠÐºÐ½Ð¾Ð¿":7099,"ĠÐ¿ÐµÐ¿":7100,"ĠÐ¾Ð´Ð½Ð¾ÐºÐ»Ð°ÑģÑģ":7101,"ĠÑĢÐ°Ð½ÐµÐµ":7102,"ĠÑģÐµÑĢÑĮÑĳÐ·Ð½Ð¾":7103,"ĠÑģÑĩÐ¸ÑĤÐ°ÑĤÑĮ":7104,"ĠÑĪÐ¾ÐºÐ¾Ð»Ð°Ð´":7105,"ĠÐ¶ÐµÐ½ÑīÐ¸Ð½Ñĥ":7106,"ĠÑģÐ¾Ð¾Ð±ÑīÐ¸Ð»":7107,"ĠÐ¿Ð¾Ð²ÑĤÐ¾ÑĢÐ¸Ð»":7108,"ĠÐ½Ð°ÑħÐ¾Ð´Ð¸ÑĤÑĮÑģÑı":7109,"Ð¾Ð²ÑĭÐ¼":7110,"Ð¸Ð»Ñı":7111,"ĠÑħÐ¾Ð·ÑıÐ¸Ð½":7112,"Ð»ÑıÐ»Ð°":7113,"ĠÐ¾ÑĤÐ·":7114,"ĠÐ·Ð°ÑģÐ¼ÐµÑıÐ»Ð°ÑģÑĮ":7115,"ĠÑĥÐ±Ð¸Ð²Ð°ÑĤÑĮ":7116,"ĠÐ¿Ð¾ÑģÐºÐ¾Ð»ÑĮÐºÑĥ":7117,"ĠÐ¿Ð¾ÑĤÐµÑĢÑıÐ»Ð°":7118,"ÑĩÐµÑģÐºÐ¾Ð¹":7119,"ĠÐ·Ð°ÑģÑĤÐ¾":7120,"ĠÐ¿ÑĢÐ¾ÑģÑĤÑĭ":7121,"ĠÑĥÑĢÐ¾Ð´":7122,"ĠÑģÐ°Ð¼Ð¾Ñģ":7123,"ĠÑĤÐ¾ÑĩÐºÑĥ":7124,"ĠÐºÑĢÐ°Ñİ":7125,"ÑĤÐ¾ÑĢÐ¸Ñı":7126,"ĠÑĦÐ°Ð½ÑĤ":7127,"ĠÐ¿ÑĢÐ¸ÑħÐ¾Ð´Ð¸ÑĤ":7128,"ĠÐ¾Ð¶Ð¸Ð²":7129,"ĠÐ½Ð¾ÑĥÑĤ":7130,"ÐµÐ½Ð½Ð¸":7131,"ĠÐ´ÐµÑĢÐµÐ²ÑĮÐµÐ²":7132,"ĠÑĥÐ¶Ð°ÑģÐ°":7133,"Ġc":7134,"ĠÑįÐ»ÐµÐº":7135,"Ð¾Ð¶ÐµÐ¼":7136,"ÑģÑĤÐ¾":7137,"ĠÑħÐ¾ÑĢÐ¾ÑĪÐµÐ³Ð¾":7138,"ĠÐļÐ¾Ð¼":7139,"Ð»Ð¾ÐºÐ°":7140,"ĠÐ¿ÑĢÐ¾Ð¸Ð·Ð½Ð¾ÑģÐ¸ÑĤ":7141,"ĠÐĶÐ°ÑĢ":7142,"ÐµÑĪÐ¸":7143,"ĠÐ·Ð´Ð°Ð½Ð¸Ðµ":7144,"Ð¾ÑģÐº":7145,"ĠÐļÐ¸ÑĤ":7146,"ĠÐ±Ð¾Ð¸ÑĤÑģÑı":7147,"ĠÑģÑĢÐ¾ÑĩÐ½Ð¾":7148,"ĠÐ²Ð·Ð°":7149,"ĠÐ¾ÑĢÐ¸":7150,"ÑĤÐ¾ÑĢÑĥ":7151,"ĠÐ·Ð°Ð½Ð¸Ð¼Ð°ÑĤÑĮÑģÑı":7152,"ĠÐ¿Ð¾Ð»Ð½Ð¾Ð¼":7153,"ĠÐ²Ð¾Ð¿ÑĢÐ¾ÑģÐ¸ÑĤÐµÐ»ÑĮÐ½Ð¾":7154,"ÑĢÑĭÐ¼Ð¸":7155,"Ð½ÑıÑĤ":7156,"ĠÐ¢Ð°Ð¹":7157,"ĠÐ³Ð»Ð°Ð·Ð°Ð¼":7158,"ĠÑģÐ¾Ð±Ð»Ð°Ð·":7159,"ĠÐ¿Ð¾ÑħÐ»Ð¾Ð¿":7160,"ÑĥÑİÑīÐ¸Ðµ":7161,"ĠÐ¾Ð´ÐµÑıÐ»":7162,"ÑĭÑħÐ°Ñı":7163,"ĠÐĴÐ¸":7164,"ĠÐ²ÑĭÐ³Ð»ÑıÐ´ÐµÐ»Ð°":7165,"ĠÑģÐ»ÑĭÑĪÐ¸ÑĤ":7166,"ĠÐ¼Ð¸Ñģ":7167,"ĠÐ¿ÑĭÑĤÐ°ÑİÑģÑĮ":7168,"ĠÐ±ÑĥÐ´ÐµÑĤÐµ":7169,"ĠÐ´ÑĢÑĥÐ³Ð°Ñı":7170,"ĠÐĽÐµÐ¾":7171,"ĠÐ¿Ð¾ÑģÐ»ÐµÐ´Ð½ÑİÑİ":7172,"ĠÐ²ÑĭÑģÑĤÐ°Ð²":7173,"Ð°Ð½Ð½Ð°":7174,"ÑĥÑİÑīÐ¸Ð¹":7175,"ĠÐ¿Ð¾Ð¶ÐµÐ»":7176,"ĠÐ¿Ð»Ð°Ñī":7177,"ĠÑĨÐµÐ½ÑĤÑĢÐµ":7178,"ĠÑĨÐµÐ»ÑĥÑı":7179,"Ð¡Ð¿ÑĥÑģÑĤÑı":7180,"ĠÑĪÐ»Ñİ":7181,"ÐºÐ½Ð¸ÑģÑĮ":7182,"ĠÐļÐµÐ¹ÑĤ":7183,"ĠÐ¿Ð¾Ð²ÐµÐ´ÐµÐ½Ð¸Ðµ":7184,"ÐºÐ½Ð¾Ð²":7185,"ĠÐ¾Ð±Ð¶Ð¸Ð³":7186,"Ð¸Ð²Ð°":7187,"ÐĵÐµÑĢ":7188,"ĠÐ¸ÑģÐºÐ°Ð»":7189,"ÑĤÐ¾ÑĢÐ¾Ð½":7190,"ĠÐ¾Ð·Ð½Ð°Ñĩ":7191,"ĠÐ¿Ð¾ÑĤÑıÐ½ÑĥÐ»":7192,"ĠÐ¡ÐµÐ¹":7193,"ÐºÐ½ÑĥÐ²ÑĪÐ¸ÑģÑĮ":7194,"ĠÐ¿ÑĢÐµÐ´Ð¿Ð¾ÑĩÐ¸ÑĤ":7195,"ĠÐ·Ð°Ð¼ÐµÑĩÐ°Ñı":7196,"ĠÐļÐ°ÐºÐ°ÑĪÐ¸":7197,"ĠÐ¿Ð¾Ð½ÑıÑĤÐ¸Ñı":7198,"ĠÐ¿Ð¾ÑģÐ°Ð´":7199,"Ð°ÑĢÑĤÑĦ":7200,"ĠÑĥÑĢ":7201,"ĠÐ½Ð°ÑĪÐµ":7202,"ĠÐ¼Ð¾Ð±Ð¸Ð»ÑĮ":7203,"Ð¾Ð²Ð°Ð»Ð¾ÑģÑĮ":7204,"ĠÑģÐµÐ´":7205,"Ġd":7206,"ĠÐ¾Ð¿ÑĥÑģÑĤÐ¸Ð»ÑģÑı":7207,"ĠÑĥÑĪÐ»Ð¸":7208,"ĠÐ´ÐµÐ²Ð¾ÑĩÐºÑĥ":7209,"ĠÑĤÐ²ÐµÑĢ":7210,"ĠÐļÐ¸Ð±":7211,"ĠÐ³ÑĢÑĥÐ¿Ð¿Ñĭ":7212,"ÑĳÑħ":7213,"ĠÐ¾ÑģÑĤÐ°ÐµÑĤÑģÑı":7214,"ĠÐ¿Ð¾Ð·Ð²Ð¾Ð»ÑıÑı":7215,"ĠÑĪÐ°ÑĤÐµÐ½":7216,"ĠÐŁÐ¾Ðº":7217,"es":7218,"ĠÑĥÐ·Ð½Ð°Ð²":7219,"ĠÑģÐ½ÑıÑĤÑĮ":7220,"ĠÑģÐµÑģÑĤÑĮ":7221,"ĠÐºÐ°ÑĢÑĤÐ¸Ð½Ñĥ":7222,"ĠÐºÐ¾ÑĪÐ¼Ð°ÑĢ":7223,"ĠÐ´ÐµÑĢÐµÐ²Ð°":7224,"ĠÐ·Ð°ÑĤÑĭÐ»Ð¾Ðº":7225,"ĠÑīÑĳ":7226,"ĠÐĲÐºÐ°":7227,"ĠÑĢÐ°Ð·Ð¾ÑĢÐ²":7228,"ĠÐ¨ÐµÐ¿":7229,"Ð¾ÐºÑĥÐ´":7230,"ĠÐ»Ð¾Ð²ÐºÐ¾":7231,"ĠÐ²ÑģÑĤÑĢÐµÑĤÐ¸ÑĤÑĮÑģÑı":7232,"ĠÐ²ÐµÑĢÐ½ÑĥÐ»Ð¸ÑģÑĮ":7233,"ĠÑĪÐµÐ¿Ð¾ÑĤÐ¾Ð¼":7234,"Ð¾Ð»Ð¾Ð²":7235,"ĠÐ¿Ð¾Ð»Ð¾Ð²Ð¸Ð½Ñĥ":7236,"ĠÐ½Ð°Ð¿ÑĢÐ¸Ð¼ÐµÑĢ":7237,"ĠÐĶÐ¶Ð¸Ð½Ð½Ð¸":7238,"ĠÐºÑĢÐ°ÑģÐ½Ðµ":7239,"ĠÑħÐ¾ÑĤÑıÑĤ":7240,"ĠÐ½Ð°ÑĩÐ¸Ð½Ð°Ñı":7241,"ĠÑĢÐ°ÑģÑĤÐµÑĢÑıÐ½":7242,"Ð½Ð°ÑģÑĤÐ¾ÑıÑīÐµÐ¼Ñĥ":7243,"ÑĢÑĭÐ³Ð½ÑĥÐ»":7244,"ĠÐ³Ð¸ÑĤ":7245,"ĠÐ³Ð»Ð¾ÑĤÐ¾Ðº":7246,"ĠÐ»Ð¾ÐºÐ¾":7247,"ĠÐ½ÐµÐ¸Ð·":7248,"ĠÑģÐ°Ð»":7249,"ĠÐ¼Ð°Ð»ÐµÐ½ÑĮÐºÑĥÑİ":7250,"Ð¡Ð¿Ð°ÑģÐ¸Ð±Ð¾":7251,"ĠÐ¿ÑĢÐ¾ÑĤÐ¸Ð²Ð¾Ð¿Ð¾Ð»Ð¾Ð¶":7252,"ĠÐ²Ð³Ð»ÑıÐ´":7253,"ÐºÐµÑĢ":7254,"ĠÐ·Ð²ÐµÐ·Ð´":7255,"Ð°Ð²ÑĪÐµÐ³Ð¾":7256,"ĠÑģÑĥÑīÐµÑģÑĤÐ²Ð¾":7257,"Ð½Ð°Ð½":7258,"Ð¾ÑĢÐ°Ð´":7259,"Ð»Ð¸Ð½Ð°Ð½Ð¸Ðµ":7260,"Ð¾ÑĢÑĥÐ¶":7261,"ĠÐ¿Ð¾Ð´ÑĤÐ²ÐµÑĢÐ´":7262,"ĠÐŁÐµÑĤ":7263,"ÑħÐ¾Ð´ÑıÑīÐµÐµ":7264,"ĠÐ±ÐµÐ»ÑĭÐ¹":7265,"ĠÐĿÐµÐ´":7266,"ĠÐ²Ð¸ÑĤ":7267,"ĠÐĲÐ½Ð´":7268,"ĠÐ¿Ð¾ÑģÐ»ÐµÐ´Ð½Ð¸Ñħ":7269,"ĠÐ¿ÑĢÐ¾ÑĪÐ¸Ð¿ÐµÐ»":7270,"ĠÑĢÐ²":7271,"ĠÐºÐ¾ÑģÑĤÑİ":7272,"ĠÐ¼Ð°Ð»ÐµÐ½ÑĮÐºÐ¸Ðµ":7273,"ĠÑĢÐ°ÑģÑģÐ¼ÐµÑıÐ»Ð°ÑģÑĮ":7274,"ĠÐ¼ÑĥÐ·ÑĭÐºÑĥ":7275,"ÐĿÐ°ÐºÐ¾Ð½ÐµÑĨ":7276,"ĠÐ²ÐµÐ»Ð¸ÐºÐ¾Ð»ÐµÐ¿":7277,"ĠÐ·Ð°Ð²ÐµÑĢÑĪ":7278,"ĠÐ¾Ð±ÑīÐ°ÑĤÑĮÑģÑı":7279,"Ð¿ÐµÑĢÐ²":7280,"ĠÐ¾ÑĤÐ¿ÑĢÐ°Ð²Ð¸Ð»Ð°ÑģÑĮ":7281,"ĠÐ¿Ð¸Ð´Ð¶":7282,"ĠÐ¿ÑĢÐµÐ´Ð¾":7283,"ĠÑĢÐ°Ð·Ð¾Ð±ÑĢÐ°ÑĤÑĮÑģÑı":7284,"ĠÐ¾ÑĤÑĨÑĥ":7285,"ĠÐºÑĥÑģÐ¾Ðº":7286,"ĠÑģÐµÐºÑģÑĥ":7287,"Ð²ÐµÑĢÐ¶":7288,"ĠÑįÑĤÐ°Ð¶Ðµ":7289,"ĠÐ½ÐµÐ¿ÑĢÐ¾":7290,"Ð°Ð»Ð¾Ð¼":7291,"ÑĤÐ¾ÑĢÐ¾Ð¹":7292,"ÑĩÑĥÐ²ÑģÑĤÐ²":7293,"ĠÐľÐ°ÐºÑģÐ¸Ð¼":7294,"ĠÑĦÑĢÐ°Ð·Ñĥ":7295,"ĠÐ½Ð°Ð´Ð¾ÐµÐ»Ð¾":7296,"ĠÐ¤Ð¸Ð½":7297,"ĠÐĳÑĭÑģÑĤÑĢÐ¾":7298,"Ð»Ð¸Ð²Ð°Ñı":7299,"ĠÐ¿ÑĢÐ¸Ð²ÐµÑģÑĤÐ¸":7300,"Ð°ÑİÑīÐ¸Ð¼Ð¸":7301,"ĠÐĳÐµÐº":7302,"ÑĭÐ²Ð°Ð»Ð¸ÑģÑĮ":7303,"ÑīÐ¸ÑĤ":7304,"ÑĤÑıÐ¼Ð¸":7305,"ÑīÑĳÐ½":7306,"ĠÐ£Ð»ÑĭÐ±":7307,"ĠÐ·Ð°Ð¶Ð¼ÑĥÑĢ":7308,"ĠÑĢÐµÑĪÐ¸Ð²":7309,"ÑĢÑĥÑģ":7310,"ĠÑģÐ¼ÐµÐ¹":7311,"ĠÑĨÐµÐ½":7312,"ĠÐ¾Ð³Ð½Ñı":7313,"ĠÐºÐ¾ÑĢÐ¾Ð»Ñı":7314,"Ð³Ð¾ÑĢ":7315,"ÐĽÐ°Ð´Ð½Ð¾":7316,"ÐŁÐ¾ÑĤ":7317,"ĠÑĥÐ³ÑĢÐ¾Ð·":7318,"ÑĨÐµÐ½ÑĤ":7319,"ĠÐ£ÑģÐ¿":7320,"ĠÐĶÐ¶Ð¾ÑĢ":7321,"ĠÑģÐ¾Ð¾Ð±ÑīÐµÐ½Ð¸Ðµ":7322,"ĠÐ´ÐµÑĤÐµÐºÑĤÐ¸Ð²":7323,"ĠÑĢÐ°Ð²Ð½Ð¾Ð´ÑĥÑĪ":7324,"ĠÐ²Ð·Ð³Ð»ÑıÐ´Ðµ":7325,"ĠÐ¶Ð´Ñĥ":7326,"ĠÑĥÑĪÐµÐ¹":7327,"ĠÐ²Ð¸Ð½":7328,"Ð¸Ð²Ð°Ð½Ð¸Ñı":7329,"ĠÐ²ÑģÑĤÑĢÐµÑĤÐ¸Ð»":7330,"ĠÐĿÐµÐ±":7331,"ĠÐ±Ð¾Ð´":7332,"ĠÐ¾Ð±ÑģÑĤÐ¾ÑıÑĤÐµÐ»ÑĮ":7333,"ÐµÑĢÐµÐ¼":7334,"Ð£ÑĤ":7335,"ĠÐĶÐµÐ¹Ð¼Ð¾Ð½":7336,"ĠÐ´Ð¾Ð½Ð¾Ñģ":7337,"Ð»Ð¾ÑĤÑĮ":7338,"ĠÑĢÐ°Ð´Ð¾ÑģÑĤÑĮ":7339,"ĠÐ´ÐµÑĢÐµÐ²ÑĮÑı":7340,"ĠÐŁÑĢÐ¸Ð½ÑĨ":7341,"ĠÐ³Ð¾ÑģÑĤÐµÐ¹":7342,"ĠÐ²ÑģÐ¿ÑĭÑĪ":7343,"ĠÐ¸ÑģÐ¿Ð¾Ð»":7344,"ĠÐ½Ð°ÑĩÐ¸Ð½Ð°Ñİ":7345,"Ð¾Ð½ÑĤ":7346,"ĠÐ®Ð½Ð³Ð¸":7347,"ĠÐºÑĢÐ¾Ð²Ð°Ð²":7348,"ÐŁÑĢÐ¸Ð²ÐµÑĤ":7349,"ĠÐ¿Ð¾Ð»Ð¾ÑĤÐµÐ½ÑĨÐµ":7350,"ĠÐ¿Ð¾Ð´Ð¾Ð¹ÑĤÐ¸":7351,"ÑįÐ»Ñı":7352,"ĠÑĥÑİÑĤ":7353,"ĠÐ²Ð¾Ð·Ð»ÑİÐ±":7354,"ĠÑĤÑıÐ½ÐµÑĤ":7355,"ĠÑĥÑģÐ¸Ð»Ð¸":7356,"ĠÐ¿Ð¾Ð´Ð½ÑıÑĤÑĮ":7357,"ĠÐ¿ÑĢÐµÐ´Ð¿Ð¾Ð»Ð°Ð³":7358,"ĠÐ²ÑĭÐ±ÑĢÐ°ÑĤÑĮÑģÑı":7359,"ĠÐ·Ð»Ð¾ÑģÑĤÑĮ":7360,"ĠÐ½Ð°ÑģÑĩÐµÑĤ":7361,"Ð¸Ð»Ñĥ":7362,"ĠÑģÐ¶Ð°Ð»Ð°":7363,"ÐĲÑĢ":7364,"Ð»ÐµÐ½Ð½ÑĥÑİ":7365,"ĠÐ¼Ð¸Ð½Ð¸":7366,"ĠÑģÐ²ÐµÑĤÐ¾Ð¼":7367,"ĠÐ³Ð¾ÑģÐ¿Ð¾Ð´Ð¸Ð½":7368,"ĠÐ¿ÑĢÐ¸ÑħÐ¾Ð´Ð¸ÑĤÑģÑı":7369,"ĠÐ¾Ð¿ÑĥÑģÑĤÐ¸Ð²":7370,"ÑħÐ¾ÑĤÑı":7371,"ĠÐĿÐµÐº":7372,"Ð¾Ð»Ð¾ÑĤ":7373,"Ð°Ð»Ñĥ":7374,"ĠÑĩÑĥÐ´Ð¾":7375,"ĠÐ·Ð°ÑģÑĤÐ°Ð²Ð»ÑıÐµÑĤ":7376,"ĠÑģÐ²Ð¸Ð´":7377,"ĠÐ¿ÑıÑĤÐ½Ð°Ð´ÑĨÐ°ÑĤÑĮ":7378,"ĠÐ½Ð¾Ð²Ð¾Ðµ":7379,"ĠÐĳÐ¾Ð½":7380,"ĠÐ¿ÑĢÐ¸Ñħ":7381,"ĠÐ½ÐµÑĥÐ¶ÐµÐ»Ð¸":7382,"ĠÐ²ÐµÐ¶Ð»Ð¸Ð²Ð¾":7383,"ÐµÐ»Ð»":7384,"ÑģÑĥÐ´":7385,"ĠÐĺÐ³":7386,"ÑĥÑĥ":7387,"ĠÐ½Ð°Ð²Ð¸Ñģ":7388,"ĠÐ·Ð°ÑģÑĤÐ°Ð²Ð¸Ð²":7389,"ĠS":7390,"ÑģÐºÐ°Ð·":7391,"ĠÐ·Ð°ÑĢÑĭ":7392,"ĠÐ³Ð¾ÑĤÐ¾Ð²Ñĭ":7393,"ĠÑĪÑĤÑĥ":7394,"ĠÑĢÐµÑĩÐ¸":7395,"ĠÐ´Ð½ÐµÐ¼":7396,"ĠÐ¿ÑĢÐ¾Ð²Ð¾ÑĢ":7397,"ĠÐ¿ÑĢÐ¸ÐºÐ»ÑİÑĩ":7398,"ĠÐ¿Ð¾Ð´ÑħÐ²Ð°ÑĤ":7399,"ĠÑĢÐ°Ð·Ð²Ð¾ÑĢÐ°ÑĩÐ¸Ð²":7400,"ĠÐ¡Ð»ÐµÐ´":7401,"ÐµÐ²ÑĪÐ¸Ð¹":7402,"ĠÐ¿Ð¾ÐºÐ¾Ñģ":7403,"ĠÐ²ÐµÐº":7404,"ĠÐ·Ð°Ð³Ð¾Ð²Ð¾ÑĢÐ¸Ð»":7405,"ĠÐ¿Ð¾ÑĤÑĢÐµÐ¿":7406,"Ð¾ÐºÐ¾Ð¼":7407,"Ð¿Ð¾Ð¼Ð¾Ñī":7408,"ĠÐ¼Ð¾ÑĢÐµ":7409,"ĠÐºÐ°Ð·Ð°Ð»ÑģÑı":7410,"ĠÐ½Ð°Ð±Ð»ÑİÐ´":7411,"ÑĪÑĤ":7412,"ÑĢÐ¸Ð¹":7413,"ĠÐµÑİ":7414,"ĠÐ²Ð¾ÑģÐ¿Ð¸ÑĤ":7415,"is":7416,"ÑĩÐ¸ÑĤÑĮ":7417,"ĠÐ´ÐµÐ´":7418,"ĠÐ³Ð¾ÑĢÐ¸Ð·":7419,"ĠÐ½ÐµÐ¿ÑĢÐ¸Ð²":7420,"ĠÐ¡ÐµÐ±Ð°ÑģÑĤÑĮÑıÐ½":7421,"ĠÑĪÑĳÐ»":7422,"ĠÐºÐ¾Ð½ÑĤÐ°Ðº":7423,"ĠÑĩÑĳÑĢÑĤ":7424,"ĠÐ¿Ð¾ÑĨÐµÐ»Ð¾Ð²Ð°ÑĤÑĮ":7425,"ĠÐ°Ð½":7426,"ĠÐ³ÑĢÐ¾ÑħÐ¾ÑĤ":7427,"ĠÑħÐ°":7428,"ÑĮÑģÑı":7429,"ĠÐ½Ð°ÑĪÐµÐ¼":7430,"ĠÑģÑĤÐ°ÑĢÑĭÐ¹":7431,"ÑĢÐ¾Ð¼ÐºÐ¾":7432,"ĠÑģÑĤÐ¾Ð½Ñĭ":7433,"ĠÐ¿Ð¾ÑģÐ¼Ðµ":7434,"ĠÐ¿ÑĢÐµÐ±":7435,"ĠÑĥÐ´Ð¸Ð²Ð»ÐµÐ½Ð¸ÐµÐ¼":7436,"ÑĢÐ¸Ñı":7437,"ĠÑĢÐ°ÑģÑģÐºÐ°Ð·Ð°Ð»Ð°":7438,"ÑĩÐµÑģÐºÐ¸Ðµ":7439,"ĠÐ½ÐµÐ½Ð°Ð²Ð¸Ð¶Ñĥ":7440,"ĠÐ¿Ð¾ÑģÐ¿ÐµÑĪÐ½Ð¾":7441,"ĠÐ¢Ð°ÐºÐ¾Ð¹":7442,"ĠÐ¿Ð¾Ð½ÑıÐ»Ð¸":7443,"ĠÐ¿ÑĢÐ¸ÑģÑĤÐ°Ð²":7444,"ÑĥÐ¶Ð´Ð°":7445,"ĠÐ²Ð¾ÑģÐµÐ¼ÑĮ":7446,"ĠÑĥÐ¼Ð¾Ð»":7447,"ÑĦÑĦÐ¸":7448,"ĠÑĥÑģÑĤÐ°Ð²Ð¸Ð»Ð°ÑģÑĮ":7449,"ĠÐ±Ð¾Ð»ÑĮÑĪÐ¾Ðµ":7450,"ÐµÐ»ÑİÐ±":7451,"Ð¾Ð»ÐµÐ½":7452,"ĠÐ´ÐµÑĤÑģÑĤÐ²Ðµ":7453,"Ð´ÑĢÑĥÐ³Ð¾Ð¼Ñĥ":7454,"Ð¸ÑīÐµ":7455,"ĠÐ»ÑİÐ±Ð¸Ð¼Ð¾Ð¹":7456,"ÑĳÐ½ÑģÑĥ":7457,"ĠÐºÐ°Ð¿Ð¸ÑĤÐ°Ð½Ð°":7458,"ĠÐ²ÐµÐ·Ð´Ðµ":7459,"ĠÐ²ÑĭÐ´ÐµÑĢÐ¶Ð°Ð»":7460,"ĠÐ¿Ð¾Ð´Ð¾Ð±Ð½Ð¾Ð³Ð¾":7461,"ĠÐ·Ð°Ð²ÑıÐ·":7462,"ÑĢÐµÐ´ÐºÐ°":7463,"ÐµÐ³Ð°ÑĤÑĮ":7464,"ĠÐ¼Ð¸Ð½Ð¸Ð¼ÑĥÐ¼":7465,"ĠÑģÐ»ÑĥÑĩÐ¸ÑĤÑģÑı":7466,"ĠÐ¿Ð¾ÑĪÐµÐ²ÐµÐ»":7467,"ÑģÐºÐ°Ð·Ð°Ð»":7468,"ĠÐ¼ÐµÑĢÑĤ":7469,"ĠÑĩÐ°ÑĪÐºÑĥ":7470,"ÑĥÑĢÐµ":7471,"ĠÑĢÐ°ÑģÑģÑĤÐ¾ÑıÐ½Ð¸Ðµ":7472,"ĠÑĢÐ¾Ð´Ð½Ð¾Ð¹":7473,"ĠÐºÐ¸Ð½ÑĥÐ»":7474,"ĠÐµÐ¶":7475,"ĠÑĥÐ²Ð»ÐµÐº":7476,"Ð½Ð¸ÐºÐ°Ð¼":7477,"ĠÑĤÐ¸Ð¿Ð°":7478,"ĠÐ¿ÑĢÐ¸Ð½ÑĨÐ¸Ð¿Ðµ":7479,"ĠÐ¿Ð¾ÑģÑĤÐ¾ÑıÐ½":7480,"ĠÐ¿Ð°Ð´Ð°ÐµÑĤ":7481,"ĠÐ¾ÑģÑĤÐ°Ð½Ð¾Ð²Ð¸Ð»":7482,"ĠÐ²Ð·Ð´ÑĢÐ°Ð³":7483,"ĠÐłÐ¾Ð¼":7484,"ĠÐ·ÐµÐ²":7485,"ĠÑĢÐ°Ð±Ð¾ÑĤÐ°ÐµÑĤ":7486,"ĠÑĥÐ´Ð¸Ð²Ð»ÐµÐ½Ð¸Ñı":7487,"ĠÐ¶Ð°Ð»Ð¾":7488,"ĠÐ¿Ð¾ÑģÐ»ÑĥÑĪÐ½Ð¾":7489,"ĠÐłÑįÐ¹":7490,"ĠÑģÐ²Ð¸Ð´ÐµÑĤ":7491,"ĠÑģÑĤÐ°Ð½":7492,"ĠÐ¾ÑĤÐ²Ð»ÐµÑĩÑĮ":7493,"ĠÑģÐ¿Ð¾Ð»Ð·":7494,"ĠÑĩÐ°Ðº":7495,"ĠÐ¡Ð¸ÑĢÐ¸ÑĥÑģ":7496,"Ð»ÑıÑİÑģÑĮ":7497,"ĠÐ·Ð°Ð¿ÑĢÐµÑĤ":7498,"Ġ:":7499,"ĠÑĤÑĢÑĥÐ¿":7500,"ÑĢÐ¾Ð²Ð°Ð»Ð°":7501,"Ð°Ð±Ð°ÑĤ":7502,"ĠÐ¿Ð°Ñĩ":7503,"ĠÐ´ÑĭÑĪÐ°":7504,"ĠÐºÑĢÐ°Ñı":7505,"ĠÐľÐ¾Ð¶ÐµÑĪÑĮ":7506,"ĠÐĴÑĭÑģ":7507,"ĠÑĤÑĢÑıÐ¿":7508,"ĠÐ·Ð°Ð¿Ð°Ñģ":7509,"ĠÐ¿Ð¾Ð¼Ð¾Ð³Ð°ÑĤÑĮ":7510,"ÑģÑĤÐ²Ð¾Ð²Ð°Ð»":7511,"Ġ10":7512,"Ð»Ð¸Ð¹":7513,"ĠÐ·Ð°ÐºÐ¸":7514,"ĠÑģÐ´ÐµÐ»Ð°Ð²":7515,"ĠÐ»ÐµÐ½Ð¸Ð²Ð¾":7516,"ĠÐºÐ»Ð°ÑģÑģÐ°":7517,"ÑģÑĤÐ°Ð»":7518,"ĠÑĥÑģÑĤÑĥÐ¿":7519,"ĠÐºÐ¾Ðº":7520,"ĠÐ²Ð°ÑĪÐµÐ¹":7521,"Ð»ÑıÑİÑĤÑģÑı":7522,"ĠÐ¼ÑĭÑģÐ»ÑıÑħ":7523,"ĠÐ·Ð°Ð´ÑĭÑħ":7524,"ĠÐ²Ð´Ð²Ð¾":7525,"ÑĢÑĭÑĤÑĮ":7526,"ÑĥÑģÑĤÐ¸":7527,"ĠÑģÑĤÐ°ÑĤ":7528,"ĠÑĥÐ¼ÐµÐµÑĤ":7529,"ÐµÑĩÐºÑĥ":7530,"ĠÑĤÐ²Ð¾Ñĳ":7531,"ÑĥÑĢÑģ":7532,"ĠÐ¿Ð¾Ð±Ð»Ð°Ð³Ð¾Ð´Ð°ÑĢ":7533,"ĠÐ»ÐµÐ¶Ð°Ð»Ð¸":7534,"ĠÑĩÐµÑĢÐ½ÑĭÐ¹":7535,"ĠÑģÐ¼ÐµÐ»Ð¾":7536,"ĠÐ¿Ð¾ÑĩÑĥÐ²ÑģÑĤÐ²Ð¾Ð²Ð°ÑĤÑĮ":7537,"ĠÑĤÑĥÑĦ":7538,"ĠÐ¡ÐºÐ¾ÑĢÐ¾":7539,"ĠÐ·Ð°Ð¼ÐµÑĩÐ°ÐµÑĤ":7540,"ÑįÑĤÐ¾":7541,"ĠÑĢÐ°Ð·Ð²ÐµÑĢÐ½ÑĥÐ»Ð°ÑģÑĮ":7542,"Ð£Ð¶Ðµ":7543,"ĠÐ§Ð¾Ð½Ð¸Ð½":7544,"ÐºÐ¸Ð½ÑĥÐ»Ð°":7545,"Ð¸ÐºÐ°Ð¼":7546,"ĠÐ·Ð°Ð¼ÑĥÐ¶":7547,"ĠÐ¿ÑĥÑģÑĤÐ¾Ð¹":7548,"Ġf":7549,"ÑģÑĤÐ°ÑĢ":7550,"ĠÑĥÐ´Ð¸Ð²Ð¸ÑĤÐµÐ»ÑĮÐ½Ð¾":7551,"ĠÑĢÐ¸ÑģÑĥÐ½":7552,"ÐľÑĥÐ¶ÑĩÐ¸Ð½Ð°":7553,"ĠÑĥÐ½Ð¸Ð²ÐµÑĢÑģÐ¸ÑĤ":7554,"Ð´Ð¾Ð½":7555,"ĠÐĶÑĢÐ°Ð³":7556,"ĠÐ½Ð°Ð´ÐµÐ»":7557,"ĠÐ¾Ð¿Ð°ÑģÐ½Ð¾":7558,"ÐºÑĥÑĩ":7559,"ĠÐľÐ¸ÑģÑĤÐµÑĢ":7560,"ĠÐ¶Ð°Ð´Ð½Ð¾":7561,"ĠÑģÐ»ÐµÐ´Ñĭ":7562,"ĠÐ¿ÑĢÐ¾Ð³ÑĥÐ»":7563,"ĠÐĿÐµÐ¼Ð½Ð¾Ð³Ð¾":7564,"ĠÐ¿Ð»ÐµÑĩÐ°":7565,"ĠÐ¸Ð¼Ð¸":7566,"ĠÐļÐ¾ÑĢÐ¾Ð»ÐµÐ²":7567,"Ð¼Ð¾ÑģÑĦ":7568,"ĠÐ³ÑĢÐ¸Ð¼":7569,"ĠÐ¿ÑĢÐ¾ÑĪÑĳÐ»":7570,"ĠÐ´ÑĢÐ¾Ð³":7571,"ĠÐ²ÑĭÐ¿Ð¸ÑĤÑĮ":7572,"ĠÑĢÐ¾Ð´Ð°":7573,"ÐµÐ¿ÑĤÐ¸":7574,"ĠÐ¼ÑĥÐ´":7575,"ĠÐ¾ÑģÑĤÐ°ÑĤÐºÐ¸":7576,"Ð½Ð¸Ð·Ñĥ":7577,"ĠÐ±Ð¾Ð»ÐµÐ·Ð½":7578,"Ð°Ð´Ñĥ":7579,"ĠÐ±Ð¾Ð³Ð°ÑĤ":7580,"ĠÑĤÐ¸ÑĪÐµ":7581,"ĠÐ¶Ð´Ð°Ð»Ð¸":7582,"ĠÐ½Ð°Ð¿ÑĢÐ°Ð²Ð»ÐµÐ½Ð¸Ð¸":7583,"ĠÐ²Ð¾Ð·ÑĢÐ°Ð¶":7584,"ĠÑĪÐ¸Ð½Ð¾Ð±Ð¸":7585,"ÐµÑĤÐ¾Ð¼":7586,"ĠÐ»Ð°Ð±Ð¾ÑĢÐ°":7587,"ĠÐ¸Ð½ÑģÑĤÐ¸Ð½Ðº":7588,"ĠÐ½Ð¾Ð²ÑĭÑħ":7589,"ĠÑĥÑģÑĤÐ°Ð»Ð°":7590,"ĠÐ¿ÑĢÐµÐ´ÑģÑĤÐ¾Ñı":7591,"Ð½Ð°ÑĩÐ°Ð»":7592,"ĠÐ¿ÑĢÐ¸Ð¿Ð¾Ð´Ð½ÑıÐ»":7593,"ĠÐ¿ÑĢÐ¸Ð´ÐµÑĢÐ¶":7594,"ĠÑģÐ¼ÐµÑħÐ°":7595,"Ð¸Ð½ÑģÑĤÐ²Ð¾":7596,"ĠÐľÐ¸ÑģÑģ":7597,"ĠÐ¿ÐµÑĢÐµÐ½Ð¾Ñģ":7598,"ĠÐĲÐ³":7599,"Ð»Ð¾Ð³":7600,"Ð°ÑĪÐµ":7601,"ĠÐ³Ð»ÑĥÐ±Ð¶Ðµ":7602,"ĠÐ·Ð°ÐºÐ»Ð¸Ð½Ð°Ð½Ð¸Ðµ":7603,"ÐµÐ½Ð¸ÑıÑħ":7604,"ÐºÐ°Ð»Ð¸":7605,"ÑĢÐµÑģÑģ":7606,"ĠÑħÐ¾Ð»Ð¾Ð´Ð½Ð¾Ð¹":7607,"Ð°ÑĤÐµÐ»ÐµÐ¹":7608,"ĠÑĢÐ°Ð·Ð³Ð»ÑıÐ´ÑĭÐ²Ð°Ñı":7609,"ĠÐ¾ÑĤÐ´Ð°ÑĤÑĮ":7610,"Ð¸ÑģÐ¿":7611,"ĠÑĥÐµÐ·Ð¶":7612,"ĠÐ¿Ð»Ð°Ð²Ð½Ð¾":7613,"ĠÐ·Ð°Ð¹ÑĤÐ¸":7614,"ĠÐ·Ð°Ð¼ÐµÑĪ":7615,"ÑĢÐ°ÑĤÐ¸ÑĤÑĮ":7616,"ĠÐ¾ÑģÑĤÐ°Ð½Ð¾Ð²Ð¸ÑĤÑĮÑģÑı":7617,"ÑĢÐµÑģ":7618,"Ð½ÑĳÑĤÑģÑı":7619,"ÑıÐ±":7620,"ĠÐ¾Ð¿ÑĥÑģÐºÐ°":7621,"ĠÐ¿ÑĢÐ¸Ð´ÑĥÐ¼Ð°ÑĤÑĮ":7622,"ĠÐ¿ÑĢÐ¾Ð²Ð¾Ð´Ð¸ÑĤÑĮ":7623,"ĠÐ¢ÑĢÐ¸":7624,"ĠÐºÑĢÐµÑģÑĤ":7625,"Ð°ÑĢÐ´Ð°":7626,"ÑĢÐ¾Ð´Ð¾Ð»Ð¶":7627,"ĠÐ¶Ð¸Ð»Ð¸":7628,"ĠÐ¿ÐµÑĢÐµÐ±Ð¸Ð»":7629,"Ð¸ÑĤÑĭÐ¹":7630,"ĠÐ½ÐµÑħ":7631,"ÑįÑĢÐ¸":7632,"ĠÐ±ÑĢÐ¾":7633,"ĠÐ¸ÑģÑĩÐµÐ·Ð»Ð°":7634,"ĠÐĵÐµÐ½ÑĢÐ¸":7635,"ĠÐĲÐ±":7636,"ĠÑĦÐ¸Ð»ÑĮÐ¼":7637,"ĠÑĥÑģÐ¿Ð¾ÐºÐ¾Ð¸ÑĤÑĮÑģÑı":7638,"ĠÐ¼Ð°ÐºÑģÐ¸Ð¼":7639,"Ð¾Ð¶Ð¸Ð´Ð°Ð½Ð½Ð¾":7640,"ĠÐ¿Ð¾Ð´Ð°Ð»":7641,"ĠÐ¿Ð¾Ð¸ÑģÐº":7642,"ĠÐ¼ÐµÑĤÐ°Ð»Ð»Ð¸":7643,"Ð¾Ð²ÑĭÑħ":7644,"ĠÐĶÐ°Ð¼Ð±Ð»Ð´Ð¾ÑĢ":7645,"ĠÐ¿ÑĢÐ¸ÑĤÑıÐ½ÑĥÐ»":7646,"ĠÑĢÐµÐ°Ð»ÑĮÐ½Ð¾ÑģÑĤÑĮ":7647,"ÑīÑĥ":7648,"ĠÑħÐ¾ÑħÐ¾ÑĤ":7649,"ĠÐºÐ°Ð¶Ð´Ð¾Ð¼":7650,"Ð½Ð¾Ð¶":7651,"ĠÑĨÐµÐ½ÑĤÑĢ":7652,"ĠÑĥÑģÐ¿ÐµÑħ":7653,"ĠÑĢÐ°ÑģÑģÐºÐ°Ð¶Ñĥ":7654,"ĠÐ¼ÐµÑģÑĤÑĥ":7655,"ĠÐ¾Ð±Ð¾ÑĪ":7656,"ĠÐ¿Ð¾Ð¼Ð°Ñħ":7657,"ĠÐ²Ð¾Ð»Ð½ÑĥÐ¹ÑģÑı":7658,"ĠÑģÐ¾Ð³Ð»Ð°ÑĪ":7659,"ĠÐļÑİ":7660,"ĠÑĢÐµÐ°ÐºÑĨÐ¸Ð¸":7661,"ĠÑĨÐ²ÐµÑĤÑĭ":7662,"ÑİÑīÑĥÑİ":7663,"ĠÐ¿ÑĢÐ¸ÑĩÐ¸Ð½Ð°":7664,"Ð½Ð¾Ð²Ð¾Ð»Ð¾ÑģÑĭÐ¹":7665,"ĠÑģÐ¸ÑĢ":7666,"ĠÑģÐ¾Ð±ÑĢÐ°Ð»ÑģÑı":7667,"ÑĪÐ¸Ð²":7668,"ĠÐ¾Ð¿ÐµÑĢ":7669,"ĠÐ½Ð°ÑģÐº":7670,"ĠÐ½ÐµÐ±Ð¾Ð»ÑĮÑĪÑĥÑİ":7671,"ĠÐ¿ÐµÑĢÐµÑĩ":7672,"ĠÐļÐ¾ÑĤ":7673,"ĠÐ¿Ð¾Ð´ÑĥÑĪ":7674,"ĠÐ¾ÑĤÑĢÑıÐ´":7675,"ĠÑģÐ¸ÑģÑĤÐµÐ¼":7676,"ĠÐºÑĥÐº":7677,"ĠÑħÐ¼ÑĥÑĢ":7678,"ĠÐŁÐ¾ÑĩÑĤÐ¸":7679,"ĠÑĥÐ±Ð»ÑİÐ´":7680,"ĠÑģÑİÑĢÐ¿ÑĢÐ¸Ð·":7681,"ÑĢÐµÑı":7682,"ĠÑıÑģ":7683,"Ð°ÑĤÐµÐ»Ð¸":7684,"ÐµÐ´Ð»Ð¸Ð²Ð¾":7685,"ĠÑĤÐ°Ð»Ð°":7686,"ĠÐĳÑĥÐ´ÑĮ":7687,"ĠÐ²Ð·Ð°Ð¸Ð¼":7688,"ing":7689,"Ð¾Ð³Ð»Ð°Ñģ":7690,"ĠÐ¥Ð¸Ð±Ð°ÑĢÐ¸":7691,"ĠÑģÐ»Ñİ":7692,"ĠÑĢÐ¾Ð¼Ð°Ð½ÑĤÐ¸":7693,"ĠÐľÑįÑĢÐ¸":7694,"ĠÑĤÐµÐ»ÐµÑĦÐ¾Ð½Ð°":7695,"ĠÑĦÑĭÑĢÐºÐ½ÑĥÐ»Ð°":7696,"ĠÑĢÐ¾ÑģÑĤ":7697,"Ð²ÐµÑĩ":7698,"ĠÐ¿Ð¾ÑģÐ¸Ð´":7699,"ĠÐ¾ÑĤÑģÑĤÑĢÐ°Ð½Ð¸Ð»ÑģÑı":7700,"ĠÐļÐ°ÐºÐ¸Ðµ":7701,"ĠÐ¼Ð°ÑħÐ½ÑĥÐ»":7702,"ĠÐ·Ð°ÐºÑĢÐ¸ÑĩÐ°Ð»":7703,"Ð¸ÑĢÐ°ÑĤ":7704,"Ð¿ÐµÑĢÐ²ÑĭÑħ":7705,"ĠÐ¥Ð°ÑĢ":7706,"ĠÐºÑĢÑĭÐ»ÑĮÑı":7707,"ÑĩÐ°Ð²":7708,"ĠÐµÐ´Ð¸Ð½ÑģÑĤÐ²ÐµÐ½Ð½Ð¾Ðµ":7709,"Ð»ÐµÐ²Ð°ÑĤÑĮ":7710,"ĠÐ³ÑĥÐ´":7711,"ĠÑĢÐ°ÑģÑģÐ¼Ð°ÑĤÑĢÐ¸Ð²Ð°Ñı":7712,"ĠÐµÑģÑĤÐµÑģÑĤÐ²ÐµÐ½Ð½Ð¾":7713,"ĠÐ¿ÑĢÐ¸ÐµÑħÐ°Ð»":7714,"Ð°Ð±ÐµÑĤ":7715,"ÑĤÐµÐ¹":7716,"ĠÐ½ÐµÐ½Ð°Ð´Ð¾Ð»Ð³Ð¾":7717,"Ð±ÐµÑĢÑĤ":7718,"ĠÐ±ÐµÑģÐ¿Ð¾Ð¼Ð¾Ñī":7719,"ĠÐ¿Ð¸ÑģÐ°ÑĤÑĮ":7720,"Ð½ÐµÐ»":7721,"ĠÑģÐ¼Ð°Ð·":7722,"ĠÐ¥ÑĮÑİ":7723,"ht":7724,"ĠÐĶÐ¶ÑĥÐ½":7725,"ĠÐĲÐ»Ð¸ÑģÐ°":7726,"ĠÐ§Ð°Ð½ÑĳÐ»ÑĮ":7727,"ĠÐ»ÑİÐ±Ð¾Ð²ÑĮÑİ":7728,"ĠÑĤÑĢÐ¾Ðµ":7729,"ĠÑĥÐ»ÑĭÐ±Ð°Ð»Ð°ÑģÑĮ":7730,"Ð¿Ð¸ÑģÑĮ":7731,"ÑģÐ¿Ð¾Ð¼":7732,"ĠÐ¿Ð¾ÑħÐ¾Ð¶Ð°":7733,"ÐºÑĥÐ¿":7734,"ĠÐºÑĥÐ¿Ð¸ÑĤÑĮ":7735,"ĠÑģÑįÑĢ":7736,"ĠÐºÐ¸Ð½":7737,"ĠÐ¾ÑĩÐµÐ²Ð¸Ð´Ð½Ð¾":7738,"ĠÐºÐ°ÑĩÐµÑģÑĤÐ²Ðµ":7739,"ÐµÐ³Ð¾Ð½ÑĮ":7740,"ĠÐĽÑĥÑħÐ°Ð½":7741,"ĠÐ·Ð²ÑĥÑĩÐ¸ÑĤ":7742,"ĠÐ§ÑĳÑĢÑĤ":7743,"ĠÐ·Ð°ÑīÐ¸ÑĤÐ¸ÑĤÑĮ":7744,"ĠÐ½ÐµÐ»ÐµÐ¿":7745,"ĠÐĿÐ°ÑĪ":7746,"ĠÑĢÑĥÑĩ":7747,"Ð»ÐµÐ½Ð½Ð°Ñı":7748,"Ð»Ð¸Ð²ÑĭÐ¼":7749,"Ð»Ð¸Ð»Ð°":7750,"ÑģÐ¸Ñİ":7751,"ĠÐ½ÐµÐ²Ð¾Ð·Ð¼ÑĥÑĤ":7752,"ĠÑģÑħÐ²Ð°ÑĤÐ¸Ð²":7753,"ĠÐ¿ÐµÑĢÐ²Ð¾Ð¼":7754,"ĠÐ¶ÐµÑģÑĤÐ¾Ðº":7755,"ÑıÐµÑĤÑģÑı":7756,"ĠÐ²ÑģÐºÐ¾ÑĩÐ¸Ð»":7757,"Ð¸Ð½ÑĤ":7758,"ĠÑĥÐºÑĥÑģ":7759,"ĠÑģÑĤÑĢÐ¾Ð¹":7760,"ĠÐ²ÑĭÐ³Ð»Ñı":7761,"ĠÑĥÑħÐ°":7762,"ĠÐ¾Ð´Ð¸Ð½Ð¾ÑĩÐµÑģÑĤÐ²Ðµ":7763,"ĠÐ§ÑĥÐ²ÑģÑĤÐ²":7764,"ĠÑģÐ¾Ð²Ð¼ÐµÑģÑĤ":7765,"ĠÐ¾Ð³Ð½":7766,"ĠÐ´ÐµÐ¹ÑģÑĤÐ²Ð¸Ð¹":7767,"ĠÐ¿ÑĢÐ¸ÑĩÐµÐ¼":7768,"ÐĶÑĢ":7769,"ÐºÐ¾ÑĢÐµÐµ":7770,"ĠÐ¾ÑĩÐ°ÑĢÐ¾Ð²":7771,"ĠÑģÐµÐºÑģ":7772,"ĠÐ¿Ð¾ÐºÐ¸Ð´":7773,"ĠÐ½Ð°ÑģÑĤÐ°Ð²":7774,"Ð½Ð°Ñģ":7775,"ĠÐ·Ð½Ð°ÐµÐ¼":7776,"ĠÑģÑħÐ¾Ð´Ð¸ÑĤÑĮ":7777,"................................":7778,"ĠÐ½ÐµÐ´Ð¾Ð²ÐµÑĢ":7779,"ĠÐ½ÐµÐ´Ð°Ð»ÐµÐºÐ¾":7780,"ĠÐ²Ð°ÑĢ":7781,"ĠÐ¿Ð¾Ð´Ð¾ÐºÐ¾Ð½":7782,"ĠÐĿÐµÑģÐºÐ¾Ð»ÑĮÐºÐ¾":7783,"ĠÐĵÐ»Ð°Ð²Ð½Ð¾Ðµ":7784,"ĠÐ¼Ð°Ð½Ð¸":7785,"ĠÐ´ÐµÐº":7786,"Ð¡ÐµÐ³Ð¾Ð´Ð½Ñı":7787,"Ð¸Ð½Ð¸":7788,"ĠÐ²ÐµÐ½":7789,"ĠÐ±ÐµÐ»ÑĭÐµ":7790,"ĠÑĦÐ¾ÑĢÐ¼Ðµ":7791,"ÐµÐ³Ð¾Ð½ÑĮÐºÐ¾":7792,"ĠÐ¾ÑģÐºÐ¾ÑĢÐ±":7793,"ĠÑģÐ²ÑıÐ·Ð°":7794,"Ð¸Ð»Ðµ":7795,"ÑĥÑıÑģÑĮ":7796,"ĠÐ²ÐµÑĢÐ¸Ð»":7797,"ĠÑģÐ¿ÑĢÐ°Ð²Ð¸ÑĤÑĮÑģÑı":7798,"ĠÐ±Ð¾Ð¶Ðµ":7799,"ÑĢÐ°Ð½Ðµ":7800,"ĠÑĥÐ²Ð»ÐµÑĩ":7801,"ÐºÐ¸Ð½":7802,"ÐµÐ»Ð»Ð°":7803,"ĠÐ²Ð°Ð¼Ð¿Ð¸ÑĢÐ°":7804,"ĠÐĴÐ°ÑĪ":7805,"ÐµÐ»Ð¸Ñı":7806,"ĠÑģÑĤÐ°ÑĢÐ°ÑĤ":7807,"ĠÐ¼Ð½ÐµÐ½Ð¸Ðµ":7808,"ĠÐµÐ´Ñĭ":7809,"Ð½ÐµÑģÐ»Ð°":7810,"om":7811,"ĠÑĤÑıÐ¶Ñĳ":7812,"ÑİÑīÐ¸Ð¼":7813,"ĠÐ·Ð°ÐºÑĢÑĭÐ²Ð°Ñı":7814,"ĠÐ·Ð°Ð²ÐµÐ´":7815,"ÑĢÐ°ÑĦÐ¸":7816,"ĠÐ¿Ð¾Ð¿Ð°Ð»Ð°":7817,"ĠÐ½Ð°Ð·ÑĭÐ²Ð°ÑĤÑĮ":7818,"ĠÐ¿ÑĢÐ¾ÑģÑĤÑĢÐ°Ð½ÑģÑĤÐ²Ð¾":7819,"ĠÐ¾ÑģÐ»ÐµÐ¿":7820,"ĠÐ¿ÑĢÐ¸Ð½ÑĨÐ°":7821,"ĠÑĦÐ°Ð½ÑĤÐ°Ð·":7822,"ĠÑĥÑĤÑĢÐµÐ½":7823,"ĠÐ±ÑĥÐ´ÑĥÑīÐµÐµ":7824,"ĠÐ·Ð°Ð¿ÐµÑĢ":7825,"ĠÑģÐ°Ð¿":7826,"ĠÑĢÐ°Ð·Ð¼Ð°Ñħ":7827,"ĠÑĢÐ°ÑģÑĤÑı":7828,"ĠÑģÐ»Ð¾Ð²Ð°Ð¼":7829,"ĠÐ¸Ð´ÐµÐ°Ð»ÑĮÐ½Ð¾":7830,"ĠÐ´Ð¾Ð±ÑĢÐ°ÑĤÑĮÑģÑı":7831,"ĠÐ½ÐµÐºÐ¾ÑĤÐ¾ÑĢÑĭÑħ":7832,"ĠÐ¾Ð±ÑĢÑĭÐ²":7833,"ĠÐ¸Ð·Ð¼ÐµÐ½Ð¸ÑĤÑĮ":7834,"ĠÐ½ÐµÐ´ÐµÐ»ÑĮ":7835,"ĠÐ´ÐµÐ»Ð°Ð»Ð¸":7836,"ĠÐ¿ÑĢÐ¾Ð´Ð¾Ð»Ð¶Ð°ÑĤÑĮ":7837,"Ð°Ð»ÑĮÐ½Ð¾Ð¼":7838,"ĠÐ¿Ð¾Ð´Ð¾Ð·ÑĢÐ¸ÑĤÐµÐ»ÑĮÐ½Ð¾":7839,"ĠÐłÐ¸Ð½":7840,"ĠÐ¾Ð¿Ð°ÑģÐ½Ð¾ÑģÑĤÐ¸":7841,"ÑĥÐ¼Ð½Ð¾":7842,"ĠÑĤÐ¾Ð½ÐºÐ¸Ðµ":7843,"ĠÐ¿Ð¾Ñī":7844,"ÑģÐ°Ð¼Ð°":7845,"ĠÐłÐ°ÑĦ":7846,"ĠÐ¾Ð³Ð»ÑĥÑĪ":7847,"ÑĪÐ¸Ð½Ð°":7848,"Ð¾Ð»ÐµÐµ":7849,"ĠÑĤÐ°Ð±Ð»ÐµÑĤ":7850,"ÐµÐ»Ð¾Ðµ":7851,"Ð°Ð²ÑĪÐ¸Ðµ":7852,"ĠÑıÑĢÐ¾ÑģÑĤÐ¸":7853,"ÑĤÐ¾ÑıÑĤÑĮ":7854,"ĠÐĲÐ½Ð´ÐµÑĢ":7855,"ĠÐ²Ð»ÐµÑĤ":7856,"ĠÐºÐ¾Ð½ÑĤÑĢÐ¾Ð»ÑĮ":7857,"ĠÐ¶Ð¸Ð²Ð¾Ð¹":7858,"ĠÐ¿Ð¾Ð·Ð´ÑĢÐ°Ð²":7859,"ĠÐ½Ð¾Ð²Ð°Ñı":7860,"ĠÐ½Ð°Ð¿ÑĢÐ°Ð²Ð¸Ð»Ð¸ÑģÑĮ":7861,"ĠÐĴÑĢÐ¾Ð´Ðµ":7862,"ĠÐ¾ÑīÑĥÑīÐ°Ñı":7863,"ĠÑĥÐ¼Ð¾Ð»Ñı":7864,"ĠÐ±ÑĥÑĢÐºÐ½ÑĥÐ»":7865,"ĠÐ¿ÑĢÐ¸Ð´Ð°Ð²":7866,"ÑĤÐ¾ÑĢÐ¾Ð¼":7867,"ĠÐ¿Ð¾Ð´ÑħÐ²Ð°ÑĤÐ¸Ð»":7868,"ÐµÑĢÑĮÑİ":7869,"Ð½ÑĥÑĤÑĭÐ¹":7870,"ĠÐºÐ¾Ð»Ð¸":7871,"ĠÐ´Ð¾Ð±Ð°Ð²Ð¸Ð»Ð°":7872,"ĠÐ°Ñħ":7873,"ĠÑĢÐ°ÑģÑģÐ¿":7874,"ĠÐ·Ð°Ð¼ÐµÑĤÐ¸Ð»Ð¸":7875,"ĠÐ²Ð¾Ð¿ÑĢÐ¾ÑģÐ¾Ð¼":7876,"ĠÐ´Ðµ":7877,"ĠÑĪÑĥÑĤÐºÑĥ":7878,"ĠÐ·Ð°ÑĨÐµÐ¿":7879,"ĠÐºÑĥÐ»Ð°ÐºÐ¾Ð¼":7880,"ĠÐ²ÐµÑĢÐ½ÑĥÑģÑĮ":7881,"ĠÐĺÐ´":7882,"ÑİÑīÐ°Ñı":7883,"ĠÐ±Ð¾Ð»ÑĮÐ½Ð¸ÑĨÐµ":7884,"ĠÐ·Ð°Ð¾ÑĢ":7885,"ĠÐ³ÑĢÐ¾Ð¼ÐºÐ¸Ð¹":7886,"ĠÐ¿Ð°ÑĢÐº":7887,"ĠÐ²Ð·Ð¾ÑĢÐ²":7888,"ĠÐ¿Ð¾ÑıÐ²Ð»ÑıÐµÑĤÑģÑı":7889,"ĠÐ»ÑĥÐº":7890,"ĠÑģÐ¿Ð»ÐµÑĤ":7891,"ĠÐ±Ð»ÐµÑģ":7892,"ĠÐ¿Ð¾Ð¿ÑĢÐ¾ÑģÐ¸ÑĤÑĮ":7893,"ĠÐŁÑĢÐ¸Ð·":7894,"ĠÐ¾Ð¿ÑĢÐµÐ´ÐµÐ»ÐµÐ½Ð½Ð¾":7895,"ĠÑĤÐµÐ¼Ð½ÑĭÐµ":7896,"ĠÐ´Ð½ÐµÐ²":7897,"ĠÐ¶Ð¸Ð²Ð¾ÑĤÐ°":7898,"ĠÐĿÐķ":7899,"ĠÑģÐ»ÐµÐ·Ð°Ð¼Ð¸":7900,"ĠÐ¡Ð¿Ð¾ÐºÐ¾Ð¹":7901,"ĠÑĥÐºÑĢÑĭ":7902,"ĠÐ¢ÑĢ":7903,"ĠÐ¸Ð·ÑĢÐµÐ´ÐºÐ°":7904,"ĠÑģÑħ":7905,"ĠÐ¼ÑĥÐ¶ÑĩÐ¸Ð½Ðµ":7906,"ĠÐºÑĢÐ¸ÑĩÐ°Ð»Ð°":7907,"ĠÐŁÐ¾Ð¹Ð´ÐµÐ¼":7908,"ĠÐ»ÐµÐ¶Ð°Ñī":7909,"ĠÑģÐ»Ð¾Ð¶Ð¸Ð²":7910,"ÐµÑĢÐ¸Ð½":7911,"ĠÐ·Ð°ÑģÑĤÐ°Ð²Ð¸Ð»Ð¾":7912,"ĠÐ½Ð°ÑħÐ¾Ð´Ð¸Ð»Ð°ÑģÑĮ":7913,"ĠÐ½Ð°Ð²ÐµÑĢÐ½Ð¾":7914,"ĠÑģÐ¾Ð±ÑģÑĤÐ²ÐµÐ½Ð½Ð¾Ð³Ð¾":7915,"ÐĶÐ¶Ð¾Ð½":7916,"Ð¸Ð²Ð°ÐµÐ¼":7917,"Ð¾ÑĢÐ³":7918,"ĠÑĥÐ²ÐµÐ»Ð¸":7919,"ĠÐ¿Ð¾Ð»Ð¸ÑĨÐµÐ¹":7920,"ĠÑģÐ°Ð½ÑĤ":7921,"ĠÐ¿Ð¾Ð¼Ð½Ð¸ÑĤ":7922,"ĠÐ¿Ð¾ÑģÐ»ÐµÐ´Ð¾Ð²Ð°Ð»":7923,"ĠÐ¸Ð³ÑĢÑĥ":7924,"ÑĥÐ»ÑıÑĢ":7925,"ÑĢÑıÐ´Ð°":7926,"ÐµÑĤÐºÑĥ":7927,"ĠÐ¿ÑĥÑħ":7928,"ÑĥÐ·Ñĥ":7929,"ĠÐ¿Ð¾ÐºÐ»Ð¾Ð½":7930,"ĠÐ²Ð·Ð³Ð»ÑıÐ½ÑĥÐ²":7931,"ÑģÑĤÐ²ÐµÐ½Ð½ÑĭÐ¼":7932,"Ð¥Ð¾ÑĤ":7933,"ĠÐ·Ð°Ð²Ð¸Ð´":7934,"ĠÐ²ÑģÑĤÑĢÐµÑĤÐ¸Ð»Ð¸ÑģÑĮ":7935,"Ð´ÐµÑģÑıÑĤ":7936,"ÑĥÑĤÐ°":7937,"Ð»ÑıÐ»Ð¸ÑģÑĮ":7938,"ĠÐĳÐµÐ»Ð»Ð°":7939,"ĠÐ¿ÑĢÐ¾Ð½ÐµÑģ":7940,"ĠÐ´ÐµÐ¹ÑģÑĤÐ²Ð¾Ð²Ð°ÑĤÑĮ":7941,"ĠÐ¾ÑĤÐ¿ÑĢÐ°Ð²Ð¸Ð»Ð¸ÑģÑĮ":7942,"ĠÐ³Ð»ÑĥÐ±Ð¸Ð½Ðµ":7943,"Ð´Ð²Ð°":7944,"ĠÑĪÑĥÐ¼Ð½Ð¾":7945,"ĠÑĢÐ°Ð´Ð¾ÑģÑĤÑĮÑİ":7946,"ĠÐĴÑģÐµÐ³Ð¾":7947,"ĠÑģÐ»Ñĭ":7948,"ĠÐ·Ð°ÑĪÐ»Ð¸":7949,"ĠÑĤÐ°ÑĢÐµÐ»ÐºÑĥ":7950,"ĠÐ¿Ð¾ÑĨÐµÐ»ÑĥÑı":7951,"ĠÐ¾ÑĤÐ²ÑĢÐ°Ñī":7952,"ĠÐ³Ð¾ÑĤÐ¾Ð²Ð¸ÑĤÑĮ":7953,"ĠÑģÐ¼Ð¾ÑĤÑĢÑıÑĤ":7954,"Ð¢Ð¾ÑĤ":7955,"Ð¸Ð»Ð¾Ð¼":7956,"ĠÑģÐ¾Ð¼Ð½ÐµÐ½Ð¸Ñı":7957,"Ð¾ÑĢÐ¾Ð½":7958,"ÐľÐµÐ½Ñı":7959,"ÑıÐº":7960,"ĠÐ·Ð°Ð¼ÐºÐ°":7961,"ĠÐ¿ÑĢÐ¾Ð±Ð¾ÑĢÐ¼Ð¾ÑĤÐ°Ð»Ð°":7962,"ĠÑĢÐ°Ð·Ð´Ð°Ð²":7963,"ĠÐ±ÑĢÐ¾Ð´":7964,"ĠÑıÐ³Ð¾Ð´Ð¸":7965,"ĠÑĩÑĥÐ¶Ð¾Ð¹":7966,"ĠÑģÐµÐ»Ð¸":7967,"ĠÑĩÑĥÐ²ÑģÑĤÐ²ÑĥÐµÑĪÑĮ":7968,"ĠÐ·Ð°ÑģÑĤÐ°Ð²Ð¸Ð»Ð°":7969,"ÑĩÐ½ÑĥÑİ":7970,"Ð´Ð°ÑıÑģÑĮ":7971,"ĠÐľÐ¾Ð»Ð¾Ð´":7972,"ĠÑĢÑĤÐ¾Ð¼":7973,"ĠÐ·Ð°ÐºÐ°ÑĤÐ¸Ð»":7974,"ÐĴÐ´ÑĢÑĥÐ³":7975,"ĠÐ¡ÑĭÐ½":7976,"ĠÐ¿ÐµÑģÐ½Ð¸":7977,"ĠÑįÐºÑĢÐ°Ð½":7978,"ĠÐ¿Ð¾ÑĪÐ»Ð¾":7979,"ĠÑĢÐ°ÑģÑħ":7980,"ĠÐŃÐ»Ð»Ð¸":7981,"ĠÐ¿ÐµÑĢÐµÐ³Ð»ÑıÐ½ÑĥÐ»Ð¸ÑģÑĮ":7982,"ĠÐ·Ð°Ð¼Ð¾Ð»ÑĩÐ°Ð»":7983,"ĠÐ²Ð¶":7984,"Ð¸Ð²ÑĪÐµÐ³Ð¾ÑģÑı":7985,"ĠÐ±ÑĢÐ¾ÑģÐ¸Ð»ÑģÑı":7986,"ĠÐ¢Ð°ÐºÐ¾Ðµ":7987,"ĠÐ¡Ð¸Ð´":7988,"ĠÐ·Ð°ÑĤÑĭÐ»":7989,"Ð½ÑıÐ¼Ð¸":7990,"ĠÑħÐ¾ÑĢÐ¾ÑĪÐ°Ñı":7991,"ÐĿÐ°ÑĢÑĥÑĤÐ¾":7992,"ĠÐ¾Ð´ÐµÑıÐ»Ð¾Ð¼":7993,"ÑģÐµÑģÑĤ":7994,"ĠÐ»Ð¾Ð³":7995,"ÑĢÐ°Ð½Ð¸Ñĩ":7996,"ĠÑĤÐµÑĢÑıÑĤÑĮ":7997,"ĠÐ¿ÐµÑĢÐµÐ²ÐµÐ»":7998,"ÐµÑĢÐ¸Ð¼":7999,"ĠÑĢÐ¶":8000,"Ð¾Ð¹Ð´Ñĥ":8001,"ĠÐ¿ÑĢÐ¾ÐºÑĢÐ¸":8002,"ĠÑĢÐ°Ð·Ð´ÑĢÐ°Ð¶ÐµÐ½Ð½Ð¾":8003,"Ð¸ÑĢÐ°ÐµÑĤÑģÑı":8004,"ĠÐ¿Ð¾Ð·Ð½Ð°ÐºÐ¾Ð¼Ð¸ÑĤÑĮÑģÑı":8005,"ĠÐ¿ÑĢÐ¾Ð¿Ð°Ð´":8006,"ĠÑĩÐµÐ¹":8007,"ĠÐ¾Ð±ÑĢÐ°ÑĤÐ¸Ð»":8008,"Ġthe":8009,"ĠÐ·Ð»Ð¾Ð±":8010,"ÑģÐºÐ°Ð·Ð°Ð»Ð°":8011,"ĠÑģÐ»Ð°Ð´ÐºÐ¾":8012,"ĠÐ»ÐµÐ³Ð¾Ð½ÑĮÐºÐ¾":8013,"ĠÐ´ÑĥÑĢÐ°ÑĨ":8014,"ĠÐ¿Ð°Ð½":8015,"ÐľÐ°ÑĢ":8016,"Ð¾Ð½ÑĮÐºÑĥ":8017,"ĠÑĢÐ°Ð·Ð½Ð¸ÑĨÐ°":8018,"ĠÐĹÐ½Ð°Ñİ":8019,"ĠÐ±ÐµÑģÐºÐ¾Ð½Ðµ":8020,"ĠÐ¿ÑĢÐ¾ÑĨÐµÐ´":8021,"ÐĵÐ´Ðµ":8022,"ĠÐ¾ÑĤÐ²ÐµÑĢÐ½ÑĥÐ»Ð°ÑģÑĮ":8023,"ÑĢÐ°Ð½ÐµÐµ":8024,"ĠÐ¶Ð¸Ð²Ð¾ÑĤÐµ":8025,"ĠÑģÐ¾Ð±ÑĭÑĤÐ¸Ñı":8026,"ĠÐ¿Ð¾ÐºÐ¸Ð½ÑĥÑĤÑĮ":8027,"ĠÐ¾Ð±Ð½ÑıÑĤÑĮ":8028,"ĠÐ¿Ð¾ÐºÐ¸Ð½ÑĥÐ»":8029,"ÑįÐ´":8030,"ĠÐ¾ÑĤÐºÑĢÐ¾Ð²ÐµÐ½Ð½Ð¾":8031,"ĠÐ·Ð°Ð¼ÐµÑĢÐ»Ð°":8032,"ĠÐ¼ÑĥÑĢÐ°ÑĪÐºÐ¸":8033,"ĠÐ¿Ð¾Ð½ÑıÐ²":8034,"ĠÐĳÐ»Ð¾Ð½Ð´Ð¸Ð½":8035,"ĠÐĽÑİÐ´Ð¸":8036,"ĠÐ¿ÑĢÐ¾ÑģÐ»ÐµÐ´":8037,"ĠÐ·Ð°ÐºÑĢÐ¸ÑĩÐ°Ð»Ð°":8038,"Ð¼ÐµÐ¹":8039,"ĠÐ´Ð²Ð¾ÑĢÐµÑĨ":8040,"ĠÑģÑĦ":8041,"ĠÑģÑĤÐ°Ð½Ñĥ":8042,"ĠÐ¿Ð¾Ð´Ð½Ð¸Ð¼Ð°ÐµÑĤ":8043,"ĠÑĥÐ»Ð¸ÑĨÑĭ":8044,"Ð¸ÑĩÐ¸":8045,"Ġ4":8046,"ĠÐ½ÐµÐ·Ð°Ð¼":8047,"Ð¾Ð¼ÐµÑĢ":8048,"ĠÐ¿Ð¾Ð¼Ð¾ÑĢÑīÐ¸Ð»ÑģÑı":8049,"ĠÐ¿ÑĢÐ¾Ð¸Ð·Ð¾ÑĪÐµÐ´":8050,"ĠÐĲÐ´Ð°Ð¼":8051,"ĠÐĳÐ»Ð¸Ð½":8052,"ĠÑĤÐ°ÐºÐ¾Ð¼Ñĥ":8053,"ĠÑģÑĤÑĢÐ¾Ð³":8054,"Ð³Ð°Ð½":8055,"Ð¸ÑĤÐµÐ»ÑĮÐ½Ð°Ñı":8056,"ĠÑģÑĤÐ¾ÑıÐ²":8057,"Ð»ÐµÑģÑĤ":8058,"ĠÑģÐ¼ÐµÑħÐ¾Ð¼":8059,"ÑĤÑĥÑĢÐ°":8060,"ĠÑģÐ¾Ð·Ð½Ð°":8061,"ĠÐ¿Ð¾Ð¹Ð¼Ð°Ð»":8062,"ĠÐ¾Ð±ÑĬÑıÑĤÐ¸Ð¹":8063,"ÑģÑĤÐ°Ð½":8064,"ĠÐĳÑĥÐ´ÑĤÐ¾":8065,"ĠÐ¢Ð¾Ñĩ":8066,"ĠÑĢÑĭÐ¶ÐµÐ²":8067,"ĠÐ½Ð°Ð´ÐµÐ¶Ð´Ñĭ":8068,"ĠÐ¿Ð»Ð°Ñĩ":8069,"ĠÐ·Ð°ÑĢÐ°Ð½ÐµÐµ":8070,"Ð¾Ð´Ð¸Ð»":8071,"ĠÐ¿ÑĢÐµÐºÑĢÐ°Ñī":8072,"ĠÐ²ÑĭÐ¹Ð´ÐµÑĤ":8073,"ĠÐ²ÐµÐºÐ¸":8074,"ĠÐ´Ð¾Ð·":8075,"ÑĩÐµÑĢ":8076,"ĠÑģÑĨ":8077,"ĠÐ¸Ð·Ð²ÑĢÐ°Ñī":8078,"ĠÐ³ÑĢÑĥÐ·":8079,"ĠÐ²ÑĭÐºÑĢÐ¸":8080,"ĠÐºÐ¾ÑĢÐ¿":8081,"ĠÐ¿ÑĢÐ¾ÑīÐµÐ½Ð¸Ñı":8082,"ĠÑģÐ¿Ð¾ÐºÐ¾Ð¹Ð½ÑĭÐ¼":8083,"ĠÐ²ÑĭÑĢÐ¾Ñģ":8084,"ĠÑģÐ¸Ð³Ð°ÑĢÐµÑĤÑĥ":8085,"ĠÐŀÐ»Ð¸":8086,"Ð²ÐµÐ´":8087,"ĠÐ½Ð°ÐºÐ»Ð¾Ð½":8088,"ĠÐ¿Ð¾Ð¹Ð´ÐµÑĤ":8089,"ÑĤÐ¸Ð¸":8090,"ÐĵÐµÑĢÐ¼Ð¸":8091,"ĠÑģÐ¾ÑĩÑĥÐ²ÑģÑĤÐ²":8092,"ĠÐ¿Ð¾Ð´Ð¾ÑĪÐ»Ð¸":8093,"ĠÑģÑĭÐ³":8094,"ĠÐ½Ð°ÑĩÐ°Ð»Ð¾ÑģÑĮ":8095,"Ð¿Ð¾Ð´Ð½Ð¸Ð¼":8096,"ĠÐĲÐ½Ð´ÑĢÐµÐ¹":8097,"ÑĮÐ¸":8098,"Ð¾Ð·Ð½Ð°Ñĩ":8099,"ĠÐ´Ð¾ÑģÑĤÐ¾":8100,"ĠÐ¿Ð¾Ð´Ð½Ð¸Ð¼Ð°ÑıÑģÑĮ":8101,"ĠÐ²Ð½ÑĥÑĪ":8102,"ĠÑģÑĤÐ°ÑĢÐ°ÑĤÐµÐ»ÑĮÐ½Ð¾":8103,"Ð°ÑİÑīÐµÐ³Ð¾ÑģÑı":8104,"ĠÐ¿ÑĢÐ¾Ð³ÑĥÐ»Ñı":8105,"ĠÐĴÐ¾Ñģ":8106,"ĠÐ²ÑģÐ¿Ð¾Ð¼Ð¸Ð½Ð°ÑĤÑĮ":8107,"ĠÐ·Ð´Ð¾ÑĢÐ¾Ð²Ð¾":8108,"ĠÑģÐ»ÑĭÑĪÐ¸ÑĪÑĮ":8109,"ĠÐ°ÑĤÐ¼Ð¾ÑģÑĦ":8110,"ĠÐ¼Ð¸ÑĢÐ½Ð¾":8111,"ĠÐ¼Ð°Ð»ÐµÐ¹":8112,"ÑģÑĤÐ²ÐµÐ½Ð½Ð¾Ð¹":8113,"ĠÐ±Ð¾Ð»Ð¸ÑĤ":8114,"ĠÑĢÑĥÐ±Ð°ÑĪÐºÐ¸":8115,"ĠÐ¾ÑģÑĤÐ°":8116,"ĠÑģÐ²ÐµÑĩ":8117,"Ð¾ÑĤÐ¾Ð²":8118,"ĠÐĺÐ½Ð°ÑĩÐµ":8119,"ÑĢÐ¾ÑģÐ¸Ð²":8120,"ĠÑĤÐµÑĢÐ¿ÐµÐ»":8121,"ĠÐ´ÑĥÑħÐ¾Ð²":8122,"ĠÐ·Ð°ÐºÐ¾Ð½ÑĩÐ¸ÑĤÑģÑı":8123,"ĠÐ¿Ð¾Ð²Ð°Ð»":8124,"ÑģÑĤÐ¾Ð¹":8125,"ĠÐ±Ð¾ÐµÐ²":8126,"Ð³ÑĥÐº":8127,"ĠÐ¾Ð±Ð½Ð°ÑĢÑĥÐ¶Ð¸Ð»":8128,"ÐºÐ¾ÑĤÐ¾":8129,"Ð»ÐµÐ½Ð¸Ð¹":8130,"ĠÐ¿Ð¾Ð´ÑģÑĤÐ°Ð²":8131,"ĠÐ¸Ð·ÑıÑī":8132,"as":8133,"ĠÐ¸Ð·Ð¼ÐµÐ½Ð¸Ð»ÑģÑı":8134,"ĠÐ¿Ð»Ð°ÑĤÑĮÑı":8135,"ĠÐĶÑĢÑĥÐ³":8136,"ĠÐ¡ÐµÐ»":8137,"ĠÐ½ÐµÐ½ÑĥÐ¶":8138,"ÑĢÐ°ÑĩÐ½Ð¾":8139,"Ð¾ÑĤÐµ":8140,"Ð°Ð¼Ðµ":8141,"ĠÑģÐ¶Ð°Ð²":8142,"ĠÑģÐ¾Ð³Ð»Ð°ÑģÐµÐ½":8143,"ĠÐ¿Ð¾ÐºÐ¾Ð¹":8144,"ĠÑģÐ¿ÑĥÑģÐºÐ°":8145,"ĠÐ¼Ð°Ð»ÐµÐ½ÑĮÐºÐ¾Ð³Ð¾":8146,"ĠÐłÐ°Ð½ÑĮÑĪÐµ":8147,"ĠÐ¿ÑĢÐ°Ð²Ð¸Ð»Ð°":8148,"ĠÐĳÐ»ÑįÐº":8149,"ĠÐ²ÑģÑĤÑĢÐµÑĩÐ°ÑĤÑĮÑģÑı":8150,"ĠÑĦÐ¸Ð·Ð¸ÑĩÐµÑģ":8151,"ĠÐ´Ð¾ÑĤÑĢÐ¾":8152,"Ð¾Ð²Ð°Ð»Ð¸ÑģÑĮ":8153,"ĠÑĩÐ°Ñı":8154,"ĠÐ¡Ð¼ÐµÑĢ":8155,"ĠÐĽÐ¾ÑĢÐ´":8156,"ĠÐ¾Ð±Ð»Ð¾ÐºÐ¾ÑĤ":8157,"ĠÑĪÐµÐ²ÐµÐ»":8158,"ĠÐ¶ÐµÑģÑĤÐ¾Ð¼":8159,"ĠÑģÑĤÑĥÐ¿ÐµÐ½ÑĮ":8160,"Ð½ÑĥÑĤÐ¾Ð¹":8161,"ĠÐĶÐ°Ð½":8162,"ĠÐ²Ð¾ÑģÐ¿Ð¾Ð¼Ð¸Ð½Ð°Ð½Ð¸Ð¹":8163,"ĠÑĤÑĢÐ¸Ð´ÑĨÐ°ÑĤÑĮ":8164,"Ð³Ð¾Ð²Ð¾ÑĢ":8165,"Ð½ÑĭÑĪ":8166,"ĠÐ¼Ð°Ð³Ð¸Ñı":8167,"ĠÐ¿Ð»ÑİÑħ":8168,"ĠÐŁÐ¾ÑģÐ¼Ð¾ÑĤÑĢ":8169,"Ð¾ÑĢÑĤÐ°":8170,"ĠÐ±ÑĭÐ²Ð°Ð»Ð¾":8171,"ĠÐłÐ°Ð´":8172,"ĠÑģÑĤÑĢÐ°Ð½Ð½ÑĭÐµ":8173,"ĠÐ¾Ð´Ð¾Ð±ÑĢ":8174,"ĠÐĶÐ¾Ð±ÑĢÐ¾Ðµ":8175,"ĠÐ°ÑĢÐ¼Ð¸":8176,"Ð°ÐºÑģ":8177,"Ð¸Ð²Ð°ÑİÑģÑĮ":8178,"ĠÐ²ÑĢÐ°Ð³Ð°":8179,"Ð²ÑĤÐ¾":8180,"ÐºÑĢÐµÑĤ":8181,"ÑĢÐ¾ÑģÐ°ÐºÐ¸":8182,"ĠÐ¿ÑĢÐ¸ÐºÐ°Ð·Ð°Ð»":8183,"ĠÐ±ÐµÐ·Ð·":8184,"ĠÐ½ÐµÐ¾ÑĤ":8185,"ĠÐ¿Ð¾Ð·Ð²Ð¾Ð½Ð¸ÑĤÑĮ":8186,"ĠÐ´ÑĢÐ°ÐºÐ¾Ð½Ð°":8187,"ĠÐ½ÐµÐ´Ð¾Ð»Ð³Ð¾":8188,"ĠÐºÐ¾Ð»Ð»ÐµÐ³":8189,"ÑĩÐ¸ÐºÐ¾Ð¼":8190,"ĠÐ±ÐµÑģÑģÐ¼ÑĭÑģ":8191,"ĠÐŃÑħ":8192,"ĠÐ¿Ð°ÑĤ":8193,"ÐµÑĢÐ¿ÐµÐ»":8194,"Ġn":8195,"ĠÑĤÑĢÐµÐ²Ð¾Ð¶":8196,"ĠÐ»Ð¸Ñħ":8197,"ĠÐ·Ð°ÐºÑĢÑĭÑĤÑĮ":8198,"ĠÐŀÑĤÐ²ÐµÑĤ":8199,"ĠÐ¿ÑĢÐ¸Ð·Ð½Ð°Ð²":8200,"ĠÐ¼Ð°ÑģÑģ":8201,"Ð°ÑİÑīÐ¸Ð¹ÑģÑı":8202,"ĠÐ¿Ð¾ÑĤÑıÐ½ÑĥÐ»Ð°ÑģÑĮ":8203,"ÑģÑĤÑģÑı":8204,"ĠÐ¿Ð¾ÑħÐ¾Ð¶Ð¸":8205,"ĠÑģÐ²ÐµÑĤÐ»Ð¾":8206,"ĠÐ½ÐµÐ¾Ð¿":8207,"ĠÑĢÐ°ÑģÐ¿Ð¾Ð»Ð°Ð³":8208,"Ð½ÑĥÑĤÑĭÐµ":8209,"ĠÑģÐºÐ¾ÑĢÐ¾ÑģÑĤÑĮÑİ":8210,"ĠÐ±Ð¾Ñı":8211,"ĠÐ²Ð¸Ð½Ð¾Ð²Ð°ÑĤÐ¾":8212,"Ð½Ð¸ÑĩÐ°ÑĤÑĮ":8213,"ĠÐ¿ÑĢÐ¾ÑĤÐ¸Ð²Ð½Ð¸ÐºÐ°":8214,"ĠÐ¿Ð¾Ð·Ð²Ð¾Ð½":8215,"Ð´Ð°Ñİ":8216,"ĠÑħÑĢÐµÐ½":8217,"ĠÐ·Ð°Ð±ÑĢÐ°Ð»":8218,"ĠÑĤÐ¾Ð»ÐºÐ¾Ð¼":8219,"ĠÑģÑĥÑĢÐ¾Ð²":8220,"Ð½ÑıÐµÑĤ":8221,"ĠÑĢÐ°ÑģÑģÐ²ÐµÑĤ":8222,"ĠÐ¿ÑĢÐ¸Ð´ÑĥÑĢÐ¾Ðº":8223,"ÑĦÐ°Ð»ÑĮ":8224,"ÑĢÑĥÐ½":8225,"ĠÑģÐ¾Ð¾Ð±ÑĢÐ°Ð·":8226,"ĠÑĥÐ´Ð°Ð²":8227,"ĠÐºÑĥÑĩÑĥ":8228,"Ð»ÐµÐ½Ð½Ð¾Ðµ":8229,"ĠÐ´ÑĢÐ°Ð³Ð¾":8230,"ĠÐ¿ÐµÑģÐ½Ñİ":8231,"ÐºÐ½ÑĥÐ»Ð¾":8232,"ĠÐ¼Ð°Ð¼Ñĥ":8233,"ĠÑĢÐ°Ð·Ð¼ÐµÑĢ":8234,"ĠÐºÑĢÐ°ÑģÐ½ÑĭÐµ":8235,"ĠÐ¥Ð°ÑĢÑĤÑĦ":8236,"Ð¿Ð¾Ð½":8237,"Ð¸Ð²Ð½Ð¾":8238,"ĠÐĿÑĮÑİ":8239,"ĠÐ¿Ð¾Ð¿ÑĥÑĤ":8240,"ĠÐ±Ð¾Ð»ÑĮÐ½Ð¸ÑĨÑĥ":8241,"Ð¾Ð³ÑĢÐ°ÑĦÐ¸":8242,"ĠÐ¿Ð»Ð°Ð¼Ñı":8243,"ĠÐ¿Ð¾ÐºÐ¾Ñı":8244,"ĠÐ¿Ð¾Ð½Ð¸":8245,"ĠÐ²Ð¿ÑĢÐ°Ð²Ð´Ñĥ":8246,"ĠÐºÑĢÐ¸Ð²":8247,"ĠÐ±ÐµÐ»Ð¾Ð¹":8248,"ĠÐ²Ð¾ÑĪÐ»Ð¸":8249,"Ð¾ÑĢÐ¾Ðº":8250,"ĠÐŀÐ±ÑĭÑĩÐ½Ð¾":8251,"ĠÐ¿Ð¾Ð½ÑĢÐ°Ð²Ð¸ÑĤÑģÑı":8252,"ĠÐ¿ÑĢÐ¸ÐºÐ°Ñģ":8253,"ÐºÐ¾ÑĪ":8254,"ĠÐ¿ÑĢÐ¸Ð·Ð½Ð°ÑĤÑĮÑģÑı":8255,"ĠÐ¿ÑĢÐ°Ð²Ð¾Ð¹":8256,"Ð¸ÑĢÐ¾Ð²Ð°Ð»Ð°":8257,"ĠÐ³Ð¾Ð´Ñĥ":8258,"ĠÐ¸Ð·Ð²Ð¸Ð½Ñı":8259,"Ð¾Ð¶ÐµÐ½":8260,"ĠÑĩÐµÑĢÐµÐ¿":8261,"Ð¾Ð´Ð¾Ð»":8262,"ĠÑĪÐµÑĢ":8263,"Ð½Ð¾ÑĤ":8264,"ĠÐ¶Ð°ÑĢÐºÐ¾":8265,"ĠÐ¾Ð²":8266,"ĠÐ½Ð°ÑĥÑĪ":8267,"))":8268,"ĠÐ¾ÑĤÐ¿ÑĥÑģÐº":8269,"Ð¾ÐºÑģ":8270,"ĠÑĥÐ²Ð¸Ð´ÐµÐ»Ð¸":8271,"ĠÐĳÑĮÑı":8272,"ĠÐĴÐµÑģÑĮ":8273,"ĠÐ»Ð°Ð·":8274,"ÑĳÑģÑĤ":8275,"ĠÐ¿Ð¾Ð´Ð¾Ð¹Ð´Ñı":8276,"ĠÐ´Ð¾Ð»Ð³Ð¾Ðµ":8277,"ĠÐºÐ°ÑģÐ°ÑıÑģÑĮ":8278,"ĠÐ¶Ð¸Ð²ÐµÑĤ":8279,"ĠÑĢÐµÐ°Ð»ÑĮÐ½Ð¾ÑģÑĤÐ¸":8280,"ĠÐŃÐ´Ð²Ð°ÑĢÐ´":8281,"ov":8282,"ĠÐ²Ð¿ÐµÑĩÐ°ÑĤÐ»ÐµÐ½Ð¸Ðµ":8283,"Ð»Ð¾ÑĤÐ½ÑĥÑİ":8284,"ĠÐ¿ÑĢÐ¾Ð´ÑĥÐº":8285,"ÑĥÑīÐµÐ¹":8286,"ĠÐ²ÑĤÐ¾ÑĢÐ°Ñı":8287,"ĠÐ¿ÑĢÐ¸Ð·Ð½Ð°Ð»ÑģÑı":8288,"Ð¸Ð½ÐºÐµ":8289,"ĠÐ¶Ð¸Ð»Ð°":8290,"ĠÐĴÑģÐºÐ¾ÑĢÐµ":8291,"ĠÐ½Ð¾Ð²Ð¾ÑģÑĤÐ¸":8292,"Ð¾Ð·Ð´":8293,"ĠÐĴÑĢÐµÐ¼Ñı":8294,"ĠÐºÑĥÐ´ÑĢÑı":8295,"ĠÐ´ÐµÑĢÑĮ":8296,"ÐķÑīÐµ":8297,"ĠÐ¾Ð±ÐµÑīÐ°Ñİ":8298,"ĠÐ¾Ð³ÑĢÐ¾Ð¼Ð½Ð¾Ð¹":8299,"ĠÐ´Ð¾ÑĢÐ¾Ð³Ð°Ñı":8300,"ĠÐĶÐ¸Ð¼Ð°":8301,"ĠÑĩÐµÐ¼Ð¾Ð´":8302,"ĠÐ²ÑĭÑħÐ¾Ð´Ð¸ÑĤÑĮ":8303,"ĠÐ·Ð°ÐºÐ¾Ð½ÑĩÐ¸ÑĤÑĮ":8304,"ÑĢÐ¾Ð¿":8305,"ĠÑĥÐ¼ÐµÐ»":8306,"ĠÑĦÐ¾ÑĤÐ¾Ð³ÑĢÐ°ÑĦÐ¸Ð¸":8307,"ĠÐ¼Ð¾Ð¸Ð¼Ð¸":8308,"ĠÐ²Ð¾ÑĢÐ²":8309,"ĠÑĥÑĩÐ°ÑģÑĤÐ¸":8310,"Ð»Ð°Ð¼Ð¸":8311,"ĠÐ¼Ð°Ð³Ð°":8312,"ÐºÑĢÐ°Ñģ":8313,"ĠÐ½Ð¾Ð²ÑĭÐ¼":8314,"ĠÑĥÐ¶Ð°ÑģÐ¾Ð¼":8315,"ĠÐŃÐ²":8316,"ĠÐ½ÐµÐ±ÑĢÐµÐ¶":8317,"ĠÑģÐ¾Ð¿ÐµÑĢ":8318,"ĠÐ¿Ð¾ÑĨÐµÐ»ÑĥÑıÐ¼Ð¸":8319,"ĠÐ¡Ð´ÐµÐ»":8320,"ĠÑĢÐ°ÑģÐ¿ÑĢÐ°Ð²":8321,"ĠÑģÐºÐ°ÑĤ":8322,"ĠÐ¸ÑģÑģÐ»ÐµÐ´":8323,"ĠÐ¿ÐµÑĢÐµÑģÑĤÐ°Ð»Ð°":8324,"Ð°ÑħÐ°ÑĢ":8325,"ĠÐ¿ÑĢÐ¸Ð±Ñĭ":8326,"Ð¾Ð¹Ð´ÑĳÑĤ":8327,"ĠÐ½Ð¸Ð¶Ð½ÑİÑİ":8328,"ĠÐ¿Ð¾Ð¸Ð³":8329,"ĠÐ·Ð°Ð½ÑıÑĤÑĮÑģÑı":8330,"Ð°Ð´Ð°Ñĩ":8331,"ĠÐ½ÐµÐ¾Ñģ":8332,"ĠÑĥÐ»Ð¾Ð¶":8333,"ĠÐ´Ð²ÐµÑĢÐµÐ¹":8334,"ĠÐ»Ñĥ":8335,"ĠÑĥÑĤÐµÑĪ":8336,"ĠÐ¿ÐµÑĢÑĩÐ°ÑĤ":8337,"ĠÐ»ÑİÐ±Ð¾Ð³Ð¾":8338,"ĠÐ²Ð½ÐµÐ·Ð°Ð¿":8339,"ÐĵÐµÑĢÐ¼Ð¸Ð¾Ð½Ð°":8340,"Ð¸Ð¼Ð°ÐµÑĤ":8341,"ĠÐ¥Ð¾ÑĤÐµÐ»Ð¾ÑģÑĮ":8342,"ÐŃÐ¹":8343,"Ð¶Ñĥ":8344,"ĠÐłÐ°ÑģÑģÐº":8345,"ĠÐ½ÐµÐ²ÐµÑģ":8346,"ĠÐ²Ð¿Ð»Ð¾ÑĤÐ½ÑĥÑİ":8347,"ĠÐ¿ÑĢÐ¾ÑĪÐ»Ð¾Ð³Ð¾":8348,"ĠÐ¿Ð¾ÑģÐµÐ»":8349,"ĠÐ¾Ð´Ð¸Ð½Ð°ÐºÐ¾Ð²":8350,"ĠÐĳÑĢÐ°Ð¹":8351,"ĠÐ¾Ð´Ð¸Ð½Ð¾Ðº":8352,"ĠÐĵÐ¸Ð»":8353,"ĠÐ·Ð»Ð¾Ð±Ð½Ð¾":8354,"ĠÐºÐ¾ÑĢÐ°Ð±Ð»ÑĮ":8355,"ĠÑģÐ°Ð½ÑĤÐ¸Ð¼ÐµÑĤ":8356,"ĠÐ²Ð¾Ð»Ð¸":8357,"ĠÐ¿Ð¸ÑĢÐ°ÑĤ":8358,"ĠÐ¿Ð¾ÑĩÐµÑģ":8359,"ĠÑĥÐ´Ð¾Ð±Ð½Ð¾":8360,"ĠÐ¿ÑĢÐ¾ÑĪÐ»Ð¾Ðµ":8361,"ĠÐºÐ»Ñĭ":8362,"ĠÑįÐ³Ð¾":8363,"!\".":8364,"ĠÐ·ÑĢÐµÐ»Ð¸":8365,"ĠÐĲÐ·":8366,"ĠÐ²ÑĭÐ¿Ð¾Ð»Ð½":8367,"ĠÐ²ÑĭÐ±ÑĢÐ°Ð»":8368,"ĠÐºÐ°ÐºÐ¸Ð¼Ð¸":8369,"ĠÐļÑĢÐ¾Ð¼Ðµ":8370,"ĠÑģÐ¾ÑĤÑĢÑĥÐ´":8371,"Ð¸ÑĤÐ¾Ð¹":8372,"ĠÐĶÑįÐ½":8373,"ĠÐ¼Ð°Ð¼Ñĭ":8374,"ĠÑĤÐ¾ÑĢÐ¶Ðµ":8375,"ĠÐ»ÐµÐ¿":8376,"ĠÑĪÐ¿":8377,"ĠÐ¿ÑĢÐ¾ÑĩÐ¸Ð¼":8378,"Ð°ÑĤÑģÑı":8379,"ĠÐ¸Ð·Ð³":8380,"ĠÑĢÑıÐ²":8381,"ĠÐ±Ð°Ð³":8382,"Ð°ÑĤÑĭÐµ":8383,"ĠÑģÐºÐ°Ð¼ÐµÐ¹":8384,"ĠÐ·Ð²ÑĥÐºÐ°":8385,"ĠÑģÑĤÐµÑģÐ½Ñı":8386,"ĠÐłÐ¾Ñģ":8387,"ĠÑģÐ¾Ð±ÑĢÐ°":8388,"ĠÐ¸ÑĢÐ¾":8389,"ĠÐ½ÐµÐ¿ÑĢÐ°Ð²Ð¸Ð»ÑĮÐ½Ð¾":8390,"ĠÐĴÐµÐ½":8391,"ĠÑģÑĤÐ°ÑĢÑĪÐµ":8392,"!!!!":8393,"Ð¸ÑĨÐ°":8394,"ĠÐ¿ÑĢÐ¾Ð´Ð¾Ð»Ð¶Ð¸ÑĤÑĮ":8395,"ĠÑĥÑĪÐ°Ñħ":8396,"Ð¼Ð¾ÐµÐ¼Ñĥ":8397,"ĠÐľÐ°Ð»Ð¸":8398,"ĠÐĹÐ°Ð½Ð·":8399,"Ð¸Ð½ÐµÑĤÑĤ":8400,"ĠÐĶÐ¼Ð¸ÑĤ":8401,"ĠÐ²Ð°ÑĪÐ°":8402,"ĠÐĵÐ»ÑĥÐ¿":8403,"ĠÐ¼Ð½Ð¾Ð³Ð¸Ñħ":8404,"Ð²ÑĤÐ¾ÑĢÑĭÑħ":8405,"Ð°Ð»Ð¾Ð²":8406,"ĠÐ¿Ð¾ÑĤÐ¸Ñħ":8407,"ĠÐ²ÑĭÐ±Ð¾ÑĢÐ°":8408,"ĠÑģÐ´Ð²Ð¸":8409,"ĠÐ·Ð°Ð´ÑĥÐ¼Ð°Ð»Ð°ÑģÑĮ":8410,"Ð²ÐµÑĢÐ¶Ð´":8411,"ĠÐºÐ»Ð°Ð½Ð°":8412,"ĠÐ¿ÑĢÐ¸ÐµÑħÐ°Ð»Ð¸":8413,"ĠÐ½ÐµÑĥÐ¼":8414,"ĠÑĤÐ°Ð½ÑĨÐµÐ²":8415,"ĠÐ¿Ð¾ÑıÐ²Ð¸Ð»Ð¾ÑģÑĮ":8416,"ĠÐ¿ÑĭÐ»":8417,"ĠÐºÑĢÐ¸ÑĩÐ¸ÑĤ":8418,"Ð¸Ð¼Ñĥ":8419,"ĠÐ¿Ð»Ð¾ÑĤÐ½Ð¾":8420,"Ð¾Ð»Ð½ÑĨÐµ":8421,"ĠÐ¿Ð¾ÐºÑĢÐ°ÑģÐ½ÐµÐ»Ð°":8422,"ĠÐ²Ð°ÑĪÐµ":8423,"ĠÐ¢Ð²Ð¾Ð¹":8424,"Ð°Ð´ÑĨÐ°ÑĤÐ¸":8425,"ĠÐ»Ð°Ð´Ð¾ÑĪ":8426,"Ð¸Ð½ÑģÐºÐ¸":8427,"ĠÐ¨ÐµÑĢÐ»Ð¾ÐºÐ°":8428,"ĠÐ´Ð¾ÐºÑĥÐ¼ÐµÐ½ÑĤÑĭ":8429,"Ð°Ð½Ð½Ð¾Ð¼":8430,"ĠÐ¾Ð±Ð»":8431,"ĠÐ¡ÐµÑĢÐ³":8432,"ĠÑĤÑīÐ°ÑĤÐµÐ»ÑĮÐ½Ð¾":8433,"ĠÐ´ÑĢÑĥÐ³Ð¸Ð¼Ð¸":8434,"ĠÐ¸ÑģÐ¿Ð¾Ð»Ð½":8435,"Ð¸Ð¼ÑĭÐµ":8436,"Ð¾ÑĤÐ°Ð»":8437,"ĠÐ¿ÑĢÐ¸Ð½ÑıÐ»Ð°":8438,"ÐµÑĤÐ¾":8439,"ĠÐ·Ð»Ð°":8440,"Ð»Ð°Ð»":8441,"ĠÐ¿Ð¾ÑģÑĤÐ°Ð²Ð¸Ð»Ð°":8442,"ĠÑĥÐ¼ÐµÑİ":8443,"ĠÐ·ÑĢÐµÐ½Ð¸Ñı":8444,"ÐŀÐ¿":8445,"ĠÑģÑĤÐ¸Ñģ":8446,"ĠÐ²ÑĤÐ¾ÑĢÑĥÑİ":8447,"ĠÐ¶ÐµÐ»Ð°Ð½Ð¸ÐµÐ¼":8448,"ÑĩÐ°Ð½Ð¸Ðµ":8449,"Ð»ÐµÐµ":8450,"ĠÑģÐºÑĢÑĭÐ»ÑģÑı":8451,"ĠÑĥÐ±ÑĮÑİ":8452,"ĠÐ´ÑĥÑĢÐ°Ðº":8453,"ĠÐĶÐµÐ½Ð¸":8454,"Ðģ":8455,"ĠÐ¿Ð¾Ð´ÐµÐ»Ð°ÑĤÑĮ":8456,"ĠÐ¡Ð¾Ð»":8457,"ĠÐ¿Ð¾ÑģÐ¿ÐµÑĪÐ¸Ð»Ð°":8458,"ĠÐļÐ¾Ð½Ð¾":8459,"Ð½Ð¸Ð»Ð¾ÑģÑĮ":8460,"ĠÐ¿Ð¾ÐºÐ°Ð·Ð°Ð»Ð°":8461,"Ð½Ð°Ð·":8462,"ĠÐĺÐ¼Ð¿":8463,"ĠÐ¢Ð¾Ð¼Ð°Ñģ":8464,"ÑĢÐ°Ð½Ð¸ÑĤÐµÐ»ÑĮ":8465,"ÑģÑĤÐ¾Ð²":8466,"ĠÐ±Ð»Ð°Ð¶":8467,"ĠÑĥÐºÐ»Ð°Ð´":8468,"ĠÐ¡Ð°Ñģ":8469,"ĠÑĩÑĮÐ¸":8470,"ĠÐ¼Ð¾ÑĳÐ¼":8471,"ĠÐĴÑģÑı":8472,"ĠÐŁÐ¾ÑĤÑĤÐµÑĢÐ°":8473,"ĠÐ¼ÑıÑģ":8474,"ĠÑĳ":8475,"ÑĩÐ¸Ð²ÑĭÐ¹":8476,"Ð¢Ð¾Ð³Ð´Ð°":8477,"ĠÐ½ÐµÐ¸Ð·Ð²ÐµÑģÑĤÐ½Ð¾":8478,"Ð»Ð¸Ð»Ð°ÑģÑĮ":8479,"ĠÐ©":8480,"ĠÑĥÑģÐ½ÑĥÑĤÑĮ":8481,"ĠÐ½ÐµÐ±Ðµ":8482,"Ð¾ÑĢÐ½":8483,"Ð¼Ð¸Ð½Ð°":8484,"ĠÐ²Ð¾Ð¹ÑĤÐ¸":8485,"ÑĨÐµÑĢ":8486,"ĠÐ¿ÑĢÐµÐ´ÐµÐ»":8487,"ĠÐ¿Ð¾Ð³Ð»Ð°Ð¶Ð¸Ð²Ð°Ñı":8488,"ĠÐ½Ð°Ð¿Ð¸ÑģÐ°Ð½Ð¾":8489,"ĠÐ±Ð¾ÑıÑĤÑĮÑģÑı":8490,"ÑĢÐ¾Ñħ":8491,"ÐºÐ½ÑĥÐ»Ð¸":8492,"ÑĩÐµÑĢÐ°":8493,"ĠÑģÐ²Ð¸Ð´Ð°Ð½Ð¸Ðµ":8494,"ĠÑģÑĤÐµÐ¿ÐµÐ½Ð¸":8495,"ĠÐĶÐ¶Ð¾ÑĢÐ´Ð¶":8496,"ĠÑģÐ¾ÑĢÐ²Ð°Ð»ÑģÑı":8497,"Ð¾Ð¶Ð´ÐµÐ½Ð¸Ðµ":8498,"ĠÐĴÑģÐµÐ³Ð´Ð°":8499,"ĠÐ¿ÑĢÐ¸ÑģÐµÐ»Ð°":8500,"ĠÐ¿ÑĢÐ¸Ð¿Ð¾Ð´Ð½Ð¸Ð¼":8501,"ĠÐ½ÐµÐ¿Ð¾Ð½ÑıÑĤÐ½Ð¾":8502,"Ð¸Ð¼Ðµ":8503,"Ð¸ÐºÐ¾Ð¼":8504,"Ð»Ð¾Ð²Ð°":8505,"ĠÐ²Ð¾Ð¹Ð½Ñĭ":8506,"ĠÑħÑĢÐ¸Ð¿Ð»Ð¾":8507,"ĠÐ³Ð¾Ð»ÑĥÐ±ÑĭÐµ":8508,"ĠÐ°ÑģÑĦÐ°Ð»ÑĮ":8509,"ÐºÐ²":8510,"ĠÐ»ÐµÐ³ÐºÐ¸Ð¹":8511,"Ð»ÑĮÑı":8512,"ĠÐ·Ð´ÑĢÐ°Ð²":8513,"ÑıÐ·Ð²":8514,"ĠÑģÐ¼ÑĥÑīÐµÐ½Ð½Ð¾":8515,"ĠÑģÑĩÐ°ÑģÑĤÐ»Ð¸Ð²Ð°":8516,"Ġ20":8517,"ĠÐ¼ÑĭÑĪÑĨÑĭ":8518,"ĠÐ´Ð¾Ð³Ð¾Ð²Ð¾ÑĢÐ¸ÑĤÑĮ":8519,"Ð¾ÑĩÐ¸":8520,"ĠÐ±ÐµÐ·Ð¶":8521,"ĠÑģÐ³Ð»Ð¾ÑĤÐ½ÑĥÐ»":8522,"ĠÑĥÐ¿Ð°ÑģÑĤÑĮ":8523,"ÐµÐ²Ð°Ð»Ð°":8524,"ĠÐ¿ÑĥÑģÐº":8525,"ĠÑĢÐ°Ð·Ð¾ÑĪ":8526,"ĠÐºÐ°Ð±Ð»Ñĥ":8527,"ĠÐ¾ÑĤÐ¾Ð¼":8528,"ĠÑĤÑĭÑģÑıÑĩÐ¸":8529,"ĠÐ¿Ð¾ÑģÐ»ÐµÐ´Ð½ÑıÑı":8530,"ĠÐļÐ°Ð·":8531,"ĠÐ½Ð°ÑĢÐº":8532,"ĠÑģÐ¾Ð±ÑĢÐ°Ð»Ð¸ÑģÑĮ":8533,"ĠÐ¡ÐºÐ°Ð·Ð°Ð»":8534,"ĠÐ¤Ð¸Ð»Ð¸":8535,"ÐºÐ°Ð»Ð°":8536,"ĠÐ½Ð°Ð´Ð¾Ð»Ð³Ð¾":8537,"ĠÐ·Ð°ÐºÐ¾Ð½ÑĩÐ¸Ð»Ð¾ÑģÑĮ":8538,"ĠÐ·Ð°Ð´Ð½Ð¸ÑĨÑĥ":8539,"ĠÐ¢Ð¾ÑĩÐ½ÐµÐµ":8540,"Ð½ÐµÐ»Ð¾":8541,"ÑĥÐ´Ð¸ÑĤÑĮ":8542,"ĠÑģÐºÐ°":8543,"ĠÑģÐ¾Ð¾ÑĤÐ²ÐµÑĤ":8544,"ĠÐ¡Ð°Ð¼Ð°":8545,"ĠÐ¿ÑĢÐ¾Ð·ÑĢÐ°Ñĩ":8546,"ĠÐ¿Ð¾ÐºÐ¾":8547,"ĠÐ¾ÑĩÐµÑĢÐµÐ´Ð½ÑĥÑİ":8548,"ĠÐ¿Ð¾ÐºÑĢÐ°ÑģÐ½ÐµÐ»":8549,"ĠÐ¼Ð¾Ð»Ð¾Ð´Ð¾Ð³Ð¾":8550,"ĠÐ¿Ð°Ð»ÑĮÑĤÐ¾":8551,"ÑĥÐ»Ð°":8552,"ĠÑĥÑģÐ»Ð¾Ð²Ð¸Ñı":8553,"ĠÑĥÐ¿ÑĢÑıÐ¼":8554,"ĠÐĽÐ¸Ð·Ð°":8555,"ĠÐ·Ð²ÐµÐ·":8556,"ĠÐ¾ÑģÑĤÐ°Ð²Ð¸Ð»Ð°":8557,"ĠÐ¿ÑĢÐ¸ÑģÑĥÑĤÑģÑĤÐ²Ð¸Ðµ":8558,"ĠÑįÐ½ÐµÑĢ":8559,"ĠÑĪÐ»Ñı":8560,"ĠÐ¿Ð¾ÑĤÐ¸ÑħÐ¾Ð½ÑĮÐºÑĥ":8561,"ĠÑģÐ¾Ð¾Ð±ÑĢÐ°Ð¶":8562,"ĠÐ¿Ð»Ð°ÐºÐ°Ð»Ð°":8563,"ĠÐ¿ÑĢÐ¸Ð»ÐµÑĤ":8564,"ĠÐľÐ¸ÑĢÐ°":8565,"ĠÐ¼Ð³Ð½Ð¾Ð²ÐµÐ½Ð¸Ð¹":8566,"ĠÐµÐ·":8567,"ĠÐ¿ÑĢÐµÐºÑĢÐ°ÑģÐ½ÑĭÐ¹":8568,"ÐµÐ¹Ñģ":8569,"ĠÐ¿ÑĢÐ¾Ð²Ð¾Ð´Ð¸Ð»":8570,"ĠÑĢÑĭÐ²":8571,"ĠÐ¶Ð°Ð»ÐºÐ¾":8572,"ĠÐļÐ°ÑĢÐ¸Ð½":8573,"ĠÑĦÐ¸Ð¾Ð»ÐµÑĤ":8574,"ĠÑģÐ¶Ð¸Ð¼Ð°ÐµÑĤ":8575,"ĠÐ¿ÑĢÐ¾ÑĨÐµÑģÑģ":8576,"ĠÑģÐ°Ð¼Ð¾Ð´":8577,"ĠÐĶÐ²Ð°":8578,"ĠÑĢÐµÐ±ÑĳÐ½Ð¾Ðº":8579,"ĠÐĶÐ¶ÐµÐ½ÑģÐµÐ½":8580,"ĠÐºÐ¾Ð½ÐºÑĢÐµÑĤ":8581,"Ð°Ð¶Ð¸Ð²Ð°ÑıÑģÑĮ":8582,"ĠÑģÐ°Ð¼Ð¾Ð»":8583,"ĠÐ¿ÑĢÐ¾ÑħÐ¾Ð´Ð¸ÑĤ":8584,"ĠÐ³Ð»ÑĥÐ±Ð¾ÐºÐ¸Ð¹":8585,"ĠÐ·ÐµÐ¼Ð»Ñı":8586,"ĠÐ´ÐµÐ»Ð°ÑİÑĤ":8587,"ĠÐľÐ°ÑĤ":8588,"ÑĥÐ¼Ð°Ð»":8589,"ĠÑģÐ¿ÑĢÐ°ÑĪÐ¸Ð²Ð°Ñİ":8590,"ĠÐĹÐ²":8591,"ĠÐ¸Ð´ÐµÐ¼":8592,"ĠÐ½Ð¾Ð²Ð¾ÑģÑĤÑĮ":8593,"Ð¡Ð°ÑģÐºÐµ":8594,"ĠÑĤÑĢÐ°Ð´Ð¸":8595,"ĠÑĢÐ¾":8596,"ĠÐ½Ð°ÑħÐ¼ÑĥÑĢÐ¸Ð»Ð°ÑģÑĮ":8597,"ĠÐºÐ°Ð¿ÑİÑĪ":8598,"ĠÐ²ÐµÑĢÐ½ÐµÑĤÑģÑı":8599,"ĠÐłÐµÐ·":8600,"ĠÑĤÐ¸ÑħÐ¸Ð¼":8601,"ĠÐ½ÐµÑĩ":8602,"ĠÑĦÐ¸Ð³ÑĥÑĢ":8603,"ĠÑģÐ½ÐµÐ¶":8604,"ĠÑĩÐ¼Ð¾Ðº":8605,"ĠÐŁÑĢÐ¾Ð²":8606,"ĠÑĢÐ°ÑģÑģÐ»Ð°Ð±Ð¸ÑĤÑĮÑģÑı":8607,"Ð»Ð¸Ð²ÑĭÐµ":8608,"ĠÑĪÐ¸ÐºÐ°ÑĢ":8609,"ĠÑħÐ¾Ð´Ð¸Ð»":8610,"ĠÐºÑĢÐ°ÑģÐ°Ð²":8611,"Ð½Ð¾ÑĪÐ°":8612,"ĠÐ¿ÑĢÐ¸Ð¶Ð°Ð»ÑģÑı":8613,"ĠÑĥÑģÑĤÐ°Ð½Ð¾Ð²":8614,"ĠÑģÑĨÐµÐ½Ñĥ":8615,"ĠÐłÐ¸Ñĩ":8616,"ĠÐ¿Ð¾Ð´Ð¿Ð¸Ñģ":8617,"ĠÐ²Ð¾Ð·Ð¼ÑĥÑĤÐ¸Ð»ÑģÑı":8618,"ĠÐ²Ð°ÑĪÐµÐ³Ð¾":8619,"ĠÑĤÑĥÐ°Ð»ÐµÑĤ":8620,"ĠÐ¢Ð²Ð¾Ñı":8621,"ĠÑĥÐ¼ÐµÑĢÐ»Ð°":8622,"ÑĩÐ½Ð¾Ð¼":8623,"ĠÐ´ÐµÑĢÐ¶Ð¸ÑĤ":8624,"ĠÐ²Ð¾Ð¾Ð±ÑĢÐ°Ð¶":8625,"ĠÐ´Ð°Ð²Ð°Ð»":8626,"ĠÐ³ÑĢÐµÑħ":8627,"ĠÐ¿Ð¾Ð½ÐµÑģ":8628,"ĠÐ½Ð°ÑĢÐ¸Ñģ":8629,"ĠÑĢÐµÐ³":8630,"ĠÐŁÑĢÐ¾Ñģ":8631,"ĠÑģÑĤÐ°ÑĢÐ¸Ðº":8632,"ĠÐºÐ¸Ð½Ð¾":8633,"ĠÐŃÑĤÐ¾Ð³Ð¾":8634,"Ð¾ÑģÑĤÐµÐ¹":8635,"ĠÑĨÐ²ÐµÑĤÐ¾Ð²":8636,"ĠÐ´ÑıÐ´Ñı":8637,"ĠÐ¼ÐµÑģÑĤÐ°Ñħ":8638,"ĠÑĪÐµÐ²":8639,"ÐµÑĤÐµÑģÑĮ":8640,"ÑĳÑĤÐµ":8641,"Ð¸Ð¼Ñĭ":8642,"ĠÑĢÐµÐ±ÑĳÐ½ÐºÐ°":8643,"ĠÐ¡ÑĥÐ´Ñı":8644,"Ð°Ð¹Ðº":8645,"ÑģÑĤÑĢÐ¸Ð´":8646,"ĠÐ²Ð²":8647,"ĠÐĿÐµÑģÐ¼Ð¾ÑĤÑĢÑı":8648,"ÑĩÐ¸Ð½Ð¾Ð¹":8649,"Ð¾Ð²ÐµÑĤ":8650,"ÐŃÐ¼":8651,"ĠÐ¿Ð¾ÑģÑĤÐ¾ÑĢÐ¾Ð½":8652,"ÐŀÐ´Ð½Ð°ÐºÐ¾":8653,"ĠÑĥÐ»ÑĭÐ±Ð½ÑĥÑĤÑĮÑģÑı":8654,"ĠÑģÐ»ÑĥÑĩÐ°Ñı":8655,"ÐŁÐµÑĢ":8656,"ĠÐ½Ð°ÑħÐ¾Ð´Ð¸Ð»Ð¸ÑģÑĮ":8657,"ĠÐ´Ð°Ð»ÐµÐº":8658,"ĠÑĤÐ°Ñī":8659,"ĠÐŁÐ¾ÑĢ":8660,"ÑĨÐ°Ñħ":8661,"ĠÑĥÐ¿Ð¾ÑĢ":8662,"ĠÐ½Ð°ÑģÐºÐ²Ð¾Ð·ÑĮ":8663,"ĠÑģÐ²Ð¸ÑĤ":8664,"ĠÐ´ÐµÐ»Ñĥ":8665,"ĠÐ²ÑģÑĤÑĢÐµÑĩÐ°":8666,"ĠÑİÐ½Ð¾ÑĪÐ¸":8667,"ĠÑĩÐµÑĢÑĤÐ¾Ð²ÑģÐºÐ¸":8668,"Ð½ÑĭÐ²":8669,"ĠÐ¿Ð¾ÑģÐ¼Ð¾ÑĤÑĢÐµÐ»Ð¸":8670,"ĠÑģÐ¸Ð»ÑĮÐ½ÐµÐ¹":8671,"ĠÐ´ÑĥÑĪÐµÐ²":8672,"ÐľÐ°Ð»":8673,"ĠÐ²Ð¾Ð´Ðµ":8674,"ĠÑĢÐ¸":8675,"Ð¾Ñİ":8676,"ÑĭÐ´Ñĥ":8677,"__":8678,"ĠÑģÐ¸Ð»ÑĮÐ½ÑĭÐµ":8679,"Ð¸ÑģÑģÐ°":8680,"ĠÑģÐ»ÐµÐ´Ð¾Ð²Ð°Ð»Ð¾":8681,"ĠÐ·Ð°ÑģÑĤÐ¾Ð½Ð°Ð»":8682,"ĠÐ²Ð·Ð´ÑĭÑħÐ°ÐµÑĤ":8683,"ĠÐ¾ÑĤÐ¿ÑĥÑģÑĤ":8684,"ĠÑģÐ¾Ð¶":8685,"ĠÑĥÐ´Ð°ÑĢÐ¸Ð»Ð°":8686,"ĠÑĦÐ°ÑĢ":8687,"ĠÐĸÐ°Ð»ÑĮ":8688,"ĠÐ½Ð°ÐºÐ»Ð¾Ð½Ñı":8689,"ĠÑĤÐµÐ¼Ð¿ÐµÑĢ":8690,"ÑĥÑīÑĥ":8691,"ĠÐ´ÐµÑģÑıÑĤÐ¸":8692,"ĠÑħÐ¾ÑĢÐ¾ÑĪÐµÐµ":8693,"ĠÑģÐ»ÐµÑĤ":8694,"Ð¾Ð»ÑĤ":8695,"ĠÐ½Ð°Ð¸Ð³":8696,"Ð°ÑĢÐ¸Ð¸":8697,"ĠÐłÐ°":8698,"ĠÐ´ÑĢÑĥÐ³Ð¾Ð¼Ñĥ":8699,"ĠÑĢÑĥÐºÐ¾Ð²":8700,"ĠÐ¥Ð°ÑĢÑĥÐ½Ð¾":8701,"ĠÐ´Ð¾Ð»ÑĮÑĪÐµ":8702,"ĠÐ½Ð¸ÑĩÑĤÐ¾":8703,"ĠÐļÐ°ÑģÑĤÐ¸ÑįÐ»ÑĮ":8704,"ĠÐºÑĥÑĪ":8705,"ĠÐ£Ð²ÐµÑĢ":8706,"ĠÐĺÐºÐºÐ¸":8707,"ĠÐ¾Ð±Ð»ÐµÐ³ÑĩÐµÐ½Ð¸ÐµÐ¼":8708,"ĠÐ¾ÑīÑĥÑĤÐ¸Ð»":8709,"ĠÑģÐ¸Ð³Ð°ÑĢÐµÑĤ":8710,"ĠÐŃÐ¼Ð¸Ð»Ð¸":8711,"ĠÐľÐ°Ð»ÑĦÐ¾Ñı":8712,"ĠÐ¸Ð»Ð»ÑİÐ·":8713,"ĠÐ±ÑĥÐ´ÑĥÑīÐµÐ¼":8714,"Ð³Ð¾Ð»":8715,"ĠÐ¸ÑģÐ¿Ð°ÑĢ":8716,"ĠÐ¿Ð¾ÑģÐºÐ¾ÑĢÐµÐµ":8717,"ÐķÐĿ":8718,"ĠÐ·Ð°Ð½ÑıÑĤÐ¸Ñı":8719,"ĠÐ¿Ð°ÑĨÐ¸":8720,"ĠÐºÐ¾ÑģÑı":8721,"ĠÑģÐ¿ÑĥÑģÑĤÐ¸Ð»ÑģÑı":8722,"ĠÐºÐ¾Ð¼Ð¿Ð°Ð½Ð¸Ñİ":8723,"ĠÐ¿ÑĢÐ¾Ð¸ÑģÑħÐ¾Ð´ÑıÑīÐµÐµ":8724,"ĠÑģÐ¾Ð±ÑĢÐ°Ð»Ð°ÑģÑĮ":8725,"ĠÐ½ÐµÐ¿Ð¾Ð½Ð¸Ð¼Ð°ÑİÑīÐµ":8726,"ĠÐ´Ð¾Ð¶Ð´Ñı":8727,"ĠÐ¡Ð¿ÑĥÑģÑĤÑı":8728,"Ð°Ð²ÑĪÐ¸Ñħ":8729,"ĠÐ¿Ð¾ÐºÐ°Ð·Ð°Ð»ÑģÑı":8730,"ĠÐ¾ÑģÐ½Ð¾Ð²Ð½Ð¾Ð¼":8731,"ĠÐĳÐ¾Ð»ÑĮÑĪ":8732,"ĠÐ¶ÐµÐ»Ð°Ð»":8733,"ĠÑħÐ¾Ð»Ð¾Ð´Ð½ÑĭÐ¼":8734,"ĠÑĥÐ¿Ð¾ÑĢÐ½Ð¾":8735,"Ð½Ð¾ÑģÐ¸ÑĤÑĮ":8736,"Ð¸Ð½Ð¾Ðº":8737,"ĠÐ¿Ð¾ÑĩÑĥÐ²ÑģÑĤÐ²Ð¾Ð²Ð°Ð²":8738,"ĠÐ¿Ð¾Ð´ÑĢÑĥÐ³Ðµ":8739,"ĠÐ±ÐµÐ·Ð¼":8740,"ĠÐºÑĢÐ°ÑģÐ½ÑĭÐ¹":8741,"ĠÑģÑĥÐ¼ÐºÐ¸":8742,"ĠÐ½Ð°Ð±Ð»ÑİÐ´Ð°Ð»Ð°":8743,"ÑĳÐ½Ð½ÑĭÐµ":8744,"ĠÐ¡Ð¼Ð¾ÑĤÑĢÐ¸":8745,"ĠÐ¡ÑĤÐ°ÑĢÐº":8746,"ĠÐ¶ÐµÑģÑĤÐ¾ÐºÐ¾":8747,"ĠÐ¿ÑĢÐ¾ÑĦÐµÑģÑģÐ¸":8748,"ĠÐ´Ð°ÐµÑĤ":8749,"ĠÐºÐ°Ð·Ð°Ð»Ð°ÑģÑĮ":8750,"Ð¾ÑĢÐ¾ÑĤÑĮÑģÑı":8751,"ĠÐĲÐ¹Ð·":8752,"Ð¡Ð°Ð¼":8753,"ÑĤÐ¾ÑĢÐµ":8754,"ĠÐ¿Ð»ÐµÑĩÐ¾Ð¼":8755,"ĠÐ¿ÑĢÐ¸ÑħÐ¾Ð´Ð¸Ð»":8756,"Ð¢Ð¾Ð¼":8757,"ĠÐ¡ÑĤÐ°Ð¹Ð»Ñģ":8758,"ĠÐºÑĢÑĭÑĪÑĥ":8759,"Ð¶ÐµÑĢ":8760,"Ð¸ÑīÐ°":8761,"ĠÐºÐ¾Ð½ÑĨÑĥ":8762,"ĠÐ±ÑĥÐ´ÑĥÑĩÐ¸":8763,"ĠÐĴÐµÑĩ":8764,"Ð¸ÑĤÐµÐ»ÐµÐ¼":8765,"Ð°Ð½Ð´ÑĢÐ°":8766,"ÐµÐ²Ð°ÐµÑĤ":8767,"ÑĩÐ¸Ð²Ð°Ñı":8768,"ĠÐ¿Ð°Ñģ":8769,"ĠÑĢÐ°ÑģÑĤÑĢÐµÐ¿":8770,"ĠÐ³ÑĢÐ°Ð½Ð¸":8771,"ĠÐ²Ð°ÑĢÐ¸Ð°Ð½":8772,"ĠÐ¢Ð¾Ð±Ð¸":8773,"ĠÐ´Ð°Ð²Ð°Ð¹ÑĤÐµ":8774,"ĠÑĥÐ¼ÑĥÐ´ÑĢ":8775,"ĠÐ¿Ð¾Ð¸ÑģÐºÐ¸":8776,"ĠÐ´Ð»Ð¸Ð½Ð½ÑĭÐ¼Ð¸":8777,"ĠÐ¿ÑĢÐµÐ´Ð»Ð¾Ð¶Ð¸Ð»Ð°":8778,"ĠÐ¿ÑĢÐ¸Ð²ÐµÐ·":8779,"ÑĥÐ´Ð¾Ðº":8780,"ĠÑĢÐ°ÑģÑĤÐµÑĢÑıÐ½Ð½Ð¾":8781,"ĠÑģÐ¾Ð±ÑĢÐ°ÑĤÑĮ":8782,"ĠÐ³ÑĢÐ¸ÑĦÑĦÐ¸Ð½Ð´Ð¾ÑĢ":8783,"ĠÐ¿ÑĢÐ¸Ð½Ð¸Ð¼Ð°ÑĤÑĮ":8784,"ĠÑģÑĤÑĢÐ°ÑģÑĤ":8785,"ĠÑĤÐ²ÐµÑĢÐ´Ð¾":8786,"ÑıÐ²ÑĪÐ¸ÑģÑĮ":8787,"Ð½Ð¸Ð»Ð¸":8788,"ĠÑģÐ¿Ð¾ÑĢÐ¸ÑĤÑĮ":8789,"ĠÑģÐ½Ð¾Ð¼":8790,"ĠÑģÐ¼ÐµÐµÑĤÑģÑı":8791,"ĠÑĩÐ¸ÑĤÐ°Ð»":8792,"ĠÐĵÐ°Ð¶":8793,"ĠÐ·Ð°ÑģÑĤÑĭÐ»":8794,"ĠÐ¡Ð»Ð¸Ð·":8795,"ĠÐ¾Ð±ÑĬÑıÑĤÑĮ":8796,"ĠÐ·Ð½Ð°ÐºÐ¾Ð¼Ñĭ":8797,"ĠÐ¸Ð¼ÐµÐ»Ð°":8798,"ĠÑĢÐ°ÑģÐ¿ÑĢÐ¾ÑģÑĤ":8799,"ÐłÐŀ":8800,"Ð°Ð¾":8801,"ĠÐ³ÑĥÐ»":8802,"ĠÐ¿ÑĢÐ¸ÑĩÐ¸Ð½Ðµ":8803,"ĠÐ¿ÑĢÐ¾Ð³ÑĢÐ°Ð¼":8804,"ĠÑĩÐµÑĢÑĤÑĥ":8805,"ĠÐ¿Ð°Ð»Ð¾ÑĩÐºÑĥ":8806,"ĠÑĢÐ°Ð¼":8807,"ĠÑħÐ¾Ð»Ð¾Ð´Ð°":8808,"ÑĥÐ±Ñĭ":8809,"Ð»ÑıÐ»Ð¸":8810,"et":8811,"ĠÑģÐ¸Ð»ÑĥÑįÑĤ":8812,"ÐĴÐ¿":8813,"ĠÑĪÐ¾ÐºÐ¸ÑĢÐ¾Ð²":8814,"ĠÐ±ÐµÑĢÐµÑĤ":8815,"ĠÐ¿Ð¾Ð¹Ð¼Ð°ÑĤÑĮ":8816,"ĠÐ»ÐµÐ²Ð¾Ð¹":8817,"ĠÐ·Ð°ÑĤÐ°":8818,"ĠÐŁÐ¾Ð¶":8819,"ĠÐ»Ð¸Ñģ":8820,"ĠÐ¿ÑĢÐ¸ÐµÐ·Ð¶":8821,"ĠÐ¿Ð¾ÑģÐ»ÐµÐ´ÑģÑĤÐ²Ð¸Ñı":8822,"ĠÐ¡ÑĤÐ¸Ð»":8823,"ĠÐ±Ð¾Ð¸ÑĪÑĮÑģÑı":8824,"ĠÐ¿ÑĢÐ¸Ð±Ð»Ð¸Ð·Ð¸Ð»ÑģÑı":8825,"ĠÑĦÐ¸Ð³ÑĥÑĢÐ°":8826,"ĠÐĶÐµÑĢÐ¶":8827,"ĠÐ¿Ð»Ð¾ÑĤÑĮ":8828,"ĠÑģÐ¾Ð»Ð´Ð°ÑĤ":8829,"ĠÑģÑĩÐ°ÑģÑĤÐ»Ð¸Ð²Ð¾":8830,"ĠÐłÑĥ":8831,"Ð½Ð¸Ñģ":8832,"ĠÑģÐµÐ¹":8833,"ĠÐ´Ð¸ÑģÐº":8834,"ĠÐļÑįÑĤÑĢÐ¸Ð½":8835,"ĠÑĤÑĢÐ¾Ð¿":8836,"ĠÐ¾ÑĤÐ½Ð¾ÑĪÐµÐ½Ð¸Ð¹":8837,"ĠÐ¢Ð¸Ð¼":8838,"ĠÐ¢Ð°Ð½Ñı":8839,"ĠÑģÑĩÐ¸ÑĤÐ°ÐµÑĤ":8840,"ĠÐ¾Ð´Ð°ÑĢ":8841,"ĠÐ²ÑĭÐ´ÐµÐ»":8842,"ĠÑģÑĤÐ²Ð¾Ð»":8843,"ĠÐ²Ð¾ÑģÐ¿ÑĢÐ¸Ð½Ð¸Ð¼":8844,"ÑĩÐºÐ¾Ð¼":8845,"ĠÐºÐ²":8846,"ĠÑģÐ¾Ð±ÑģÑĤÐ²ÐµÐ½Ð½ÑĭÑħ":8847,"ĠÐŁÐ°Ðº":8848,"ĠÐ¾Ð´ÐµÐ¶Ð´Ðµ":8849,"ĠÐ¼Ð¾ÑĢÑī":8850,"ĠÐĽÐµÐ¹":8851,"ĠÐ¾Ð¶Ð¸Ð´Ð°Ð½Ð¸Ð¸":8852,"Ð½Ð¾Ð²ÐµÑģ":8853,"ĠÑģÐ»Ð¾Ð²Ð¾Ð¼":8854,"ĠÑģÑĥÑīÐµÑģÑĤÐ²ÑĥÐµÑĤ":8855,"ĠÐ¾ÑĤÐ²Ð¾ÑĢÐ°ÑĩÐ¸Ð²":8856,"Ð¾Ð¿ÑĢÐ¸":8857,"ĠÐĲÐ¼ÐµÑĢÐ¸":8858,"ĠÐ»ÑĥÐ¶":8859,"ĠÐ¾ÑĤÑĢÐµÐ°Ð³":8860,"ĠÐ¾Ð±Ð½Ð¸Ð¼Ð°ÐµÑĤ":8861,"ĠÐľÑĥÐºÑĥÑĢÐ¾":8862,"ĠÐŀÐ´Ð½Ð°":8863,"ĠÐ½Ð°Ð´ÐµÐ¶Ð´Ð¾Ð¹":8864,"ĠÑĢÑİÐºÐ·Ð°Ðº":8865,"ĠÐ¿Ð¾ÑıÑģÐ½Ð¸Ð»":8866,"ĠÐ²Ð¾Ð»Ð½Ð°":8867,"ĠÐ¿ÑĢÐµÐ´ÑĭÐ´Ñĥ":8868,"ĠÐºÐ¾Ð·":8869,"Ð¼ÐµÑħ":8870,"ĠÐ½ÐµÑĢÐ²Ñĭ":8871,"ĠÐ¿Ð¾Ð²ÑıÐ·":8872,"ĠÐłÐ¾Ð·Ð°":8873,"ĠÑģÐ¼ÐµÐ»":8874,"ĠÐ£Ð´Ð¸Ð²":8875,"ĠÐ´Ð¾ÑĪÐ»Ð¾":8876,"ĠÑĤÐ¸Ð¿":8877,"ĠÐ¼Ð°Ð½ÑĮÑı":8878,"Ð¸Ð»Ñĭ":8879,"ÐµÐ»Ð¾Ð²ÐµÐº":8880,"ĠÑģÑĤÑĢÐ°ÑĪÐ½Ð¾Ð³Ð¾":8881,"ĠÐ¿ÑĢÐµÑĢ":8882,"Ð¾ÑģÑħÐ¾Ð´":8883,"Ð¸Ð¼Ð°ÑĢÑĥ":8884,"ĠÐ´ÑĮÑıÐ²":8885,"ĠÐ°ÑĢÑħ":8886,"ĠÐ´ÐµÑĢÐµÐ²Ð¾":8887,"ĠÐ²ÐµÐ´ÑĮÐ¼Ð°":8888,"ĠÑģÐ¿Ð¾ÐºÐ¾Ð¹ÑģÑĤÐ²Ð¸Ðµ":8889,"ĠÐ¥Ð¾Ð»Ð¼Ñģ":8890,"ÑĭÐ²Ð°Ð½Ð¸Ñı":8891,"ĠÐ§Ð¶":8892,"ĠÐľÐ°Ð»Ð¾":8893,"ĠÐ¿ÑĢÐ¾ÑĪÐ»ÑĭÐ¹":8894,"ĠÑıÑīÐ¸":8895,"Ð¾ÑģÐ»ÐµÐ´Ð¾Ðº":8896,"ĠÑģÐ¾Ð¿ÑĢÐ¾ÑĤÐ¸Ð²Ð»ÑıÑĤÑĮÑģÑı":8897,"ĠÐ»Ð°Ð¼Ð¿":8898,"ĠÐ·Ð°Ð³Ð»ÑıÐ½ÑĥÐ»":8899,"ĠÑģÑĢÐ°Ð±Ð¾ÑĤ":8900,"ĠÐ¿Ð¾ÑģÐµÑī":8901,"ĠÑĥÐ²Ð¸Ð´Ð¸ÑĤ":8902,"ĠÐ¯ÑģÐ½Ð¾":8903,"ĠÑĢÐ°Ð·Ð³Ð¾":8904,"ÑģÐµÐ´":8905,"ĠÐ¿Ð¾Ð²ÐµÑĢÑħÐ½Ð¾ÑģÑĤÐ¸":8906,"ĠÑĪÐµÐ¿Ð¾ÑĤ":8907,"ÑĢÐ¸ÑĤ":8908,"ĠÐ¾Ð±Ð¸ÑĤ":8909,"ĠÑĤÑİÑĢÑĮ":8910,"ÐĵÐŀ":8911,"ÐµÑĤÐºÐ¸":8912,"ĠÐ»ÑİÐ±ÑıÑĤ":8913,"Ð¸ÑĤÐµÐ»ÑĮÐ½ÑĭÑħ":8914,"ĠÑĢÐ°ÑģÑģÑĭÐ¿":8915,"ĠÐ±ÑĭÑģÑĤÑĢÑĭÐ¼":8916,"ĠÑģÐ¼Ð¾Ð¶ÐµÐ¼":8917,"ĠÐłÐµÐ³":8918,"ĠÐ¾Ð±ÑĭÑĩÐ½ÑĭÐ¹":8919,"ĠÐ²ÑĭÑĢÐ°Ð¶ÐµÐ½Ð¸ÐµÐ¼":8920,"ĠÐ¶ÐµÐ½Ñĥ":8921,"ĠÑĩÐµÑĢÑĤÑĭ":8922,"ĠÑĤÑĢÑĥÑģ":8923,"ĠÑģÑĤÐµÑĢ":8924,"ĠÐ¿ÑĢÐ¸Ð³Ð»ÑĥÑĪ":8925,"Ð¼ÐµÐ½Ð½Ð¾":8926,"ÑĪÐ¸ÑģÑĤ":8927,"ĠÐ¸Ð½ÑĦÐ¾ÑĢÐ¼Ð°ÑĨÐ¸Ð¸":8928,"ĠÐ´ÑĥÐ±":8929,"ĠÐ¿Ð¾Ð²ÐµÑĢÐ¸Ð»":8930,"ĠÐ¡ÑĤÐ¾Ð¿":8931,"ÐµÐ³Ð°ÐµÑĤ":8932,"ĠÑĥÐ±Ð¾ÑĢ":8933,"ĠÐµÐ´Ð¸Ð½ÑģÑĤÐ²ÐµÐ½Ð½ÑĭÐ¼":8934,"ĠÑģÑĤÐµÐºÐ»ÑıÐ½":8935,"ÑĤÑĭÐµ":8936,"ĠÑģÐºÐ°Ð½":8937,"ĠÐ½ÐµÑĤÐµÑĢÐ¿ÐµÐ»":8938,"Ð°ÑİÑīÐ¸ÑħÑģÑı":8939,"ĠÑĥÑħÐ¾Ð¼":8940,"ĠÐ»ÑĥÑĩÑĪÐµÐ³Ð¾":8941,"ĠÐ²ÑģÐ¿Ð¾Ð¼Ð½Ð¸Ð²":8942,"ĠÐ¾ÑĤÐ¼ÐµÑĩ":8943,"ĠÐ²Ð¾ÑĪÑĳÐ»":8944,"ĠÐ¿Ð¾ÑģÐ²":8945,"ĠÐļÑĥÑĢÐ¾ÑģÐ°ÐºÐ¸":8946,"ĠÑģÐ¼ÐµÑĪÐ¾Ðº":8947,"ĠÐ½ÐµÐ±Ð°":8948,"ĠÐ»ÑİÐ±Ð¸Ð¼Ð°Ñı":8949,"ĠÑĢÐ¸ÑĤÑĥ":8950,"ĠÐ²ÐµÑĢÑĤ":8951,"ĠÑĤÐ°Ð»Ð¸Ð¸":8952,"ÐµÑģÐ°":8953,"ĠÐ¾ÑĤÐ´ÐµÐ»ÑĮ":8954,"ĠÑĥÑĩÐ¸ÑĤÑĮÑģÑı":8955,"ĠÐ´ÐµÑĤÑĮ":8956,"ĠÐ·Ð°Ð¿ÑĢÐµÑī":8957,"ĠÑģÐ°Ð´Ð¸ÑĤÑģÑı":8958,"ĠÐ¾ÑĤÐ¿ÑĥÑģÐºÐ°ÑĤÑĮ":8959,"ĠÐ³ÑĢÐ¾Ð±":8960,"ĠÐļÑĳÐ½ÑģÑĥ":8961,"ĠÐ¾ÑĤÑģÑĤÐ°Ð²":8962,"ĠÐºÐ¾Ð¼Ð°Ð½Ð´Ð°":8963,"ĠÐ¿Ð¾Ð¼Ð¾Ð³Ñĥ":8964,"ĠÐŀÑĤÐºÑĢÑĭÐ²":8965,"ÑĩÐµÑģÐºÐ¸Ñħ":8966,"ĠÐ¿ÑĢÐ¾ÑĢÑĭ":8967,"ĠÐ·Ð°Ð¼ÐµÑĩÐ°Ð»":8968,"ĠÐ¨Ð¸Ð½":8969,"ĠÑĪÐ¸ÑĢÐµ":8970,"ĠÐ³Ð¾ÑĢÐ´":8971,"ĠÐ»Ð¸ÑģÑĤÑĮ":8972,"ĠÐºÑĢÐ°ÑģÐ¸Ð²ÑĭÐµ":8973,"ĠÐ±Ð¾Ð¹ÑģÑı":8974,"ĠÐ¿Ð°Ð»Ð°ÑĤ":8975,"ÑĨÐ¸Ðº":8976,"Ð¸Ð¼Ð¾ÑģÑĤÐ¸":8977,"ĠÑģÐ¿ÑĢÐ°ÑĪÐ¸Ð²Ð°ÑĤÑĮ":8978,"ĠÐ¿Ð¾Ð´Ð¼Ð¸Ð³Ð½ÑĥÐ»":8979,"ĠÐ·Ð°Ð¿Ð¾Ð»":8980,"ĠÐ³Ð¾ÑĢÑıÑĩÐ¸Ð¹":8981,"ÐµÐµÐ¼":8982,"ĠÐ±ÑĢÐ¾ÑģÐ¸ÑĤÑĮ":8983,"ĠÐ¿ÑĢÐ¸ÑģÐ¾ÐµÐ´Ð¸Ð½":8984,"ĠÐ´Ð²ÐµÐ½":8985,"ĠÐ¿Ð¾Ð»Ð¾Ð¶ÐµÐ½Ð¸Ð¸":8986,"ĠÐ¼Ð°ÐºÑĥÑĪÐºÑĥ":8987,"ĠÐºÐ¾Ð¶ÐµÐ¹":8988,"ĠÐ½Ð°ÐºÑĢÑĭÐ²":8989,"ĠÐ¿Ð¾Ð³Ð»Ð°Ð´Ð¸Ð»":8990,"ĠÑĤÑĢÑĥÐ´Ð°":8991,"ĠÐ½ÐµÐ²Ð°Ð¶Ð½Ð¾":8992,"Ð¾ÐºÐ°Ð³Ðµ":8993,"ĠÐĶÐ¾ÑĢ":8994,"ĠÑĢÐ°Ð·ÑĥÐ¼ÐµÐµÑĤÑģÑı":8995,"ĠÑĪÐºÐ°ÑĦÑĥ":8996,"ĠÐ¶Ð´ÑĳÑĤ":8997,"ĠÐ½ÐµÐ³Ð¾Ð´":8998,"ĠÐ¼ÑĥÑģÐ¾ÑĢ":8999,"Ð°ÑĢÐ°ÑĤ":9000,"ĠÐłÐµÐ±ÑıÑĤÐ°":9001,"ĠÐ£Ð´":9002,"Ð°ÑħÐ°":9003,"Ð¸Ð·Ð¸":9004,"ĠÐ¿ÑĢÐ¸ÑĩÐ¸Ð½Ñĭ":9005,"ĠÐ¿Ð¾ÑĢÐ¾Ð³":9006,"ĠÐ¿ÑĢÐ¾Ð±ÑĥÑĢ":9007,"Ð°Ð½ÐºÐ°":9008,"ĠÐ¿ÑĥÐ½Ðº":9009,"ĠÑģÐ»Ð°Ð±Ð¾ÑģÑĤÑĮ":9010,"ĠÑįÐ»ÑĮÑĦÐ¸Ð¹":9011,"ĠÐ³Ð¸Ð»ÑĮÐ´Ð¸Ð¸":9012,"Ð¾ÑĪÐ¸":9013,"ĠÐ¿Ð¾ÐºÐ¾ÑĢ":9014,"ÐµÐ³Ð°Ñı":9015,"ĠÑģÑĥÐ±":9016,"ĠÑĢÐ°Ð·ÑĢÑıÐ´":9017,"ÑĢÐ°Ð½Ð´Ð°":9018,"ĠÐ¿Ð¾Ð¼Ð¾Ð»":9019,"ĠÐ½ÐµÐ³ÑĢÐ¾Ð¼ÐºÐ¾":9020,"Ð½ÑĥÑĤÑĭ":9021,"ĠÐ¾ÑĤÐ¿ÑĥÑģÑĤÐ¸ÑĤÑĮ":9022,"ĠÐļÐ°ÐºÐ¾Ðµ":9023,"ĠÐ·Ð°ÑħÐ¾ÑĩÐµÑĤ":9024,"ĠÐĿÐµÐ»ÑĮÐ·Ñı":9025,"ĠÐłÐ°Ð·ÑĥÐ¼":9026,"ĠÐ½ÐµÐ´Ð°Ð²":9027,"Ð°ÑĤÐ¾Ð³Ð¾":9028,"ĠÐ¾Ð¿Ð°Ð·Ð´":9029,"Ð¡ÐµÑĢ":9030,"ĠÐ¿Ð¾Ð·Ð²Ð¾Ð½Ð¸Ð»":9031,"ÑĮÐµÐ¼":9032,"Ð°ÑĢÑı":9033,"ĠÑģÐ¸Ð»ÑĮÐ½ÑĭÐ¼":9034,"Ð²ÐµÑĢÐ³":9035,"ĠÐ»ÐµÐ´":9036,"ĠÐ¿ÑĢÐ¾ÑģÑĤÐ¾Ð¹":9037,"ĠÐ¿Ð¾Ð´Ð½Ð¾Ñģ":9038,"ĠÐºÐ»Ð°ÑģÑģÐµ":9039,"ĠÐ±ÑĢÑİÐºÐ¸":9040,"ĠÑĩÑĥÐ²ÑģÑĤÐ²Ð°Ñħ":9041,"ĠÐ¼ÑĳÑĢÑĤ":9042,"ĠÐĶÐ°Ð²Ð°Ð¹ÑĤÐµ":9043,"ĠÐ´Ð¾ÑģÑĤÑĥÐ¿":9044,"ĠÐ¾ÑģÑĤÐ°Ð²Ð°Ð»ÑģÑı":9045,"Ð½Ð°Ð¹":9046,"ĠÐºÑĢÐ¾ÑĪ":9047,"ĠÑģÐ¾ÑģÐºÑĥÑĩ":9048,"ĠÐ¿ÐµÑĢÐµÐ´Ð°ÑĤÑĮ":9049,"ĠÐ´Ð²Ð¾ÑĢÐµ":9050,"ĠÑıÐ·ÑĭÐºÐ°":9051,"ÑģÐºÐ°":9052,"Ð¾ÐºÑĥÑģ":9053,"ÑĢÐ¸Ñħ":9054,"Ð»ÐµÑģÐº":9055,"ĠÐ§Ð¸Ð¼Ð¸Ð½":9056,"ĠÐ³ÐµÐ½ÐµÑĢ":9057,"ĠÐĴÐ¸ÐºÐ°":9058,"ĠÐ½Ð°ÑĪÐ¸Ð¼":9059,"ĠÐļÐ¸ÑĢÐ°":9060,"Ð°ÑİÑīÐµÐ¹ÑģÑı":9061,"ĠÐºÑĢÐ°ÑģÐ°Ð²Ð¸":9062,"ĠÐ¿Ð¾ÐµÑħÐ°Ð»Ð¸":9063,"ĠÐ´Ð¾Ð¼Ð¾Ð²":9064,"ĠÐ¿Ð»Ð°Ð½Ð¸":9065,"ĠÐ½Ð¾ÑģÐ°":9066,"ĠÐ¿ÑĢÐµÐ»":9067,"ĠÑħÐ¼ÑĭÐºÐ½ÑĥÐ»Ð°":9068,"ĠÐłÐ¸Ðº":9069,"Ð¿ÑĢÐ¾":9070,"ĠÐ¶ÐµÐ½ÑīÐ¸Ð½":9071,"ĠÑĤÐ°ÑĤÑĥ":9072,"ĠÐ¿ÐµÑĢÐµÑħÐ¾Ð´":9073,"ĠÐ³Ð»Ð°Ð²Ð½ÑĭÐ¹":9074,"ĠÐ¿ÑĢÐ°Ð²Ð¸Ð»":9075,"ÑįÑĪ":9076,"ĠÐ¾ÑĤÐºÑĢÑĭÐ²Ð°ÐµÑĤ":9077,"ĠÐ¿Ð¾Ð·Ð´":9078,"ĠÐºÐ¸Ð´Ð°":9079,"ĠÐ´Ð¾ÑģÑĤÐ°ÑĤÑĮ":9080,"ĠÐ¿ÑĢÐµÐ´ÑģÑĤÐ°Ð²Ð»ÑıÐµÑĪÑĮ":9081,"Ð°ÑĤÐ¾Ð¹":9082,"Ð¸ÑĤÐ¾Ð³Ð¾":9083,"ĠÐ¾ÑģÑĤÐ°Ð»ÑĮÐ½Ð¾Ðµ":9084,"ĠÑĥÑģÑĤÑĢÐ¾Ð¸ÑĤÑĮ":9085,"ĠÐ¾Ð³ÑĢÑĭÐ·":9086,"ĠÐºÑĢÑĥÐ¶ÐºÑĥ":9087,"ĠÐĲÑĢÐ¸":9088,"ĠÐ¿ÑĢÐ¾Ð²ÑĳÐ»":9089,"ĠÐ·ÐµÐ»ÑĮ":9090,"Ð¿Ð¾Ð»":9091,"ĠÐŁÐ¾Ð»ÑĥÑĩ":9092,"ĠÐ¿ÑĢÐµÐ´ÑģÑĤÐ°Ð²Ð»ÑıÐ»":9093,"ÐŁÐµÑĢÐ²":9094,"Ð³Ð¾Ð»ÑĥÐ±":9095,"ĠÑĤÑĢÐ°Ð½Ñģ":9096,"ĠÐ¾ÑĤÐ¾ÑĪÐµÐ»":9097,"ĠÐĲÐ»Ð»ÐµÐ½":9098,"ĠÐ¯Ð¼":9099,"ĠÐ½Ð°ÑģÑĤÐ¾Ð¹ÑĩÐ¸Ð²Ð¾":9100,"ĠÐ°Ð²ÑĤÐ¾Ð±ÑĥÑģ":9101,"ĠÐ²ÑģÑĤÑĢÐµÑĩÐµ":9102,"ĠÐ¾ÑģÐ¾Ð±Ð½Ñı":9103,"Ð´Ð°ÑĢÐ°":9104,"ĠÐ¼Ð¾Ð·Ð³Ð¸":9105,"ĠÑĢÐ°ÑģÑĪÐ¸ÑĢ":9106,"ĠÐ·Ð°ÑģÑĥ":9107,"ĠÐ¿Ð¸ÑģÐº":9108,"ĠÐ¿ÑĢÐ¸Ð¼ÐµÑĢÑĥ":9109,"ĠÐ·Ð°ÐºÐ¾Ð½ÑĩÐ¸Ð»Ð°":9110,"ĠÐ²ÐµÐ´ÐµÑĤ":9111,"ĠÐ³Ð»Ð°Ð²Ð°":9112,"\"...":9113,"ĠÐ¿ÐµÑĢÐµÐ²ÐµÐ»Ð°":9114,"ÑıÑīÐ¸Ðµ":9115,"ĠÐ¶Ð´ÑĥÑĤ":9116,"ĠÑģÐ»ÐµÐ´Ð¸ÑĤÑĮ":9117,"ĠÑįÐ½ÐµÑĢÐ³Ð¸Ð¸":9118,"ĠÐ¿Ð¾ÑĢÐµÐ·":9119,"ĠÑĩÐµÐ»ÑİÑģÑĤÑĮ":9120,"ĠÑģÐ¾Ð±Ð¸ÑĢÐ°ÑıÑģÑĮ":9121,"ĠÐ¿Ð»ÐµÐ¼ÑıÐ½":9122,"ÑģÑĤÐµÑĢÐ°":9123,"ĠÐ²Ð¾ÑģÐº":9124,"ÐµÐ½Ð½Ð°":9125,"ĠÐ¿ÑĢÐ°Ð·Ð´Ð½Ð¸Ðº":9126,"Ð»Ð°ÑĤÑĮ":9127,"ÐĿÐ¸ÑĩÐµÐ³Ð¾":9128,"ĠÐ¾Ð³ÑĢÐ¾Ð¼Ð½Ð¾Ðµ":9129,"ĠÐłÐµÐ´":9130,"Ð·Ñĥ":9131,"ĠÑģÐ¾Ð±Ð¸ÑĢÐ°ÐµÑĪÑĮÑģÑı":9132,"ĠÑĦÐ¸Ð³ÑĥÑĢÑĥ":9133,"ĠÑĥÐµÑħÐ°Ð»":9134,"ĠÑĤÑĥÑģÐº":9135,"ĠÐ¨ÐµÐ¿Ð°ÑĢÐ´":9136,"ĠÐ»Ð¾ÐºÐ¾ÑĤÑĮ":9137,"ĠÐ¶Ð¸Ð²ÑĭÑħ":9138,"ÐµÑĩÐºÐ¸":9139,"ĠÐ²ÑĭÐ³Ð»ÑıÐ´ÐµÑĤÑĮ":9140,"Ð¸Ð·Ñĥ":9141,"ĠÐ¾ÑĤÑĭÑģÐº":9142,"ĠÑģÐ¸Ð»Ð°Ð¼Ð¸":9143,"ĠÐ¾ÑĦÐ¸Ñģ":9144,"ĠÐ¿Ð¾Ð»ÑĥÑĩÐ¸Ð»Ð°":9145,"ĠÐ¿Ð¾Ð±ÑĭÑĤÑĮ":9146,"ĠÐ·Ð°ÑĤÐ¸Ñħ":9147,"ĠÑģÑĤÑĥÐ»Ðµ":9148,"ĠÐ¾ÑĤÐºÐ°Ð·Ð°Ð»ÑģÑı":9149,"ĠÐ±ÐµÑģÐ¿Ð¾Ð»ÐµÐ·Ð½Ð¾":9150,"ĠÑĥÑĩÐ¸ÑĤÑĭÐ²Ð°Ñı":9151,"ĠÐ¡ÐºÐ¾ÑĤÑĤ":9152,"ow":9153,"ÐµÐ³Ð¾ÑĢÐ¸":9154,"ĠÐ½ÐµÐ½Ð°Ð²Ð¸ÑģÑĤÑĮ":9155,"Ð½Ð¸Ð³Ð°Ð¼Ð¸":9156,"ĠÐ±ÑĮ":9157,"ĠÑĤÐ²ÑĳÑĢ":9158,"ĠÑĩÑĥÐ¶Ð¸Ðµ":9159,"ĠÑģÐµÐ²":9160,"ĠÑģÐµÑĢÐ´ÑĨÐµÐ¼":9161,"ĠÐ¼Ð¸Ðº":9162,"ĠÐ¿Ð¾ÐºÑĢÐ°ÑģÐ½ÐµÐ²":9163,"ĠÐ¿Ð°Ð»Ð°ÑĤÑĥ":9164,"ĠÐļÐ»Ð°ÑĢÐº":9165,"ĠÐ½Ð°Ð·Ð²Ð°Ð»":9166,"ĠÐ²ÑĭÑĤÐ°ÑģÐº":9167,"ĠÑĢÐ°Ð²Ð½Ð¾Ð²ÐµÑģ":9168,"ĠÐºÐ¾ÑģÐ½ÑĥÐ»Ð°ÑģÑĮ":9169,"ÐµÐºÐµ":9170,"ÑĭÐ²Ð°Ð¹":9171,"ĠÐ²Ð°Ð¶Ð½Ð¾Ðµ":9172,"Ð°ÑĤÐµÐ»ÑĮÑģÑĤÐ²Ð°":9173,"Ð¾ÑĩÐµÑĤ":9174,"ĠÐºÐ¾Ð¼Ð¿Ð°Ð½Ð¸Ñı":9175,"ĠÐ±Ð»ÑıÑĤÑĮ":9176,"ĠÐ½Ð°ÑĩÐ°Ð»Ð°ÑģÑĮ":9177,"ĠÐ¾ÑĤÐ²ÐµÑĩÐ°Ð»":9178,"Ð»Ð¾ÑĪ":9179,"Ð¾Ð²ÑĥÑİ":9180,"ĠÐ·Ð°Ð±Ð¾Ð»":9181,"ĠÐ¾Ð±Ð¸Ð¶ÐµÐ½Ð½Ð¾":9182,"ĠÐ¢Ð¸ÑħÐ¾":9183,"Ð»Ð¸ÑĤÑģÑı":9184,"ĠÑĢÐµÑĪÐ¸ÑĤÑĮ":9185,"ĠÑĤÐ¾Ð»Ð¿Ñĭ":9186,"ĠÐ´Ð²ÐµÑĢÑıÑħ":9187,"ĠÐ¾ÑĤÐ¿ÑĢÐ°Ð²Ð¸ÑĤÑĮÑģÑı":9188,"ĠÐĴÐ¸Ð½ÑĩÐµÑģÑĤÐµÑĢ":9189,"ĠÐĵÐ¾Ð»Ð¾Ð²Ð°":9190,"ĠÑģÐ°Ð¼Ð¸Ð¼":9191,"ĠÐĶÐ¶ÐµÑĦÑĦ":9192,"ÑĤÐ¾ÑıÑĤÐµÐ»ÑĮÐ½Ð¾":9193,"ĠÐ²Ð¸Ð½Ð¾Ð²Ð°ÑĤÐ°":9194,"Ð°ÑĤÐµÐ»ÑĮÑģÑĤÐ²Ð¾":9195,"ĠÐ¾ÐºÑĥÑĤ":9196,"Ð°Ð¹Ð´Ñı":9197,"ĠÐ·Ð°Ð¼Ð°Ñħ":9198,"ÐµÐ²Ð¾":9199,"ĠÐĶÐµÐ»Ð¾":9200,"ĠÐ±Ð°ÑĢÑħ":9201,"Ð°Ð»ÑĮÐ·":9202,"ĠÑĢÐ°Ð·Ð²ÐµÐ´":9203,"ĠÐ¿Ð¾Ð´Ð·ÐµÐ¼":9204,"ĠÐ²Ð·Ð»ÐµÑĤ":9205,"ĠÐ½Ð°Ð´ÐµÐ¶Ð´Ð°":9206,"ĠÐ¿Ð»Ð¸":9207,"ĠÐºÐ¾Ð»Ð¾ÑĤ":9208,"ĠÐ¿ÑĢÐ¾Ð¸Ð³Ð½Ð¾ÑĢÐ¸":9209,"Ð¸ÐºÑĥ":9210,"ĠÐ»ÐµÐ·Ð²":9211,"ĠÑģÐ²ÐµÑĤÐ»ÑĭÐµ":9212,"ĠÐ¿Ð¾ÑģÐ¼Ð¾ÑĤÑĢÐ¸":9213,"ĠÑĤÑĢÐµÑģ":9214,"ĠÐ´Ð¾Ð¶Ð¸Ð´Ð°":9215,"ĠÐ·Ð°ÑĪÐ¸":9216,"ÑĢÐ°Ð½ÑĮ":9217,"ĠÐºÐ¸Ð¿":9218,"ĠÐ»ÐµÐ³ÐºÐ¸Ðµ":9219,"ĠÑģÐ»ÐµÐ´ÑĥÑİÑīÑĥÑİ":9220,"ÑĢÐ°ÑģÐ»ÐµÑĤ":9221,"ĠÐ½Ð°Ð´ÐµÐ¶Ð´Ðµ":9222,"ĠÐ¸ÑģÐ¿ÑĥÐ³Ð°Ð»ÑģÑı":9223,"ĠÐĵÐ¾Ð»Ð¾Ñģ":9224,"ÐµÑĢÐ·":9225,"ÑįÑį":9226,"ĠÐºÐ¾Ð»ÐµÐ½Ð¾":9227,"ĠÐ·Ð°Ð²ÑĤÑĢ":9228,"ĠÐ½ÐµÑħÐ¾ÑĤÑı":9229,"ĠÐ¿ÐµÑĢÐµÐ¼ÐµÑģÑĤ":9230,"ĠÐ¿Ð¾ÐºÐ¾Ðµ":9231,"ĠÑĢÐ°Ð·Ð³Ð¾Ð²Ð°ÑĢÐ¸Ð²Ð°Ð»Ð¸":9232,"ĠÐ»ÐµÑģÑĤÐ½Ð¸ÑĨÑĭ":9233,"ĠÐ´Ð²Ð¾Ð¹":9234,"ĠÐºÑĥÐ·":9235,"ĠÑģÑĥÑĤÐ¸":9236,"ĠÑħÐ¾ÑĢÐ¾ÑĪÐ¸Ð¼":9237,"ĠÐ²ÑģÑĤÐ°Ð²Ð°ÑĤÑĮ":9238,"ĠÐĹÐ°Ð´":9239,"ÐŀÑĩ":9240,"ĠÐ¿Ð¾Ð´ÑĥÐ¼Ð°Ð²":9241,"ĠÐ´Ð¾Ð±Ñĭ":9242,"ĠÐ¿Ð¾Ð¼Ð¾Ð³Ð°ÐµÑĤ":9243,"ĠÐ¿ÑĢÐ¾ÑĤÐ¸Ð²Ð½Ð¾":9244,"ĠÐ½Ð¸Ñĩ":9245,"ĠÑĩÐ°ÑģÑĤÑĮÑİ":9246,"ÑĤÑĭÐºÐ°":9247,"ĠÑģÐ¾Ð¼Ð½ÐµÐ²Ð°Ð»ÑģÑı":9248,"Ð¸ÑĢÐ°Ð»ÑģÑı":9249,"ĠÑģÐ¿ÑĥÑģÑĤÐ¸Ð»Ð°ÑģÑĮ":9250,"Ð¿ÐµÑħ":9251,"ĠÑģÐ½Ð¾Ð²":9252,"ĠÐĺÑĢ":9253,"ĠÑģÐ¾ÑģÑĤÐ¾":9254,"Ð»ÑĭÐ²":9255,"ĠÐ²Ð·ÑıÐ»Ð¸":9256,"ĠÐºÐ¾ÑĤÐ°":9257,"ĠÐ½ÐµÐ½Ð¾ÑĢÐ¼":9258,"ĠÑįÐºÑģÐ¿ÐµÑĢÐ¸Ð¼":9259,"ĠÐºÐ¾ÑĢÐ¼":9260,"ĠÐ±ÑĢÐ¾ÑģÐ¸Ð»Ð°ÑģÑĮ":9261,"ĠÐ¼Ð°ÑģÐºÑĥ":9262,"ĠÑĢÐ°Ð·Ð³Ð¾Ð²Ð¾ÑĢÑĭ":9263,"ĠÐ²ÑĭÐ´Ð°Ð»":9264,"ĠÑĪÑĳÐ¿":9265,"ĠÐ¿ÐµÑĢÐµÑĢ":9266,"ĠÑĩÐµÑĤÐºÐ¾":9267,"ĠÑģÐºÐ¾Ð¼":9268,"ĠÑģÐ¿Ð¾ÑĢÑĤÐ¸Ð²":9269,"ĠÐĽÐµÐºÑģ":9270,"ĠÑĢÐ°ÑģÑģÐ¼Ð¾ÑĤÑĢÐµÑĤÑĮ":9271,"ÑĮÐµÑĢ":9272,"ĠÑģÐ»Ð¸Ð²":9273,"ĠÐľÐµÐ¹":9274,"ĠÐºÐ°ÑĢÑĤÐ¸Ð½Ñĭ":9275,"ĠÐ§Ð¾Ð½Ð³ÑĥÐº":9276,"ĠÐ¾ÑģÑĤÐ°Ð»ÑĮÐ½ÑĭÐ¼":9277,"ĠÐ½ÐµÑĤÐµÑĢÐ¿":9278,"Ð°Ð½Ð´ÑĢ":9279,"ĠÑģÐ¾Ð±ÑģÑĤÐ²ÐµÐ½Ð½ÑĭÐµ":9280,"ÑĩÐ¸ÐºÐ¾Ð²":9281,"ĠÐ¿Ð¾ÑģÑĤÐ°Ð²Ð¸ÑĤÑĮ":9282,"ĠÐ±ÑĢÐ°ÑĤÑĮÐµÐ²":9283,"ĠÐ»Ð¸ÑħÐ¾ÑĢÐ°Ð´":9284,"ĠÑģÐµÑĢÐµÐ±ÑĢÑı":9285,"ĠÐ¿ÑĢÐ¸Ð¶Ð¸Ð¼Ð°ÑıÑģÑĮ":9286,"ĠÐ¼Ð°Ð¼Ðµ":9287,"ĠÑģÐ»ÐµÐ´ÑĥÑİÑīÐµÐµ":9288,"ĠÐ²ÑĭÑģÐ¿":9289,"ĠÐĶÑĥÐ¼Ð°ÐµÑĪÑĮ":9290,"ĠÐ½Ð°Ð¹Ð´Ñĥ":9291,"ĠÐºÐ°Ð¼Ð¸":9292,"ĠÐ½Ð°Ð´ÐµÑıÑĤÑĮÑģÑı":9293,"ĠÐ·Ð½Ð°ÑĩÐµÐ½Ð¸Ñı":9294,"Ð¾Ð»Ð³":9295,"ĠÑĩÐ°ÑĢ":9296,"Ð´Ð¸Ð½Ð°":9297,"Ð°ÑİÑīÐ¸ÐµÑģÑı":9298,"ĠÐĶÐ°Ð½Ð¸":9299,"ĠÑĥÑĢÐ¾ÐºÐ¸":9300,"ĠÑģÐ»ÑĥÑĩÐ¸ÑĤÑĮÑģÑı":9301,"ĠÐ¾ÑĤÐºÑĢÑĭÐ²Ð°ÑĤÑĮ":9302,"Ð¼ÑģÐ°":9303,"ĠÐĴÐ½ÑĥÑĤÑĢÐ¸":9304,"ĠÐ´Ð¾ÑģÑĤÐ¾Ð¸Ð½":9305,"Ð°ÐµÑĤÐµÑģÑĮ":9306,"ÐµÐ½Ð°Ð²Ð¸Ð¶Ñĥ":9307,"ĠÐ¿Ð¾Ð²ÐµÑĢÑĮ":9308,"ĠÐ¿Ð¾ÑĤÐµÐº":9309,"ĠÑĤÐµÐ»ÐµÐ²Ð¸Ð·Ð¾ÑĢ":9310,"ĠÐ±Ð¸Ð»":9311,"ĠÐ¤Ð¸":9312,"ĠÐ¾ÑĤÑģÑĥÑĤÑģÑĤÐ²Ð¸Ðµ":9313,"Ð¸ÑĤÐµÐ»ÑĮÐ½ÑĥÑİ":9314,"ĠÐ¸ÑģÐ¿ÑĭÑĤÑĭÐ²Ð°Ð»":9315,"ÑĢÐµÑĩ":9316,"ĠÐ¶Ð¸Ð²Ð°":9317,"ĠÐĽÐµÐ³":9318,"Ð¸Ð²Ð°ÑİÑīÐµ":9319,"ĠÑĨÐµÐ»Ð¾Ð¼":9320,"ĠÑĢÐµÑģÐ½Ð¸ÑĨ":9321,"ĠÐļÑĢÐ¸ÑģÐ°":9322,"ĠÑĩÑĥÐ´Ð¾Ð²":9323,"ĠÐ¾ÑģÑĤÐ°Ð½Ð¾Ð²Ð¸Ð»Ð¸ÑģÑĮ":9324,"Ð°Ð»ÐµÐºÑĥ":9325,"ĠÑĢÐ°ÑģÐºÑĢÑĭ":9326,"ĠÐĿÐ¸ÐºÐ¸ÑĤÐ°":9327,"ĠÐĶÑĢÐ°Ð³Ð½Ð¸Ð»":9328,"ĠÐ»ÐµÐ¶Ð°ÑĤÑĮ":9329,"ĠÐ¼Ð½Ð¾Ð³Ð¾ÑĩÐ¸Ñģ":9330,"ĠÐ¾ÑģÐ¾Ð·Ð½Ð°Ð»":9331,"ÑģÑĤÐ°Ð²Ð»ÑıÑı":9332,"Ð¸ÑĤÑı":9333,"Ð»Ð¸Ð²Ð¾Ð¹":9334,"ĠÐ½Ð°Ð¿ÑĢÐ°Ð²Ð»ÑıÑıÑģÑĮ":9335,"ĠÐ¾ÑĤÐ´Ð°":9336,"Ð½ÑĥÑĤÐ°":9337,"ÐµÐ¹Ð·":9338,"ĠÑĤÐ¾ÑĩÐºÐ¸":9339,"ĠÐ¼Ð¾Ð»ÑĩÐ¸ÑĤ":9340,"ĠÐ²Ð·Ð¾ÑĢ":9341,"ĠÑĥÐ´Ð¸Ð²Ð»ÐµÐ½":9342,"ĠÐ¾ÑĤÑĤÐ°Ð»Ðº":9343,"ÐµÐ½ÐµÐ»":9344,"ĠÐ¿ÑĢÐµÐ´ÐµÐ»Ð°":9345,"ĠÐ²ÑģÑıÐºÐ¸Ñħ":9346,"ĠÐ²ÑĭÑĢÑĥÐ³":9347,"ĠÐ¸Ð´ÑĥÑĤ":9348,"ĠÐĶÐµÐ½ÑĮ":9349,"ĠÐ¡Ð¸Ð»ÑĮ":9350,"ĠÐ·Ð°ÑħÐ¾ÑĤÐµÐ»":9351,"ĠÐ¼ÐµÑħÐ°Ð½Ð¸":9352,"ĠÐ¿ÑĢÐ¾Ð²Ð¾Ð´Ð¸ÑĤ":9353,"Ð¾ÑĩÐ½Ð¾Ð¹":9354,"ĠÐ£Ð²Ð¸Ð´ÐµÐ²":9355,"ac":9356,"ĠÐ´ÑĢÑĥÐ·ÑĮÑıÐ¼":9357,"ĠÑĢÐ°ÑģÐ¿Ð¸Ñģ":9358,"ĠÑĨÐµÐ»Ð¾Ð²Ð°Ð»":9359,"Ð¿ÑĥÑģÑĤÐ¸":9360,"ĠÑĥÑģÐµÐ»ÑģÑı":9361,"ĠÐºÐ¾Ð½ÑĤÑĢÐ¾Ð»Ð¸ÑĢÐ¾Ð²Ð°ÑĤÑĮ":9362,"ĠÐºÐ¾Ð¹":9363,"ĠÐĺÑģÐ¿":9364,"Ð°ÑģÑĥ":9365,"ĠÑıÐ·ÑĭÐºÐµ":9366,"ĠÐ¿Ð¾Ð´Ð¾Ð¶Ð´Ð°ÑĤÑĮ":9367,"ĠÐ²Ð¾Ð»Ð½ÐµÐ½Ð¸Ñı":9368,"ĠÐ¼ÐµÐ´ÑģÐµÑģÑĤ":9369,"ĠÐĶÐµÐ»":9370,"Ð»ÑĭÑĪÐ°Ð²":9371,"ĠÑĦÐ¾Ð½Ðµ":9372,"ĠÑĤÐ²Ð¾ÐµÐ¼":9373,"ÐĲÐļ":9374,"ĠÐ¼ÑĢÐ°ÑĩÐ½Ð¾":9375,"ĠÐ±Ð¾ÑĢÐ¾ÑĤÑĮÑģÑı":9376,"ĠÐ½Ð°Ð¿ÑĢÑıÐ¶ÐµÐ½Ð¸Ðµ":9377,"ĠÐ½ÐµÐºÑĥÐ´Ð°":9378,"ĠÐļÑį":9379,"ĠÐ½ÐµÐ²ÑĭÐ½Ð¾ÑģÐ¸Ð¼Ð¾":9380,"ĠÐ´Ð¸ÑĢÐµÐºÑĤÐ¾ÑĢÐ°":9381,"ĠÐ¢Ð¾Ð¼Ð°":9382,"ĠÐĶÐ¶ÐµÐ¹Ðº":9383,"ĠÐ¾Ð±ÑīÐµ":9384,"ĠÐ²ÑĭÐ¿ÑĥÑģÐº":9385,"ĠÑĢÐµÑĪÐ¸Ð»ÑģÑı":9386,"ĠÐ¾Ð·Ð°Ð´Ð°Ñĩ":9387,"Ð²Ð¸ÑģÑĤ":9388,"ĠÐ³Ð¾ÑģÑĤÑĮ":9389,"ĠÐ²ÑģÐ¼Ð°ÑĤÑĢÐ¸Ð²":9390,"ĠÑıÑĢÐ¾ÑģÑĤÑĮ":9391,"ÑĢÑĭÐ³Ð½ÑĥÐ»Ð°":9392,"ĠÑĤÐµÐ¼Ð¿":9393,"ĠÐĿÐ¸ÐºÐ°":9394,"ÑĤÑģÑı":9395,"ĠÐĺÐ·Ð°Ð±":9396,"Ð¸Ð·Ð½ÐµÑģ":9397,"ĠÑĤÐµÑĢÐ·":9398,"ĠÐ»ÐµÐ¶Ð°":9399,"ĠÐ¶ÐµÐ½Ñĭ":9400,"ĠÐ»ÑİÐ±ÑĥÑİ":9401,"ĠÑĨÐ¸":9402,"ĠÐŁÐ¾Ð´Ð¾Ð¶Ð´Ð¸":9403,"ÑĩÐ°Ð»ÑģÑı":9404,"Ð´Ð¾Ð²":9405,"ĠÐ§ÐµÑģÑĤÐ½Ð¾":9406,"ĠÑģÐ¿ÑĢÐ°ÑĪÐ¸Ð²Ð°Ð»":9407,"ĠÑĢÐ°Ð½ÐµÐ½":9408,"ÑĳÐ±":9409,"ĠÑĥÑģÐ¿Ð¾ÐºÐ¾Ð¹ÑģÑı":9410,"ĠÐ¥Ð¾ÑĢ":9411,"ĠÐ´ÐµÑĢÐ·":9412,"Ð¾Ð¼Ð¸Ð½Ðµ":9413,"ĠÑģÑĤÐµÐ½Ð°Ñħ":9414,"ĠÑģÐ¾ÑĤÐ½Ð¸":9415,"ĠÐºÑĢÐ°ÑĤ":9416,"ĠÐ¸Ð½ÑģÑĤÑĢÑĥ":9417,"ĠÐ½Ð°ÑĢÑıÐ´":9418,"ĠÐ³Ð¸Ð³":9419,"Ð¼ÐµÑıÐ»Ð¸ÑģÑĮ":9420,"ĠÐ¾ÑĤÑĢÐ¸ÑĨÐ°ÑĤÐµÐ»ÑĮÐ½Ð¾":9421,"ĠÐ»Ð¸Ð¿":9422,"ĠÐ²Ð°ÑĪÑĥ":9423,"Ð½Ð¸Ð»ÑģÑı":9424,"ÑĥÑĤÐ¸":9425,"ÑĤÐ¾ÑĢÐ¾Ð²":9426,"ÑĥÐ¼Ð°":9427,"ĠÐ¾Ð¿ÑĥÑģÑĤÐ¸Ð»Ð°ÑģÑĮ":9428,"ĠÑĢÐ°Ð·Ð²Ð»ÐµÐº":9429,"ĠÐºÐ¾Ð²Ð°ÑĢ":9430,"ĠÐ£Ñĩ":9431,"ĠÐĹÐ´ÑĢÐ°Ð²ÑģÑĤÐ²ÑĥÐ¹ÑĤÐµ":9432,"ĠÑĩÐµÐ»":9433,"Ð¸ÑĨÑĥ":9434,"ĠÑĤÐ¾Ð½ÐºÑĥÑİ":9435,"ĠÐŀÐ³Ð¾":9436,"ĠÐ¿ÑĢÐ¸Ð·Ð½Ð°ÑĤÑĮ":9437,"Ð½ÑĮÐµ":9438,"ĠÑģÐ¼ÐµÑı":9439,"ĠÑĤÐ¾Ð»ÐºÐ½ÑĥÐ»":9440,"ĠÐºÑĥÐ±":9441,"ĠÐ¾ÑĤÑĢÐ°Ð²":9442,"ÐµÐ¹ÑģÑĤÐ²Ð¸ÑĤÐµÐ»ÑĮÐ½Ð¾":9443,"ĠÐ¾ÑĤÐ½Ð¾ÑĪÐµÐ½Ð¸Ðµ":9444,"Ð»ÐµÑĢ":9445,"ĠÐ¸Ð½ÑĤ":9446,"Ð³Ð¾Ð¼":9447,"ĠÐ¾ÐºÐ»Ð¸":9448,"ĠÐ½Ð°ÑģÑĤÐ°":9449,"ĠÐ¾Ð¶Ð¸Ð´Ð°ÑĤÑĮ":9450,"ĠÐ·Ð°Ð±ÑĥÐ´":9451,"ĠÑĥÐ´Ð°ÑģÑĤÑģÑı":9452,"ĠÑĤÑĢÐµÐ·":9453,"ĠÐľÐ¸ÑħÐ°":9454,"ÐĿÐ°Ð²ÐµÑĢ":9455,"ĠÑĥÑĩÐµÐ½Ð¸ÐºÐ¾Ð²":9456,"ĠÐ¼Ð°Ð¼Ð¾Ð¹":9457,"ÑĭÐ²Ð°ÐµÑĪÑĮ":9458,"ÑĤÐ¾ÑĢÐ¾Ð¶Ð½Ð¾":9459,"ĠÐľÐ°ÑĢÐ¸Ð½ÐµÑĤÑĤ":9460,"ÐļÐ¾ÑĢ":9461,"ĠÐ³ÑĥÐ»ÑıÑĤÑĮ":9462,"ĠÑīÐµÐºÐ°Ñħ":9463,"ÐµÑĩÐºÐ¾":9464,"ĠÐ¾Ð±Ð·":9465,"ÑħÑį":9466,"ĠÐ½Ð¾ÑĢ":9467,"ĠÐĲÑģÑĤÑĢÐ¸Ð´":9468,"ĠÐ¿ÐµÑĢÐµÑģÐµÐº":9469,"ÑĥÐ¼Ð°Ð½":9470,"ĠÐ½Ð°ÑģÐ»Ð°Ð¶Ð´Ð°ÑıÑģÑĮ":9471,"ĠÐ¡Ð°ÑĢ":9472,"ĠÐ¶Ð¸Ð²Ñĥ":9473,"ĠÑģÐµÑģÑĤÑĢÐ¾Ð¹":9474,"ÐµÐ½ÐµÑĨ":9475,"Ð³Ð»Ð°Ñģ":9476,"ĠÐ´Ð²Ð¸Ð½ÑĥÐ»ÑģÑı":9477,"ĠÑģÐ¿Ð°Ð»ÑĮÐ½Ð¸":9478,"ÑĬÑıÑģ":9479,"ĠÐ¿ÑĢÐµÐ³":9480,"ĠÐºÐ¾Ð½Ð²ÐµÑĢ":9481,"ĠÐ¾ÐºÐµ":9482,"ĠÐ·Ð°ÑģÑĤÑĢÑı":9483,"Ð¾Ð²Ð¾Ðµ":9484,"ĠÐ¾ÑħÐ²Ð°ÑĤ":9485,"ĠÐ±Ð¾ÑĢÑĮ":9486,"ĠÑĦÐ¾Ð½":9487,"ĠÐ¿Ð¾Ð³Ð»Ð¾Ñī":9488,"ĠÐ´Ð¾Ð³Ð¾":9489,"Ð°Ð²ÑĪÐ°Ñı":9490,"ĠÐĴÐ°ÑģÐ¸Ð»Ð¸ÑģÐ°":9491,"ĠÐ¿Ð¾Ð·Ð°Ð²":9492,"ĠÑģÑĥÑĤÑĮ":9493,"ĠÐ¾Ð±ÑħÐ²Ð°ÑĤÐ¸Ð»":9494,"ĠÑĥÑħÐ²Ð°ÑĤ":9495,"ĠÐ¿ÑĢÐ¾ÑĤÑıÐ³Ð¸Ð²Ð°Ñı":9496,"ÑĩÐ¸Ñı":9497,"Ð°Ð·Ð¼Ð°":9498,"ÐŁÐ¾ÑģÐ»ÐµÐ´":9499,"ÑĮÑĤÐµ":9500,"ĠÑģÐ»ÑĥÑĪÐ°Ñı":9501,"ĠÑĢÐ°Ð·Ð¶":9502,"ĠÐ¿Ð¾Ð´Ð²Ð°Ð»":9503,"Ð°ÑĢÐ°Ñħ":9504,"ĠÐ¿ÐµÑĢÐµÑģÑĤÑĥÐ¿":9505,"Ð¸ÑĤÑĭÐ¼":9506,"ĠÐ½Ð°ÑĩÐ¸Ð½Ð°Ð»":9507,"ĠÑĪÐ»Ð¾":9508,"ĠÐŃÐ»Ð°Ð¹":9509,"ĠÐĵÐ°Ð±ÑĢÐ¸":9510,"ĠÐµÑħÐ¸Ð´Ð½Ð¾":9511,"ĠÐ¿ÑĢÐ¸Ð½ÑĨÐµÑģÑģ":9512,"ĠÑģÐ¿Ð»Ñİ":9513,"ÐĶÐ¸Ð½":9514,"ÑĭÐ±":9515,"ĠÐ½Ð°ÑĩÐ¸Ð½Ð°ÑİÑĤ":9516,"ĠÐ¾ÑĤÐ½Ð¾ÑĪÐµÐ½Ð¸ÑıÑħ":9517,"Ð°Ð´ÐµÐ¼Ð¸Ð¸":9518,"ĠÑĤÑĭÑģÑıÑĩ":9519,"ÑĩÐµÑģÐºÐ¸Ð¼":9520,"ĠÐĽÐµÐ½":9521,"ĠÐ¿Ð¾Ð¿Ð¾Ð»":9522,"ĠÐĴÑģÐ¿Ð¾Ð¼":9523,"ĠÐ¢ÐµÐ½":9524,"ĠÑģÐºÑĢÑĭÐ²Ð°ÑĤÑĮ":9525,"ĠM":9526,"ĠÐ¿ÑĢÐ¾ÑģÐ¸ÑĤÑĮ":9527,"ĠÐ¿Ð¾ÑģÑĤÑĥÐ¿Ð¸ÑĤÑĮ":9528,"ĠÑĥÐ½Ð¸ÑĩÑĤÐ¾Ð¶Ð¸ÑĤÑĮ":9529,"Ð½Ð¸ÑģÑĤ":9530,"ĠÑĥÐ¶Ð¸Ð½Ð°":9531,"ĠÐ²Ð¾Ð»Ð½Ð¾Ð²Ð°ÑĤÑĮÑģÑı":9532,"ÑĤÐ¸Ñİ":9533,"ĠÐ¡Ð¼Ð¾ÑĤÑĢ":9534,"ĠÐ²ÐµÑĩÐ½Ð¾ÑģÑĤÑĮ":9535,"ĠÐ¿ÑĢÐ¾ÑģÑĤÐ¾ÑĢ":9536,"ĠÐ¡ÑĤÐ¸Ð»Ð¸Ð½ÑģÐºÐ¸":9537,"ĠÐ¾ÑīÑĥÑīÐ°Ð»":9538,"ĠÐ´Ð¾Ð±ÑĢ":9539,"ĠÑĢÐ°Ð·Ð±ÑĥÐ´Ð¸ÑĤÑĮ":9540,"ĠÐ¿Ð¾Ð³Ð¾Ð²Ð¾ÑĢÐ¸Ð¼":9541,"Ð»ÐµÐºÑģ":9542,"ĠÐ²Ð¾ÑģÑĮ":9543,"ĠÐĸÐµÐ½ÑīÐ¸Ð½Ð°":9544,"ÐµÐºÑģ":9545,"ĠÐ¿Ð¾Ð½ÑıÑĤ":9546,"ĠÐļÑĢ":9547,"ĠÑģÑĥÐ¼ÐµÐ»":9548,"ĠÑĦÑĢÐ°Ð·Ñĭ":9549,"ĠÐ¼Ð¾Ð»ÑĩÐ°ÑĤÑĮ":9550,"ĠÑıÑĢÐ¾ÑģÑĤÐ½Ð¾":9551,"ĠÐ´Ð¾Ð½ÐµÑģ":9552,"ĠÐ¿ÑĢÐ¾Ð±ÐµÐ¶":9553,"ĠÐ¿ÑĢÑıÑĩÐ°":9554,"ĠÐĿÐ¸ÐºÐ¾Ð»":9555,"ĠÐ¸ÑģÐ¿ÑĢÐ°Ð²Ð¸ÑĤÑĮ":9556,"ĠÐ¼Ð°Ð»ÑĭÑĪÐºÐ°":9557,"Ð²ÐµÐ¹":9558,"ĠÐ±ÐµÑģÐºÐ¾Ð½ÐµÑĩÐ½Ð¾":9559,"ĠÐ½Ð°Ð¿Ð¾ÑģÐ»ÐµÐ´Ð¾Ðº":9560,"ĠÐ²ÑģÑĤÐ°Ð²Ð°Ñı":9561,"ĠÐ¿Ð¾Ð½ÑĢÐ°Ð²Ð¸Ð»ÑģÑı":9562,"ĠÐ´Ð¾Ð²ÐµÑĢÑıÑĤÑĮ":9563,"ĠÑĤÐºÐ°Ð½Ð¸":9564,"ĠÐµÐ»":9565,"ĠÐ»Ð¾Ð´":9566,"ĠÐ¿Ð¾Ð·Ð¸":9567,"ĠÑĢÐµÐ°Ð³":9568,"ĠÐ¿ÐµÑĤ":9569,"ĠÐ¿Ð¾Ð¿ÑĥÑĤÐ½Ð¾":9570,"ĠÐ½ÐµÐ´Ð¾ÑģÑĤ":9571,"Ð¸Ð´Ð¾ÑĢ":9572,"ĠÐĿÐ°Ð¼Ð¸":9573,"ĠÐĽÑİÑĨÐ¸ÑĥÑģ":9574,"ĠÐ¿ÑĢÐ¾Ð·Ð²ÑĥÑĩÐ°Ð»":9575,"ĠÐ¿Ð¾ÑĤÐ°":9576,"ĠÑģÐ²Ð¸ÑģÑĤ":9577,"ĠÐ³Ð»ÑıÐ½ÑĥÐ»":9578,"ĠÐ½ÐµÐ½Ð°Ð²Ð¸ÑģÑĤÐ¸":9579,"ĠÐ½Ð°ÑģÐ¼ÐµÑĪÐ»Ð¸Ð²Ð¾":9580,"ĠÐ¼ÑıÐ³ÐºÐ¸Ðµ":9581,"ĠÐ¿Ð¾ÑĨÐµÐ»ÑĥÐ¸":9582,"ĠÐ±ÑĢÐ°ÑĤÑĮÑı":9583,"ĠÐ¿ÑĢÐµÐ´Ð²ÐºÑĥÑĪ":9584,"ĠÐ¾ÑĤÑĬ":9585,"ĠÐ¶Ð³":9586,"ĠÐ¿ÐµÑĩÐ°Ð»ÑĮÐ½Ð¾":9587,"ĠÐ·Ð°Ð¼ÐµÐ´":9588,"âĶ":9589,"ĠÑĥÐ±ÑĢÐ°ÑĤÑĮ":9590,"ĠÐ¾ÑĤÑĢÐ°Ð·":9591,"ĠÐ½Ð°ÑĩÐ°Ð»Ðµ":9592,"ÐµÐ¹ÑĤÐµÐ½":9593,"ÐµÑģÐºÐ¸":9594,"ĠÐľÐ¸Ð½Ð°":9595,"ĠÑĥÐ¿ÐµÑĢ":9596,"ÐµÑĢÐ¸Ð¸":9597,"ĠÐľÑįÐ¹":9598,"ĠÐ¢ÐµÑĢ":9599,"ÑĥÑģÐ¿":9600,"ĠÑĤÐ°Ð½ÑĨÐµÐ²Ð°ÑĤÑĮ":9601,"Ð´ÐµÐ²":9602,"ÐµÐ½ÑĮÐºÐ°":9603,"ĠÐ¾ÑģÐ¾Ð±Ñĭ":9604,"Ð£Ñģ":9605,"ĠÐŁÑĢÐ¸Ñģ":9606,"ĠÐ½ÐµÐ¿Ð¾Ð´Ð²Ð¸Ð¶":9607,"ÑıÑĤÐµÐ»ÑĮ":9608,"Ð°Ð¶Ð°":9609,"ĠÐ±ÑĢÐ°ÑģÐ»ÐµÑĤ":9610,"ĠÑĢÐµÑĪÐ°ÑĤÑĮ":9611,"ĠÐ¿ÑĢÐ¾Ð¿Ð°Ð»":9612,"ĠÑįÑħÐ¾Ð¼":9613,"ĠÑĥÐ³Ð°Ð´":9614,"ĠÐ¿ÑĢÐ¸Ð±Ð°Ð²":9615,"ĠÑħÐ²Ð¾":9616,"ĠÐļÑĳ":9617,"ĠÐľÐ°Ð¹ÐºÑĢÐ¾ÑĦ":9618,"âĶĢ":9619,"ĠÐ¿ÑĢÐµÐ²Ð¾ÑģÑħÐ¾Ð´":9620,"ĠÑĩÐ»ÐµÐ½Ð°":9621,"ĠÐ´Ð¾ÐºÐ°Ð·":9622,"ĠÐ¾Ð¼ÐµÐ³Ð¸":9623,"ĠÐºÐ¾ÑģÑĤÐ¸":9624,"ĠÐ¿Ð»Ð°Ð¼ÐµÐ½Ð¸":9625,"ĠÑģÐ¿Ð¾ÐºÐ¾Ð¹Ð½Ð¾Ð¹":9626,"ĠÐ¿ÑĥÑģÑĤÐ¾ÑĤÑĥ":9627,"ÑĥÑĪÑĮ":9628,"ĠÐ¿ÑĢÐ¸Ð¶Ð°Ð»Ð°ÑģÑĮ":9629,"ĠÐ»Ð¸ÑĪÐ½Ð¸Ñħ":9630,"ĠÐłÑĳ":9631,"ĠÐ°Ð·":9632,"Ð¸Ð¼Ð¾ÑģÑĤÑĮ":9633,"ĠÐ¿ÑĢÐ¸ÑıÑĤÐ½ÑĭÐ¹":9634,"ĠÐĸÐ¸Ð²":9635,"ĠÐ½Ð°Ð±ÑĢÐ¾Ñģ":9636,"ÑĥÐ±Ð»Ð¸":9637,"ĠÐ¸Ð·Ð±ÐµÐ¶Ð°ÑĤÑĮ":9638,"ĠÐĳÑįÐºÑħÑĳÐ½":9639,"ĠÐ¿Ð¾ÐºÐ°Ð·ÑĭÐ²Ð°ÑĤÑĮ":9640,"Ð¢Ð¾":9641,"ĠÐ´ÐµÐ²ÑĩÐ¾Ð½ÐºÐ¸":9642,"ĠÐ´ÐµÑģ":9643,"ÑĢÑıÐ¶":9644,"ĠÐºÐ¾Ð¼Ð°Ð½Ð´Ñĥ":9645,"ĠÐ·ÑĢÐ°Ñĩ":9646,"ĠÐĺÐ²Ð°Ð½":9647,"ĠÑģÐ¿ÐµÑĪÐ°":9648,"ĠÐ¥Ð¸Ð¼":9649,"ĠÑģÑĢÐ°Ð²Ð½":9650,"ÑĢÐ°Ð½Ð¶":9651,"ĠÐ¿ÑĢÐ¸ÑĩÐ¸Ð½Ñĥ":9652,"ÑĳÐ¹":9653,"ĠÐ¾ÑĤÑĩÐ°ÑıÐ½":9654,"ĠÐ°Ð»ÑĮÑĦÑĭ":9655,"ĠÐ·Ð°Ð´Ð°Ð»":9656,"ĠÐºÐ°ÑĢÑĤÐ¸Ð½Ð°":9657,"ay":9658,"ÑĢÐ°ÑģÐ½Ð¾":9659,"ĠÐ´ÐµÑĢÐ¶Ð°Ð»Ð°":9660,"?\".":9661,"ÐĶÐ°Ð²":9662,"ĠÐ±Ð¸ÑĤÑĮ":9663,"ĠÐ¾ÑĤÑģÑĤÑĢÐ°Ð½Ñı":9664,"ĠÐĳÐ¾Ð½Ð½Ð¸":9665,"ÑĢÐ¾ÑģÑĤÑĥ":9666,"ĠÐŁÐ¾ÑĢÐ°":9667,"ĠÑģÐ¼ÐµÑıÑģÑĮ":9668,"ĠÑıÐ·Ð²":9669,"ĠÐ·Ð°ÑīÐ¸ÑīÐ°ÑĤÑĮ":9670,"Ð°Ð·ÑĭÐ²Ð°ÑĤÑĮ":9671,"ĠÐ·Ð°Ð¾Ð´Ð½Ð¾":9672,"ĠÐºÐ¾Ð¼Ð°Ð½Ð´Ðµ":9673,"ÑĭÐ²Ð°ÑİÑģÑĮ":9674,"ĠÑĦÐ°Ð½":9675,"ĠÐĶÐ¾Ð»Ð¶":9676,"ĠÑģÐ¿Ð¾ÑģÐ¾Ð±Ð½Ð¾ÑģÑĤÐ¸":9677,"ĠÑĤÐ²Ð°ÑĢÑĮ":9678,"ĠÐ·Ð°Ð¿ÑıÑģÑĤÑĮÑı":9679,"ĠÐļÐ°ÑĤÑı":9680,"ĠÑĥÑģÐ½ÑĥÐ»":9681,"ĠÐ£Ð³Ñĥ":9682,"ĠÑģÑĤÐµÐºÐ»Ð¾":9683,"ĠÑĩÐµÑĢÐ½Ð¾Ð¹":9684,"ÑıÑıÑģÑĮ":9685,"ĠÐ·Ð°Ð±ÑĭÐ»Ð¸":9686,"ĠÐĳÐ¾Ð±":9687,"ĠÐ½ÐµÐ¿ÑĢ":9688,"ĠÐłÑĭÐ¶":9689,"ĠÐ¾ÑĤÑĢÐ°Ð¶ÐµÐ½Ð¸Ðµ":9690,"ĠÐ²Ð¾Ð»Ñİ":9691,"Ð°ÑĪÐºÐ°":9692,"Ð¸ÑĢÐ°Ð¹":9693,"ĠÐ¿ÑĢÐ¸Ð²ÑĭÐºÐ»Ð°":9694,"ĠÐ¸Ð³ÑĢÐ°ÐµÑĤ":9695,"ĠÐ°Ð»ÐºÐ¾Ð³Ð¾Ð»ÑĮ":9696,"ĠÐŁÐ°ÑĤ":9697,"ĠÐ¾ÑĤÐºÐ¸Ð´":9698,"ĠÐ¾ÑĤÐ¾Ð·Ð²Ð°Ð»Ð°ÑģÑĮ":9699,"ÑĭÑī":9700,"ĠÐ¡Ð°ÑģÐ¾ÑĢÐ¸":9701,"ĠÐ»ÑĥÑĩÑĪÐ¸Ð¼":9702,"ĠÐĵÐ»ÐµÐ±":9703,"Ð¼Ð¾ÑĤ":9704,"ĠÑħÑĢÐ°Ð½":9705,"Ð¸Ð²ÑĪÐ¸ÐµÑģÑı":9706,"Ð¸Ð²ÑĪÐµÐ³Ð¾":9707,"ĠÑĤÐ²Ð¾ÐµÐ¼Ñĥ":9708,"Ð¸ÐºÐ°Ð¼Ð°ÑĢÑĥ":9709,"ÐŃÑĤÐ¾ÑĤ":9710,"ÐŁÑĢÐ¾ÑģÑĤÐ¸":9711,"ÐµÐ½ÑĮÑı":9712,"ĠÐ¿ÑĮÑıÐ½":9713,"ĠÐ»Ð±Ð¾Ð¼":9714,"ĠÐłÐµÐ´Ð¶Ð¸Ð½Ð°":9715,"ĠÐ¡ÑĤÐ¾Ð¹":9716,"ĠÐºÐ¸Ð½Ð¶Ð°Ð»":9717,"ĠÑįÐ½ÐµÑĢÐ³Ð¸":9718,"ÐĶÐ²ÐµÑĢÑĮ":9719,"ĠÐĴÐ¾ÐºÑĢÑĥÐ³":9720,"ĠÐĽÑİÐº":9721,"ĠÐĴÐ·Ð³Ð»ÑıÐ´":9722,"ĠÐŀÐ±ÐµÑī":9723,"ĠÐŁÐ¾Ð´ÑĥÐ¼":9724,"Ð°Ð·Ð¼":9725,"ĠÐ¥Ð¾Ð»Ð¾Ð´":9726,"Ð¸Ð²Ð°ÑİÑīÐ¸Ð¹":9727,"ĠÐ·Ð°Ð³Ð»ÑĥÑĪ":9728,"ĠÐ¿Ð¾ÐºÐ°Ð·Ð°Ð»Ð°ÑģÑĮ":9729,"ĠÐ¢ÑĢÐ°Ð½":9730,"ĠÐ¡Ðµ":9731,"ĠÐ²Ð¸Ð´Ð½":9732,"ĠÐ´ÑĢÑĥÐ¶ÐµÐ»ÑİÐ±":9733,"Ð¸ÑĢÐ°Ð»Ð°":9734,"Ð¾Ð¿ÑĢÐ¾Ñģ":9735,"ĠÐŁÐ°Ð¿Ð°":9736,"ĠÐĶÐ°Ð²Ð½Ð¾":9737,"ĠÐ·Ð°ÑıÐ²Ð¸Ð»Ð°":9738,"ĠÐŃÑĢÐ¸ÐºÐ°":9739,"ĠÐ½Ð¾Ð¼ÐµÑĢÐ°":9740,"ĠÑģÐ¾Ð¿ÑĢÐ¾Ð²Ð¾Ð¶Ð´":9741,"ĠÐ·Ð²ÑĳÐ·":9742,"ÑĢÑĥÐ¶Ð¸":9743,"ĠÑĥÐ´Ð°ÑĢÐ¸ÑĤÑĮ":9744,"ĠÐĵÐ¾ÐºÑĥÐ´":9745,"ĠÐ¼ÐµÐ±":9746,"ĠÐ¾Ð±ÑĬÑıÑģÐ½Ð¸Ð»":9747,"us":9748,"ĠÐ½Ð°Ð»Ð¸":9749,"ĠÐŁÐµÑĢÐ²ÑĭÐ¹":9750,"ĠÑĥÐ±Ð¸Ð»Ð¸":9751,"ĠÐ²Ð»Ð°ÑģÑĤÐ¸":9752,"ĠÐłÐµÐ±ÐµÐº":9753,"ĠÐĺÐ³Ð¾":9754,"ĠÐ²ÐµÑĢÐ¾ÑıÑĤÐ½Ð¾":9755,"ĠÐ¾ÑĩÐµÐ²Ð¸Ð´":9756,"ÑģÐµÐ½":9757,"ĠÑĤÐ¾Ð»Ð¿Ñĥ":9758,"ĠÐ¿Ð¾ÑģÐ¼Ð¾ÑĤÑĢÐ¸Ð¼":9759,"Ð°ÐºÑĥÑĢÐ°":9760,"ĠÑģÑĥÑīÐµÑģÑĤÐ²Ð°":9761,"ĠÐ¾ÑĤÐ¿ÑĢÐ°Ð²Ð¸Ð»":9762,"ÑĩÐ¸ÑĪÑĮ":9763,"ĠÐ¾ÑĤÐ²ÐµÐ·":9764,"ĠÐ°Ð¿Ð¿ÐµÑĤ":9765,"ĠÑĪÐ¾ÑĢÐ¾Ñħ":9766,"ĠÑĦÑĢÐ°Ð·Ð°":9767,"ĠÐ´ÐµÑĢÐ¶Ð°ÑĤÑĮÑģÑı":9768,"ĠÐ»ÑİÐ±Ð¸Ð¼ÑĥÑİ":9769,"Ð½Ð°Ð´ÑĨÐ°ÑĤÐ¸":9770,"ĠÐ¿Ð¾ÑģÑĤÑĥÐ¿Ð¸Ð»":9771,"ĠÐ¾ÑģÐ²Ð¾Ð±":9772,"Ð¼ÑĥÑĢÐ¸Ð²ÑĪÐ¸ÑģÑĮ":9773,"ĠÐ¿Ð¾Ð²ÑĭÑĪ":9774,"ĠÑĩÐ¸ÑģÐ»Ðµ":9775,"ĠÐ¿ÑĢÐµÑĤ":9776,"ĠÐ±Ð¾Ð»ÑĮÑĪÐ¾Ð³Ð¾":9777,"ĠÐ»ÑĥÑĩÑĪÐµÐµ":9778,"ĠÑĢÐ°ÐºÐ¾Ð²":9779,"ÑģÑİÐ´Ñĥ":9780,"Ð¸ÑĤÐ¾Ð¼":9781,"ĠÐ¿Ð¾Ð´Ð½Ð¸Ð¼Ð°ÐµÑĤÑģÑı":9782,"Ð»Ð¾Ð±":9783,"ĠÐ¸Ð·Ð¾Ð³":9784,"Ð¸ÑĤÐµÐ»ÑĮÐ½Ð¸ÑĨÐ°":9785,"Ġh":9786,"ĠÑģÑĥÐ¿ÐµÑĢ":9787,"Ð¢Ð¬":9788,"Ð¸Ð½ÑĥÐ»Ð¸":9789,"ĠÐµÑĢÑĥÐ½":9790,"ÑģÑĤÐ²ÐµÐ½Ð½Ð¾ÑģÑĤÑĮ":9791,"ĠÐ²Ð¸Ð»":9792,"ĠÐ¿Ð¾Ð²ÐµÑĢÐ½ÑĥÐ²ÑĪÐ¸ÑģÑĮ":9793,"ĠÑĥÐ¹Ð´":9794,"Ð±ÑĥÐº":9795,"ĠÐ§ÑĥÑĤÑĮ":9796,"ĠÐ´ÐµÐ¼Ð¾Ð½Ð¾Ð²":9797,"ĠÐ¾ÑĤÑĩÐµÑĤÐ»Ð¸Ð²Ð¾":9798,"ĠÐ²ÑģÐºÑĢÐ¸Ðº":9799,"ĠÐ¿Ð¸ÑĪ":9800,"ĠÐ¼Ð°Ð»ÑĮÑĩÐ¸ÑĪ":9801,"ÐŁÐ¾ÑĤÐ¾Ð¼":9802,"ĠÐ¢ÑĮ":9803,"ÑĥÐ½Ð´":9804,"ĠÑĢÐ°Ð½Ñĥ":9805,"ĠÐ¡Ð²Ð¾Ð½":9806,"ĠÐ¿Ð¾Ð·Ð°Ð±":9807,"ÐµÑĩÐºÐ°":9808,"ĠÐ¾Ð±ÑĢÑĥÑĪ":9809,"ĠÑĥÐ³Ð»Ð°":9810,"ÐºÐ¸Ð½ÑĥÑĤÑĮ":9811,"ĠÑĥÐ±ÐµÐ¶Ð°ÑĤÑĮ":9812,"ÑĳÐ½Ð½ÑĭÐ¼":9813,"ĠÐľÐ¾Ð³Ñĥ":9814,"Ð¸ÑĢÑĥ":9815,"ĠÐ¶ÐµÐ½Ð¾Ð¹":9816,"ĠÐ·Ð²ÑĥÑĩÐ°Ð»":9817,"ĠÐ½ÐµÑĢÐ°Ð·":9818,"Ð°Ð´Ð¸Ð»":9819,"ĠÐ¿ÑĢÐ¸ÐºÑĢÑĭÐ»Ð°":9820,"ĠÐ³Ð¾ÑĢÐ¾Ð´Ñĥ":9821,"ĠÐ²Ð´Ð²Ð¾ÐµÐ¼":9822,"ĠÐ¼Ð°ÑģÑĤ":9823,"ĠÑħÐ¾ÑĢÐ¾ÑĪÐµÐ½ÑĮÐºÐ¾":9824,"ĠÐŁÑĢÑıÐ¼Ð¾":9825,"ĠÑĥÑĢÐ¾Ð²Ð½Ðµ":9826,"ĠÑģÑĤÐ¾ÑıÑĤ":9827,"ĠÐºÐ¾ÑĢÐ¾Ð±ÐºÑĥ":9828,"ĠÐ¿ÑĢÑıÐ´Ð¸":9829,"ĠÐ¿Ð¾ÑĤÐ¸ÑĢÐ°Ñı":9830,"Ð¸ÑĩÐ½ÐµÐ²":9831,"ÐĴÐ½ÐµÐ·Ð°Ð¿Ð½Ð¾":9832,"ÑĭÑĪÐºÐ°":9833,"ĠÐ¼ÐµÑĩÑĤÐ°Ð»":9834,"ĠÑģÐ¾Ð±Ð¸ÑĢÐ°ÑĤÑĮÑģÑı":9835,"ĠÑģÐ¸Ð³Ð½Ð°Ð»":9836,"ÑĢÐµÑģÑģÐ¸":9837,"ĠÐ¿Ð¾Ð¿ÑĢÐ°Ð²Ð¸Ð»":9838,"ĠÐľÐ°Ð»ÑĮÑĩÐ¸Ðº":9839,"ĠÐĽÐ¾":9840,"ĠÑģÐ°Ð´ÑıÑģÑĮ":9841,"Ð¾Ð´Ð¸ÑĩÐµÑģÐºÐ¸":9842,"Ð¥Ð¾ÑĤÑı":9843,"ĠÑĢÐµÐ°ÐºÑĨÐ¸Ñı":9844,"ĠÐ¡Ð¾Ðº":9845,"ĠÐŀÑĤÐ²":9846,"ĠÐĳÐ»Ð°Ð³Ð¾Ð´Ð°ÑĢ":9847,"ĠÑĥÐ´Ð°Ð²Ð°Ð»Ð¾ÑģÑĮ":9848,"Ð´Ð°Ð»ÑģÑı":9849,"ĠÐ´ÑĥÐ¼Ð°Ð»Ð¸":9850,"ĠÐ²ÑģÑĤÑĢÐµÑĤÐ¸Ð»Ð°":9851,"ĠÐ¿Ð¾ÑģÑĩÐ¸ÑĤ":9852,"ĠÐ½Ð°ÑĤÐ²Ð¾ÑĢ":9853,"ĠÐºÐ¾ÑĢÐ¾Ð»ÐµÐ²Ð°":9854,"ĠÐ²Ð½Ðµ":9855,"ĠÐ·Ð°Ð´Ð°Ð½Ð¸Ñı":9856,"ĠÐ¾ÑĢÑĥÐ¶Ð¸Ñı":9857,"ĠÐ¾ÑĤÐ»Ð¾Ð¶":9858,"ÐĶÐ°Ð¶Ðµ":9859,"ĠÑģÐ½Ð°ÑĢÑĥÐ¶Ð¸":9860,"ÑĢÐ¾Ð²ÑĮ":9861,"ĠÐ¿ÐµÑĢÐµÑģÐ¿ÑĢÐ¾ÑģÐ¸Ð»":9862,"ÑĩÐµÐº":9863,"ĠÐºÐ°Ð»":9864,"ĠÑģÐ¾Ð³Ð»Ð°ÑģÐ½Ð¾":9865,"ĠÑįÑĤÐ°Ð¶Ð°":9866,"ĠÐ¿Ð¾Ð´Ð¾Ð±Ð½ÑĭÐµ":9867,"ĠÐ¡Ð»":9868,"ĠÐ»Ð¾ÑĢÐ´":9869,"ĠÐ¾Ð¿ÐµÑĪ":9870,"ĠÑģÑĤÐ°ÑĢÑĭÐµ":9871,"ĠÑģÑĥÐµÑĤ":9872,"ĠÐ¾ÑģÑĤÐ°Ð²Ð»ÑıÑĤÑĮ":9873,"ĠÐ·Ð²Ð°Ð»Ð¸":9874,"ÑĥÐ´Ð¾Ð±":9875,"ÑįÑĢÐ¾Ð¿":9876,"ĠÐºÐ½Ð¾Ð¿ÐºÑĥ":9877,"ÐĶÑĢÐ°ÐºÐ¾":9878,"ÐµÐ¶ÑĥÑĢ":9879,"ĠÐ²Ð¾Ð¸Ð½":9880,"ĠÐĿÐµÐºÐ¾ÑĤÐ¾":9881,"ĠÐ¾ÑĤÐ¾ÑĪÐ»Ð°":9882,"ÑĥÐ½Ð°Ð´Ðµ":9883,"ĠÑĥÑģÐ¼ÐµÑĪÐºÐ¾Ð¹":9884,"ĠÐŃÑĢÐµÐ½":9885,"ĠÐ¿Ð¾Ð´ÑĢÐ°Ð³":9886,"ĠÑģÐµÑģÑĤÑĢÐµ":9887,"ĠÐ¿ÑĢÐ¸ÐºÐ¾ÑģÐ½Ð¾Ð²ÐµÐ½Ð¸Ðµ":9888,"ĠÑĥÐºÐ°Ð·Ð°Ð»Ð°":9889,"ĠÐ¾Ð±Ð¸Ð´Ð½Ð¾":9890,"ĠÐĴÐ¼ÐµÑģÑĤÐ¾":9891,"Ð´Ð¶Ñĥ":9892,"ÑĤÐ°Ð¼Ð¸":9893,"ÑģÐºÐµ":9894,"Ð¼ÐµÑĢÑĤ":9895,"ĠÐ¾Ð±ÑĬÑıÑģÐ½ÑıÑĤÑĮ":9896,"ĠÐ´Ð¾Ð´":9897,"ĠÐ¤ÐµÐ»Ð¸":9898,"ĠÐ¿Ð°ÑĢÐ¾ÑĩÐºÐ°":9899,"Ð½Ð¸Ð²ÑĪÐ¸ÑģÑĮ":9900,"ÐºÐ¾ÑĩÐ¸Ð²":9901,"ĠÐºÐ°Ð¶Ð´Ð¾Ð¼Ñĥ":9902,"ĠÐ·Ð°ÑĢÐ°Ð·":9903,"ÐŁÐµÑĢÐµÐ´":9904,"ĠÐºÐ¾ÑĢÐ¾ÑĤÐºÐ¸Ð¹":9905,"Ð¨ÐµÑĢ":9906,"ĠÐºÐ¾ÑĢÐ°Ð±Ð»Ñı":9907,"ĠÐŁÐ°ÑĢÐ½Ð¸":9908,"ÑĢÐ°ÑİÑģÑĮ":9909,"Ð°ÑĤÐµ":9910,"ĠÐ¾Ð¿ÑĢÐµÐ´":9911,"ĠÑģÑĬÐµÐ¼":9912,"ÑĭÐ²Ð°ÑİÑĤÑģÑı":9913,"ĠÐ·Ð²ÐµÐ·Ð´Ñĭ":9914,"Ð¾Ð³Ð¾Ð¹":9915,"ĠÐ½Ð°Ð¿Ð¸ÑģÐ°ÑĤÑĮ":9916,"ÑĢÐ¾ÑĪÑĥ":9917,"ĠÑģÐµÐºÑģÐ°":9918,"Ð²Ð¾ÐµÐ¼Ñĥ":9919,"ĠÑģÐ¾ÑİÐ·":9920,"Ð³Ð¾Ð´Ð°":9921,"ĠÐ²ÑĭÑħÐ¾Ð´Ñı":9922,"ÑħÐ¼":9923,"ĠÐ°Ð²ÑĤÐ¾Ð¼Ð¾Ð±":9924,"ÑĤÐ¸Ð½Ð°":9925,"ĠÐ¾Ð±Ð¾ÑĢ":9926,"Ð¾Ð²ÑĮ":9927,"Ð½Ð¾Ð³Ð¸Ðµ":9928,"Ð»Ð¾ÑĢ":9929,"ĠÑģÐ¿ÑĢÑı":9930,"ĠB":9931,"ĠÐ²Ð¾Ð¿ÑĢÐ¾ÑģÐ°":9932,"ĠÐ½ÐµÑĥÐº":9933,"ĠÐ·Ð°Ð¸Ð³":9934,"ĠÑĩÑĳÑĢÐ½ÑĭÐµ":9935,"ĠÐ¿Ð¾Ð´ÑĥÑĪÐºÐ¸":9936,"ĠÑĢÐ¾Ð´Ð¸ÑĤÐµÐ»ÑıÐ¼":9937,"ĠÐ·Ð°ÐºÐ°ÑĤÐ¸Ð»Ð°":9938,"Ð½Ð¸ÑģÑģ":9939,"ĠÑĥÐ»ÑĭÐ±Ð°ÑİÑģÑĮ":9940,"ĠÐ¶ÑĥÑĢÐ½Ð°Ð»":9941,"ĠÑĢÑĭÐ¶Ð¸Ð¹":9942,"ĠÐ·Ð²ÐµÑĢÑĮ":9943,"ĠÐ´Ð¾Ð¶Ð¸Ð´Ð°ÑıÑģÑĮ":9944,"ÑĢÐµÐ¶Ð´":9945,"ĠÐ¿Ð¾Ð¿ÑĢÐ¾ÑģÑĤÑĥ":9946,"ĠÐ¿ÑĢÐ¾ÑģÐ¸ÑĤ":9947,"ÐµÑĤÐµÑĢ":9948,"ĠÐ±ÑĢÐ¾ÑģÐ¸Ð²":9949,"ĠÑĤÑĢÐµÐ½Ð¸ÑĢÐ¾Ð²ÐºÐ¸":9950,"Ð¾Ð²Ñĭ":9951,"ĠÐĶÐ²ÐµÑĢÑĮ":9952,"Ð¸ÑĢÐ°Ñİ":9953,"ĠÐ¥Ð°Ð´":9954,"ĠÑģÐ½Ð¸Ð·Ñĥ":9955,"Ð½ÑıÐ²":9956,"ĠÐ½ÐµÐºÐ¾Ð³Ð´Ð°":9957,"ĠÐ¼ÑĥÐ¶ÑģÐºÐ¾Ð¹":9958,"ĠÐļÐµÐ½ÑģÑĥ":9959,"ÑĩÐµÑģÐºÐ¾Ð³Ð¾":9960,"ĠÐ¿ÑĢÐ¾Ð²Ð¾Ð¶":9961,"ĠÐ¿ÑĢÐµÐ´Ð¾ÑģÑĤÐ°Ð²":9962,"ĠÐ³Ð¾Ð½":9963,"ĠÐ¼Ð½ÐµÐ½Ð¸Ñİ":9964,"ĠÐ¿Ð¾Ð±Ð»ÐµÐ´":9965,"ĠÐ»ÑİÐ±Ð¾Ð²Ð½Ð¸ÐºÐ°":9966,"ĠÐ´ÐµÑĢÐµÐ²Ð½Ð¸":9967,"ÐķÐł":9968,"ĠÐµÐ´Ð¸Ð½ÑģÑĤÐ²ÐµÐ½Ð½Ð°Ñı":9969,"ÑĩÑĥÑĢ":9970,"Ð°Ð²Ð°":9971,"ĠÑĢÐ¾Ð±ÐºÐ¾":9972,"Ġg":9973,"ĠÐ²Ð·Ð³Ð»ÑıÐ´Ð°Ð¼Ð¸":9974,"ĠÐ¡ÑĤÑĢÐ°Ð½":9975,"ĠÐ·Ð°Ð³Ð¾ÑĢ":9976,"ÑĭÑĤÐ°":9977,"ĠÐ¿ÑĭÑĤÐ°ÑĤÑĮÑģÑı":9978,"ÐµÐ²ÑĪÐ¸Ðµ":9979,"ĠÐĳÑĮÑıÐºÑĥ":9980,"ĠÐ¼ÐµÑĪÐ°ÑĤÑĮ":9981,"ÐµÑĤÐ½Ð¾":9982,"ĠÑıÐ±":9983,"ĠÐ¿Ð¾Ð¿ÑĭÑĤÐ°ÑĤÑĮÑģÑı":9984,"ĠÐ»ÑİÐ±ÐµÐ·":9985,"ÑģÑĤÑĢÐµÐµ":9986,"ĠÐ½Ð°Ð´ÐµÑıÐ»Ð°ÑģÑĮ":9987,"ĠÐĽÑĥÑĦÑĦÐ¸":9988,"ĠÐ´Ð¾Ð¿Ð¾Ð»":9989,"ĠÐ¿Ð¾ÑĤÐµÐ¼":9990,"ĠÐĴÐ°ÑĪÐµ":9991,"ÑĥÑīÐµÐ³Ð¾":9992,"Ð½Ð¾ÑģÑĤÐµÐ¹":9993,"ĠÐ²ÑĭÐ±ÑĢÐ°ÑĤÑĮ":9994,"ÑĢÐ°Ñİ":9995,"ĠÑĥÐºÑĥ":9996,"ĠÐ·Ð»Ð¾Ð¹":9997,"ĠÐ¼ÐµÑĩÑĤÑĭ":9998,"ĠÑģÐ²ÐµÑĤÐ»Ð¾Ð²":9999,"ĠÐ½ÐµÐ±ÑĢÐµÐ¶Ð½Ð¾":10000,"ĠÐºÑĥÑĩÐ°":10001,"ĠÐ½Ð°Ð´ÐµÐ¶Ð´Ñĥ":10002,"ĠÐ½Ð¸ÑĩÑĥÑĤÑĮ":10003,"Ð°Ð»ÑĮÐ´":10004,"ĠÐ²Ð¾Ð¹Ð½Ð°":10005,"Ð±Ð¾ÑĢ":10006,"ĠÐ²ÑĤÐ¾ÑĢÐ¾Ð¼":10007,"ÑĪÐ»Ð¾ÑģÑĮ":10008,"ĠÑĢÐ°ÑģÑħÐ¾Ð´":10009,"ĠÐļÐµÐ¹":10010,"Ð¾ÑģÐ½Ð¾Ð²":10011,"ĠÐ´Ð°ÑģÑĤ":10012,"ĠÐ¿Ð¾ÑģÐ»ÑĭÑĪÐ°Ð»Ð¸ÑģÑĮ":10013,"ÑĥÑīÐ¸Ñħ":10014,"ĠÐ²Ð»ÑİÐ±Ð¸Ð»ÑģÑı":10015,"ĠÐ¿Ð°ÑĢÐµ":10016,"ĠÐĵÐ°Ð»":10017,"Ð°Ð½Ð°Ð¼Ð¸":10018,"ĠÐ²ÑĭÑıÑģÐ½Ð¸ÑĤÑĮ":10019,"ĠÐ£Ñħ":10020,"ĠÐ²Ð¾Ð»Ð½ÑĥÑİ":10021,"ĠÐ¿ÑĢÐ¾Ð´ÐµÐ»":10022,"ĠÐ¿Ð¾Ð»Ð½ÑĥÑİ":10023,"ĠÐ²Ð»Ð°ÑģÑĤÑĮ":10024,"ĠÐłÑĥÑģ":10025,"Ð¡Ð»ÐµÐ´":10026,"ĠÑĢÐ°ÑģÐºÑĢÑĭÐ²":10027,"ĠÐ´ÑĥÐ¼Ð°Ð¹":10028,"Ġto":10029,"ĠÐ·Ð°ÐºÐ»Ð¸Ð½Ð°Ð½Ð¸Ñı":10030,"ÐºÑĤÐ¾":10031,"ĠÐ¿Ð¾Ð²ÐµÑĢÑħÐ½Ð¾ÑģÑĤÑĮ":10032,"ĠÐ·Ð°Ð¶Ð¸Ð³":10033,"ĠÑĤÐµÐ°ÑĤ":10034,"ĠÐ³Ð½ÐµÐ²Ð°":10035,"ÐµÐ»Ð»Ð¸":10036,"ĠÐ¢ÑĳÐ¼":10037,"ĠÐ¿ÑĢÐ¸ÑħÐ¾Ð¶":10038,"ĠÐ³ÑĢÑĥÐ¿Ð¿Ð°":10039,"ĠÐ¿Ð¾ÑģÐ¿Ð°ÑĤÑĮ":10040,"ĠÑĥÑģÑĤÐ°Ð²Ð¸Ð²ÑĪÐ¸ÑģÑĮ":10041,"ĠÑĤÑĥÑĦÐ»Ð¸":10042,"ÐµÐ´Ð¶Ð¸":10043,"ÑĭÐ¹Ð´Ñı":10044,"ÑģÐºÐ¾Ð¼Ñĥ":10045,"ĠÐ³Ð¾ÑĢÐ»Ñĥ":10046,"ÐĽÑİÑģÐ¸":10047,"ĠÑģÑĩÐ¸ÑĤÐ°Ñı":10048,"ĠÐĿÐ°Ðº":10049,"ĠÐ¿Ð°ÑħÐ½ÐµÑĤ":10050,"ĠÐ¿ÐµÑĢÐ²ÑĭÑħ":10051,"ĠÐ¾Ð±ÑĢÐ°ÑĤÐ¸Ð»Ð°ÑģÑĮ":10052,"ĠÑģÐ»ÐµÐ´Ð¸Ð»":10053,"ĠÐ¾Ð¿ÑĢÐ°Ð²Ð´Ð°":10054,"ĠÐ²Ð·ÑĬ":10055,"Ð¡Ð¾":10056,"ĠÐ³Ð¾ÑĢÐ¸Ð·Ð¾Ð½":10057,"ĠÐºÐ°ÑĢÑĤÑĭ":10058,"ĠÐ¿Ð¾ÑĪÐ°ÑĤ":10059,"ĠÐ´ÑĥÑĪÐ¾Ð¹":10060,"ĠÐ»ÑĥÐºÐ°Ð²":10061,"ĠÐľÐ¾Ð³":10062,"ÐŁÑĢÐ¾ÑģÑĤÐ¾":10063,"ĠÐ¢ÐµÐ»Ð¾":10064,"Ð±ÐµÐ»":10065,"ĠÐ¥Ð¾ÐºÐ°Ð³Ðµ":10066,"ĠÐ¿Ð¾Ð·Ð²Ð¾Ð»ÑıÐµÑĤ":10067,"ĠÐ½ÐµÐ½Ð°Ð²Ð¸Ð´ÐµÐ»":10068,"ĠÑģÐ²ÑıÑĤ":10069,"ĠÐ»ÐµÐ³ÐºÐ¾Ð¹":10070,"Ð°Ð±Ð¸":10071,"ĠÐ¿Ð°ÑĢÐ¾ÑĩÐºÑĥ":10072,"ĠÑĤÐµÑĤÑĢÐ°Ð´":10073,"ĠÐ½ÐµÐ¿Ð¾Ð´Ð°Ð»ÐµÐºÑĥ":10074,"ÑıÑīÐµÐ¼Ñĥ":10075,"ĠÑģÐ´Ð°":10076,"ĠÐĴÐ½ÐµÐ·Ð°Ð¿Ð½Ð¾":10077,"ĠÐ²Ð¸Ð´ÐµÐ»Ð¸ÑģÑĮ":10078,"ĠÑĢÐ¾Ð´Ð¸ÑĤÐµÐ»ÑıÐ¼Ð¸":10079,"ĠÐ¡ÐµÐ¼":10080,"ÐµÑģÑĤÐ¸ÑĤÑĮ":10081,"ĠÑģÐ¾Ð´ÐµÑĢÐ¶Ð¸Ð¼Ð¾Ðµ":10082,"ĠÑĢÑĭÐ±":10083,"ĠÐ½Ð°Ð´Ð¿Ð¸ÑģÑĮ":10084,"ĠÐ¿Ð°ÑĥÐ·Ñĥ":10085,"ĠÐ¿ÐµÑĢÐµÐ¹":10086,"ÑıÑĢ":10087,"ĠÑĥÐµÑħÐ°ÑĤÑĮ":10088,"ĠÐ¿ÑĢÐ¾ÑĪÐ»Ð¾Ð¹":10089,"ĠÐ±ÑĭÐ²ÑĪÐ¸Ð¹":10090,"ĠÐ¿Ð¾ÑģÐ»ÐµÐ´Ð½Ð¸Ð¼":10091,"ĠÐ£Ð¼":10092,"ĠÐ¤Ð¸Ð»":10093,"ĠÑĤÐ¾Ð»Ð¿Ðµ":10094,"ĠÐ´ÐµÐ»Ð¾Ð²":10095,"ĠÐºÐ°ÑĢÐ¼Ð°Ð½Ðµ":10096,"ĠÐ¼ÑĥÐ¶ÑĩÐ¸Ð½Ð¾Ð¹":10097,"ĠÑĤÐµÐ»ÐµÑĦÐ¾Ð½Ñĥ":10098,"ĠÑģÐ»ÑĥÑĪÐ°Ð»Ð°":10099,"ÐĶÐ¶ÐµÐ¹":10100,"ĠÐ¿ÑĢÐ¸Ð´ÑĥÐ¼Ð°Ð»":10101,"ĠÐ¼Ð¾Ð»ÑĩÐ°Ð»Ð°":10102,"ĠÐ¾ÑĤÐºÐ°Ð·Ð°ÑĤÑĮÑģÑı":10103,"ĠÐ¿Ð¾Ð´Ð¼":10104,"ĠÑĢÐµÐ¿ÐµÑĤÐ¸":10105,"ĠÑģÐ¾Ð±ÑģÑĤÐ²ÐµÐ½Ð½ÑĭÐ¹":10106,"ĠÐ¾Ð¿Ð¾Ð¼":10107,"ĠÐ¾Ð±Ð¾ÑĢÐ²":10108,"ĠÐ´ÐµÐ²ÑıÑĤÑĮ":10109,"ĠÐºÐ¾ÑĢÐ¾Ð»":10110,"ĠÐľÐ¸Ñģ":10111,"ĠÑģÑĤÑĢÐ°Ð½Ð½Ð°Ñı":10112,"ĠÐ¨Ð°ÑĢ":10113,"ĠÑĦÐ°ÐºÑĥÐ»ÑĮÑĤ":10114,"Ð°Ð¶ÑĥÑģÑĮ":10115,"ĠÑĤÐ¾Ð»ÐºÑĥ":10116,"ĠÑĤÐ°Ð»Ð°Ð½ÑĤ":10117,"Ð¸Ð²ÑĭÐ¹":10118,"ĠÐ²ÑĢÐµÐ¼ÐµÐ½Ð°":10119,"ĠÑĢÑĥÐ¼Ñı":10120,"ĠÐ¾ÑĩÐµÑĢÐµÐ´Ð¸":10121,"ĠÑģÐ¿Ð°Ð»ÑĮÐ½Ðµ":10122,"ÐºÐ½ÑĥÑĤÑĮÑģÑı":10123,"ĠÐ¾Ð±Ð²Ð¸Ð½":10124,"ĠÐ´Ð¾Ð±ÑĢÑĭÐ¹":10125,"ĠÐŁÐ¾Ð´Ð½Ñı":10126,"ĠÑĤÐµÑĩÐµÐ½Ð¸Ðµ":10127,"ĠÐ¿Ð¾Ð²ÐµÑĢÐ½ÑĥÐ»Ð°":10128,"ĠÐĿÐ°ÑģÑĤÑı":10129,"ĠÐļÐ°ÑĢÐ»":10130,"ÐļÐ°ÑĢ":10131,"ĠÐ¼Ð°ÑĤÐµÑĢ":10132,"ĠÐ¿ÑĢÐ¸Ð½Ð°Ð´Ð»":10133,"ĠÑĦÐ¸ÑĢ":10134,"ÐŀÑģ":10135,"ÐŁÑĢÐ¾Ñģ":10136,"ĠÐ½Ð°ÑĢÐºÐ¾ÑĤ":10137,"ĠÑĤÐ°Ð½ÐµÑĨ":10138,"ĠÐ²ÑĭÐ³Ð»ÑıÐ´Ð¸ÑĪÑĮ":10139,"ĠÐ¿Ð¾Ð´ÑģÐºÐ°Ð·ÑĭÐ²":10140,"ĠÐ¼Ð¸Ð¼":10141,"ÐĴÐµÑĢ":10142,"ĠÐĽÐµÐ³Ð¾":10143,"ĠÐ¼Ð°Ð³Ð¸Ñİ":10144,"ĠÑĥÐ±Ð¸Ð¹ÑĨÐ°":10145,"ĠÐĽÑĥÐ½Ð°":10146,"ĠÐ²ÑģÐºÑĢÐ¸ÐºÐ½ÑĥÐ»Ð°":10147,"ĠÐ±Ð¾Ð»ÐµÐ·Ð½ÐµÐ½Ð½Ð¾":10148,"ĠÑģÑĩÐ°ÑģÑĤÐ»Ð¸Ð²Ð¾Ð¹":10149,"ĠÑģÐ¸Ð¼Ð²Ð¾Ð»":10150,"ĠÐĶÐ¶Ð°ÑģÑĤÐ¸":10151,"ĠÑģÐ¼ÐµÑıÐ»ÑģÑı":10152,"ĠÑģÐ´ÐµÑĢÐ¶Ð¸Ð²Ð°Ñı":10153,"Ð¸Ð·Ð²Ð¾Ð»ÑĮÐ½Ð¾":10154,"ĠÑĪÐµÐ¿Ð½ÑĥÐ»":10155,"ÑīÑĳÐ½Ð½Ð¾":10156,"ĠÐ¿ÐµÑĢÐµÐ¶Ð¸Ð²Ð°Ð¹":10157,"Ð°ÑĤÑĭÐ¼":10158,"ĠD":10159,"ĠÐ¾ÐºÐ°Ð¶ÐµÑĤÑģÑı":10160,"ĠÐ¿ÑĢÐ¾ÑģÐ¸Ð»Ð°":10161,"Ð°ÑĤÐµÐ»ÑĮÐ½Ð¾Ð¹":10162,"ĠÐ¿Ð°ÑĢÐ¾Ð¹":10163,"ĠÐ¾Ð³Ð»ÑıÐ´ÑĭÐ²Ð°ÑıÑģÑĮ":10164,"ĠÐ¿ÑĢÐ¸Ð²ÑĭÑĩÐ½Ð¾":10165,"ĠÐ·Ð°Ð¿ÑĢÐ°Ð²":10166,"el":10167,"ĠÐ¾Ð±ÑģÑĤÐ¾ÑıÑĤÐµÐ»ÑĮÑģÑĤÐ²":10168,"ĠÐºÑĥÑģÐ¾ÑĩÐµÐº":10169,"ĠÐ±ÐµÑĢÐµÐ³Ñĥ":10170,"Ð°Ð½Ð´Ð°":10171,"ĠÐłÐ°ÑģÑģ":10172,"ĠÑģÑĥÐ´ÑĮÐ±Ñĭ":10173,"ÐºÐ°ÑĪ":10174,"ĠÐ°ÑįÑĢÐ¾Ð¿":10175,"ĠÐ²Ð»ÐµÐ·":10176,"ÑĥÑħÐ°":10177,"Ð½Ð°Ð·Ð½Ð°Ñĩ":10178,"ĠÐ¿Ð¾Ð·Ð²Ð°Ð»Ð°":10179,"ĠÑĦÐ¾ÑĢÐ¼":10180,"ĠÑĢÐµÑĪÐµÐ½Ð¸Ñı":10181,"ĠÐ±Ð¾Ð»ÑĮÐ½Ð¸ÑĨÑĭ":10182,"ĠÐŀÐ»Ð¸Ð²ÐµÑĢ":10183,"ĠÐ¿Ð¾Ð»ÑĥÐ¼":10184,"ĠÑĢÐ°ÑģÐºÐ°Ð»":10185,"Ð¾Ð¶ÑĥÑģÑĮ":10186,"Ð°Ð¶ÐµÑĤ":10187,"ĠÐ¾ÑģÐ¾Ð·Ð½Ð°":10188,"ĠÑĢÐ°ÑģÑģÐºÐ°Ð·ÑĭÐ²Ð°Ð»Ð°":10189,"Ð°Ð½ÐµÑĪÑĮ":10190,"ĠÐ²Ð¸Ð½Ð¾":10191,"ĠÐ²Ð°ÑĪÐ¸Ñħ":10192,"ĠÐ¿Ð¾ÑĢÑĥÑĩ":10193,"ĠÐ±Ð»Ð°Ð³Ð¾ÑĢÐ¾Ð´":10194,"ĠÐ°Ð³ÐµÐ½ÑĤ":10195,"ĠÐ½Ð¾ÑģÑĥ":10196,"ĠÐ½Ð°Ð¼ÐµÑĢÐµÐ²":10197,"ĠÐ¿ÑĢÐµÐ´ÑģÑĤÐ¾":10198,"ĠÑĥÐ²Ñĭ":10199,"ĠÐľÐ°Ð¹ÐºÐ¸":10200,"ĠÐ¾Ð·Ð°ÑĢ":10201,"ĠÐĹÐ°ÑĤÐºÐ½Ð¸ÑģÑĮ":10202,"ĠÐ¼Ð¾Ð½ÑģÑĤ":10203,"ĠÑģÐ¾ÑħÑĢÐ°Ð½":10204,"ĠÐ½Ð°ÑģÑĤÐ¾ÑıÑīÐ°Ñı":10205,"ÑĢÐ¸ÑģÑĤÐ¾Ðº":10206,"ĠÐĺÐºÐºÐ¸Ð½Ð³":10207,"ĠÐ¿Ð¾ÑģÑĤÑĢÐ¾":10208,"ĠÐ¿Ð¾Ð¿Ð»":10209,"ĠÐºÑĢÐ°ÐµÐ¼":10210,"ĠÑģÐ¼Ð¾Ð³ÑĥÑĤ":10211,"ĠÑĢÐµÐ°ÐºÑĨÐ¸Ñİ":10212,"ÑĤÐµÑĢÐ°":10213,"ĠÐ¿Ð¾Ð»ÑĥÑĩÐ¸Ð²":10214,"ĠÐ³ÑĢÐµÐ±":10215,"ĠÑģÐ°ÑĢÐº":10216,"ÑįÐ½Ð´":10217,"ĠÐ¾Ð±Ð½ÑıÐ²":10218,"ĠÑģÑĩÐ°ÑģÑĤÐ»Ð¸Ð²ÑĭÐ¼":10219,"Ð¸Ð·Ð½ÑĮ":10220,"ĠÑĤÑĥÐ¼Ð°Ð½":10221,"ĠÐ¿Ð¾ÑģÑĤÐ°ÑĢÐ°Ð»ÑģÑı":10222,"ĠÐ¾ÑĩÐµÑĢÐµÐ´Ð½Ð¾Ð³Ð¾":10223,"ĠÐ½ÐµÐ±Ð¾Ð»ÑĮÑĪÐ°Ñı":10224,"ĠÐ´ÐµÐ¹ÑģÑĤÐ²Ð¸Ðµ":10225,"ĠÐłÐ¾ÑĥÐ·":10226,"ĠÐ¼Ð°Ð·":10227,"ĠÐ·Ð°ÑĪÑĳÐ»":10228,"ĠÐºÑĢÐ°ÑģÐ¾ÑĤ":10229,"ĠÐĶÐ¶ÐµÑģÑģÐ¸":10230,"Ð±Ð¸ÑĤ":10231,"ĠÐ¸ÑģÐ¿ÑĥÐ³Ð°Ð»Ð°ÑģÑĮ":10232,"ĠÑĢÑĥÑħÐ½ÑĥÐ»":10233,"ĠÐ¿ÑĢÐ¾ÑģÑĤÐ¸ÑĤÐµ":10234,"ĠÐŀÐ»ÐµÐ³":10235,"ĠÐ¼Ð¾Ð½Ð¾":10236,"ĠÐ¡ÑĤÐ°Ñģ":10237,"ĠÐ»ÑĥÑĩÐ¸":10238,"ĠÑģÐ¾ÐºÑĢÐ¾Ð²":10239,"ÑĢÑıÑħÐ½ÑĥÐ»":10240,"ĠÐ¿Ð¾Ð´Ð±ÐµÐ¶Ð°Ð»":10241,"ĠÐ¼ÑıÐ³ÐºÐ¸Ð¹":10242,"ĠÐ¿ÐµÑĢÐµÐ¼ÐµÑī":10243,"ĠÐ´Ð¾ÑĢÐ¾Ð³Ð°":10244,"ĠÐĶÐ¶Ñĥ":10245,"ĠN":10246,"ĠÐĳÑĢÑİÐ½ÐµÑĤ":10247,"ĠÐºÐ¾ÑĢÑĤÐ¾ÑĩÐºÐ¸":10248,"ĠÐ¤Ð¾ÑĢ":10249,"ĠÐ°ÑĥÐ´Ð¸":10250,"ĠÑİÐ½Ð¾ÑĪÑĥ":10251,"ĠÐ£ÑĤ":10252,"Ð½Ð¾ÐºÑĢÐ¾Ð²":10253,"ĠÑģÐ°Ð¼Ñĥ":10254,"ĠÑĢÐ°Ð·Ð¾ÑĪÐ»Ð¸ÑģÑĮ":10255,"ĠÑģÐºÐ¾ÑĢÐ¾ÑģÑĤÐ¸":10256,"ĠÐ¾ÑĤÑĢÑıÐ´Ð°":10257,"ĠÐ¡ÑįÐ¼Ð°":10258,"ĠÐ²Ð¾Ð·ÑĮÐ¼":10259,"ĠÐ¿Ð°ÑģÑģ":10260,"ĠÑĥÐ·Ð½Ð°Ñİ":10261,"ĠÐĶÐµÐ²Ð¾ÑĩÐºÐ°":10262,"ĠÐ¸Ð³ÑĢÐ°Ð»":10263,"ĠÑģÐ¾ÑĢÐ¾Ðº":10264,"ĠÐ»ÑĥÑĩÑĪÐ¸Ñħ":10265,"ĠÐ¿Ð¾ÐºÐ¾Ð½":10266,"ĠÐ¤Ð°ÑĢ":10267,"Ġo":10268,"ÑĩÐ¸Ð²ÑĭÐ¼":10269,"ĠÐŁÑĢÐ¾Ð±":10270,"ĠÐ¥Ñį":10271,"Ð½ÑĭÑĪÐºÐ¾":10272,"ÑİÐ¶":10273,"ĠÐ¿Ð¾Ð»Ð½ÑĭÐ¼":10274,"ĠÐĲÐ»ÑĮÐ±":10275,"ĠÑĥÑģÑĤÐ°Ð»Ð¾ÑģÑĤÑĮ":10276,"ÐµÐ·Ð´Ðµ":10277,"ĠÐ¾Ð±Ð»ÐµÐ³ÑĩÐµÐ½Ð½Ð¾":10278,"ĠÑĥÐ¼Ðµ":10279,"ĠÑĥÐ´ÐµÑĢÐ¶Ð°ÑĤÑĮ":10280,"ĠÐ¾Ð¼ÐµÐ³":10281,"ĠÑĦÑĢÑĥÐº":10282,"ĠÑģÐ»ÐµÐ´Ð¾Ð²":10283,"ĠÐ²ÑĭÐ³Ð»ÑıÐ´ÐµÐ»Ð¾":10284,"ÑĭÑģÐ¾Ðº":10285,"ÑĩÐ¸Ð»":10286,"ĠÐ²Ð¾Ð·Ð²ÑĢÐ°ÑīÐ°ÐµÑĤÑģÑı":10287,"Ð¸Ð»ÑĮÐ±Ð¾":10288,"Ð¾Ð³Ð¾Ð²Ð¾ÑĢ":10289,"ĠÐ¿ÑĢÐ°Ð²ÑĥÑİ":10290,"ĠÐ²ÑĢÐ°Ð¶":10291,"ĠÐ»ÐµÐ´ÑıÐ½Ð¾Ð¹":10292,"ĠÑģÐ¸Ð»ÑĮÐ½Ð°Ñı":10293,"ÐŁÑĢÐ¾ÑĪÐ»Ð¾":10294,"ĠÐŁÐ¾Ð¶Ð°Ð»ÑĥÐ¹":10295,"ĠÐ¢Ð°Ð¹Ð»":10296,"Ð»ÐµÐ½Ð½ÑĭÐ¼Ð¸":10297,"ĠÑģÑĤÐ°ÑĢÐ¾Ð³Ð¾":10298,"ĠÐĶÐµÐ¼":10299,"ÐĽÑİÐ±":10300,"ĠÐ½Ð°Ð»Ð¾Ð¶":10301,"ĠÐ¿ÑĢÐ¾Ð´Ð°Ð²":10302,"ĠÐ±Ð»Ñİ":10303,"ĠÐ¾Ð³ÑĢÐ¾Ð¼Ð½ÑĭÐµ":10304,"ĠÐ¿Ð¾ÑĥÐ´Ð¾Ð±":10305,"ĠÐ·Ð½Ð°ÐºÐ¾Ð¼ÑĭÐµ":10306,"ĠÑģÑĤÐµÐºÐ»Ð°":10307,"ĠÐ¿Ð¾Ð»ÑĥÑģ":10308,"Ð°Ð½ÑģÐ°":10309,"ĠÐ¼Ð°Ð³Ð°Ð·Ð¸Ð½Ð°":10310,"Ð§ÐµÑĢÑĤ":10311,"ÑĤÐ¸Ð½":10312,"ĠÑģÐ»Ð¾":10313,"ĠÐ±ÑĭÐ²ÑĪÐµÐ³Ð¾":10314,"ĠÑĥÐ±ÐµÐ´Ð¸ÑĤÑĮÑģÑı":10315,"ĠÐ¿Ð¾Ð´ÑģÑĤÑĥÐ¿":10316,"ĠÐ½Ð¾ÑĩÐ½Ð¾Ð¹":10317,"ĠÐ¾Ð³ÑĢÐ¾Ð¼Ð½ÑĭÐ¼":10318,"ĠÑģÐºÐµÐ¿ÑĤÐ¸":10319,"ĠÐ¿ÑĢÐ¾Ð¼ÐµÐ»ÑĮ":10320,"ĠÐ½ÐµÐ´Ð¾ÑĥÐ¼ÐµÐ½Ð½Ð¾":10321,"ĠÐ²ÑģÐºÐ¾ÑĩÐ¸Ð»Ð°":10322,"ĠÐ¿ÑĥÐ»ÑĮÑģÐ¸":10323,"ĠÐ¿Ð»Ð°Ð½Ðµ":10324,"ĠÐ¿ÐµÑĤÑĮ":10325,"ĠÑģÑĥÑħÐ¾":10326,"ĠÑģÐ°Ð¼Ð¾ÑģÑĤÐ¾ÑıÑĤÐµÐ»ÑĮÐ½Ð¾":10327,"ĠÐ¿Ð»Ð¾ÑħÐ¾Ð³Ð¾":10328,"ÑģÑĤÐ²ÐµÐ½Ð½Ð°Ñı":10329,"ĠÐ¿ÑĢÐ¾ÑģÐ¿":10330,"ĠÐ²ÑģÐºÐ¸Ð½ÑĥÐ»":10331,"ÑıÑĤÐ¸Ñı":10332,"ÑĥÑħÐ¸":10333,"ĠÐ¾Ð¿Ð¾Ð²":10334,"ĠÐ¾ÑĤÐ²ÐµÑĩÐ°Ñİ":10335,"ĠÐ±Ð¾ÑģÑģ":10336,"ĠÐ²ÑģÑĤÑĢÐµÑĤÐ¸ÑĤÑĮ":10337,"Ġ*":10338,"ĠÐ³ÑĢÐ¾Ð¼ÐºÐ¸Ð¼":10339,"Ð°ÑĢÐ°Ð½":10340,"ĠÐ¼Ð°Ð³Ð¸ÐµÐ¹":10341,"ĠÐĽÐ¸ÑĨÐ¾":10342,"ÐµÑĢÐ¾ÑĪ":10343,"Ð°ÐºÑĤ":10344,"Ġme":10345,"ÐµÐ½ÑģÐµÐ¹":10346,"ĠÐŁÐ¾Ð½ÑıÑĤÐ½Ð¾":10347,"ĠÐºÐ°Ð·Ð°Ð»Ð¸ÑģÑĮ":10348,"Ð°Ð½Ð½Ð¾ÑģÑĤÑĮ":10349,"ĠÐ¿Ð¾ÑģÐ¾Ð²ÐµÑĤ":10350,"ĠÐ¶Ð¸Ð²ÑĥÑĤ":10351,"ÑĢÐ¾ÑĩÐ¸Ð¼Ð°ÑĢÑĥ":10352,"Ð»ÐµÐ½Ð¾":10353,"ĠÐ¿Ð¾Ð³Ð¾":10354,"ĠÐ·Ð°Ð´Ð°":10355,"ĠÐ¿ÑĢÐ¾ÑģÐ¸Ð´":10356,"//":10357,"ĠÐ¿Ð¾Ð»Ð¾Ð²Ð¸Ð½Ð°":10358,"Ð¿Ð°ÑĢ":10359,"ĠÐ¼Ð¸Ð³Ð¾Ð¼":10360,"ÐĵÐ»Ð°Ð·Ð°":10361,"ĠÐ¿Ð¾ÑĪÑĥÑĤ":10362,"ÐĹÐ°ÑĩÐµÐ¼":10363,"ĠÐ·Ð°ÐºÐ¾Ð½ÑĩÐ¸Ð»ÑģÑı":10364,"ĠÐ¿ÐµÑģÐ½Ñı":10365,"ĠÐ¾ÑģÑĤÐ°Ð²Ð¸Ð»Ð¸":10366,"ĠÐ´Ð¾ÐºÐ°Ð·Ð°ÑĤÑĮ":10367,"ĠÐ±ÐµÐ»ÑĥÑİ":10368,"ĠÑģÐºÐ¾ÑĢÐ¾ÑģÑĤÑĮ":10369,"ĠÐ½Ð¸Ð³Ð´Ðµ":10370,"ĠÐ½ÐµÑĢÐµÑĪ":10371,"ĠÐºÑĢÑĥÑĤÐ¾":10372,"ĠÑģÐ¾Ð±Ð¸ÑĢÐ°Ð»Ð¸ÑģÑĮ":10373,"ĠÐļÑĥÑĢÐ¾ÐºÐ¾":10374,"ĠÑģÐ¸Ð»ÑĮÐ½Ð¾Ð¹":10375,"ĠÐłÐ¾Ðº":10376,"ĠÑĦÐ¾ÑĤÐ¾Ð³ÑĢÐ°ÑĦÐ¸":10377,"ĠÐ¼Ð°Ð¹ÐºÑĥ":10378,"Ġ?":10379,"ĠÑģÑĩÐ¸ÑĤÐ°Ñİ":10380,"ĠÐĲÐ¾Ð¼Ð¸Ð½Ðµ":10381,"ĠÐ®Ñĥ":10382,"ÑĢÐ°ÐµÐ¼":10383,"Ð¾Ð»Ð¾ÑģÑĭ":10384,"ĠÐĸÐµÐ»":10385,"ÑıÐ½Ð°":10386,"Ð¾Ð¿Ð¾Ð»ÑĥÑĩ":10387,"Ġ15":10388,"ĠÐ¶Ð°Ð´":10389,"ĠÐ¿Ð¾Ð¼Ð¾Ð³Ð»Ð°":10390,"ĠÐ»Ð¸Ð´ÐµÑĢ":10391,"ÑīÑĥÐ¿":10392,"ĠÐ¾ÑĤÐ¼Ð°ÑħÐ½ÑĥÐ»ÑģÑı":10393,"ĠÐ±ÐµÐ»Ð°Ñı":10394,"ĠÐ¼Ð°Ð»ÑĮÑĩÐ¸ÑĪÐºÐ¸":10395,"ĠÐ³ÑĢÐ°Ð´":10396,"Ð°Ð·Ð¼Ð¾Ð¼":10397,"ĠÐ¿Ð¾Ð·Ð´Ð¾ÑĢÐ¾Ð²":10398,"ĠÑĢÐ°Ð±Ð¾ÑĤÐ°Ð»":10399,"ĠÐ²Ð¸Ð½Ñĭ":10400,"...,":10401,"ĠÑĥÐºÐ°Ð·ÑĭÐ²Ð°Ñı":10402,"ĠÐ²Ð¾Ð»Ð½ÑĥÐµÑĤ":10403,"ĠÐ¿ÑĢÐ¸ÑħÐ¾Ð´Ð¸ÑĤÑĮ":10404,"ÐµÐ»ÐµÐ½Ð½Ð¾Ð¹":10405,"ĠÐ²Ð·Ð³Ð»ÑıÐ½ÑĥÑĤÑĮ":10406,"ĠÑĥÑģÐ½ÑĥÐ»Ð°":10407,"ĠÑĤÐµÑĢÑĢÐ¸ÑĤÐ¾ÑĢÐ¸Ð¸":10408,"ĠÐŁÐ°":10409,"ĠÐľÑįÑĤÑĤ":10410,"ÑıÐ½ÑĥÐ²":10411,"ĠÐ¿Ð¸Ð´Ð¶Ð°Ðº":10412,"ĠÐľÐ¼Ð¼":10413,"ÑĥÑİÑīÐ¸Ð¼":10414,"ĠÐ±ÐµÐ»ÑĮÐµ":10415,"Ð¾ÑĩÐ½ÑĭÐ¹":10416,"Ð´ÐµÑĨ":10417,"ĠÑĤÑĢÑĳÑħ":10418,"ĠÐ´ÑĭÑĪÐ°Ð»":10419,"ĠÑģÑĤÐ°ÑĢÐ¾Ð¹":10420,"ĠÑģÐ²Ð¾Ð±Ð¾Ð´Ñĥ":10421,"ĠÐ½ÑĢÐ°Ð²Ð¸Ð»ÑģÑı":10422,"ĠÐ»ÑİÐ±Ð¾Ð¿ÑĭÑĤÑģÑĤÐ²Ð¾Ð¼":10423,"ĠÐ·Ð°Ð¼ÐµÑĢÐ·":10424,"ĠÑģÐ½ÑıÐ»Ð°":10425,"ĠÐ¼ÑĥÐ¶Ð¸Ðº":10426,"Ð°Ð³Ð°":10427,"Ð¸Ð´Ð°Ð½":10428,"ÑģÑĤÐ²ÐµÐ½Ð½Ð¾Ð³Ð¾":10429,"ĠÐ´Ð¾ÑģÐ¿ÐµÑħ":10430,"ĠÐ¿ÐµÑĢÐµÐ¶Ð¸Ð²":10431,"ĠÐ¿ÐµÑĢÐµÐºÐ»ÑİÑĩ":10432,"ÐµÐ½ÑĤÑĥ":10433,"ĠÐ¢Ð¾Ð½":10434,"ĠÐ¡ÑĤÐ°Ð¹Ð»Ð·Ð°":10435,"ĠÐ¿ÑĢÐµÐ´Ð½Ð°Ð·Ð½Ð°Ñĩ":10436,"ÐŀÐº":10437,"ĠÐ±Ð°ÑĢÐ°Ð±":10438,"ĠÐºÐ°ÑĦ":10439,"ĠÐ¿Ð¾ÐºÐ°ÑĤ":10440,"ĠÑĢÑı":10441,"ĠÐ²Ð³":10442,"ĠÑģÐ¾Ð±Ð¸ÑĢÐ°ÑĤÑĮ":10443,"ĠÐ¿ÑĢÐ¾ÑħÑĢÐ¸Ð¿":10444,"ĠÐĶÐ°Ð»ÑĮÑĪÐµ":10445,"ĠÐ²Ð°Ð·":10446,"ĠÐ»ÐµÐ³ÐºÐ¸Ð¼":10447,"ĠÐ¾ÑĩÐ½ÑĥÐ»ÑģÑı":10448,"Ð½Ð¸ÐºÐ°Ñħ":10449,"ĠÑģÑĢÐ¾Ðº":10450,"ĠÐ¿Ð¸ÑĨ":10451,"ĠÑģÐ¼Ð°Ñħ":10452,"ĠÐĹÐ¾ÑĢÐ¾":10453,"ĠÑģÑĤÐ°Ð»Ðº":10454,"ĠÐ¿Ð¾Ð¼ÐµÑīÐµÐ½Ð¸Ð¸":10455,"ĠÑĥÑĤÐºÐ½ÑĥÐ²ÑĪÐ¸ÑģÑĮ":10456,"ĠÐ´ÐµÑĤÑĮÐ¼Ð¸":10457,"ĠÐłÐ¾ÑģÑģ":10458,"nd":10459,"ÐµÑģÐ»Ð¸":10460,"ĠÐ¿ÑĢÐ¾ÑĪÐµÐ´":10461,"ĠÑĤÐµÐ¼Ð½Ð¾ÑĤÑĥ":10462,"ĠÐ¿ÑĢÐ¾ÑģÑĤÐ¾Ð½Ð°Ð»":10463,"ĠÐ¿ÑĢÐ¸Ð²ÑĭÐºÐ½ÑĥÑĤÑĮ":10464,"ĠÐ³ÐµÑĢÐ¾Ð¹":10465,"ĠÐºÐ¾ÑģÑĤÑİÐ¼Ðµ":10466,"ĠÐ¾Ð³Ð¾ÑĢ":10467,"ĠÐŃÐ»Ð¸Ð·":10468,"Ð½Ð¸Ð½":10469,"ĠÑģÐ»ÑĳÐ·":10470,"ĠÑħÐ»ÐµÐ±":10471,"ĠÐ¿ÑĢÐ¸ÐºÑĢÑĭÐ²Ð°Ñı":10472,"ĠÐ¿ÐµÑĪ":10473,"Ð¾ÑĩÐºÐ°Ð¼Ð¸":10474,"ĠÐ¿Ð°Ð»ÑĮÑĨÐ°":10475,"ĠÐ¿ÑĢÐ¾ÑģÑĤÐ¸ÑĤÑĮ":10476,"ĠÐľÐ¸ÑĪÐ°":10477,"ĠÐ¿Ð¾Ð±Ð¾Ð»ÑĮÑĪÐµ":10478,"ĠÐ¼Ð°Ð»ÐµÐ½ÑĮÐºÐ¸Ð¼":10479,"ĠÐ½ÐµÐ¶ÐµÐ»Ð¸":10480,"ĠÐ¾Ð·Ð²ÑĥÑĩ":10481,"ĠÐ¾Ð±ÑĭÑĩÐ½Ð¾Ð³Ð¾":10482,"ĠÐ¸Ð·Ð´Ð°Ð²":10483,"Ð³Ð¾Ð½":10484,"ĠÐ´ÐµÐ»Ð°Ð¼":10485,"ĠÐ£Ð¸Ð»Ð»":10486,"ĠÑģÐµÑĢÑĭÐµ":10487,"ĠÐºÐ°Ð½Ð¸":10488,"ĠÐ¿Ð¾Ð¾Ð±ÐµÑīÐ°Ð»":10489,"ĠÐ¨Ð¸ÐºÐ°Ð¼Ð°ÑĢÑĥ":10490,"ĠÐļÐ¾ÑĢÐ¾Ð»ÑĮ":10491,"ĠÐ¿Ð°ÑĢÐºÐµ":10492,"ĠÐ´ÑĢÐ°Ð·":10493,"ĠÑĤÐ¾ÑĢÐ³Ð¾Ð²":10494,"Ð¿ÑĢÐ°Ð²":10495,"ĠÐ¿ÑĢÐ¸Ð·ÑĢ":10496,"ÑĨÐ¸ÑıÐ¼Ð¸":10497,"ÑĥÑīÐ¸Ð¹":10498,"ĠÐ§ÑĥÐ½":10499,"ĠÐ³Ð¾ÑĢÑĮÐºÐ¾":10500,"ĠÐĴÑģÐµÐ¼":10501,"ĠÐ½Ð°Ð¿ÑĢÑıÐ³ÑģÑı":10502,"ÐĽÑĥÐ¸":10503,"ĠÐ¿Ð¾Ð¼Ð½Ð¸Ð»Ð°":10504,"ĠÑĥÑĤÐºÐ½ÑĥÐ»ÑģÑı":10505,"ĠÐ¼ÑĳÑĢÑĤÐ²":10506,"ĠÐ·Ð°Ð³Ð¾Ð²Ð¾ÑĢ":10507,"ĠÐ¿Ð¾Ð»Ð·":10508,"Ð²Ð¾Ð±Ð¾Ð´":10509,"ĠÐ¿ÑĥÑĪÐ¸ÑģÑĤ":10510,"ĠÐ½ÐµÐ²Ð·":10511,"ĠÐ¾Ð±Ð¾Ð´":10512,"ĠÐ¡Ð»ÑĭÑĪ":10513,"ĠÐ¿ÑĢÐ¸Ð´ÑĥÑĢ":10514,"ĠÐ°Ð²ÑĤÐ¾ÑĢ":10515,"Ġp":10516,"ĠÑĥÐ¶Ð°ÑģÐµ":10517,"ĠÑĪÐ¸ÑĢÐ¾ÐºÐ¾Ð¹":10518,"ĠÐ¿Ð¾Ð´Ð»ÐµÑĤ":10519,"Ð°Ð²ÑĪÐµÐ¹":10520,"ĠÑģÑĨÐµÐ½Ðµ":10521,"ĠÐ±Ð¾Ð»ÑĮÑĪÐ¸Ð¼Ð¸":10522,"ĠÑģÐµÑĢÐµÐ´Ð¸Ð½Ðµ":10523,"ĠÐ±ÐµÑĢÐµÐ³":10524,"ĠÐ¿ÑĢÐµÐ´ÑĩÑĥÐ²ÑģÑĤÐ²":10525,"ĠÐ¸Ð¼ÐµÐµÑĪÑĮ":10526,"ÑģÑĤÐ¾Ð¼":10527,"Ð°Ð¼Ð¾ÑĤÐ¾":10528,"Ð°Ð´Ð°Ð¼":10529,"ÑģÑĤÐ¸Ðº":10530,"ĠÐºÐ°Ð¼ÐµÑĢÑĥ":10531,"ĠÑĥÐ·Ð½Ð°Ð»Ð¸":10532,"ĠÐ²ÑĢÐ°Ð³Ð¾Ð²":10533,"Ð¸Ð¼Ð¾Ð³Ð¾":10534,"ĠÑģÑĩÑĳÑĤ":10535,"Ð¿ÑĢÐ¸":10536,"ĠÐ½Ð°ÑĩÐ°Ð»ÑģÑı":10537,"ĠÐ¿Ð¾Ð¿ÑĢÐ¾Ñģ":10538,"ĠÑĢÐµÐ±ÐµÐ½ÐºÐ¾Ð¼":10539,"ĠÑĤÑĢÐ¾Ð½":10540,"ĠÐ¿Ð¾Ð´Ð±ÐµÐ¶Ð°Ð»Ð°":10541,"ĠÑģÑĭÐ½Ð¾Ð¼":10542,"ĠÐ¿ÑĢÐ¸Ð½Ð°Ð´Ð»ÐµÐ¶Ð¸ÑĤ":10543,"\"-":10544,"ĠÐŁÑĢÐ¸Ð²":10545,"ĠÐ¸Ð³ÑĢÐ¸Ð²":10546,"ĠÐ¡Ð°Ð»ÑĮ":10547,"ĠÐļÐ°Ð¿Ð¸ÑĤÐ°Ð½":10548,"ĠÐ²ÑıÐ·":10549,"ĠÑĤÐµÐ¼Ñĭ":10550,"ĠÐ²ÑĢÐµÐ¼ÐµÐ½":10551,"ĠÐ½ÐµÐ´Ð¾Ð²ÐµÑĢÑĩÐ¸Ð²Ð¾":10552,"ĠÐ´ÐµÐ¶ÑĥÑĢ":10553,"ĠÑģÐ¾Ð±ÑĢÐ°Ð²":10554,"ĠÑģÑĤÐ¾Ð»Ð¾Ð²Ð¾Ð¹":10555,"ĠÑĢÐ°Ð·Ð²ÑıÐ·":10556,"ĠÐ¼ÐµÑĤÐ°Ð»":10557,"ĠÐ¿ÑĭÐ»Ð¸":10558,"ĠÐ³Ð¾ÑģÑĤÑı":10559,"ĠÐ¿Ð¾ÑĤÐ°ÑīÐ¸Ð»":10560,"ĠÐĴÑģÑĤÐ°Ð²":10561,"ĠÐ¢Ð°ÐºÐ¸Ðµ":10562,"ĠÑĥÑģÐ¼ÐµÑħÐ°ÐµÑĤÑģÑı":10563,"ĠÐ¿Ð¾Ð¼ÐµÑīÐµÐ½Ð¸Ñı":10564,"ĠÑĪÐ°Ð¼Ð¿":10565,"ĠÐ¾Ð±ÑĥÐ²":10566,"ĠÐ¾ÑĪ":10567,"ĠÑģÐ¿Ð¸ÑĪÑĮ":10568,"ĠÐ¾ÑģÐµÐ½":10569,"Ð¸Ð·Ð°":10570,"ĠÐ¼ÐµÐ»ÐºÐ¸Ðµ":10571,"ĠÐºÐ¾Ð½ÑĤÑĢÐ°Ðº":10572,"ĠÐĿÐ°Ð¿ÑĢÐ¸Ð¼ÐµÑĢ":10573,"ĠÐ¼Ð°Ð»ÐµÐ½ÑĮÐºÐ¸Ñħ":10574,"ÐµÐ²Ð¸Ñĩ":10575,"ĠÐ¿Ð¾ÑħÐ¸ÑĤ":10576,"Ð°Ð»ÑĮÑĨÑĭ":10577,"ĠÐ½ÐµÐ¼Ð°Ð»Ð¾":10578,"ĠÑĤÐµÐ»ÐµÐ¿":10579,"ĠÐĳÑĢÐ°ÑĤ":10580,"ĠÐ½Ð°ÑĢ":10581,"ĠÑĥÐ¿ÑĢÑıÐ¼Ð¾":10582,"ĠÐ·Ð¾Ð»Ð¾ÑĤÐ¸ÑģÑĤ":10583,"ĠÐ¼Ð°Ð»ÑĮÑĩÐ¸ÑĪÐºÑĥ":10584,"ĠÐ¾ÑĤÐºÑĢÐ¾":10585,"ĠÑĥÐ´Ð¸Ð²Ð»ÐµÐ½Ð¸Ñİ":10586,"ĠÑģÐºÑĥÑĩÐ°Ð»":10587,"ĠÐŁÐµÑĢÑģÐ¸":10588,"ĠÐ²Ð¾ÑģÑħÐ¸ÑĤ":10589,"ĠÑħÐ°Ð»Ð°ÑĤ":10590,"ÑĩÐµÐ½":10591,"ĠÐ¾ÑĢÐ³Ð°Ð½Ð¸Ð·Ð°":10592,"Ð°Ð»ÑĮÐ½ÑĭÐ¼Ð¸":10593,"ĠÑĢÑĥÐ±Ð°ÑĪÐºÐ°":10594,"ÑĤÑĮÑİ":10595,"ĠÐ±Ð¾Ð¼":10596,"ĠÐ²ÐµÑĪ":10597,"ĠÑĢÐ°Ð·Ð²Ð°Ð»":10598,"ĠÐ¼Ð¾ÑĢÐ¾Ð¶ÐµÐ½":10599,"ĠÐĽÐµÐ´Ð¸":10600,"ĠÐ·Ð°Ð¼ÐºÐµ":10601,"ĠÐ´Ð¾ÐºÑĤÐ¾ÑĢÐ°":10602,"ĠÐ¿ÑĢÐ¾Ð²Ð¾Ð´Ñı":10603,"ĠÐ²Ð¾Ðº":10604,"ĠÑĢÐ°ÑģÐ¿Ð»Ñĭ":10605,"ĠÑĪÐºÐ°ÑĦÐ°":10606,"ĠÑģÑĤÑĢÐ°Ð½Ñĭ":10607,"ĠÐŃÐº":10608,"ĠÐ²Ð°Ð¼Ð¿Ð¸ÑĢÐ¾Ð²":10609,"ĠÑħÐ¾ÑĢÐ¾ÑĪÐ¸Ðµ":10610,"ĠÐ¿Ð¾Ð»Ð³Ð¾Ð´Ð°":10611,"ĠÐ¾Ð±Ð»Ð¾Ð¼":10612,"ĠÐ¾Ð´Ð½Ð¸Ñħ":10613,"ĠÑĥÐ³Ð»ÑĥÐ±":10614,"ĠÐ³ÑĢÑĥÐ´ÑĮÑİ":10615,"ÑĤÐ°Ð½Ð°":10616,"ĠÑĥÐ´Ð°ÑĢÐ¾Ð¼":10617,"ĠÐºÐ¾Ð»Ð´Ñĥ":10618,"ĠÐ¾ÑĤÑĢÑĭÐ²Ð°ÑıÑģÑĮ":10619,"Ð¼Ð¾ÑĢ":10620,"ĠÑĦÐ°Ð¼Ð¸Ð»Ð¸":10621,"ĠÐ¿Ð¾Ð´Ð¾Ð±Ð½Ð¾":10622,"ĠÐ±Ð¾Ð»ÑĮÑĪÐµÐ¹":10623,"ĠÐºÑĥÐ¿Ð¸Ð»":10624,"ĠÑįÐ»ÐµÐ¼":10625,"ĠÐ¢Ð°ÐºÐ°Ñı":10626,"Ð¸Ð»Ð¾Ð¼ÐµÑĤ":10627,"ĠÐ½Ð°Ð¿Ð¸ÑģÐ°Ð»":10628,"ĠÐ¿ÑĢÐ¸Ð¶Ð°Ð²":10629,"ÐĽÐĲ":10630,"ĠÑģÑĤÐ°ÑĢÐ°ÐµÑĤÑģÑı":10631,"ÑģÐ¸Ñı":10632,"ÐºÐ¸Ð´ÑĭÐ²Ð°Ñı":10633,"ÐĶÐ¾Ð±":10634,"ĠÐľÐµÐ¶Ð´Ñĥ":10635,"ĠÐ°Ð½Ð³ÐµÐ»Ð°":10636,"ĠÐ±ÑĥÐºÐµÑĤ":10637,"ĠÐ¿Ð¾ÑģÐ»ÑĭÑĪÐ°Ð»Ð¾ÑģÑĮ":10638,"ĠÐłÐ¾Ð´Ð¶ÐµÑĢ":10639,"ĠÐ±ÐµÐ¶Ð°Ð»":10640,"Ð´Ñį":10641,"ÐµÑĢÑĮÑĳÐ·":10642,"ĠÑħÐ¼ÑĥÑĢÐ¾":10643,"ĠÐ²Ð¿Ð¸Ð»ÑģÑı":10644,"ĠÑįÐºÑĢÐ°Ð½Ðµ":10645,"ĠÐ±Ð¾ÑĢÐ¼":10646,"ĠÐ²ÐµÐ»Ð°":10647,"ĠÐĸÐµÐ½Ñı":10648,"ÐºÐ½ÑĥÐ»Ð¸ÑģÑĮ":10649,"ĠÑĤÑĥÑĢ":10650,"ĠÑģÑĩÐ¸ÑĤÐ°Ð»Ð°":10651,"Ð°Ð½Ð¾Ð²Ð¾":10652,"ĠÑĥÑĤÐ¾":10653,"ÐµÐ²Ð¾Ð¶":10654,"ĠÑģÐ¼Ð¾ÑĤÑĢÐ¸ÑĪÑĮ":10655,"ĠÐ¤ÐµÑĢ":10656,"ĠÐ¿Ð¾ÑĢÑĤÑĢ":10657,"ĠÑģÐ¾Ð±ÐµÑģÐµÐ´Ð½Ð¸ÐºÐ°":10658,"ĠÑģÐ»Ð¾Ð¶Ð½ÐµÐµ":10659,"ĠÐ¿Ð¾Ð´ÑģÐºÐ¾ÑĩÐ¸Ð»":10660,"\"!":10661,"ĠÐĹÐµÐ¹Ð½Ð°":10662,"Ð·Ð°ÑīÐ¸ÑĤ":10663,"ĠÐĳÐµÑģ":10664,"ĠÐ´Ð°Ð²Ð°Ð»Ð¸":10665,"ĠÐ¿ÐµÑĢÐ¸Ð¾Ð´Ð¸ÑĩÐµÑģÐºÐ¸":10666,"Ð½Ð°ÑģÐ¸Ð»":10667,"ĠÐ¿ÑĢÐ¾Ð³Ð¾":10668,"ĠÐ¿ÑĢÐ¸ÐµÑħÐ°Ð»Ð°":10669,"ĠÑģÐ¾Ð¿ÑĢÐ¸Ðº":10670,"ĠÑģÐ¿Ð¸ÑģÐ¾Ðº":10671,"ĠÐ¾ÑģÐ¼Ð¾ÑĤÑĢÐµÐ»":10672,"ĠÑĢÐ°Ð·Ð¾ÑĢ":10673,"ĠÐ¶ÐµÐ½ÑģÐºÐ¸Ð¹":10674,"ĠÐ½Ð°Ð³ÑĢÐ°Ð´":10675,"ĠÐ¾ÑĤÐ²ÐµÑģÑĤÐ¸":10676,"ĠÐ·Ð²Ð¾Ð½Ð¸Ð»":10677,"ĠÑģÐºÑĢÐµÑģÑĤÐ¸Ð²":10678,"Ð¨ÐµÑĢÐ»Ð¾Ðº":10679,"ĠÑĩÑĳÑĢÑĤÐ¾Ð²":10680,"ĠÐļÑĥÑĢÑĤÐ°":10681,"ÐµÐ³Ð°Ð»":10682,"ĠÐŃÐ¼Ð¸":10683,"ÑĥÐ±Ð¸Ð¹":10684,"ĠÑıÐ¹":10685,"ĠÐľÐ½Ð¾Ð³Ð¾":10686,"ĠÐ·Ð½Ð°Ð½Ð¸Ñı":10687,"ĠÐ³Ð°Ð»ÑģÑĤ":10688,"ĠÑģÑĤÑĢÐ°Ð½Ð½Ð¾Ð³Ð¾":10689,"ĠÐ·Ð°Ð¾ÑĢÐ°Ð»":10690,"Ð»ÑıÐ¼Ð¸":10691,"ĠÐ¿Ð¸Ð¶":10692,"Ð¸Ð´Ðµ":10693,"ĠÐĶÐ¸Ð¿Ð¿":10694,"ĠÐļÐ¾Ð¼Ñĥ":10695,"ĠÑĤÐ¾ÑĪÐ½Ð¾":10696,"ĠÐ¿ÑĢÐ¸ÑģÑĥÑĤÑģÑĤÐ²ÑĥÑİÑīÐ¸Ñħ":10697,"Ð´ÐµÑĢÐ¶":10698,"ĠÐľÐ¾Ðµ":10699,"ĠÐ¿ÐµÑĢÐµÑĥÐ»":10700,"ĠÐ¾ÑĤÐºÐ¸Ð½ÑĥÐ»ÑģÑı":10701,"ĠÐ´Ð»Ð¸":10702,"ĠÐ±ÐµÐ·Ð·Ð°Ð±Ð¾ÑĤ":10703,"Ð½Ð°Ð¼":10704,"ĠÐ¼Ð°Ñı":10705,"ĠÐ¾Ð±ÑıÐ·Ð°":10706,"ĠÐ´Ð¸Ðº":10707,"ÐŁÐ¾Ð»":10708,"ĠÐ¿Ð¾Ð¼Ð¸Ð¼Ð¾":10709,"ĠÐ³Ð¸Ð¿":10710,"ĠÑģÑĤÑĢÐ°ÑģÑĤÐ½Ð¾":10711,"ĠÐ¿ÑĢÐ¸Ð¾Ð±ÑĢ":10712,"ÑĤÐ¸ÑĢÐ¾Ð²":10713,"ĠÐĳÐ¸Ð±":10714,"ĠÐĴÐµÑĢÐ½Ð¾":10715,"ĠÑĤÐ²Ð¾ÑĢÐ¸ÑĤÑģÑı":10716,"ĠÑģÐ»Ð¾Ð²Ñĥ":10717,"ĠÐ¿Ð¾Ð´Ð¾Ð±Ð½ÑĭÑħ":10718,"ĠÐĳÑĥÐ´ÐµÑĤ":10719,"ĠÐ±ÐµÑģÐ¿Ð¾ÑĢÑıÐ´":10720,"ĠÐ»Ð¸ÑĪÐ½Ð¸Ð¹":10721,"ĠÐ¿ÑĢÐ¾ÑĦÐµÑģÑģÐ¸Ð¾Ð½":10722,"ĠÐļÐ¾ÑģÑĤ":10723,"ĠÐ½Ð°Ð·ÑĭÐ²Ð°ÐµÑĤÑģÑı":10724,"ĠÐ»ÑİÐ±Ð¸Ð¼ÑĭÐ¼":10725,"ĠÐ¿Ð¾Ð´ÑĢÑĥÐ³Ð¾Ð¹":10726,"ĠÑįÐ¿":10727,"ĠÐ´ÐµÑĢÐ½ÑĥÐ»ÑģÑı":10728,"ĠÐ·Ð°ÑģÑĤÑĭÐ»Ð°":10729,"ĠÑģÑĤÑĢÐ°ÑģÑĤÐ¸":10730,"ĠÑĢÐ°ÑģÐ¿Ð»Ð°":10731,"ĠÐ·Ð°ÑĤÐµ":10732,"ĠÐ¿Ð¾Ð³Ð°Ñģ":10733,"Ð½ÐµÐº":10734,"ĠÐ£Ð¾Ð»":10735,"!\",":10736,"Ð°Ð´Ð¸Ð¼":10737,"ĠÐ¾ÑĦÐ¸ÑĨÐ¸Ð°Ð½ÑĤ":10738,"ĠÑĢÐ°Ð·Ð±ÐµÑĢ":10739,"ĠÐĴÑĭÐ¿":10740,"ĠÑĤÐ°ÑĤÑĥÐ¸ÑĢÐ¾Ð²":10741,"ĠÑĤÐµÑģÑĤ":10742,"ĠÐ±ÑĢÑĭÐ·":10743,"ĠÐ·Ð°ÑģÑĤÐ°Ð²Ð¸Ð»Ð¸":10744,"ÑĥÑĪÐµÐº":10745,"ĠÑģÐ¾ÑģÑĤÐ¾ÑıÐ½Ð¸Ñı":10746,"ÐķÐ¼Ñĥ":10747,"ĠÐĹÐ°Ð½Ð·Ð°Ñģ":10748,"ĠÑģÐ±ÐµÐ¶Ð°Ð»":10749,"ĠÑĢÐ°Ð·Ð»ÐµÑĤ":10750,"ĠÑĥÑĤÐ¾Ð¿":10751,"ĠÐ¾ÑĤÐ²Ð»ÐµÑĩÑĮÑģÑı":10752,"ÑĥÐ³Ð°":10753,"ĠÑĢÐ°ÑģÐ¿Ð¾ÑĢ":10754,"ĠÐ±ÑĥÐ´ÑĥÑīÐµÐ³Ð¾":10755,"Ð¾ÐºÐµÑĢ":10756,"ÐµÑĤÐºÐ°":10757,"ĠÐ¡ÐºÐ°Ð¹":10758,"ÐŁÐ¾Ð¼":10759,"ĠÐ¿Ð¾ÑĤÑĢ":10760,"ĠÐģÐ½":10761,"ÐĹÐ°ÑĤ":10762,"ÑıÐ½ÐµÑĤÑģÑı":10763,"ĠÑĩÐµÐ¼Ð¾Ð´Ð°Ð½":10764,"ĠÐºÐ¾Ð»Ð»ÐµÐº":10765,"ĠÑģÐ´ÐµÐ»Ð°ÐµÑĪÑĮ":10766,"ÐĴÐµÑĩ":10767,"ĠÑģÐ²Ð¸Ð´Ð°Ð½Ð¸Ñı":10768,"ĠÑĢÐ°Ð±Ð¾ÑĤÐ¾Ð¹":10769,"ĠÐ´Ð¾ÑĢÐ¾Ð³Ð¾":10770,"ĠÐ²Ð¾ÑĢÐ¾ÑĤÐ°":10771,"ĠÑĢÑĥÐºÐ¾":10772,"ĠÑģÑĤÑĢÐ°Ð½Ð½Ð¾Ð¹":10773,"ĠÐ¥Ð°Ð¼":10774,"ĠÐ¾Ð±ÑģÑĥÐ¶Ð´Ð°Ð»Ð¸":10775,"Ð»ÑİÑĩÐ¸Ð²":10776,"ĠÐ´Ð»Ð¸Ð½Ð½ÑĭÐ¹":10777,"ĠÐ·Ð°ÑģÑĤÑĭÐ²":10778,"ĠÐ°ÑĢÐ¸ÑģÑĤÐ¾Ðº":10779,"ĠÐ¸ÑģÐºÐ»ÑİÑĩÐ¸ÑĤÐµÐ»ÑĮÐ½Ð¾":10780,"ĠÐ¿Ð¾ÑĢÐ°Ð´":10781,"ĠÐ²ÑĢÑĥÑĩ":10782,"ĠÑĢÑĥÐºÐ¾Ð²Ð¾Ð´":10783,"ĠÐ½Ð°Ð¿Ð¾Ð¼Ð½Ð¸Ð»":10784,"ÐºÐ¾ÑģÑĤÑĮÑİ":10785,"ĠÐ¿ÑĢÐ¸ÑĤÑıÐ³":10786,"ĠÐľÐµÐ³":10787,"ĠÐ±ÐµÑģÑĪ":10788,"ĠÑĩÑĮÑı":10789,"ĠÑģÐ¾ÑħÑĢÐ°Ð½Ð¸ÑĤÑĮ":10790,"ĠÐ²Ð·Ð´Ð¾ÑħÐ¾Ð¼":10791,"ĠÐ¾ÑģÐ¾Ð±Ð¾Ð³Ð¾":10792,"ĠÐ²ÑģÑĤÐ°Ð»Ð¸":10793,"ÑģÐ¾":10794,"ĠÐ²Ð¾ÑģÐ¿Ð¾Ð»ÑĮÐ·Ð¾Ð²Ð°ÑĤÑĮÑģÑı":10795,"ĠÐĲÐ´ÑĢÐ¸Ð°Ð½":10796,"ĠÐ¼Ð¾ÑĢÐ¾Ð·":10797,"ĠÐ¿Ð¾ÐºÑĥÑģ":10798,"ĠÐ²ÑĭÐ·Ð²Ð°ÑĤÑĮ":10799,"ÑħÑĳÐ½Ð°":10800,"ĠÑģÑĭÐ½Ñĥ":10801,"ĠÐ²ÑĭÐ´ÑĭÑħÐ°ÐµÑĤ":10802,"ĠÐ¾ÑĤÐ²ÐµÐ»":10803,"ÑĩÐ¸ÑģÑĤ":10804,"ĠÐ±ÐµÐ»Ð¾Ð³Ð¾":10805,"ĠÐ´ÐµÐ±":10806,"Ð¼ÑĭÐ³":10807,"ĠÐ½ÐµÐ¿ÑĢÐ¾Ð¸Ð·Ð²Ð¾Ð»ÑĮÐ½Ð¾":10808,"ĠÐ²Ð·ÑĬÐµÑĢÐ¾ÑĪ":10809,"ĠÐ¡Ð¸ÑįÐ»ÑĮ":10810,"Ð´Ð¸ÑĢÐ°":10811,"ĠÐ¿Ð»ÐµÑĩÐ°Ñħ":10812,"ĠÐ²Ð¾Ð»Ð¾ÑģÐ°Ñħ":10813,"ĠÐ»ÑİÐ±Ð¾Ð¿ÑĭÑĤÑģÑĤÐ²Ð¾":10814,"ĠÑģÐ¾Ð³Ð»Ð°ÑģÐ½Ð°":10815,"ÐµÑĢÐ´":10816,"ĠÐļÐ°Ð³Ð°Ð¼Ð¸":10817,"ĠÐ±Ð¾ÑĢÐ¼Ð¾ÑĤ":10818,"ĠÐļÑĢÐ¸ÑģÑĤÐ¸Ð½Ð°":10819,"ĠÐ·Ð»Ð¸ÑĤÑĮÑģÑı":10820,"ĠÐ·Ð°Ð¿ÐµÑĩÐ°ÑĤ":10821,"ĠÐ·Ð°ÑģÐ½ÑĥÑĤÑĮ":10822,"ÑĤÐ¸ÐºÐ°":10823,"ĠÑĥÐ½Ñĭ":10824,"ĠÐ²ÐµÑĢÑı":10825,"ĠÐ½Ð°ÑĢÑĥÑĩ":10826,"ÑĳÐ½Ð½Ð¾Ð¹":10827,"ĠÐ²ÑĭÑģÐ¾ÐºÐ¾":10828,"Ð½ÐµÑĨÑĭ":10829,"ĠÐ´Ð¾Ð³Ð°Ð´Ð°Ð»ÑģÑı":10830,"ĠÑģÐ³Ð¾":10831,"ĠÑħÐ¾Ð»Ð¾Ð´Ð½ÑĭÐµ":10832,"ĠÑĥÐ´Ð°ÑĢÑĭ":10833,"ĠÐ¿Ð¾Ð±ÐµÐ¶Ð°Ð»Ð¸":10834,"ĠÐ±Ð¾Ð»ÑĮÑĪÐµÐµ":10835,"ĠÐ²Ð¾Ð»Ð½Ð¾Ð²Ð°Ð»Ð¾":10836,"Ð¾Ð´Ðµ":10837,"ÑĢÐ°Ð½ÑĨÑĥ":10838,"Ð»Ð¸Ð²Ð¾Ð³Ð¾":10839,"ĠÐļÐ¸ÑĤÐ½Ð¸ÑģÑģ":10840,"ĠÐ²ÐºÑĥ":10841,"Ð°Ð²ÑĪÐ¸ÐµÑģÑı":10842,"ĠÐ¢Ð°Ð½":10843,"ĠÐ½ÐµÐ½Ð°Ð²Ð¸Ð´Ð¸ÑĤ":10844,"ĠÐ®Ð¸":10845,"Ð°Ð²ÑĪÑĥÑİ":10846,"ĠÐ·Ð°Ð¿Ð¸ÑģÐºÑĥ":10847,"ĠÐ¡ÐºÑĥÐ°Ð»Ð¾":10848,"ĠÑĥÐ±ÐµÐ´Ð¸ÑĤÑĮ":10849,"Ð½Ð¾Ñİ":10850,"ĠÐ¾Ð±ÐµÑģÐ¿ÐµÑĩ":10851,"ÐŁÐ¾Ð²":10852,"ĠÐ²ÑĢÐ°ÑĤÑĮ":10853,"ÑģÐºÐ¸Ð¼Ð¸":10854,"ĠÐ±ÐµÑĪÐµÐ½Ð¾":10855,"ĠÐ¶Ð¸Ð´ÐºÐ¾ÑģÑĤÑĮ":10856,"ĠÐ³ÐµÐ¹":10857,"Ð¸ÑĢÐ¸":10858,"ĠÐ½Ð°Ð¿Ð¾Ð»Ð½Ñı":10859,"ĠÑĥÑħÐ¼ÑĭÐ»ÐºÐ¾Ð¹":10860,"ic":10861,"ĠÐ·Ð°Ð±Ð°Ð²Ð½Ð¾":10862,"Ð¾Ð´Ð¾Ð±":10863,"ĠÐ½ÐµÐ´ÐµÐ»Ñı":10864,"ĠÐ²ÑĭÑĪ":10865,"ĠÐ´ÐµÑĢÐ¶Ð°ÑģÑĮ":10866,"ĠÑĥÑĤÐ¾ÑĩÐ½Ð¸Ð»":10867,"ĠÐŃÑĪÐ»Ð¸":10868,"ĠÐ¿Ð¾Ð³Ð»ÑıÐ´ÑĭÐ²Ð°Ñı":10869,"ĠÐ´Ð²Ð°Ð´ÑĨÐ°ÑĤÐ¸":10870,"ĠÐ·Ð°ÐºÐ¾Ð½ÑĩÐ¸Ð»Ð°ÑģÑĮ":10871,"ĠÐ¾ÑĪÐ¸Ð±ÐºÑĥ":10872,"Ð½ÐµÑĢ":10873,"ĠÑģÐ¼ÐµÑĢÑĤÑĮÑİ":10874,"ĠÐ»Ð±Ð°":10875,"ĠÐ¿ÑĥÐ³Ð¾Ð²Ð¸":10876,"ĠÐ±ÐµÑĢÐµÐ¶Ð½Ð¾":10877,"ĠÑģÐ¾Ð±ÑģÑĤÐ²ÐµÐ½Ð½ÑĥÑİ":10878,"ĠÑĤÑıÐ¶ÐµÐ»ÑĭÐ¹":10879,"ĠÐ¿ÑĢÐµÐ³ÑĢÐ°Ð´":10880,"ĠÐºÐ¾Ð»Ð¾Ð½":10881,"ĠÐ½Ð°Ð¶Ð°Ð»":10882,"ĠÐ½ÑĥÐ¶Ð½ÑĭÐ¹":10883,"ĠÐ»Ð¸ÑģÑĤÐ¾Ðº":10884,"ĠÑĢÐ°Ð·Ð½Ð¾ÑĨÐ²ÐµÑĤ":10885,"ÐºÐ¸Ð¿":10886,"ĠA":10887,"ĠÑĤÐ¾ÑĢÐ¾Ð¿Ð»Ð¸Ð²Ð¾":10888,"ĠÐ¿ÑĢÐ¸Ð½ÐµÑģÑĤÐ¸":10889,"Ð°Ð´Ð¶":10890,"ĠÐºÑĢÑĭÑĪÐµ":10891,"ĠÐ·Ð°Ð¿Ð¾Ð»Ð½":10892,"ÐĳÐ»Ð¾Ð½Ð´Ð¸Ð½":10893,"ÐŀÑĤÐº":10894,"ĠÐ¾Ð¶Ð¸Ð´Ð°Ð½Ð¸Ñı":10895,"Ð°ÑĢÐºÐ°":10896,"ĠÐ³Ð»ÑĥÐ¿Ð¾ÑģÑĤÐ¸":10897,"ĠÐ¿ÑĢÐ¾Ð²ÐµÐ»Ð¸":10898,"ĠÐ¢Ð¾Ð¼Ð»Ð¸Ð½":10899,"ĠÐ¿Ð¾Ð»ÑĮÐ·Ñĥ":10900,"ĠÑĥÐ²Ð¸Ð¶Ñĥ":10901,"ĠÐ´Ð°Ð²Ð°Ð»Ð°":10902,"ot":10903,"ĠÑģÐ´Ð¾Ñħ":10904,"ÑİÑħ":10905,"ĠÑģÑĢÐ°Ð¶Ð°ÑĤÑĮÑģÑı":10906,"ĠÐºÐ¾Ð½ÑĨÐµÑĢÑĤ":10907,"ĠÑģÐ¼Ñĭ":10908,"Ð¸Ð²ÑĪÑĥÑİÑģÑı":10909,"ĠÐ±Ð»Ð°Ð³Ð¾Ð¿Ð¾Ð»ÑĥÑĩ":10910,"ĠÑĥÑģÐ»ÑĭÑĪÐ°Ð»Ð¸":10911,"ĠÐ¾ÑĤÐ¿ÑĢÐ°Ð²Ð¸ÑĤÑĮ":10912,"ĠÐºÐ¸Ð½ÑĥÐ»ÑģÑı":10913,"ĠÑħÑĢÐµÐ½Ð°":10914,"ĠÐĲÐ½Ð°":10915,"ĠÐ±Ð¾Ð»ÑĮÑĪÐµÐ³Ð¾":10916,"ĠÐ¿ÑĢÐ¾Ð¶Ð¸Ð³":10917,"ĠÑĥÐ²Ð¸Ð´Ð¸ÑĪÑĮ":10918,"ĠÑįÐ»ÑĮÑĦÐ°":10919,"ĠÑģÑĤÐ°Ð½Ð¾Ð²Ð¸Ð»ÑģÑı":10920,"ÐľÐ¾Ð¹":10921,"ĠÐ¿ÑĢÐ¾Ð¸Ð·Ð½ÐµÑģÑĤÐ¸":10922,"ĠÐ¿ÑĢÐ¸Ð³Ð¾Ð´":10923,"ĠÐ¿ÑĢÑıÐ´ÑĮ":10924,"ĠÐºÐ»Ðµ":10925,"ĠÐ¿ÑĢÐ¾ÑĢÑĭÑĩÐ°Ð»":10926,"ĠÐ±ÑĢÐ¾ÑĪ":10927,"Ð°ÑĤÐµÐ»ÑĮÐ½Ð°Ñı":10928,"ĠÐºÐ¾ÑĪÐ¼":10929,"ĠÑĪÐ»ÐµÐ¼":10930,"Ð½ÑĥÑĤÑĥÑİ":10931,"ĠÐľÐ¸Ð½ÑħÐ¾":10932,"ĠÐ²ÑĭÐ·Ð²Ð°Ð»":10933,"ÐĿÐ°Ð´Ð¾":10934,"ĠÐºÐ¸Ð½ÑĥÐ»Ð°":10935,"ÐµÐ½Ð¾Ñģ":10936,"ĠÑĥÐ¼ÐµÐµÑĪÑĮ":10937,"ĠÐ½ÐµÑĥÐºÐ»Ñİ":10938,"Ð¸ÑĤÑĭÐµ":10939,"ĠÐ¼Ð°ÑģÐºÐ¸":10940,"ĠÐ·Ð°ÐºÑĢÑĥÐ¶":10941,"ĠÐ¿ÑĢÐµÐ¾Ð´Ð¾Ð»":10942,"ĠÐ½ÐµÑĢÐµ":10943,"ÑĢÐ°ÑģÑĤÐ°":10944,"ĠÐ¾Ð´ÐµÐ²":10945,"ĠÐ¾Ð±Ð¾Ð¸Ð¼":10946,"ÐĻÐ¾ÑĢ":10947,"ĠÐ·Ð°Ð½Ð¾Ð²Ð¾":10948,"ĠÑĪÐ°ÑĢÑĦ":10949,"Ð½ÑıÐ»Ð°":10950,"ĠÑĥÐ±ÐµÐ¶Ð°Ð»Ð°":10951,"ĠÑģÑģÐ¾ÑĢ":10952,"Ð½Ð¸ÑĨÐ¸":10953,"ĠÐ½Ð°ÐºÐ°Ð·Ð°Ð½Ð¸Ðµ":10954,"ÐĲÑħ":10955,"ĠÐ¿ÑĢÐ¾Ð³ÑĥÐ»ÑıÑĤÑĮÑģÑı":10956,"ĠÐ¿ÐµÑĢÐµÑĢÑĭÐ²":10957,"ĠÐ¿Ð¾ÐµÑħÐ°ÑĤÑĮ":10958,"ĠÐ¢ÑıÐ¶":10959,"ĠÐ»Ð¾Ð¶ÑĮ":10960,"ĠÐºÐ¸Ð²Ð½ÑĥÐ²":10961,"ÑģÑĤÐ²ÐµÐ½Ð½ÑĭÐµ":10962,"ĠÐ§Ð°ÑĢÐ»Ð¸":10963,"ÑĢÐ¸Ð»":10964,"ÑĥÐ¿ÐµÑĢ":10965,"ĠÐ¿Ð¾Ð¿Ð¾Ð»Ð°Ð¼":10966,"ÐµÐ³Ð»Ð°Ð·":10967,"ĠÐ»Ð¾Ð¿Ð°ÑĤ":10968,"ĠÑĤÑĢÐµÐ±Ð¾Ð²":10969,"ĠÐµÑħÐ¸Ð´":10970,"ĠÐ½Ð°ÑĩÐ¸Ð½Ð°ÐµÑĤÑģÑı":10971,"ÐłÐĲ":10972,"ĠÑħÐ¾Ð´Ð¸ÑĤ":10973,"ÑģÑĤÑıÐ¼Ð¸":10974,"ĠÐ¢Ð¾Ð»":10975,"Ð°ÑĤÐ¾Ð¼":10976,"ĠÐ²Ð°Ð½Ð½Ñĥ":10977,"ÐµÑĢÐ½ÑĥÐ»":10978,"Ð»Ð°Ð½Ð°":10979,"ÑĥÑīÐ°Ñı":10980,"ĠÐ½ÐµÑĥÐ´Ð¾Ð±":10981,"ĠÐ»ÑİÐ±Ð¾Ðµ":10982,"ĠÐ¸ÑģÑĩÐµÐ·Ð»Ð¸":10983,"ĠÐĿÐµÐ½Ð°Ð²Ð¸Ð¶Ñĥ":10984,"ĠÐºÐ¾ÑĪÐºÐ°":10985,"ĠÐ¼Ð¸ÑĢÑĥ":10986,"ĠÐ²Ð¾Ð»Ð½Ñĭ":10987,"ĠÐ¾ÑģÐ¼ÐµÐ»":10988,"ĠÐ²Ð¾Ð·ÑĢÐ°ÑģÑĤÐµ":10989,"ĠÑĥÐ²ÐµÑĢÐµÐ½Ð½Ð¾ÑģÑĤÑĮ":10990,"ÐĿÐŀ":10991,
[...]
